<s>	0
<pad>	0
</s>	0
<unk>	0
▁t	-0
he	-1
▁a	-2
in	-3
▁the	-4
re	-5
▁s	-6
on	-7
er	-8
▁w	-9
is	-10
ha	-11
▁"	-12
▁c	-13
en	-14
▁b	-15
▁p	-16
▁o	-17
ed	-18
▁m	-19
▁in	-20
▁f	-21
it	-22
an	-23
at	-24
or	-25
▁d	-26
es	-27
▁an	-28
ar	-29
ing	-30
▁of	-31
ou	-32
al	-33
▁to	-34
as	-35
▁and	-36
▁n	-37
ion	-38
il	-39
ic	-40
▁ha	-41
▁l	-42
ent	-43
▁g	-44
ro	-45
ra	-46
▁be	-47
▁is	-48
▁re	-49
▁h	-50
id	-51
ve	-52
le	-53
▁e	-54
st	-55
▁th	-56
▁he	-57
om	-58
ot	-59
""	-60
ver	-61
ct	-62
ol	-63
hat	-64
im	-65
ut	-66
▁on	-67
ay	-68
ter	-69
▁for	-70
ur	-71
ir	-72
ad	-73
▁st	-74
▁k	-75
et	-76
ly	-77
us	-78
▁al	-79
un	-80
ow	-81
ation	-82
am	-83
▁y	-84
▁de	-85
▁was	-86
ill	-87
di	-88
▁we	-89
▁it	-90
ce	-91
▁this	-92
▁has	-93
▁that	-94
▁con	-95
ig	-96
▁j	-97
res	-98
ak	-99
▁are	-100
hi	-101
ment	-102
se	-103
▁v	-104
the	-105
▁go	-106
ri	-107
ist	-108
ul	-109
▁as	-110
ith	-111
ch	-112
▁r	-113
ers	-114
▁at	-115
▁se	-116
▁you	-117
▁have	-118
▁not	-119
and	-120
▁will	-121
est	-122
ld	-123
ate	-124
▁with	-125
▁indi	-126
ice	-127
▁pro	-128
pp	-129
▁sa	-130
▁i	-131
th	-132
▁com	-133
▁mo	-134
▁ne	-135
red	-136
um	-137
ain	-138
han	-139
▁min	-140
▁ra	-141
▁wh	-142
so	-143
▁by	-144
▁pol	-145
▁su	-146
op	-147
oun	-148
▁been	-149
ht	-150
art	-151
▁un	-152
if	-153
▁1	-154
ag	-155
ren	-156
ister	-157
od	-158
os	-159
▁his	-160
ac	-161
rom	-162
▁also	-163
ab	-164
our	-165
▁minister	-166
ort	-167
▁but	-168
▁from	-169
▁wor	-170
▁ex	-171
▁were	-172
▁sh	-173
ess	-174
ant	-175
ity	-176
▁me	-177
▁sp	-178
▁police	-179
""""	-180
▁le	-181
end	-182
el	-183
▁india	-184
qu	-185
ies	-186
har	-187
iv	-188
▁do	-189
▁2	-190
▁all	-191
ime	-192
cc	-193
ident	-194
ive	-195
ud	-196
ect	-197
▁so	-198
▁said	-199
▁they	-200
▁there	-201
up	-202
ress	-203
▁ar	-204
▁ag	-205
▁had	-206
▁lo	-207
der	-208
ould	-209
ial	-210
ry	-211
▁man	-212
her	-213
▁inc	-214
▁what	-215
▁no	-216
▁ab	-217
ust	-218
ther	-219
vern	-220
▁ch	-221
▁govern	-222
▁pe	-223
ome	-224
ction	-225
ard	-226
▁pl	-227
ast	-228
▁res	-229
▁or	-230
ef	-231
▁(	-232
▁pr	-233
▁ad	-234
ap	-235
ok	-236
jp	-237
▁government	-238
one	-239
av	-240
▁af	-241
▁am	-242
ight	-243
▁im	-244
ous	-245
ase	-246
ated	-247
▁tw	-248
ll	-249
em	-250
▁us	-251
very	-252
▁part	-253
▁fil	-254
ge	-255
ong	-256
▁can	-257
▁their	-258
out	-259
ik	-260
ide	-261
▁peop	-262
▁pres	-263
ia	-264
▁sha	-265
pl	-266
▁tak	-267
▁people	-268
▁she	-269
▁bjp	-270
umb	-271
ount	-272
▁acc	-273
ric	-274
▁who	-275
ure	-276
ue	-277
▁up	-278
ever	-279
ore	-280
▁ro	-281
ans	-282
▁en	-283
▁ma	-284
ire	-285
▁off	-286
all	-287
▁again	-288
▁one	-289
ame	-290
li	-291
▁them	-292
▁new	-293
ear	-294
▁state	-295
ays	-296
▁reg	-297
▁dis	-298
ck	-299
▁cont	-300
▁him	-301
▁comm	-302
ted	-303
owever	-304
port	-305
▁her	-306
▁te	-307
oug	-308
▁int	-309
▁film	-310
ater	-311
▁two	-312
▁out	-313
▁whe	-314
ep	-315
ind	-316
▁fir	-317
hief	-318
for	-319
ai	-320
▁work	-321
▁tr	-322
hed	-323
▁qu	-324
ions	-325
▁chief	-326
▁other	-327
▁20	-328
age	-329
▁sc	-330
ah	-331
ctor	-332
▁cong	-333
▁app	-334
▁its	-335
ree	-336
ov	-337
▁about	-338
ack	-339
ence	-340
▁time	-341
▁modi	-342
ations	-343
▁against	-344
▁your	-345
ff	-346
ance	-347
ult	-348
▁case	-349
▁ser	-350
▁over	-351
ie	-352
ble	-353
▁lead	-354
▁under	-355
▁our	-356
▁after	-357
ary	-358
▁per	-359
ace	-360
we	-361
rent	-362
ound	-363
ath	-364
▁tra	-365
now	-366
cial	-367
▁cl	-368
per	-369
▁count	-370
ple	-371
▁dec	-372
▁first	-373
▁cour	-374
ical	-375
ition	-376
▁att	-377
mb	-378
▁did	-379
▁ev	-380
ich	-381
▁my	-382
dra	-383
aw	-384
day	-385
however	-386
ine	-387
ile	-388
esh	-389
ish	-390
ost	-391
▁any	-392
▁congress	-393
▁"""	-394
med	-395
▁indian	-396
▁ele	-397
ered	-398
00	-399
du	-400
ug	-401
ach	-402
og	-403
ood	-404
▁sing	-405
▁inv	-406
ail	-407
▁prime	-408
▁cha	-409
""""""	-410
ign	-411
ings	-412
ild	-413
con	-414
ang	-415
▁fe	-416
iz	-417
▁na	-418
▁med	-419
ied	-420
▁pra	-421
▁mad	-422
ass	-423
vel	-424
pt	-425
ife	-426
▁far	-427
▁many	-428
▁mar	-429
▁which	-430
ose	-431
rest	-432
ious	-433
▁sen	-434
▁3	-435
ital	-436
reat	-437
▁some	-438
▁mat	-439
me	-440
..	-441
ational	-442
▁del	-443
▁court	-444
▁god	-445
fe	-446
ord	-447
▁how	-448
.""	-449
▁should	-450
able	-451
ike	-452
ally	-453
ons	-454
low	-455
▁rec	-456
▁every	-457
▁world	-458
▁day	-459
▁know	-460
▁cent	-461
ged	-462
▁bo	-463
▁president	-464
umbai	-465
ank	-466
▁je	-467
▁need	-468
ough	-469
rit	-470
▁being	-471
man	-472
▁year	-473
▁bec	-474
▁these	-475
oin	-476
▁spe	-477
ved	-478
mer	-479
ens	-480
▁would	-481
▁more	-482
▁happ	-483
used	-484
are	-485
igh	-486
▁country	-487
▁then	-488
▁act	-489
ates	-490
▁pre	-491
ub	-492
ash	-493
▁chan	-494
▁pers	-495
▁ac	-496
istan	-497
▁mumbai	-498
ents	-499
osp	-500
▁mak	-501
rendra	-502
▁into	-503
▁shi	-504
old	-505
te	-506
▁singh	-507
▁co	-508
▁delhi	-509
▁comp	-510
asht	-511
▁very	-512
▁incident	-513
ced	-514
iss	-515
▁narendra	-516
▁rem	-517
▁like	-518
amil	-519
▁three	-520
▁aw	-521
▁when	-522
uring	-523
▁dist	-524
nt	-525
▁made	-526
oth	-527
ya	-528
▁wom	-529
hov	-530
hovah	-531
▁get	-532
▁don	-533
ured	-534
▁meet	-535
kar	-536
▁add	-537
▁inter	-538
ci	-539
ru	-540
▁inj	-541
▁raj	-542
ashtra	-543
pect	-544
▁taken	-545
ise	-546
▁bet	-547
▁hosp	-548
▁rs	-549
▁jehovah	-550
▁hospital	-551
▁than	-552
▁pak	-553
▁invest	-554
ket	-555
lf	-556
ma	-557
harashtra	-558
▁"""""""	-559
itu	-560
▁hel	-561
▁br	-562
but	-563
▁201	-564
▁5	-565
▁party	-566
ces	-567
▁fin	-568
ities	-569
▁cro	-570
▁election	-571
▁offic	-572
ict	-573
les	-574
ision	-575
ip	-576
▁gand	-577
ory	-578
▁pakistan	-579
▁child	-580
▁maharashtra	-581
▁-	-582
▁iss	-583
▁arrest	-584
ased	-585
▁present	-586
▁high	-587
▁gr	-588
fore	-589
rict	-590
ject	-591
arn	-592
▁water	-593
lud	-594
▁take	-595
▁bl	-596
aus	-597
other	-598
▁4	-599
ks	-600
act	-601
hip	-602
▁help	-603
▁play	-604
▁such	-605
ful	-606
▁gandhi	-607
▁stud	-608
▁just	-609
ite	-610
▁pat	-611
ible	-612
tain	-613
▁dif	-614
▁rel	-615
▁dire	-616
form	-617
▁ben	-618
▁good	-619
vers	-620
▁col	-621
ob	-622
▁cor	-623
▁par	-624
▁sec	-625
ised	-626
alth	-627
▁famil	-628
▁ind	-629
ked	-630
▁cons	-631
bha	-632
▁quest	-633
ating	-634
own	-635
ody	-636
▁dep	-637
▁only	-638
▁fl	-639
▁gu	-640
ness	-641
▁life	-642
▁both	-643
ting	-644
▁start	-645
▁does	-646
lic	-647
cy	-648
get	-649
▁includ	-650
▁ent	-651
▁shiv	-652
▁khan	-653
cted	-654
▁arrested	-655
▁dem	-656
pe	-657
oy	-658
▁son	-659
▁pa	-660
velop	-661
ian	-662
▁report	-663
▁accused	-664
ram	-665
urn	-666
la	-667
▁may	-668
▁mon	-669
ween	-670
▁opp	-671
ral	-672
▁investig	-673
▁yet	-674
▁why	-675
ather	-676
▁farm	-677
▁between	-678
▁develop	-679
▁district	-680
▁ter	-681
ollow	-682
hen	-683
▁former	-684
▁const	-685
als	-686
▁dev	-687
ell	-688
gan	-689
▁too	-690
▁ke	-691
▁during	-692
▁thr	-693
▁mu	-694
▁if	-695
▁numb	-696
▁ear	-697
▁supp	-698
▁well	-699
▁pri	-700
▁social	-701
▁sena	-702
wn	-703
▁regist	-704
▁ph	-705
▁inst	-706
▁han	-707
▁injured	-708
ause	-709
▁serv	-710
▁giv	-711
▁four	-712
▁even	-713
▁happen	-714
▁home	-715
▁last	-716
▁car	-717
oor	-718
▁19	-719
▁here	-720
aug	-721
ink	-722
▁pos	-723
▁national	-724
▁prov	-725
▁health	-726
▁ann	-727
ds	-728
▁har	-729
▁come	-730
▁meeting	-731
▁won	-732
▁team	-733
umar	-734
▁incre	-735
▁person	-736
▁media	-737
▁ass	-738
ices	-739
▁kill	-740
▁cur	-741
ited	-742
▁exp	-743
▁cap	-744
▁disc	-745
oc	-746
ower	-747
▁vir	-748
ments	-749
▁registered	-750
▁matter	-751
▁see	-752
▁those	-753
▁family	-754
▁bro	-755
▁say	-756
ms	-757
▁farmers	-758
▁make	-759
ission	-760
▁sur	-761
way	-762
xt	-763
hes	-764
min	-765
▁could	-766
▁set	-767
hul	-768
▁want	-769
▁sub	-770
▁resp	-771
▁occ	-772
ures	-773
ought	-774
uss	-775
▁import	-776
ib	-777
▁through	-778
▁polit	-779
▁years	-780
▁em	-781
▁imp	-782
▁right	-783
hing	-784
ft	-785
▁number	-786
▁children	-787
▁leader	-788
ss	-789
▁follow	-790
ouse	-791
▁air	-792
▁prot	-793
ning	-794
de	-795
led	-796
▁place	-797
vie	-798
ins	-799
▁attack	-800
ool	-801
ne	-802
af	-803
▁regard	-804
▁pass	-805
plain	-806
▁took	-807
▁diffe	-808
▁dr	-809
▁test	-810
▁post	-811
▁where	-812
▁death	-813
▁shar	-814
cond	-815
▁before	-816
▁vis	-817
▁gen	-818
▁op	-819
▁ed	-820
▁call	-821
▁going	-822
ana	-823
akh	-824
▁kumar	-825
read	-826
▁commit	-827
▁6	-828
▁dont	-829
▁spot	-830
▁sm	-831
▁tri	-832
▁pm	-833
jay	-834
▁most	-835
▁look	-836
...	-837
▁eff	-838
▁while	-839
▁rahul	-840
▁decision	-841
▁av	-842
ward	-843
▁sabha	-844
▁rep	-845
▁fire	-846
▁sin	-847
ors	-848
▁des	-849
ix	-850
▁women	-851
▁died	-852
ues	-853
▁days	-854
cp	-855
veral	-856
▁road	-857
ves	-858
▁shah	-859
ters	-860
▁cr	-861
▁prad	-862
ving	-863
▁var	-864
ently	-865
▁eng	-866
uk	-867
ven	-868
▁""""	-869
▁chr	-870
▁produ	-871
wh	-872
▁tha	-873
▁vide	-874
▁ce	-875
ended	-876
▁back	-877
▁pub	-878
▁bu	-879
▁sy	-880
▁kap	-881
▁city	-882
▁rece	-883
ts	-884
▁same	-885
▁sch	-886
▁read	-887
▁trans	-888
its	-889
eral	-890
▁memb	-891
ives	-892
▁let	-893
▁house	-894
▁ob	-895
▁several	-896
ived	-897
▁str	-898
aj	-899
esus	-900
▁action	-901
cess	-902
ats	-903
▁10	-904
▁exam	-905
▁down	-906
▁vi	-907
▁ve	-908
oh	-909
▁show	-910
ges	-911
ics	-912
▁z	-913
▁students	-914
▁official	-915
▁way	-916
ided	-917
ps	-918
ative	-919
▁shall	-920
▁law	-921
▁given	-922
▁tal	-923
ata	-924
▁conf	-925
▁elections	-926
▁aff	-927
▁la	-928
▁intern	-929
▁bus	-930
▁shri	-931
▁contin	-932
▁loc	-933
▁current	-934
ty	-935
▁question	-936
▁win	-937
▁sw	-938
▁pun	-939
▁nor	-940
olog	-941
istry	-942
▁sol	-943
▁ram	-944
▁christ	-945
▁sal	-946
▁sou	-947
▁7	-948
▁actor	-949
▁lakh	-950
uc	-951
▁found	-952
endra	-953
▁much	-954
semb	-955
ock	-956
▁fa	-957
▁second	-958
ific	-959
▁rele	-960
▁union	-961
ility	-962
▁crore	-963
cer	-964
▁killed	-965
ately	-966
row	-967
▁now	-968
▁pradesh	-969
▁complain	-970
▁different	-971
▁development	-972
▁power	-973
ution	-974
▁cric	-975
▁assemb	-976
▁important	-977
urther	-978
ways	-979
mit	-980
▁ins	-981
ular	-982
▁run	-983
hav	-984
▁san	-985
▁leaders	-986
▁appro	-987
▁school	-988
to	-989
pur	-990
uth	-991
▁jesus	-992
ars	-993
▁ret	-994
mir	-995
▁bank	-996
riend	-997
▁sus	-998
▁among	-999
▁prog	-1000
▁never	-1001
▁video	-1002
self	-1003
▁great	-1004
▁today	-1005
▁kash	-1006
▁must	-1007
gal	-1008
▁later	-1009
▁situ	-1010
▁announ	-1011
▁father	-1012
ina	-1013
▁due	-1014
▁assembly	-1015
▁accident	-1016
ists	-1017
conom	-1018
▁lar	-1019
▁treat	-1020
ke	-1021
▁others	-1022
▁five	-1023
▁def	-1024
after	-1025
▁open	-1026
▁hand	-1027
▁proble	-1028
▁wife	-1029
▁fun	-1030
▁states	-1031
▁lok	-1032
▁still	-1033
wal	-1034
▁issue	-1035
osed	-1036
▁next	-1037
ases	-1038
▁join	-1039
▁support	-1040
▁started	-1041
ual	-1042
ber	-1043
▁each	-1044
ason	-1045
▁done	-1046
▁adv	-1047
be	-1048
▁econom	-1049
▁long	-1050
▁fac	-1051
▁kashmir	-1052
ror	-1053
ret	-1054
ired	-1055
▁ref	-1056
▁things	-1057
pr	-1058
▁'	-1059
imes	-1060
▁cle	-1061
na	-1062
▁inform	-1063
▁few	-1064
ph	-1065
ten	-1066
▁king	-1067
▁came	-1068
ries	-1069
▁remain	-1070
▁met	-1071
▁8	-1072
▁further	-1073
ior	-1074
reme	-1075
),	-1076
▁love	-1077
▁fore	-1078
▁ncp	-1079
20	-1080
▁fr	-1081
▁comple	-1082
▁head	-1083
▁gl	-1084
▁however	-1085
▁heav	-1086
▁land	-1087
rol	-1088
▁result	-1089
indi	-1090
▁inf	-1091
▁ext	-1092
▁month	-1093
ural	-1094
▁held	-1095
▁cam	-1096
▁name	-1097
ament	-1098
▁kapoor	-1099
▁situation	-1100
▁occas	-1101
▁organ	-1102
iness	-1103
▁sat	-1104
icip	-1105
com	-1106
ines	-1107
while	-1108
ond	-1109
▁ran	-1110
▁lot	-1111
▁soon	-1112
▁project	-1113
▁sharma	-1114
ploy	-1115
wood	-1116
▁public	-1117
▁got	-1118
▁requ	-1119
olly	-1120
ection	-1121
▁cond	-1122
▁area	-1123
▁because	-1124
▁station	-1125
▁gir	-1126
▁award	-1127
cker	-1128
ued	-1129
udd	-1130
pa	-1131
ism	-1132
thing	-1133
ants	-1134
▁conn	-1135
▁information	-1136
▁rain	-1137
▁demand	-1138
▁discuss	-1139
land	-1140
▁end	-1141
▁treatment	-1142
▁care	-1143
ick	-1144
ati	-1145
▁sent	-1146
ollywood	-1147
ency	-1148
augh	-1149
▁jam	-1150
▁amit	-1151
▁sim	-1152
▁writ	-1153
▁tem	-1154
utt	-1155
▁rail	-1156
ls	-1157
▁ministry	-1158
▁says	-1159
▁sun	-1160
bi	-1161
▁occasion	-1162
▁colle	-1163
▁big	-1164
▁di	-1165
go	-1166
ani	-1167
▁spir	-1168
nav	-1169
ages	-1170
▁commission	-1171
▁currently	-1172
arch	-1173
▁own	-1174
▁fad	-1175
▁speak	-1176
▁special	-1177
▁book	-1178
▁keep	-1179
▁sup	-1180
▁alle	-1181
ized	-1182
▁thacker	-1183
▁hum	-1184
▁mal	-1185
ides	-1186
▁seen	-1187
▁ful	-1188
▁movie	-1189
▁paw	-1190
this	-1191
▁benef	-1192
ee	-1193
ross	-1194
-1	-1195
▁news	-1196
▁char	-1197
ention	-1198
ake	-1199
▁15	-1200
▁thackeray	-1201
▁list	-1202
▁vill	-1203
▁prom	-1204
pped	-1205
▁fadnav	-1206
ave	-1207
▁educ	-1208
▁art	-1209
▁cand	-1210
▁international	-1211
▁cricket	-1212
▁another	-1213
▁terror	-1214
▁asked	-1215
▁went	-1216
▁fadnavis	-1217
eng	-1218
▁cre	-1219
urity	-1220
▁bi	-1221
▁mus	-1222
my	-1223
oot	-1224
▁complaint	-1225
ience	-1226
king	-1227
▁use	-1228
orts	-1229
medi	-1230
▁succ	-1231
▁happened	-1232
▁around	-1233
jar	-1234
▁men	-1235
ried	-1236
ording	-1237
▁bible	-1238
▁daugh	-1239
▁express	-1240
▁form	-1241
▁mother	-1242
▁candid	-1243
oney	-1244
▁investigation	-1245
▁inte	-1246
▁members	-1247
chn	-1248
▁9	-1249
000	-1250
▁give	-1251
▁used	-1252
▁since	-1253
▁maj	-1254
▁become	-1255
▁jud	-1256
not	-1257
▁friend	-1258
▁role	-1259
▁exper	-1260
▁oppos	-1261
▁think	-1262
▁away	-1263
ched	-1264
gest	-1265
▁bollywood	-1266
▁prop	-1267
ned	-1268
▁stand	-1269
▁brother	-1270
▁put	-1271
▁political	-1272
▁che	-1273
▁ans	-1274
▁sk	-1275
▁across	-1276
▁filed	-1277
ached	-1278
▁det	-1279
ished	-1280
there	-1281
▁immedi	-1282
▁dri	-1283
omet	-1284
▁pawar	-1285
▁security	-1286
sh	-1287
ute	-1288
▁12	-1289
▁persons	-1290
▁real	-1291
▁techn	-1292
▁called	-1293
chan	-1294
lier	-1295
▁pan	-1296
ified	-1297
▁pet	-1298
ush	-1299
▁thats	-1300
rad	-1301
▁depart	-1302
▁sign	-1303
▁woman	-1304
▁coun	-1305
▁success	-1306
war	-1307
▁laun	-1308
▁toget	-1309
▁together	-1310
tern	-1311
▁gods	-1312
▁parent	-1313
▁ri	-1314
atch	-1315
▁poss	-1316
vi	-1317
ering	-1318
▁main	-1319
▁suff	-1320
▁director	-1321
,""""	-1322
▁secret	-1323
ivers	-1324
▁body	-1325
gy	-1326
▁central	-1327
▁along	-1328
▁various	-1329
▁best	-1330
▁mil	-1331
▁reported	-1332
ys	-1333
formed	-1334
▁event	-1335
▁vot	-1336
▁six	-1337
ortun	-1338
▁south	-1339
cept	-1340
▁major	-1341
▁beg	-1342
▁devendra	-1343
▁including	-1344
▁order	-1345
br	-1346
▁protest	-1347
ature	-1348
▁serious	-1349
tle	-1350
▁war	-1351
abad	-1352
▁cit	-1353
ustral	-1354
▁supreme	-1355
ety	-1356
▁visit	-1357
hu	-1358
ield	-1359
▁account	-1360
hic	-1361
▁near	-1362
▁money	-1363
ove	-1364
itness	-1365
ti	-1366
▁process	-1367
▁vehic	-1368
ner	-1369
▁deep	-1370
▁face	-1371
.""""""	-1372
air	-1373
eration	-1374
▁avail	-1375
ump	-1376
▁pur	-1377
▁grou	-1378
stem	-1379
az	-1380
▁compan	-1381
▁gujar	-1382
ek	-1383
▁oper	-1384
▁tour	-1385
▁parents	-1386
▁feel	-1387
).	-1388
▁bat	-1389
mitted	-1390
▁thir	-1391
▁indust	-1392
tal	-1393
ushed	-1394
▁nothing	-1395
▁heart	-1396
▁times	-1397
aim	-1398
uty	-1399
▁grow	-1400
▁ca	-1401
ling	-1402
▁train	-1403
eal	-1404
▁match	-1405
▁leg	-1406
oss	-1407
mp	-1408
▁program	-1409
eve	-1410
▁food	-1411
body	-1412
▁ur	-1413
▁cases	-1414
▁committe	-1415
▁announced	-1416
ready	-1417
▁everyone	-1418
rence	-1419
▁austral	-1420
mu	-1421
▁beli	-1422
▁poin	-1423
ax	-1424
▁plan	-1425
stand	-1426
▁pop	-1427
▁lord	-1428
▁rest	-1429
▁youn	-1430
▁already	-1431
▁hist	-1432
▁build	-1433
▁received	-1434
,000	-1435
▁cele	-1436
▁citiz	-1437
▁education	-1438
▁11	-1439
▁system	-1440
▁somet	-1441
▁west	-1442
agar	-1443
ology	-1444
▁turn	-1445
▁series	-1446
▁commun	-1447
▁mur	-1448
ctors	-1449
▁senior	-1450
▁vict	-1451
▁sl	-1452
▁pict	-1453
rat	-1454
acc	-1455
▁claim	-1456
▁gujarat	-1457
▁chall	-1458
icket	-1459
sel	-1460
▁expect	-1461
▁gre	-1462
angu	-1463
▁witness	-1464
▁large	-1465
▁ap	-1466
▁jehovahs	-1467
aged	-1468
ually	-1469
gar	-1470
▁committee	-1471
▁lit	-1472
▁needs	-1473
ising	-1474
ians	-1475
hal	-1476
▁address	-1477
ade	-1478
▁general	-1479
▁priv	-1480
▁shared	-1481
▁known	-1482
inet	-1483
▁prev	-1484
▁return	-1485
mon	-1486
▁lost	-1487
▁eas	-1488
▁earth	-1489
▁condu	-1490
▁learn	-1491
▁respons	-1492
▁ban	-1493
▁crit	-1494
▁spok	-1495
▁young	-1496
▁faith	-1497
▁dam	-1498
anwhile	-1499
▁koh	-1500
▁bhar	-1501
▁val	-1502
▁immediately	-1503
▁bill	-1504
▁job	-1505
abinet	-1506
dom	-1507
▁always	-1508
ging	-1509
eet	-1510
▁indias	-1511
when	-1512
▁following	-1513
▁change	-1514
▁reason	-1515
idence	-1516
und	-1517
▁seats	-1518
▁employ	-1519
rael	-1520
▁didnt	-1521
▁try	-1522
▁super	-1523
▁move	-1524
▁ir	-1525
▁told	-1526
▁countries	-1527
▁doing	-1528
▁press	-1529
here	-1530
▁dead	-1531
▁local	-1532
▁particip	-1533
▁rushed	-1534
▁tre	-1535
▁business	-1536
▁ple	-1537
▁parli	-1538
▁questions	-1539
ham	-1540
itter	-1541
▁office	-1542
▁left	-1543
▁areas	-1544
▁kohli	-1545
▁daughter	-1546
ribut	-1547
▁bir	-1548
▁viral	-1549
▁opposition	-1550
▁pay	-1551
▁sam	-1552
▁respect	-1553
▁find	-1554
raj	-1555
▁patil	-1556
▁working	-1557
ration	-1558
▁israel	-1559
▁top	-1560
▁officials	-1561
▁bengal	-1562
udi	-1563
iving	-1564
ected	-1565
ffic	-1566
▁jammu	-1567
▁parliament	-1568
▁final	-1569
▁third	-1570
▁nam	-1571
▁relations	-1572
ulture	-1573
▁coron	-1574
▁field	-1575
▁cannot	-1576
▁gra	-1577
▁jan	-1578
▁army	-1579
▁tom	-1580
▁informed	-1581
▁bre	-1582
ees	-1583
anka	-1584
▁department	-1585
▁allow	-1586
ient	-1587
▁&	-1588
▁interest	-1589
▁cer	-1590
▁contest	-1591
▁answ	-1592
▁viol	-1593
▁dra	-1594
▁available	-1595
▁added	-1596
uck	-1597
▁heavy	-1598
▁mor	-1599
▁el	-1600
▁14	-1601
uttar	-1602
par	-1603
▁gold	-1604
hit	-1605
ury	-1606
fic	-1607
ples	-1608
▁cabinet	-1609
▁rul	-1610
ember	-1611
▁suic	-1612
▁div	-1613
▁sche	-1614
▁happy	-1615
ran	-1616
▁plac	-1617
▁record	-1618
▁strong	-1619
▁lod	-1620
of	-1621
▁bas	-1622
ared	-1623
reng	-1624
▁entire	-1625
▁service	-1626
▁secretary	-1627
uddhav	-1628
▁control	-1629
▁citizens	-1630
▁streng	-1631
▁celebr	-1632
▁human	-1633
▁recently	-1634
▁china	-1635
meanwhile	-1636
▁univers	-1637
band	-1638
▁youth	-1639
uge	-1640
▁uttar	-1641
cri	-1642
▁live	-1643
ination	-1644
▁sit	-1645
▁true	-1646
▁australia	-1647
▁total	-1648
mi	-1649
▁18	-1650
iti	-1651
▁vie	-1652
▁es	-1653
▁reached	-1654
▁bor	-1655
▁making	-1656
▁girl	-1657
▁uddhav	-1658
ale	-1659
▁view	-1660
▁constitu	-1661
by	-1662
▁200	-1663
▁toward	-1664
▁past	-1665
▁ministers	-1666
▁fight	-1667
▁connection	-1668
▁lives	-1669
▁bad	-1670
▁understand	-1671
▁traffic	-1672
▁films	-1673
▁auth	-1674
bed	-1675
▁level	-1676
▁.	-1677
▁est	-1678
▁hig	-1679
▁led	-1680
men	-1681
▁hon	-1682
▁phot	-1683
▁medical	-1684
▁taking	-1685
▁step	-1686
▁twitter	-1687
por	-1688
ality	-1689
ying	-1690
ctions	-1691
▁captain	-1692
gation	-1693
nel	-1694
▁star	-1695
▁nation	-1696
▁concer	-1697
▁released	-1698
▁langu	-1699
▁fail	-1700
▁played	-1701
▁week	-1702
aka	-1703
▁instit	-1704
▁old	-1705
▁suicide	-1706
▁opportun	-1707
ger	-1708
▁cov	-1709
▁sanjay	-1710
▁problem	-1711
▁really	-1712
▁mp	-1713
▁became	-1714
▁friends	-1715
▁virat	-1716
ches	-1717
▁activ	-1718
▁prin	-1719
isha	-1720
▁might	-1721
▁cup	-1722
hay	-1723
▁13	-1724
ises	-1725
▁justice	-1726
▁services	-1727
ither	-1728
rup	-1729
▁bh	-1730
▁region	-1731
▁karn	-1732
▁tax	-1733
▁author	-1734
▁effect	-1735
▁hus	-1736
▁prices	-1737
▁word	-1738
uries	-1739
▁decided	-1740
▁market	-1741
bs	-1742
ession	-1743
▁centre	-1744
▁enc	-1745
jit	-1746
ait	-1747
▁relig	-1748
line	-1749
▁lodged	-1750
▁group	-1751
▁peace	-1752
new	-1753
ours	-1754
▁cust	-1755
lish	-1756
adav	-1757
bo	-1758
▁glob	-1759
▁admin	-1760
▁mill	-1761
hya	-1762
▁hold	-1763
▁increase	-1764
ained	-1765
▁short	-1766
▁husband	-1767
▁bring	-1768
▁kind	-1769
ored	-1770
▁pune	-1771
asing	-1772
▁clear	-1773
▁till	-1774
▁ident	-1775
▁challen	-1776
▁alleged	-1777
▁tweet	-1778
ims	-1779
▁night	-1780
▁cou	-1781
pal	-1782
▁problems	-1783
yes	-1784
less	-1785
▁without	-1786
▁chair	-1787
▁elect	-1788
ataka	-1789
▁saying	-1790
over	-1791
view	-1792
▁pand	-1793
▁ash	-1794
▁bang	-1795
▁administ	-1796
▁yadav	-1797
▁finance	-1798
urs	-1799
▁wed	-1800
▁watch	-1801
app	-1802
ointed	-1803
▁anything	-1804
has	-1805
▁runs	-1806
▁hear	-1807
▁getting	-1808
▁fut	-1809
▁jour	-1810
ined	-1811
▁consid	-1812
ibility	-1813
▁16	-1814
▁impro	-1815
▁earlier	-1816
▁cost	-1817
ruct	-1818
▁hit	-1819
▁example	-1820
▁gone	-1821
ending	-1822
▁hard	-1823
ka	-1824
▁resign	-1825
ones	-1826
▁bal	-1827
▁ever	-1828
▁sister	-1829
ily	-1830
▁huge	-1831
▁coop	-1832
▁railway	-1833
▁hind	-1834
▁hop	-1835
▁directed	-1836
▁karnataka	-1837
▁mun	-1838
▁bab	-1839
▁brought	-1840
itive	-1841
▁addition	-1842
cing	-1843
▁fel	-1844
iah	-1845
shi	-1846
▁25	-1847
▁cm	-1848
mber	-1849
▁board	-1850
▁economic	-1851
▁rese	-1852
▁affair	-1853
▁underway	-1854
▁whats	-1855
▁likely	-1856
▁attended	-1857
ference	-1858
ilar	-1859
▁north	-1860
▁something	-1861
▁private	-1862
▁hy	-1863
▁future	-1864
▁politics	-1865
▁admitted	-1866
▁close	-1867
ract	-1868
hand	-1869
▁investigating	-1870
▁wr	-1871
▁hol	-1872
▁2019	-1873
▁diffic	-1874
▁began	-1875
▁difficult	-1876
▁deputy	-1877
▁inn	-1878
▁issues	-1879
▁parties	-1880
they	-1881
going	-1882
▁coming	-1883
▁stay	-1884
plement	-1885
▁mot	-1886
▁tell	-1887
▁cause	-1888
ara	-1889
ergy	-1890
coming	-1891
ika	-1892
▁continue	-1893
then	-1894
soci	-1895
ically	-1896
mal	-1897
selves	-1898
▁unto	-1899
itions	-1900
▁sum	-1901
▁implement	-1902
▁pati	-1903
cil	-1904
adi	-1905
irus	-1906
▁den	-1907
▁pad	-1908
▁increased	-1909
▁rohit	-1910
▁based	-1911
int	-1912
▁complete	-1913
iance	-1914
▁small	-1915
▁sector	-1916
▁efforts	-1917
▁cbi	-1918
▁upon	-1919
▁associ	-1920
▁include	-1921
▁technology	-1922
jab	-1923
avirus	-1924
▁nav	-1925
▁kar	-1926
▁artic	-1927
▁workers	-1928
▁condition	-1929
▁gave	-1930
aching	-1931
▁issued	-1932
▁university	-1933
▁force	-1934
▁months	-1935
▁stars	-1936
▁17	-1937
▁passeng	-1938
▁village	-1939
▁possible	-1940
▁trump	-1941
▁history	-1942
▁detail	-1943
▁birth	-1944
▁answer	-1945
▁ord	-1946
▁light	-1947
▁spirit	-1948
▁coronavirus	-1949
▁statement	-1950
hant	-1951
▁course	-1952
▁mind	-1953
▁kingdom	-1954
▁sil	-1955
asthan	-1956
ets	-1957
ukh	-1958
▁murder	-1959
▁wicket	-1960
wan	-1961
▁50	-1962
▁patients	-1963
acher	-1964
▁beh	-1965
ada	-1966
with	-1967
▁full	-1968
▁bar	-1969
india	-1970
▁respon	-1971
▁soci	-1972
▁dest	-1973
ulation	-1974
ners	-1975
▁ic	-1976
▁thing	-1977
une	-1978
▁salman	-1979
cent	-1980
▁agric	-1981
▁free	-1982
-19	-1983
erv	-1984
▁dou	-1985
▁redu	-1986
▁scheme	-1987
ali	-1988
▁energy	-1989
▁prof	-1990
▁finan	-1991
▁affairs	-1992
▁places	-1993
wor	-1994
▁covid	-1995
sequ	-1996
▁invol	-1997
inal	-1998
▁mess	-1999
▁saw	-2000
▁ver	-2001
▁pray	-2002
▁launched	-2003
irc	-2004
▁defence	-2005
vir	-2006
▁loss	-2007
▁truth	-2008
▁driver	-2009
▁30	-2010
▁ide	-2011
ences	-2012
▁punjab	-2013
yal	-2014
▁fall	-2015
▁united	-2016
mo	-2017
▁nit	-2018
▁class	-2019
▁equ	-2020
▁provide	-2021
▁himself	-2022
ule	-2023
▁bihar	-2024
▁england	-2025
▁response	-2026
▁cho	-2027
▁tamil	-2028
▁ah	-2029
▁mla	-2030
cl	-2031
onment	-2032
▁u	-2033
▁thought	-2034
ops	-2035
▁feat	-2036
ream	-2037
▁lab	-2038
▁mas	-2039
▁seven	-2040
▁actress	-2041
hatt	-2042
▁ens	-2043
▁written	-2044
▁words	-2045
▁rajasthan	-2046
▁benefit	-2047
▁conv	-2048
▁wal	-2049
▁100	-2050
▁unt	-2051
according	-2052
▁fest	-2053
▁dece	-2054
▁expected	-2055
▁civ	-2056
mar	-2057
▁better	-2058
▁arri	-2059
idd	-2060
▁sour	-2061
▁alliance	-2062
gr	-2063
▁search	-2064
▁certain	-2065
▁red	-2066
▁peri	-2067
▁dies	-2068
▁release	-2069
▁council	-2070
▁temple	-2071
reed	-2072
ened	-2073
▁hous	-2074
isl	-2075
▁constituency	-2076
▁proper	-2077
▁initi	-2078
▁everything	-2079
▁bow	-2080
▁period	-2081
lad	-2082
▁oil	-2083
▁lim	-2084
▁commissioner	-2085
▁towards	-2086
▁company	-2087
▁study	-2088
▁industry	-2089
▁increasing	-2090
ize	-2091
▁parts	-2092
▁officer	-2093
▁spiritu	-2094
da	-2095
▁global	-2096
▁mod	-2097
▁stat	-2098
▁afric	-2099
▁nar	-2100
▁foreign	-2101
ential	-2102
▁achi	-2103
▁relationship	-2104
▁polic	-2105
▁polls	-2106
ousand	-2107
hest	-2108
▁ali	-2109
▁vehicles	-2110
▁economy	-2111
eric	-2112
▁deb	-2113
▁candidate	-2114
▁doctors	-2115
avid	-2116
▁research	-2117
▁once	-2118
ns	-2119
▁reject	-2120
▁raised	-2121
▁fact	-2122
▁po	-2123
▁building	-2124
his	-2125
▁sharad	-2126
▁applic	-2127
ruction	-2128
▁defe	-2129
vind	-2130
▁teacher	-2131
▁circ	-2132
cies	-2133
ari	-2134
▁fear	-2135
cut	-2136
▁candidates	-2137
▁common	-2138
ji	-2139
▁[	-2140
cell	-2141
▁thousand	-2142
side	-2143
▁sri	-2144
▁caused	-2145
ival	-2146
▁paul	-2147
▁game	-2148
▁promot	-2149
▁side	-2150
▁milit	-2151
ilities	-2152
▁conference	-2153
▁decla	-2154
▁2018	-2155
▁mom	-2156
athi	-2157
▁able	-2158
▁wrong	-2159
▁chandra	-2160
▁legisl	-2161
▁according	-2162
vere	-2163
▁bra	-2164
head	-2165
vid	-2166
▁financial	-2167
▁command	-2168
▁foot	-2169
▁clean	-2170
▁programme	-2171
▁article	-2172
▁having	-2173
els	-2174
ura	-2175
ude	-2176
▁21	-2177
fall	-2178
▁ml	-2179
ension	-2180
▁doesnt	-2181
ga	-2182
▁tar	-2183
▁late	-2184
▁within	-2185
▁resol	-2186
▁ang	-2187
▁christian	-2188
▁date	-2189
▁gam	-2190
▁assist	-2191
▁miss	-2192
▁spread	-2193
▁coll	-2194
ceed	-2195
▁port	-2196
val	-2197
▁democ	-2198
▁vice	-2199
▁rains	-2200
▁pate	-2201
▁zeal	-2202
▁repres	-2203
van	-2204
▁bel	-2205
▁contro	-2206
▁provided	-2207
resh	-2208
▁often	-2209
aff	-2210
▁seem	-2211
sp	-2212
▁abs	-2213
▁upcoming	-2214
jee	-2215
▁comes	-2216
▁resident	-2217
▁enter	-2218
▁changed	-2219
▁bha	-2220
epend	-2221
▁nad	-2222
▁surv	-2223
▁constit	-2224
▁kol	-2225
▁sele	-2226
▁dh	-2227
▁deal	-2228
▁declared	-2229
▁corpor	-2230
▁progress	-2231
▁net	-2232
▁member	-2233
▁mob	-2234
ding	-2235
▁aut	-2236
▁injuries	-2237
atives	-2238
▁nobody	-2239
▁shoot	-2240
▁ten	-2241
▁experience	-2242
era	-2243
▁contribut	-2244
weh	-2245
▁begin	-2246
▁society	-2247
ahweh	-2248
ont	-2249
▁dise	-2250
▁passengers	-2251
▁anyone	-2252
▁demanded	-2253
no	-2254
▁yog	-2255
▁song	-2256
▁self	-2257
▁expressed	-2258
pper	-2259
▁ak	-2260
▁opt	-2261
▁successful	-2262
▁joined	-2263
isation	-2264
▁poor	-2265
▁envir	-2266
▁mean	-2267
▁accom	-2268
ey	-2269
▁david	-2270
she	-2271
erala	-2272
▁perform	-2273
▁maha	-2274
▁story	-2275
▁reli	-2276
▁whole	-2277
▁stor	-2278
▁age	-2279
▁trust	-2280
▁blood	-2281
nes	-2282
▁compet	-2283
▁brothers	-2284
▁officers	-2285
▁less	-2286
▁governments	-2287
▁hindi	-2288
▁transport	-2289
asons	-2290
pers	-2291
▁cal	-2292
where	-2293
oura	-2294
aut	-2295
▁ones	-2296
▁civil	-2297
▁24	-2298
bes	-2299
▁fans	-2300
▁environment	-2301
▁cooperation	-2302
▁personal	-2303
paign	-2304
▁means	-2305
▁personnel	-2306
ively	-2307
nath	-2308
▁congre	-2309
▁rap	-2310
aries	-2311
▁ste	-2312
▁ajit	-2313
▁trying	-2314
▁campaign	-2315
ta	-2316
▁talk	-2317
▁stri	-2318
▁theres	-2319
▁governor	-2320
▁jay	-2321
▁mem	-2322
▁though	-2323
▁tend	-2324
ama	-2325
yanka	-2326
▁works	-2327
▁similar	-2328
ze	-2329
▁witnesses	-2330
▁emp	-2331
▁married	-2332
▁meas	-2333
▁dig	-2334
▁consider	-2335
empt	-2336
▁ris	-2337
▁language	-2338
▁pract	-2339
▁kerala	-2340
ira	-2341
▁ty	-2342
ley	-2343
oid	-2344
joy	-2345
lished	-2346
▁drink	-2347
oms	-2348
▁responsibility	-2349
▁results	-2350
▁picture	-2351
mes	-2352
▁pul	-2353
▁ay	-2354
bjp	-2355
year	-2356
▁key	-2357
▁believe	-2358
ites	-2359
▁roads	-2360
▁passed	-2361
quir	-2362
▁morning	-2363
▁mlas	-2364
▁cast	-2365
▁schools	-2366
▁direct	-2367
itation	-2368
▁vijay	-2369
▁champ	-2370
▁early	-2371
▁appre	-2372
.5	-2373
▁sons	-2374
▁price	-2375
iqu	-2376
▁ill	-2377
▁living	-2378
most	-2379
▁forces	-2380
ladesh	-2381
▁needed	-2382
jan	-2383
▁sto	-2384
tion	-2385
▁growth	-2386
sc	-2387
rote	-2388
▁mis	-2389
▁americ	-2390
▁point	-2391
▁airport	-2392
▁ps	-2393
uly	-2394
▁seat	-2395
▁rate	-2396
▁yahweh	-2397
▁amb	-2398
iday	-2399
▁mag	-2400
▁mult	-2401
▁represent	-2402
▁independ	-2403
isions	-2404
pted	-2405
▁rev	-2406
▁reasons	-2407
mony	-2408
▁created	-2409
down	-2410
▁teams	-2411
▁petition	-2412
▁popular	-2413
▁projects	-2414
▁hands	-2415
overed	-2416
▁reve	-2417
rs	-2418
had	-2419
oud	-2420
▁disp	-2421
▁tel	-2422
▁wrote	-2423
bar	-2424
▁hope	-2425
▁foc	-2426
▁request	-2427
what	-2428
▁failed	-2429
▁propos	-2430
aking	-2431
▁critic	-2432
▁susp	-2433
ton	-2434
▁nag	-2435
▁stop	-2436
ban	-2437
▁little	-2438
▁eyes	-2439
▁easy	-2440
ids	-2441
▁lock	-2442
ification	-2443
▁christians	-2444
▁roles	-2445
▁behind	-2446
▁agriculture	-2447
▁chairman	-2448
▁forward	-2449
▁wind	-2450
cle	-2451
ards	-2452
▁emer	-2453
▁neg	-2454
oj	-2455
▁product	-2456
▁estab	-2457
▁positive	-2458
▁threat	-2459
▁conducted	-2460
abh	-2461
▁bud	-2462
▁bur	-2463
▁aks	-2464
hence	-2465
▁enjoy	-2466
▁administration	-2467
ructure	-2468
▁space	-2469
▁soldi	-2470
▁appear	-2471
▁priyanka	-2472
▁cant	-2473
▁festival	-2474
▁eat	-2475
iding	-2476
▁details	-2477
▁playing	-2478
▁bangladesh	-2479
▁sure	-2480
▁warn	-2481
▁2017	-2482
▁policy	-2483
▁40	-2484
▁africa	-2485
▁object	-2486
▁necess	-2487
▁violence	-2488
▁trad	-2489
▁low	-2490
▁districts	-2491
ateg	-2492
▁rainfall	-2493
▁ready	-2494
▁pras	-2495
ney	-2496
▁suffered	-2497
let	-2498
▁ahmed	-2499
▁joint	-2500
during	-2501
▁musl	-2502
▁fav	-2503
▁madhya	-2504
▁joh	-2505
▁occur	-2506
▁attend	-2507
▁ask	-2508
▁affected	-2509
▁rise	-2510
▁ground	-2511
▁spiritual	-2512
ena	-2513
▁goa	-2514
▁phone	-2515
orn	-2516
▁pictures	-2517
▁rejected	-2518
▁mand	-2519
▁opportunity	-2520
▁fast	-2521
fer	-2522
▁town	-2523
▁expl	-2524
▁single	-2525
hara	-2526
ship	-2527
▁maintain	-2528
▁agree	-2529
▁share	-2530
▁ways	-2531
▁manage	-2532
▁claimed	-2533
ogra	-2534
▁tit	-2535
▁patel	-2536
ses	-2537
▁flood	-2538
▁kan	-2539
▁nat	-2540
ify	-2541
▁additional	-2542
▁capital	-2543
▁nations	-2544
ex	-2545
▁,	-2546
▁princi	-2547
▁bach	-2548
▁zealand	-2549
apan	-2550
▁marri	-2551
gations	-2552
cement	-2553
ization	-2554
▁scre	-2555
▁season	-2556
▁becom	-2557
sequently	-2558
▁data	-2559
▁sched	-2560
nal	-2561
▁music	-2562
▁pain	-2563
rish	-2564
ohar	-2565
▁mer	-2566
▁tele	-2567
▁therefore	-2568
person	-2569
▁host	-2570
quiry	-2571
▁largest	-2572
▁crime	-2573
ilt	-2574
rast	-2575
vent	-2576
lo	-2577
▁2020	-2578
▁russ	-2579
▁houses	-2580
▁using	-2581
▁individ	-2582
▁sex	-2583
ledge	-2584
▁least	-2585
ator	-2586
▁worked	-2587
▁bharat	-2588
▁bachchan	-2589
hold	-2590
aled	-2591
▁probe	-2592
▁accept	-2593
▁purp	-2594
ark	-2595
▁pot	-2596
▁akshay	-2597
▁22	-2598
▁dom	-2599
▁respond	-2600
▁travel	-2601
▁creat	-2602
illed	-2603
▁mass	-2604
▁named	-2605
▁poll	-2606
▁families	-2607
▁community	-2608
ogn	-2609
▁avoid	-2610
ept	-2611
▁shot	-2612
▁sust	-2613
▁vehicle	-2614
▁bom	-2615
ler	-2616
▁tro	-2617
icked	-2618
▁fra	-2619
▁features	-2620
▁completed	-2621
pan	-2622
▁cy	-2623
hik	-2624
▁congregation	-2625
▁tweeted	-2626
▁function	-2627
▁heard	-2628
ince	-2629
▁severe	-2630
▁bless	-2631
▁grand	-2632
ald	-2633
▁cult	-2634
▁rank	-2635
▁ball	-2636
ert	-2637
▁sar	-2638
▁highest	-2639
gu	-2640
ances	-2641
▁doub	-2642
▁seriously	-2643
▁quite	-2644
▁ji	-2645
▁discussed	-2646
▁games	-2647
▁letter	-2648
▁mission	-2649
oni	-2650
▁training	-2651
▁rajya	-2652
▁consum	-2653
▁sad	-2654
▁required	-2655
eous	-2656
▁moment	-2657
▁eld	-2658
▁cere	-2659
▁amount	-2660
▁appointed	-2661
▁muk	-2662
▁anim	-2663
▁evening	-2664
▁couple	-2665
▁signific	-2666
ron	-2667
▁undergoing	-2668
▁million	-2669
aly	-2670
▁stated	-2671
▁speaking	-2672
▁produced	-2673
▁gener	-2674
▁english	-2675
aught	-2676
rodu	-2677
▁non	-2678
▁east	-2679
pol	-2680
uru	-2681
agram	-2682
▁hur	-2683
▁controvers	-2684
ech	-2685
▁allowed	-2686
▁conduct	-2687
bal	-2688
▁science	-2689
▁paid	-2690
▁trade	-2691
▁online	-2692
▁ipl	-2693
▁eight	-2694
▁refused	-2695
come	-2696
▁qual	-2697
ratul	-2698
therefore	-2699
▁appeal	-2700
▁rural	-2701
▁lat	-2702
▁sports	-2703
▁obs	-2704
▁cut	-2705
0.	-2706
▁cities	-2707
▁damaged	-2708
▁followed	-2709
▁marriage	-2710
▁fine	-2711
▁mater	-2712
▁deli	-2713
▁dha	-2714
ws	-2715
▁confir	-2716
utions	-2717
▁sud	-2718
ication	-2719
▁target	-2720
▁disci	-2721
▁thou	-2722
cu	-2723
▁line	-2724
▁deter	-2725
▁design	-2726
▁moved	-2727
▁ago	-2728
▁er	-2729
▁worth	-2730
▁whom	-2731
▁wel	-2732
▁ahead	-2733
▁electric	-2734
▁closed	-2735
▁instagram	-2736
more	-2737
▁appreci	-2738
▁themselves	-2739
▁suspect	-2740
▁century	-2741
you	-2742
▁japan	-2743
chin	-2744
ium	-2745
▁half	-2746
hra	-2747
▁reports	-2748
▁hary	-2749
▁squ	-2750
▁committed	-2751
▁wis	-2752
▁anil	-2753
▁indians	-2754
▁wickets	-2755
▁charges	-2756
▁scri	-2757
▁river	-2758
▁construction	-2759
▁dream	-2760
▁included	-2761
cci	-2762
▁diesel	-2763
▁population	-2764
▁custody	-2765
▁budget	-2766
▁mr	-2767
▁lif	-2768
cha	-2769
▁looking	-2770
atory	-2771
undred	-2772
▁jos	-2773
kash	-2774
light	-2775
▁beat	-2776
▁resc	-2777
▁petrol	-2778
▁employees	-2779
▁points	-2780
▁operation	-2781
▁didn	-2782
▁carry	-2783
garh	-2784
▁income	-2785
▁facing	-2786
▁ess	-2787
▁fourth	-2788
pri	-2789
▁phys	-2790
aji	-2791
▁shock	-2792
dy	-2793
▁hot	-2794
earlier	-2795
eth	-2796
▁residents	-2797
▁hearing	-2798
imum	-2799
▁supply	-2800
ctv	-2801
▁steps	-2802
▁haryana	-2803
▁impact	-2804
▁congratul	-2805
▁od	-2806
▁inaug	-2807
▁until	-2808
▁holy	-2809
▁position	-2810
▁sr	-2811
eved	-2812
uro	-2813
▁jail	-2814
▁fulf	-2815
▁adity	-2816
▁monday	-2817
▁encoura	-2818
▁tried	-2819
▁cctv	-2820
▁wait	-2821
▁check	-2822
▁front	-2823
▁attention	-2824
▁knowledge	-2825
▁gad	-2826
▁approved	-2827
pping	-2828
▁pakistani	-2829
gn	-2830
▁whether	-2831
▁formed	-2832
▁marathi	-2833
▁review	-2834
▁takes	-2835
▁victory	-2836
▁recovered	-2837
enced	-2838
yed	-2839
▁thus	-2840
▁moder	-2841
ators	-2842
▁hundred	-2843
▁arun	-2844
ier	-2845
ability	-2846
▁proposal	-2847
▁break	-2848
▁continued	-2849
▁ensure	-2850
derabad	-2851
▁municip	-2852
▁pen	-2853
ode	-2854
▁participated	-2855
ande	-2856
▁rup	-2857
▁pal	-2858
jun	-2859
▁deg	-2860
▁destro	-2861
▁friday	-2862
▁mobile	-2863
▁journal	-2864
mission	-2865
▁charge	-2866
▁forest	-2867
aily	-2868
▁fund	-2869
▁spec	-2870
▁college	-2871
▁strength	-2872
▁vik	-2873
▁dro	-2874
▁connect	-2875
hab	-2876
▁temper	-2877
▁23	-2878
▁memor	-2879
▁players	-2880
erc	-2881
▁rajp	-2882
▁either	-2883
ison	-2884
well	-2885
▁thank	-2886
▁necessary	-2887
▁session	-2888
oice	-2889
▁black	-2890
▁37	-2891
ring	-2892
itude	-2893
▁199	-2894
▁regarding	-2895
ici	-2896
▁constitution	-2897
prime	-2898
▁turned	-2899
▁1,	-2900
▁deepika	-2901
▁daily	-2902
▁regular	-2903
▁railways	-2904
▁isnt	-2905
▁thy	-2906
▁sonia	-2907
▁leave	-2908
dr	-2909
▁attempt	-2910
▁exist	-2911
▁awards	-2912
▁saf	-2913
▁ye	-2914
▁kept	-2915
▁decl	-2916
▁happening	-2917
▁separ	-2918
pecial	-2919
▁involved	-2920
▁material	-2921
▁safe	-2922
▁improve	-2923
▁coach	-2924
▁dhoni	-2925
angana	-2926
▁cricke	-2927
▁champions	-2928
▁vid	-2929
▁odi	-2930
▁grant	-2931
▁movement	-2932
▁sle	-2933
▁production	-2934
▁mount	-2935
▁acce	-2936
pm	-2937
follow	-2938
▁rom	-2939
cap	-2940
▁offer	-2941
▁higher	-2942
▁sushant	-2943
▁exe	-2944
▁soldiers	-2945
uel	-2946
erous	-2947
▁spoke	-2948
▁identified	-2949
▁terrorists	-2950
▁includes	-2951
ables	-2952
▁minor	-2953
▁stopped	-2954
▁denied	-2955
▁sunday	-2956
▁management	-2957
ening	-2958
▁ge	-2959
itor	-2960
▁ceremony	-2961
▁teachers	-2962
jri	-2963
hood	-2964
▁aug	-2965
▁kul	-2966
▁seized	-2967
▁basis	-2968
▁else	-2969
▁tues	-2970
▁elected	-2971
▁john	-2972
▁disease	-2973
work	-2974
racy	-2975
▁infl	-2976
▁exact	-2977
▁ded	-2978
▁fif	-2979
▁rukh	-2980
▁apost	-2981
▁thurs	-2982
▁recent	-2983
encies	-2984
▁nadu	-2985
▁bomb	-2986
ja	-2987
▁satur	-2988
▁wednes	-2989
▁studi	-2990
▁wanted	-2991
▁inquiry	-2992
▁related	-2993
▁docu	-2994
book	-2995
▁discussion	-2996
▁bail	-2997
▁culture	-2998
▁banks	-2999
▁fru	-3000
▁rules	-3001
▁percent	-3002
raft	-3003
▁ven	-3004
▁activities	-3005
icated	-3006
▁gar	-3007
following	-3008
▁simple	-3009
▁round	-3010
▁remember	-3011
▁chop	-3012
▁aad	-3013
▁az	-3014
▁mention	-3015
▁leading	-3016
▁tuesday	-3017
▁jer	-3018
▁mark	-3019
"""".""	-3020
ires	-3021
▁religious	-3022
▁nom	-3023
▁companies	-3024
▁prophe	-3025
▁thursday	-3026
uf	-3027
▁sug	-3028
▁hindu	-3029
▁flow	-3030
dha	-3031
▁ka	-3032
ains	-3033
▁wednesday	-3034
miss	-3035
▁march	-3036
▁ja	-3037
ala	-3038
many	-3039
▁rajput	-3040
▁script	-3041
▁changes	-3042
▁sea	-3043
ograph	-3044
▁survived	-3045
▁truck	-3046
▁infrast	-3047
mad	-3048
▁staff	-3049
▁subject	-3050
wa	-3051
jriwal	-3052
▁hyderabad	-3053
▁bag	-3054
eed	-3055
▁silver	-3056
▁ger	-3057
▁active	-3058
emic	-3059
▁joy	-3060
nam	-3061
these	-3062
hil	-3063
▁freed	-3064
deep	-3065
ots	-3066
▁mou	-3067
▁audi	-3068
▁wasnt	-3069
▁focus	-3070
▁message	-3071
play	-3072
▁boy	-3073
ashed	-3074
▁allegations	-3075
ighb	-3076
▁caus	-3077
ptember	-3078
▁box	-3079
nai	-3080
dies	-3081
▁apr	-3082
▁partic	-3083
▁remained	-3084
later	-3085
▁prasad	-3086
▁helps	-3087
▁infrastructure	-3088
▁mic	-3089
▁chen	-3090
▁democracy	-3091
▁achieve	-3092
▁28	-3093
▁engine	-3094
▁resour	-3095
▁rout	-3096
mumbai	-3097
▁repl	-3098
▁extreme	-3099
action	-3100
▁exerc	-3101
▁purpose	-3102
.3	-3103
▁reach	-3104
▁neighb	-3105
▁suffering	-3106
▁quality	-3107
▁pressure	-3108
▁scient	-3109
▁spokes	-3110
▁ga	-3111
▁ut	-3112
▁outside	-3113
▁kejriwal	-3114
▁brit	-3115
▁charact	-3116
▁inaugur	-3117
▁municipal	-3118
▁serve	-3119
▁fell	-3120
▁suggest	-3121
pecially	-3122
▁sisters	-3123
▁makes	-3124
▁tou	-3125
▁conc	-3126
▁medal	-3127
▁recogn	-3128
▁judge	-3129
▁saturday	-3130
▁donald	-3131
▁dang	-3132
▁april	-3133
ung	-3134
erve	-3135
veer	-3136
▁partners	-3137
▁carried	-3138
bir	-3139
▁nir	-3140
cutive	-3141
uary	-3142
▁hom	-3143
ober	-3144
▁pil	-3145
that	-3146
▁doctor	-3147
▁except	-3148
-2	-3149
▁previous	-3150
▁investment	-3151
lam	-3152
▁border	-3153
▁inspect	-3154
▁june	-3155
▁bats	-3156
ctober	-3157
▁application	-3158
iful	-3159
▁rule	-3160
▁launch	-3161
▁worship	-3162
▁vs	-3163
▁smart	-3164
▁sources	-3165
erved	-3166
▁enough	-3167
▁debut	-3168
lling	-3169
▁janata	-3170
▁speech	-3171
▁rights	-3172
▁raut	-3173
▁et	-3174
▁exc	-3175
▁block	-3176
cast	-3177
inder	-3178
kari	-3179
▁shooting	-3180
▁giving	-3181
lect	-3182
▁talks	-3183
▁nitin	-3184
▁thousands	-3185
▁lanka	-3186
▁hours	-3187
bh	-3188
▁lal	-3189
mc	-3190
▁histor	-3191
▁aam	-3192
▁/	-3193
▁bul	-3194
▁wants	-3195
▁visited	-3196
▁actually	-3197
▁insp	-3198
▁cover	-3199
▁quar	-3200
utes	-3201
▁x	-3202
uri	-3203
▁explain	-3204
va	-3205
▁employment	-3206
▁especially	-3207
▁anti	-3208
▁trains	-3209
▁safety	-3210
▁vol	-3211
▁announcement	-3212
▁sacri	-3213
▁september	-3214
▁completely	-3215
tty	-3216
▁note	-3217
▁heaven	-3218
▁bcci	-3219
▁sachin	-3220
anded	-3221
▁tv	-3222
▁felt	-3223
▁rape	-3224
▁names	-3225
▁ashok	-3226
▁prevent	-3227
▁orig	-3228
▁nagpur	-3229
▁26	-3230
antly	-3231
▁nath	-3232
▁scored	-3233
idered	-3234
vision	-3235
eshwar	-3236
fted	-3237
▁surpr	-3238
▁career	-3239
▁gets	-3240
▁highway	-3241
▁commer	-3242
uled	-3243
▁cash	-3244
▁recorded	-3245
▁%	-3246
▁fled	-3247
▁prepa	-3248
besides	-3249
▁arvind	-3250
▁rat	-3251
ivity	-3252
▁plays	-3253
▁considered	-3254
▁none	-3255
▁remov	-3256
▁benefits	-3257
▁welf	-3258
▁lockdown	-3259
fect	-3260
▁welfare	-3261
▁wedding	-3262
uted	-3263
ague	-3264
▁dal	-3265
▁corrup	-3266
1.	-3267
▁multi	-3268
rishna	-3269
▁freedom	-3270
▁belong	-3271
▁particular	-3272
hib	-3273
ably	-3274
▁jaw	-3275
nament	-3276
▁authorities	-3277
heb	-3278
▁august	-3279
▁imm	-3280
▁rally	-3281
▁majority	-3282
▁religion	-3283
▁institute	-3284
ene	-3285
▁student	-3286
▁opportunities	-3287
▁ordered	-3288
▁measures	-3289
▁section	-3290
▁fort	-3291
▁flight	-3292
ery	-3293
▁association	-3294
▁prepar	-3295
sha	-3296
▁built	-3297
▁celebrated	-3298
▁protests	-3299
asa	-3300
ugg	-3301
▁sunil	-3302
▁deploy	-3303
▁gri	-3304
▁october	-3305
▁2016	-3306
tained	-3307
su	-3308
fortun	-3309
▁tournament	-3310
cong	-3311
▁recom	-3312
▁ep	-3313
ervation	-3314
lled	-3315
▁nove	-3316
▁innings	-3317
▁matches	-3318
▁gst	-3319
▁baby	-3320
pres	-3321
▁capt	-3322
▁developed	-3323
▁battle	-3324
▁challenge	-3325
▁accepted	-3326
▁sang	-3327
▁corporation	-3328
▁chennai	-3329
▁experi	-3330
▁stra	-3331
▁november	-3332
▁returned	-3333
▁chopra	-3334
kata	-3335
imate	-3336
▁idea	-3337
like	-3338
▁demon	-3339
▁helped	-3340
▁treated	-3341
know	-3342
inese	-3343
▁above	-3344
▁evidence	-3345
ghan	-3346
under	-3347
den	-3348
▁yes	-3349
▁bench	-3350
▁create	-3351
▁sid	-3352
▁access	-3353
▁gang	-3354
▁neither	-3355
ufact	-3356
friend	-3357
▁bharati	-3358
2.	-3359
▁card	-3360
▁sense	-3361
▁trail	-3362
▁goes	-3363
bre	-3364
ris	-3365
▁vin	-3366
▁camera	-3367
co	-3368
▁yourself	-3369
▁milk	-3370
ublic	-3371
▁july	-3372
▁drug	-3373
ously	-3374
ball	-3375
▁receive	-3376
▁growing	-3377
▁protect	-3378
▁shivaji	-3379
▁daughters	-3380
▁performance	-3381
fully	-3382
▁alone	-3383
▁suc	-3384
▁speed	-3385
▁military	-3386
icial	-3387
▁1.	-3388
▁girls	-3389
▁notice	-3390
oint	-3391
▁actors	-3392
▁journey	-3393
oured	-3394
▁euro	-3395
▁loved	-3396
▁relief	-3397
▁arrived	-3398
▁chavan	-3399
▁remains	-3400
▁organised	-3401
▁manufact	-3402
▁decisions	-3403
▁comb	-3404
▁books	-3405
▁bodies	-3406
▁slow	-3407
rab	-3408
▁phil	-3409
▁cross	-3410
▁medic	-3411
▁mam	-3412
osh	-3413
iled	-3414
▁oly	-3415
▁kam	-3416
▁modern	-3417
▁earn	-3418
aring	-3419
▁ajay	-3420
▁prepared	-3421
▁laws	-3422
▁recomm	-3423
▁olymp	-3424
▁dil	-3425
▁chaired	-3426
▁villages	-3427
▁stress	-3428
apt	-3429
▁sugar	-3430
rage	-3431
wd	-3432
▁succeed	-3433
▁reply	-3434
ushka	-3435
▁ranveer	-3436
▁revealed	-3437
▁broad	-3438
craft	-3439
hase	-3440
▁tur	-3441
▁december	-3442
ming	-3443
▁responsible	-3444
▁shifted	-3445
inated	-3446
▁implemented	-3447
▁amitabh	-3448
since	-3449
based	-3450
▁accounts	-3451
also	-3452
use	-3453
▁mid	-3454
▁confidence	-3455
▁surve	-3456
rap	-3457
▁ms	-3458
▁opened	-3459
▁save	-3460
ead	-3461
range	-3462
▁chinese	-3463
▁someone	-3464
▁prakash	-3465
▁cred	-3466
▁ment	-3467
▁require	-3468
ami	-3469
pite	-3470
▁rising	-3471
▁pap	-3472
isf	-3473
▁gadkari	-3474
▁ski	-3475
usion	-3476
▁thee	-3477
▁nearby	-3478
▁contact	-3479
▁pow	-3480
▁cell	-3481
▁rich	-3482
erjee	-3483
▁voice	-3484
▁skill	-3485
▁desh	-3486
▁ba	-3487
gen	-3488
▁2.	-3489
▁groups	-3490
▁righteous	-3491
je	-3492
4.	-3493
▁fal	-3494
▁rao	-3495
▁beaut	-3496
▁introdu	-3497
▁essential	-3498
▁plea	-3499
9.	-3500
aster	-3501
ulted	-3502
▁foundation	-3503
ends	-3504
▁extremely	-3505
▁jobs	-3506
▁biggest	-3507
kant	-3508
▁capac	-3509
▁deaths	-3510
dict	-3511
▁cop	-3512
▁comment	-3513
5.	-3514
50	-3515
▁vote	-3516
▁hen	-3517
▁categ	-3518
▁direction	-3519
▁sleep	-3520
ita	-3521
▁repe	-3522
▁continu	-3523
▁site	-3524
verse	-3525
▁internet	-3526
▁accompan	-3527
▁meetings	-3528
1,	-3529
known	-3530
ministry	-3531
hari	-3532
▁icc	-3533
urance	-3534
▁victim	-3535
▁receiving	-3536
▁facilities	-3537
▁descri	-3538
▁natural	-3539
▁andhra	-3540
wide	-3541
congress	-3542
▁plat	-3543
▁shan	-3544
▁disrup	-3545
ternal	-3546
▁almost	-3547
▁cricketer	-3548
▁urban	-3549
▁challenges	-3550
▁stre	-3551
▁kings	-3552
▁banerjee	-3553
▁kolkata	-3554
▁citizenship	-3555
rect	-3556
▁dele	-3557
▁phase	-3558
▁served	-3559
▁sought	-3560
▁numbers	-3561
▁digital	-3562
vt	-3563
hel	-3564
wali	-3565
▁naw	-3566
ncp	-3567
▁nagar	-3568
▁paduk	-3569
▁arrange	-3570
▁page	-3571
▁prior	-3572
▁priest	-3573
oday	-3574
▁27	-3575
▁occurred	-3576
ense	-3577
▁photo	-3578
▁leav	-3579
▁published	-3580
mak	-3581
▁afghan	-3582
▁legal	-3583
▁devot	-3584
ba	-3585
ological	-3586
▁looked	-3587
▁rajnath	-3588
▁attacked	-3589
▁facebook	-3590
▁affect	-3591
▁distribut	-3592
ini	-3593
wise	-3594
▁republic	-3595
usal	-3596
▁guid	-3597
▁critical	-3598
▁bhatt	-3599
▁thak	-3600
▁posted	-3601
▁anushka	-3602
alled	-3603
▁forth	-3604
▁detained	-3605
▁beautiful	-3606
▁leadership	-3607
▁dismiss	-3608
▁camp	-3609
▁inside	-3610
▁fig	-3611
▁prim	-3612
ager	-3613
▁gas	-3614
▁gun	-3615
▁photos	-3616
▁europe	-3617
▁202	-3618
▁max	-3619
▁quick	-3620
▁metro	-3621
▁player	-3622
▁conditions	-3623
'.	-3624
fort	-3625
▁bri	-3626
▁fat	-3627
▁broke	-3628
▁effort	-3629
▁id	-3630
▁innov	-3631
▁?	-3632
son	-3633
▁acqu	-3634
▁asia	-3635
▁risk	-3636
anda	-3637
ilater	-3638
▁sides	-3639
▁padukone	-3640
pat	-3641
▁moham	-3642
▁lad	-3643
▁tradition	-3644
▁votes	-3645
▁status	-3646
▁lik	-3647
▁interview	-3648
▁luck	-3649
ulkar	-3650
orters	-3651
▁happens	-3652
▁handed	-3653
▁confirmed	-3654
▁throughout	-3655
▁below	-3656
kan	-3657
▁scheduled	-3658
▁disapp	-3659
▁concerned	-3660
▁ren	-3661
▁please	-3662
▁suspended	-3663
▁fellow	-3664
▁languages	-3665
▁authority	-3666
▁room	-3667
back	-3668
▁refer	-3669
▁territ	-3670
▁bharatiya	-3671
▁km	-3672
▁whose	-3673
apur	-3674
▁incidents	-3675
▁atm	-3676
▁emb	-3677
▁contesting	-3678
▁events	-3679
▁seed	-3680
▁karan	-3681
iy	-3682
▁lack	-3683
▁kapil	-3684
▁temperature	-3685
ken	-3686
▁tim	-3687
▁understanding	-3688
oned	-3689
▁shows	-3690
▁examination	-3691
▁sind	-3692
▁january	-3693
▁teach	-3694
▁controversy	-3695
▁competition	-3696
▁sinha	-3697
▁indies	-3698
gaon	-3699
shiv	-3700
agers	-3701
▁apply	-3702
lt	-3703
endent	-3704
▁debate	-3705
ties	-3706
▁text	-3707
▁faithful	-3708
▁servants	-3709
▁dhawan	-3710
▁thinking	-3711
▁everybody	-3712
wadi	-3713
▁forg	-3714
▁kids	-3715
▁squad	-3716
▁highlight	-3717
▁kore	-3718
▁discussions	-3719
▁instru	-3720
▁skipper	-3721
▁talking	-3722
▁term	-3723
▁hospitals	-3724
inagar	-3725
▁deployed	-3726
▁platform	-3727
▁wont	-3728
▁presence	-3729
▁continues	-3730
▁veget	-3731
▁track	-3732
▁presented	-3733
▁character	-3734
▁dutt	-3735
▁agency	-3736
▁opening	-3737
▁russia	-3738
▁transfer	-3739
▁rescue	-3740
ilateral	-3741
▁products	-3742
▁cru	-3743
▁wide	-3744
▁knows	-3745
do	-3746
itial	-3747
pre	-3748
▁mix	-3749
phone	-3750
▁cris	-3751
▁white	-3752
thern	-3753
▁cin	-3754
▁crim	-3755
wered	-3756
▁ign	-3757
▁compr	-3758
▁tendulkar	-3759
▁coal	-3760
anch	-3761
▁terrorism	-3762
khar	-3763
▁firm	-3764
▁itself	-3765
▁importance	-3766
▁sens	-3767
▁aircraft	-3768
▁spokesperson	-3769
▁60	-3770
▁arjun	-3771
▁custom	-3772
▁born	-3773
▁value	-3774
▁winning	-3775
dp	-3776
▁draw	-3777
today	-3778
aging	-3779
▁strengthen	-3780
▁nine	-3781
▁tests	-3782
▁seeking	-3783
▁birthday	-3784
estern	-3785
dul	-3786
▁opposed	-3787
ny	-3788
▁championship	-3789
▁false	-3790
ories	-3791
mpt	-3792
▁mentioned	-3793
4,	-3794
▁gives	-3795
rently	-3796
▁sacrif	-3797
ni	-3798
▁capacity	-3799
abor	-3800
▁fed	-3801
usalem	-3802
how	-3803
▁lin	-3804
▁finally	-3805
▁pros	-3806
▁partnership	-3807
▁die	-3808
▁ravi	-3809
▁cancell	-3810
▁bjps	-3811
▁reven	-3812
spe	-3813
▁begun	-3814
▁healthy	-3815
ayan	-3816
ensive	-3817
▁speaker	-3818
▁prec	-3819
▁gradu	-3820
▁nearly	-3821
▁resigned	-3822
▁annivers	-3823
▁approval	-3824
▁limited	-3825
▁jerusalem	-3826
▁corruption	-3827
aches	-3828
▁managed	-3829
▁influ	-3830
▁crisis	-3831
▁reality	-3832
osing	-3833
▁abro	-3834
▁file	-3835
mala	-3836
▁kn	-3837
▁awarded	-3838
▁allegedly	-3839
▁500	-3840
▁rob	-3841
▁independence	-3842
eks	-3843
▁knew	-3844
▁green	-3845
▁establish	-3846
▁sitting	-3847
▁operations	-3848
▁offered	-3849
▁strugg	-3850
▁tribut	-3851
hod	-3852
atic	-3853
endment	-3854
ye	-3855
▁aim	-3856
▁vacc	-3857
▁plant	-3858
mukh	-3859
▁screen	-3860
▁display	-3861
▁anniversary	-3862
▁electricity	-3863
▁legislative	-3864
▁firing	-3865
▁psal	-3866
▁sn	-3867
▁govt	-3868
▁jayant	-3869
ption	-3870
▁sometimes	-3871
▁lay	-3872
▁door	-3873
▁satisf	-3874
▁trou	-3875
▁favour	-3876
ondon	-3877
▁islam	-3878
last	-3879
uddin	-3880
▁encoun	-3881
star	-3882
▁argu	-3883
▁terms	-3884
▁terrorist	-3885
▁yoga	-3886
▁happiness	-3887
▁virus	-3888
▁cas	-3889
▁cert	-3890
ugu	-3891
itate	-3892
▁verdict	-3893
▁assistance	-3894
▁aamir	-3895
▁running	-3896
che	-3897
yer	-3898
▁gro	-3899
wama	-3900
▁resources	-3901
▁panc	-3902
▁roy	-3903
▁crores	-3904
▁consult	-3905
▁institutions	-3906
▁hor	-3907
▁--	-3908
▁attacks	-3909
rav	-3910
araj	-3911
▁defeated	-3912
▁brid	-3913
▁heat	-3914
▁agreement	-3915
▁70	-3916
▁exercise	-3917
rate	-3918
▁proud	-3919
▁submitted	-3920
▁withdra	-3921
ounded	-3922
sa	-3923
soon	-3924
▁fis	-3925
apart	-3926
▁concern	-3927
▁audience	-3928
▁condem	-3929
▁listen	-3930
▁massive	-3931
▁tourism	-3932
riya	-3933
achal	-3934
gs	-3935
▁unknown	-3936
▁protection	-3937
▁bombay	-3938
▁dan	-3939
▁coast	-3940
▁france	-3941
▁ric	-3942
▁mart	-3943
▁mist	-3944
▁pulwama	-3945
▁significant	-3946
▁gup	-3947
▁invited	-3948
▁asian	-3949
▁loving	-3950
▁stations	-3951
▁source	-3952
▁comfort	-3953
bru	-3954
▁billion	-3955
ault	-3956
▁trailer	-3957
add	-3958
▁uk	-3959
▁cinem	-3960
▁exchan	-3961
▁goal	-3962
▁hence	-3963
▁kat	-3964
▁kal	-3965
ese	-3966
set	-3967
ique	-3968
▁difference	-3969
▁nab	-3970
▁beginning	-3971
bruary	-3972
▁nature	-3973
▁deceased	-3974
rid	-3975
rench	-3976
▁sexual	-3977
▁defeat	-3978
▁webs	-3979
▁cultural	-3980
▁diwali	-3981
▁american	-3982
ras	-3983
mptoms	-3984
▁british	-3985
▁extended	-3986
▁accidents	-3987
andeep	-3988
▁urged	-3989
▁atmosp	-3990
aps	-3991
3.	-3992
▁trip	-3993
▁manohar	-3994
▁womens	-3995
▁deshmukh	-3996
fin	-3997
ortem	-3998
▁iran	-3999
▁blast	-4000
▁london	-4001
▁imran	-4002
▁mahat	-4003
rah	-4004
▁caught	-4005
▁nepal	-4006
▁weeks	-4007
▁ticket	-4008
▁gif	-4009
iddle	-4010
▁fre	-4011
▁peoples	-4012
5,	-4013
▁enhan	-4014
▁feature	-4015
▁worlds	-4016
▁oath	-4017
▁moses	-4018
▁path	-4019
adhav	-4020
khand	-4021
▁reduce	-4022
estic	-4023
haraman	-4024
▁strict	-4025
▁apostle	-4026
▁tab	-4027
▁rapid	-4028
▁stage	-4029
▁organisation	-4030
▁muslim	-4031
▁chandrakant	-4032
pro	-4033
▁pack	-4034
▁seek	-4035
▁assam	-4036
time	-4037
▁physical	-4038
▁thakur	-4039
▁mamata	-4040
▁signed	-4041
▁accompanied	-4042
▁awa	-4043
▁damage	-4044
▁parliamentary	-4045
▁advis	-4046
▁198	-4047
ushan	-4048
some	-4049
thus	-4050
▁aware	-4051
▁sustained	-4052
bel	-4053
▁etc	-4054
off	-4055
▁jait	-4056
▁naik	-4057
▁fem	-4058
ikh	-4059
▁gan	-4060
▁appe	-4061
▁league	-4062
▁crowd	-4063
▁weather	-4064
▁vers	-4065
▁joshi	-4066
hered	-4067
▁shetty	-4068
▁telugu	-4069
▁cancer	-4070
▁summit	-4071
▁buy	-4072
icted	-4073
▁boost	-4074
▁seems	-4075
▁matters	-4076
2,	-4077
▁encounter	-4078
ovind	-4079
▁peter	-4080
friends	-4081
▁29	-4082
▁alia	-4083
▁escap	-4084
▁greater	-4085
▁supported	-4086
ply	-4087
▁shut	-4088
▁hurt	-4089
inde	-4090
▁method	-4091
▁psalm	-4092
▁missing	-4093
▁humans	-4094
▁division	-4095
wat	-4096
▁adj	-4097
▁western	-4098
rial	-4099
▁walk	-4100
▁neh	-4101
▁providing	-4102
gypt	-4103
▁liter	-4104
▁granted	-4105
phy	-4106
▁mayor	-4107
inary	-4108
▁destroyed	-4109
▁wish	-4110
▁residence	-4111
▁typ	-4112
▁located	-4113
uals	-4114
odhya	-4115
▁atmosphere	-4116
▁trees	-4117
ott	-4118
pak	-4119
ades	-4120
▁salt	-4121
yet	-4122
▁aver	-4123
▁february	-4124
▁wonder	-4125
▁ranbir	-4126
▁bed	-4127
harge	-4128
▁drinking	-4129
▁dhan	-4130
▁slam	-4131
isgarh	-4132
▁reading	-4133
▁score	-4134
▁wicked	-4135
▁sitharaman	-4136
cient	-4137
▁toss	-4138
▁resignation	-4139
19	-4140
▁gur	-4141
▁ended	-4142
▁jadhav	-4143
minent	-4144
▁din	-4145
▁lib	-4146
▁doesn	-4147
▁remar	-4148
▁decide	-4149
anath	-4150
iting	-4151
▁rajiv	-4152
▁addressed	-4153
▁burn	-4154
▁inspector	-4155
▁ek	-4156
▁cancelled	-4157
▁vision	-4158
though	-4159
▁strike	-4160
idu	-4161
▁questioned	-4162
enty	-4163
▁symptoms	-4164
hattisgarh	-4165
▁becoming	-4166
▁weak	-4167
▁loan	-4168
▁individual	-4169
akes	-4170
ern	-4171
nagar	-4172
▁choose	-4173
▁pandemic	-4174
▁afghanistan	-4175
▁egypt	-4176
▁tas	-4177
▁ayodhya	-4178
▁effective	-4179
▁jhar	-4180
▁middle	-4181
▁shinde	-4182
▁vari	-4183
▁kovind	-4184
▁solution	-4185
▁enem	-4186
▁immediate	-4187
▁motor	-4188
▁acad	-4189
▁jaitley	-4190
▁va	-4191
▁villagers	-4192
▁sound	-4193
▁panchay	-4194
▁learning	-4195
nu	-4196
▁entered	-4197
▁mahatma	-4198
▁answered	-4199
▁funds	-4200
▁implementation	-4201
▁advant	-4202
▁vac	-4203
rant	-4204
dered	-4205
▁fully	-4206
▁weight	-4207
rer	-4208
fortunately	-4209
▁touch	-4210
▁superint	-4211
▁disciples	-4212
ille	-4213
asi	-4214
▁reportedly	-4215
▁via	-4216
▁dispute	-4217
▁external	-4218
bing	-4219
▁nirmala	-4220
▁asking	-4221
ratic	-4222
▁thereafter	-4223
▁guest	-4224
▁gather	-4225
▁ant	-4226
▁3.	-4227
gment	-4228
▁spoken	-4229
▁ahmedabad	-4230
▁emot	-4231
rif	-4232
even	-4233
▁chur	-4234
▁dark	-4235
▁excell	-4236
▁band	-4237
asaheb	-4238
▁industries	-4239
▁pu	-4240
▁contain	-4241
▁log	-4242
president	-4243
▁bilateral	-4244
▁criminal	-4245
eful	-4246
▁removed	-4247
▁197	-4248
▁amaz	-4249
▁becomes	-4250
aced	-4251
▁initial	-4252
ane	-4253
▁corona	-4254
sid	-4255
▁pred	-4256
▁plans	-4257
▁fruit	-4258
▁challeng	-4259
▁credit	-4260
former	-4261
yle	-4262
pf	-4263
▁sharing	-4264
ork	-4265
▁negative	-4266
▁skin	-4267
▁naidu	-4268
▁users	-4269
cal	-4270
ela	-4271
ford	-4272
▁fifth	-4273
▁hall	-4274
▁french	-4275
▁crops	-4276
vies	-4277
▁faced	-4278
▁shown	-4279
▁prayer	-4280
uter	-4281
▁fighting	-4282
▁wat	-4283
▁image	-4284
▁stone	-4285
▁window	-4286
▁elder	-4287
▁odisha	-4288
▁potential	-4289
ented	-4290
▁agreed	-4291
▁abdul	-4292
▁industrial	-4293
ional	-4294
▁worry	-4295
▁determin	-4296
▁brig	-4297
▁honour	-4298
▁convers	-4299
▁examples	-4300
▁videos	-4301
▁profession	-4302
▁mant	-4303
▁batsman	-4304
orrow	-4305
▁injury	-4306
▁contribution	-4307
▁looks	-4308
▁revenue	-4309
▁certainly	-4310
▁yogi	-4311
8.	-4312
▁jag	-4313
▁jharkhand	-4314
▁bowl	-4315
▁integr	-4316
▁storage	-4317
▁mary	-4318
esters	-4319
unt	-4320
▁options	-4321
▁rates	-4322
chi	-4323
sec	-4324
▁technical	-4325
▁survey	-4326
▁laid	-4327
▁tension	-4328
mortem	-4329
▁testing	-4330
▁deliver	-4331
▁ongoing	-4332
▁wall	-4333
▁forget	-4334
▁manner	-4335
des	-4336
▁maharaj	-4337
▁misha	-4338
▁movies	-4339
▁levels	-4340
▁normal	-4341
▁dismissed	-4342
▁gupta	-4343
▁cold	-4344
▁flag	-4345
▁unit	-4346
▁hasnt	-4347
▁num	-4348
▁lower	-4349
▁standing	-4350
mohan	-4351
▁chhattisgarh	-4352
cur	-4353
▁sav	-4354
▁superintendent	-4355
▁bapt	-4356
▁stock	-4357
▁established	-4358
yan	-4359
▁jai	-4360
▁wise	-4361
▁double	-4362
▁hes	-4363
▁feet	-4364
▁rana	-4365
▁bhag	-4366
▁cook	-4367
▁serving	-4368
▁domestic	-4369
▁initiative	-4370
?""	-4371
hapur	-4372
ems	-4373
▁35	-4374
istic	-4375
▁longer	-4376
adium	-4377
ressed	-4378
▁disrupted	-4379
▁adityanath	-4380
▁thor	-4381
▁criticised	-4382
▁194	-4383
▁muslims	-4384
▁spent	-4385
▁television	-4386
▁nitish	-4387
▁stadium	-4388
▁counsel	-4389
lar	-4390
▁abscond	-4391
-0	-4392
▁anand	-4393
▁schemes	-4394
wad	-4395
▁quit	-4396
▁bhu	-4397
▁bengaluru	-4398
▁investigations	-4399
▁lakhs	-4400
▁teaching	-4401
from	-4402
▁park	-4403
3,	-4404
▁organization	-4405
acy	-4406
▁title	-4407
rees	-4408
astic	-4409
▁circum	-4410
▁ruling	-4411
▁protesters	-4412
▁jav	-4413
▁casual	-4414
▁mps	-4415
iced	-4416
▁initiated	-4417
▁sla	-4418
▁export	-4419
idam	-4420
▁network	-4421
▁promote	-4422
oted	-4423
▁subsequently	-4424
haps	-4425
▁property	-4426
due	-4427
▁transl	-4428
▁causes	-4429
▁link	-4430
▁worried	-4431
▁perfect	-4432
oses	-4433
win	-4434
▁80	-4435
▁bes	-4436
▁samaj	-4437
gency	-4438
▁documents	-4439
▁preaching	-4440
au	-4441
▁send	-4442
▁defin	-4443
▁respectively	-4444
▁lt	-4445
sim	-4446
▁31	-4447
▁opin	-4448
▁degree	-4449
asp	-4450
load	-4451
▁gain	-4452
▁aspect	-4453
▁delay	-4454
rated	-4455
▁animals	-4456
▁colleges	-4457
▁offering	-4458
▁code	-4459
ora	-4460
▁studies	-4461
▁website	-4462
▁separate	-4463
oo	-4464
▁swe	-4465
gi	-4466
▁cat	-4467
▁thane	-4468
▁modis	-4469
▁penal	-4470
▁myself	-4471
▁maximum	-4472
▁farmer	-4473
▁prison	-4474
▁mig	-4475
▁lived	-4476
▁victims	-4477
▁duty	-4478
▁ancient	-4479
▁certific	-4480
quar	-4481
▁multiple	-4482
▁cry	-4483
▁option	-4484
▁acts	-4485
6.	-4486
▁approach	-4487
▁busy	-4488
▁goods	-4489
▁eastern	-4490
▁solar	-4491
▁desire	-4492
▁remarks	-4493
▁model	-4494
▁wisdom	-4495
▁rbi	-4496
▁write	-4497
▁cinema	-4498
bit	-4499
▁thanks	-4500
▁clar	-4501
bedkar	-4502
▁organis	-4503
▁eye	-4504
▁fuel	-4505
▁greet	-4506
▁welcome	-4507
▁telangana	-4508
cr	-4509
▁malik	-4510
law	-4511
▁planning	-4512
▁individuals	-4513
▁investigated	-4514
▁pit	-4515
▁bound	-4516
▁trial	-4517
raid	-4518
▁vish	-4519
▁reddy	-4520
▁resolution	-4521
▁factor	-4522
▁generation	-4523
▁addressing	-4524
▁everywhere	-4525
▁evil	-4526
▁carrying	-4527
▁ud	-4528
za	-4529
▁isa	-4530
days	-4531
▁reform	-4532
hesh	-4533
▁rum	-4534
▁tata	-4535
▁waiting	-4536
▁counter	-4537
ote	-4538
▁ast	-4539
ardhan	-4540
ounder	-4541
▁veter	-4542
pakistan	-4543
▁selected	-4544
rem	-4545
▁york	-4546
▁370	-4547
elines	-4548
▁killing	-4549
7,	-4550
ila	-4551
rec	-4552
▁america	-4553
▁keeping	-4554
▁locals	-4555
▁exactly	-4556
▁imposed	-4557
▁toll	-4558
▁suresh	-4559
▁independent	-4560
▁fam	-4561
▁willing	-4562
▁strengthe	-4563
▁trave	-4564
mod	-4565
▁politic	-4566
▁brigade	-4567
ender	-4568
▁island	-4569
7.	-4570
▁channel	-4571
▁claims	-4572
▁rupees	-4573
▁nas	-4574
iation	-4575
lict	-4576
▁proposed	-4577
shan	-4578
▁lets	-4579
▁answers	-4580
▁polling	-4581
▁ti	-4582
▁centres	-4583
▁pleas	-4584
▁fresh	-4585
▁afraid	-4586
▁practice	-4587
▁adop	-4588
▁anger	-4589
-20	-4590
▁4.	-4591
▁arab	-4592
▁kh	-4593
▁meaning	-4594
▁tree	-4595
▁panic	-4596
▁pending	-4597
▁provides	-4598
hers	-4599
▁johar	-4600
igation	-4601
▁ourselves	-4602
▁responded	-4603
▁associated	-4604
▁wa	-4605
▁conclud	-4606
sub	-4607
▁abra	-4608
▁courts	-4609
▁raf	-4610
▁chat	-4611
▁hath	-4612
▁moving	-4613
▁promised	-4614
▁pollution	-4615
▁que	-4616
▁satan	-4617
▁loans	-4618
▁couldnt	-4619
▁upd	-4620
▁executive	-4621
ca	-4622
▁angry	-4623
▁instead	-4624
▁amendment	-4625
▁...	-4626
▁pandey	-4627
▁raped	-4628
▁proceed	-4629
▁prem	-4630
▁unique	-4631
▁latest	-4632
areena	-4633
▁mishap	-4634
tery	-4635
▁bit	-4636
▁patna	-4637
▁branch	-4638
▁militants	-4639
amy	-4640
▁ki	-4641
▁principal	-4642
▁programmes	-4643
izing	-4644
▁changing	-4645
▁ascer	-4646
▁appeared	-4647
▁ambedkar	-4648
acted	-4649
▁voting	-4650
▁q	-4651
rew	-4652
▁soul	-4653
▁stood	-4654
▁shahid	-4655
▁vegetables	-4656
▁homes	-4657
▁songs	-4658
▁rid	-4659
▁mish	-4660
▁demands	-4661
▁196	-4662
▁harass	-4663
▁encourage	-4664
tw	-4665
oke	-4666
run	-4667
▁micro	-4668
▁basic	-4669
▁dhar	-4670
▁powerful	-4671
ev	-4672
▁facility	-4673
▁calls	-4674
▁proc	-4675
▁climate	-4676
▁constituencies	-4677
▁fle	-4678
▁route	-4679
▁tan	-4680
▁table	-4681
▁wishes	-4682
▁doubt	-4683
amp	-4684
maker	-4685
▁primary	-4686
▁household	-4687
▁annual	-4688
▁learned	-4689
▁chem	-4690
currently	-4691
6,	-4692
▁placed	-4693
oles	-4694
ultural	-4695
▁acting	-4696
▁produce	-4697
▁confident	-4698
▁elders	-4699
▁despite	-4700
▁interro	-4701
jd	-4702
▁arm	-4703
▁limit	-4704
▁rather	-4705
iles	-4706
▁colour	-4707
▁headed	-4708
▁germany	-4709
▁numerous	-4710
▁resulted	-4711
▁32	-4712
right	-4713
▁rajesh	-4714
▁demonst	-4715
▁sustain	-4716
▁millions	-4717
▁0	-4718
▁"(	-4719
▁scam	-4720
▁voters	-4721
▁assistant	-4722
▁booked	-4723
▁assign	-4724
▁approves	-4725
nag	-4726
▁emphas	-4727
▁welcom	-4728
▁collabor	-4729
▁manmohan	-4730
▁remaining	-4731
anth	-4732
▁mohan	-4733
▁reduced	-4734
▁mental	-4735
▁swaraj	-4736
cs	-4737
▁approached	-4738
▁warm	-4739
stances	-4740
▁whatsapp	-4741
▁whatever	-4742
ii	-4743
icit	-4744
▁hair	-4745
▁bridge	-4746
▁havent	-4747
▁stable	-4748
▁90	-4749
▁rai	-4750
▁regul	-4751
▁chance	-4752
▁choice	-4753
▁directly	-4754
baram	-4755
▁hundreds	-4756
▁aditya	-4757
▁church	-4758
▁undert	-4759
▁sudden	-4760
▁extra	-4761
▁scene	-4762
▁apolog	-4763
▁noted	-4764
30	-4765
▁dial	-4766
▁notes	-4767
▁highways	-4768
▁minimum	-4769
bec	-4770
▁feeling	-4771
▁alert	-4772
▁mishra	-4773
▁category	-4774
▁demanding	-4775
▁type	-4776
▁stake	-4777
▁range	-4778
▁headquar	-4779
▁register	-4780
▁dedicated	-4781
▁wins	-4782
yond	-4783
▁surf	-4784
▁courage	-4785
▁jun	-4786
▁sho	-4787
inations	-4788
▁scriptures	-4789
oring	-4790
▁banned	-4791
▁fought	-4792
hma	-4793
8,	-4794
▁prize	-4795
▁showed	-4796
ero	-4797
▁football	-4798
nd	-4799
asw	-4800
keep	-4801
iger	-4802
▁kha	-4803
priate	-4804
▁2,	-4805
aya	-4806
lah	-4807
oli	-4808
▁subha	-4809
▁sindhu	-4810
▁estim	-4811
▁wid	-4812
▁prophet	-4813
▁female	-4814
▁judicial	-4815
ils	-4816
idambaram	-4817
hans	-4818
rc	-4819
▁alt	-4820
▁mir	-4821
▁goyal	-4822
▁regional	-4823
ony	-4824
▁uncle	-4825
▁cooper	-4826
▁losses	-4827
▁introduced	-4828
ining	-4829
▁sacrifice	-4830
ellig	-4831
▁perhaps	-4832
▁permission	-4833
▁radha	-4834
hir	-4835
▁imag	-4836
▁shankar	-4837
▁compared	-4838
part	-4839
▁cra	-4840
icate	-4841
▁footage	-4842
▁communication	-4843
▁shops	-4844
▁indeed	-4845
inst	-4846
▁begins	-4847
rd	-4848
haar	-4849
▁compl	-4850
▁average	-4851
arc	-4852
▁irr	-4853
arily	-4854
▁mit	-4855
▁markets	-4856
kind	-4857
▁taught	-4858
▁relatives	-4859
▁nut	-4860
eness	-4861
▁kart	-4862
▁drive	-4863
▁simply	-4864
ima	-4865
reg	-4866
lies	-4867
▁wash	-4868
anced	-4869
▁tough	-4870
▁judah	-4871
▁sawant	-4872
▁stands	-4873
▁lose	-4874
▁master	-4875
▁insurance	-4876
▁photograph	-4877
▁5.	-4878
▁beha	-4879
▁posts	-4880
▁beyond	-4881
▁headquarters	-4882
ensions	-4883
▁privile	-4884
▁setting	-4885
▁kolhapur	-4886
▁nationalist	-4887
▁gat	-4888
▁vad	-4889
▁exchange	-4890
gb	-4891
lip	-4892
ols	-4893
▁abroad	-4894
rences	-4895
▁premi	-4896
▁animal	-4897
▁organized	-4898
▁absconding	-4899
stri	-4900
▁vent	-4901
▁inaugurated	-4902
gra	-4903
▁promises	-4904
▁dad	-4905
▁mah	-4906
ojana	-4907
▁deepak	-4908
▁specific	-4909
▁jo	-4910
akshi	-4911
ground	-4912
▁kareena	-4913
▁race	-4914
▁entry	-4915
▁fathers	-4916
ato	-4917
▁soft	-4918
▁participate	-4919
▁fix	-4920
▁nda	-4921
▁ai	-4922
vert	-4923
▁believed	-4924
▁mut	-4925
▁pradhan	-4926
▁chidambaram	-4927
▁2014	-4928
▁views	-4929
▁compens	-4930
▁lie	-4931
iment	-4932
▁apart	-4933
▁dangerous	-4934
▁emergency	-4935
▁pregn	-4936
log	-4937
▁slog	-4938
▁waste	-4939
▁thoughts	-4940
ipur	-4941
▁lands	-4942
▁democratic	-4943
▁memorial	-4944
▁policemen	-4945
ression	-4946
▁notification	-4947
rep	-4948
▁gal	-4949
▁weap	-4950
▁sort	-4951
▁munde	-4952
▁narayan	-4953
▁captured	-4954
▁intellig	-4955
▁judgment	-4956
▁yu	-4957
▁commerce	-4958
▁figh	-4959
▁ille	-4960
see	-4961
pher	-4962
▁sidd	-4963
▁comments	-4964
hai	-4965
dev	-4966
▁dub	-4967
▁base	-4968
▁referred	-4969
ashes	-4970
▁navy	-4971
▁ceo	-4972
▁kid	-4973
iction	-4974
▁mouth	-4975
although	-4976
▁krishna	-4977
▁7.	-4978
because	-4979
▁computer	-4980
▁holds	-4981
▁sett	-4982
actions	-4983
▁labour	-4984
▁ju	-4985
hta	-4986
▁correct	-4987
▁careful	-4988
▁du	-4989
hary	-4990
who	-4991
▁orders	-4992
▁countrys	-4993
▁fair	-4994
▁collect	-4995
▁achieved	-4996
iling	-4997
opal	-4998
▁accompl	-4999
▁searching	-5000
ione	-5001
▁diseases	-5002
▁floor	-5003
▁royal	-5004
▁twice	-5005
▁indira	-5006
▁fulfill	-5007
rang	-5008
▁abraham	-5009
▁harsh	-5010
▁anointed	-5011
lon	-5012
urg	-5013
▁"1	-5014
umble	-5015
rina	-5016
ange	-5017
▁fish	-5018
ulated	-5019
▁prove	-5020
▁jon	-5021
▁youths	-5022
ox	-5023
hana	-5024
▁writer	-5025
▁manif	-5026
police	-5027
▁tested	-5028
▁writing	-5029
▁welcomed	-5030
ilty	-5031
▁broken	-5032
moreover	-5033
▁agricultural	-5034
▁medium	-5035
▁remove	-5036
▁suffer	-5037
match	-5038
▁clos	-5039
reness	-5040
▁hat	-5041
icious	-5042
▁partner	-5043
▁broadcast	-5044
further	-5045
▁complex	-5046
▁promise	-5047
▁activity	-5048
▁prominent	-5049
ias	-5050
▁depos	-5051
ware	-5052
▁aadhaar	-5053
▁appreciated	-5054
▁radi	-5055
▁store	-5056
▁prosper	-5057
▁performed	-5058
▁gree	-5059
▁illust	-5060
▁shocked	-5061
▁arrangements	-5062
▁150	-5063
▁veteran	-5064
▁innovation	-5065
▁rak	-5066
enant	-5067
▁rock	-5068
▁autom	-5069
▁pione	-5070
olution	-5071
hek	-5072
▁tast	-5073
▁regularly	-5074
▁3:	-5075
▁rej	-5076
essed	-5077
▁assault	-5078
▁content	-5079
9,	-5080
▁ec	-5081
▁strongly	-5082
▁manufacturing	-5083
▁budd	-5084
▁quarter	-5085
▁dol	-5086
▁developing	-5087
two	-5088
rative	-5089
equ	-5090
▁creation	-5091
▁ape	-5092
urang	-5093
▁ayush	-5094
▁guilty	-5095
▁circumstances	-5096
▁singer	-5097
▁clash	-5098
▁spend	-5099
▁struggle	-5100
▁facil	-5101
que	-5102
wada	-5103
▁select	-5104
▁systems	-5105
▁recommend	-5106
▁treas	-5107
ume	-5108
▁sectors	-5109
▁document	-5110
▁occup	-5111
▁attitude	-5112
jpay	-5113
▁fit	-5114
▁shr	-5115
▁honoured	-5116
▁brief	-5117
▁glory	-5118
▁particularly	-5119
rikar	-5120
▁strateg	-5121
rics	-5122
▁dign	-5123
▁goals	-5124
▁threatened	-5125
lied	-5126
▁centuries	-5127
▁reward	-5128
▁straight	-5129
▁3,	-5130
▁complaints	-5131
▁reb	-5132
▁monitor	-5133
▁appealed	-5134
▁fulfilled	-5135
zz	-5136
▁theat	-5137
▁follows	-5138
▁gathered	-5139
▁tomorrow	-5140
▁awareness	-5141
▁witnessed	-5142
ole	-5143
▁producer	-5144
hus	-5145
chief	-5146
vest	-5147
▁apex	-5148
akhand	-5149
earing	-5150
▁advice	-5151
▁leads	-5152
▁2:	-5153
▁devgn	-5154
▁praise	-5155
▁payment	-5156
▁quickly	-5157
▁ton	-5158
wari	-5159
alore	-5160
▁incl	-5161
▁matthe	-5162
▁historic	-5163
▁crpf	-5164
att	-5165
▁sara	-5166
▁opinion	-5167
hendra	-5168
▁chand	-5169
▁meant	-5170
▁electron	-5171
▁reporters	-5172
▁bear	-5173
▁nawaz	-5174
▁trophy	-5175
▁servant	-5176
resp	-5177
▁sky	-5178
ockey	-5179
▁behold	-5180
▁helping	-5181
▁resolve	-5182
ikar	-5183
▁schedule	-5184
▁appropriate	-5185
ksha	-5186
▁300	-5187
▁bron	-5188
▁cars	-5189
▁entertain	-5190
▁assured	-5191
rene	-5192
▁swit	-5193
▁retire	-5194
▁charged	-5195
▁holding	-5196
onic	-5197
▁raise	-5198
▁fields	-5199
▁crucial	-5200
▁experienced	-5201
▁6.	-5202
▁guar	-5203
hishek	-5204
▁feelings	-5205
▁followers	-5206
hy	-5207
▁mahesh	-5208
▁diet	-5209
▁stayed	-5210
▁scientists	-5211
▁provision	-5212
▁educational	-5213
▁delive	-5214
▁aar	-5215
▁commercial	-5216
▁commitment	-5217
otal	-5218
▁pie	-5219
▁kil	-5220
iring	-5221
▁smith	-5222
▁empower	-5223
pune	-5224
▁frequ	-5225
▁ly	-5226
subsequently	-5227
▁mankind	-5228
▁proved	-5229
itya	-5230
▁paper	-5231
▁unity	-5232
▁panchayat	-5233
▁pti	-5234
▁kann	-5235
▁korea	-5236
▁eating	-5237
overy	-5238
▁lawyer	-5239
▁advantage	-5240
▁jac	-5241
▁ok	-5242
▁manoj	-5243
▁constru	-5244
▁australian	-5245
▁patient	-5246
▁ties	-5247
oked	-5248
▁fly	-5249
▁ive	-5250
vindra	-5251
icient	-5252
▁vital	-5253
,""""""""	-5254
ext	-5255
▁conflict	-5256
▁collector	-5257
▁saif	-5258
maharashtra	-5259
hot	-5260
hens	-5261
kumar	-5262
▁overs	-5263
▁drought	-5264
▁kangana	-5265
▁loyal	-5266
agn	-5267
▁subhash	-5268
▁clin	-5269
▁10.	-5270
▁yojana	-5271
▁ham	-5272
▁highly	-5273
▁matthew	-5274
▁parrikar	-5275
▁(1	-5276
▁russian	-5277
▁convention	-5278
▁congratulated	-5279
riti	-5280
arbha	-5281
itable	-5282
▁principles	-5283
▁195	-5284
erted	-5285
▁task	-5286
orm	-5287
speaking	-5288
tr	-5289
▁gul	-5290
▁scale	-5291
▁pac	-5292
▁shak	-5293
▁acted	-5294
pet	-5295
using	-5296
htar	-5297
▁flesh	-5298
ips	-5299
▁hour	-5300
▁medals	-5301
round	-5302
aram	-5303
care	-5304
anasi	-5305
▁sard	-5306
▁explos	-5307
▁mach	-5308
▁bronze	-5309
▁standards	-5310
▁sold	-5311
ele	-5312
oti	-5313
▁guard	-5314
▁marty	-5315
▁altern	-5316
▁uttarakhand	-5317
▁prep	-5318
▁advoc	-5319
▁supporting	-5320
▁ascertained	-5321
▁katrina	-5322
▁sections	-5323
▁sick	-5324
▁click	-5325
▁requested	-5326
jpayee	-5327
▁conse	-5328
▁ramesh	-5329
harged	-5330
imately	-5331
▁representatives	-5332
▁appoint	-5333
▁decades	-5334
▁younger	-5335
▁delivered	-5336
▁mi	-5337
jesus	-5338
▁vinod	-5339
▁ox	-5340
anguly	-5341
▁drugs	-5342
iter	-5343
cb	-5344
why	-5345
▁lines	-5346
▁nehru	-5347
▁exception	-5348
▁journalist	-5349
ithvi	-5350
▁atal	-5351
similar	-5352
arnt	-5353
▁crop	-5354
▁ruled	-5355
▁abhishek	-5356
▁territory	-5357
▁hockey	-5358
▁transform	-5359
▁kir	-5360
▁mira	-5361
▁balls	-5362
ogle	-5363
▁warning	-5364
▁successfully	-5365
▁8.	-5366
▁cove	-5367
▁mere	-5368
?""""""	-5369
▁origin	-5370
▁feed	-5371
▁trig	-5372
▁talked	-5373
▁actions	-5374
▁vidarbha	-5375
▁learnt	-5376
▁pension	-5377
▁reflect	-5378
▁customers	-5379
▁bhav	-5380
▁cow	-5381
▁75	-5382
▁gift	-5383
▁resur	-5384
▁restrict	-5385
▁pace	-5386
▁height	-5387
▁citizen	-5388
▁36	-5389
▁sushma	-5390
▁valley	-5391
▁forever	-5392
▁tear	-5393
▁bread	-5394
▁anybody	-5395
▁winners	-5396
▁ganguly	-5397
▁hebre	-5398
▁ravindra	-5399
▁sale	-5400
▁files	-5401
▁sevent	-5402
▁selection	-5403
irs	-5404
▁truly	-5405
rency	-5406
▁adam	-5407
▁ideas	-5408
▁sandeep	-5409
▁eventually	-5410
▁saved	-5411
▁varun	-5412
▁absol	-5413
among	-5414
▁ganesh	-5415
▁challenging	-5416
▁batting	-5417
▁reservation	-5418
▁chhat	-5419
▁vaccine	-5420
▁friendship	-5421
▁overse	-5422
▁celebrations	-5423
▁marg	-5424
rected	-5425
▁proced	-5426
▁vikhe	-5427
▁trouble	-5428
▁li	-5429
▁housing	-5430
▁compensation	-5431
▁der	-5432
▁consist	-5433
wala	-5434
amin	-5435
▁boss	-5436
▁filled	-5437
bab	-5438
▁dialog	-5439
▁remark	-5440
▁disaster	-5441
▁mahendra	-5442
dering	-5443
just	-5444
▁lies	-5445
elled	-5446
ishan	-5447
▁hill	-5448
▁belief	-5449
▁summer	-5450
▁clearly	-5451
▁experts	-5452
▁organisations	-5453
▁creating	-5454
▁declined	-5455
lal	-5456
▁ambani	-5457
▁seeing	-5458
▁repeated	-5459
▁participation	-5460
▁ko	-5461
standing	-5462
▁guidelines	-5463
▁45	-5464
▁pran	-5465
▁prithvi	-5466
▁initiatives	-5467
itely	-5468
▁chin	-5469
ayal	-5470
▁mohammed	-5471
▁prayers	-5472
▁requires	-5473
▁dry	-5474
▁blue	-5475
employ	-5476
rapati	-5477
▁camer	-5478
▁olympics	-5479
▁$	-5480
▁honor	-5481
▁handle	-5482
▁perman	-5483
▁original	-5484
▁sate	-5485
▁dance	-5486
▁mns	-5487
▁vit	-5488
▁symb	-5489
▁minds	-5490
▁marath	-5491
▁consecutive	-5492
▁shop	-5493
▁degrees	-5494
▁finished	-5495
ius	-5496
oseph	-5497
▁kindness	-5498
▁sand	-5499
▁types	-5500
▁famous	-5501
▁absolute	-5502
▁onion	-5503
▁argument	-5504
▁gh	-5505
▁hero	-5506
▁varanasi	-5507
▁bangalore	-5508
identified	-5509
▁fruits	-5510
▁minutes	-5511
ppa	-5512
iture	-5513
adekar	-5514
▁equip	-5515
▁shares	-5516
god	-5517
▁worldwide	-5518
.,	-5519
▁olympic	-5520
▁srinagar	-5521
hem	-5522
▁wild	-5523
▁picked	-5524
▁ability	-5525
▁rapidly	-5526
rao	-5527
▁emerged	-5528
▁panel	-5529
▁scared	-5530
bef	-5531
pap	-5532
uit	-5533
▁armed	-5534
▁items	-5535
▁offers	-5536
▁moon	-5537
▁spar	-5538
▁alive	-5539
west	-5540
ibilities	-5541
▁infection	-5542
anjay	-5543
▁male	-5544
▁devotees	-5545
▁priority	-5546
ooth	-5547
▁engineering	-5548
▁vig	-5549
▁liqu	-5550
fir	-5551
▁alloc	-5552
reprene	-5553
▁bid	-5554
▁meg	-5555
▁kon	-5556
▁ltd	-5557
▁pron	-5558
▁james	-5559
▁consequ	-5560
▁rose	-5561
▁unidentified	-5562
▁subst	-5563
▁existing	-5564
▁internal	-5565
yas	-5566
▁illegal	-5567
▁leaving	-5568
zil	-5569
▁um	-5570
▁harm	-5571
ruck	-5572
▁4:	-5573
▁jal	-5574
▁rafale	-5575
▁aap	-5576
▁records	-5577
▁severely	-5578
▁33	-5579
▁burnt	-5580
▁delight	-5581
▁resolved	-5582
▁surprised	-5583
▁nana	-5584
▁mantri	-5585
▁commits	-5586
▁described	-5587
cked	-5588
▁watching	-5589
▁club	-5590
▁kaif	-5591
▁rane	-5592
before	-5593
▁behav	-5594
orge	-5595
▁48	-5596
gery	-5597
▁grief	-5598
iyush	-5599
▁opposite	-5600
▁conversation	-5601
abet	-5602
inger	-5603
▁prepare	-5604
met	-5605
▁chap	-5606
▁forms	-5607
krishna	-5608
▁nashik	-5609
▁chairperson	-5610
atha	-5611
▁manifest	-5612
▁entreprene	-5613
uke	-5614
▁sell	-5615
▁schol	-5616
▁constructed	-5617
noon	-5618
istans	-5619
▁troops	-5620
ancy	-5621
ashi	-5622
▁asp	-5623
every	-5624
▁poster	-5625
▁jews	-5626
similarly	-5627
▁piv	-5628
▁discipl	-5629
▁blessings	-5630
▁chill	-5631
▁padma	-5632
▁easily	-5633
▁sight	-5634
▁alongside	-5635
dro	-5636
iri	-5637
▁jd	-5638
▁bsp	-5639
ressing	-5640
▁google	-5641
▁challenged	-5642
▁causing	-5643
mense	-5644
▁stir	-5645
ria	-5646
▁winter	-5647
▁immense	-5648
▁prob	-5649
▁hotel	-5650
▁floods	-5651
▁passing	-5652
▁pilot	-5653
▁identity	-5654
▁constantly	-5655
▁bringing	-5656
▁wonderful	-5657
▁unf	-5658
▁samajwadi	-5659
vis	-5660
▁da	-5661
▁influence	-5662
25	-5663
iam	-5664
put	-5665
oon	-5666
▁sant	-5667
▁favor	-5668
▁besides	-5669
▁phar	-5670
▁marks	-5671
▁unable	-5672
▁kuldeep	-5673
▁""""""""	-5674
ucle	-5675
usive	-5676
▁clot	-5677
▁hast	-5678
▁tot	-5679
essions	-5680
▁values	-5681
▁isol	-5682
▁piyush	-5683
rain	-5684
▁size	-5685
▁mukher	-5686
▁isn	-5687
▁reserve	-5688
modi	-5689
▁pivotal	-5690
▁bs	-5691
mr	-5692
emb	-5693
▁sixth	-5694
▁observed	-5695
▁discharged	-5696
ications	-5697
▁inspired	-5698
brit	-5699
mark	-5700
▁vive	-5701
kh	-5702
▁ignored	-5703
▁monsoon	-5704
▁stories	-5705
▁reaching	-5706
▁shortage	-5707
ray	-5708
rel	-5709
▁hd	-5710
▁rag	-5711
▁rivers	-5712
▁prevail	-5713
ky	-5714
▁eve	-5715
▁advance	-5716
ankaj	-5717
rers	-5718
still	-5719
▁user	-5720
▁exhib	-5721
▁enfor	-5722
▁connectivity	-5723
▁1:	-5724
▁labou	-5725
▁transferred	-5726
vant	-5727
▁street	-5728
▁highlights	-5729
▁sport	-5730
▁shastri	-5731
istics	-5732
▁statue	-5733
▁conducting	-5734
inik	-5735
▁mountain	-5736
▁advised	-5737
▁pick	-5738
▁joseph	-5739
▁dropped	-5740
▁provisions	-5741
recently	-5742
▁improved	-5743
▁german	-5744
▁surely	-5745
▁warned	-5746
▁interested	-5747
▁righteousness	-5748
dik	-5749
▁instance	-5750
▁healthcare	-5751
▁rss	-5752
▁manj	-5753
▁widely	-5754
▁location	-5755
das	-5756
▁xi	-5757
▁baj	-5758
gered	-5759
▁northern	-5760
▁estimated	-5761
▁web	-5762
▁bure	-5763
▁semi	-5764
▁showing	-5765
▁mine	-5766
▁concerns	-5767
▁afternoon	-5768
gent	-5769
▁agg	-5770
wards	-5771
▁renew	-5772
▁van	-5773
▁newspap	-5774
aken	-5775
▁soil	-5776
▁afford	-5777
▁engage	-5778
▁termin	-5779
▁lev	-5780
▁bum	-5781
▁units	-5782
osen	-5783
imin	-5784
▁pride	-5785
▁condol	-5786
▁hindus	-5787
▁increases	-5788
▁interests	-5789
▁academ	-5790
▁arms	-5791
▁dwell	-5792
▁smartphone	-5793
kha	-5794
▁kamal	-5795
▁planned	-5796
▁medicine	-5797
uls	-5798
laim	-5799
▁mukesh	-5800
▁resist	-5801
ster	-5802
ultan	-5803
▁usually	-5804
▁trem	-5805
▁premier	-5806
▁suspected	-5807
▁possibility	-5808
▁imper	-5809
▁leaves	-5810
▁device	-5811
▁diabet	-5812
arkar	-5813
▁sheep	-5814
▁suspects	-5815
xic	-5816
▁powder	-5817
▁chhatrapati	-5818
▁fo	-5819
▁anx	-5820
▁toil	-5821
▁waterlog	-5822
ople	-5823
▁haz	-5824
▁biop	-5825
▁contested	-5826
iff	-5827
▁fill	-5828
jehovah	-5829
▁calling	-5830
▁determined	-5831
▁mos	-5832
▁solom	-5833
▁rad	-5834
▁upset	-5835
▁legend	-5836
▁ranaut	-5837
▁satell	-5838
▁skills	-5839
cont	-5840
▁caste	-5841
▁motiv	-5842
▁thanked	-5843
▁himachal	-5844
▁das	-5845
ounced	-5846
▁advani	-5847
▁offices	-5848
▁:	-5849
▁angel	-5850
▁breath	-5851
ipp	-5852
ube	-5853
▁lic	-5854
▁nucle	-5855
ologies	-5856
lis	-5857
▁vajpayee	-5858
▁institution	-5859
▁contains	-5860
ula	-5861
▁poet	-5862
▁applications	-5863
201	-5864
▁guidance	-5865
▁starting	-5866
vious	-5867
▁scientific	-5868
pi	-5869
▁5:	-5870
▁bhushan	-5871
▁12.	-5872
▁rav	-5873
union	-5874
▁tren	-5875
▁lucknow	-5876
▁israelites	-5877
▁interesting	-5878
ugh	-5879
▁ped	-5880
▁9.	-5881
lines	-5882
▁faces	-5883
▁chosen	-5884
▁administrative	-5885
▁literature	-5886
▁cool	-5887
▁rang	-5888
▁anywhere	-5889
apsed	-5890
▁wasn	-5891
▁chemical	-5892
▁driving	-5893
▁european	-5894
▁condemned	-5895
kg	-5896
"""",	-5897
▁brazil	-5898
▁slogans	-5899
▁tourists	-5900
▁connected	-5901
▁preparations	-5902
▁equal	-5903
▁forced	-5904
▁rice	-5905
▁shortly	-5906
▁fan	-5907
▁magaz	-5908
▁expand	-5909
▁balasaheb	-5910
aked	-5911
iant	-5912
overty	-5913
▁greatest	-5914
▁steel	-5915
▁slammed	-5916
▁virt	-5917
▁cultiv	-5918
▁neighbour	-5919
▁meh	-5920
▁gram	-5921
▁mehta	-5922
▁golden	-5923
oom	-5924
▁sem	-5925
▁jack	-5926
▁11.	-5927
▁ath	-5928
▁behalf	-5929
▁context	-5930
▁engaged	-5931
▁filmmaker	-5932
▁travelling	-5933
▁storm	-5934
.30	-5935
▁kot	-5936
▁2015	-5937
▁departments	-5938
▁ease	-5939
▁pankaj	-5940
▁activists	-5941
▁gate	-5942
▁rankings	-5943
▁demise	-5944
▁gathering	-5945
first	-5946
▁plane	-5947
▁peaceful	-5948
▁coord	-5949
▁dreams	-5950
▁failure	-5951
▁visible	-5952
urangabad	-5953
▁installed	-5954
▁fee	-5955
oking	-5956
▁imposs	-5957
▁kannada	-5958
▁explained	-5959
▁distribution	-5960
fit	-5961
▁benefici	-5962
▁drama	-5963
▁poverty	-5964
▁japanese	-5965
▁profess	-5966
alyan	-5967
▁gaut	-5968
wing	-5969
▁hearts	-5970
▁mul	-5971
▁magn	-5972
▁sworn	-5973
▁mohammad	-5974
people	-5975
▁tor	-5976
▁sword	-5977
▁tributes	-5978
▁medicines	-5979
iet	-5980
amb	-5981
mas	-5982
▁canada	-5983
99	-5984
nis	-5985
▁oce	-5986
▁submit	-5987
whe	-5988
▁older	-5989
▁protesting	-5990
apore	-5991
▁divided	-5992
10	-5993
▁chak	-5994
▁gard	-5995
▁enable	-5996
▁blessed	-5997
▁studying	-5998
▁statements	-5999
rits	-6000
▁eknath	-6001
ength	-6002
▁promoting	-6003
▁version	-6004
▁lots	-6005
▁appears	-6006
▁southern	-6007
terday	-6008
▁linked	-6009
▁mechan	-6010
▁delegation	-6011
▁bah	-6012
▁dilip	-6013
▁jawans	-6014
▁heavenly	-6015
▁tank	-6016
▁frame	-6017
brities	-6018
▁equipment	-6019
pc	-6020
▁wil	-6021
▁manager	-6022
▁rescued	-6023
▁mukherjee	-6024
▁costs	-6025
▁partys	-6026
▁traditional	-6027
▁crash	-6028
▁unemploy	-6029
500	-6030
harth	-6031
▁javadekar	-6032
▁agar	-6033
▁expend	-6034
▁celebrate	-6035
▁registration	-6036
▁aj	-6037
aves	-6038
itage	-6039
▁span	-6040
▁trib	-6041
indian	-6042
▁intens	-6043
▁contract	-6044
▁jade	-6045
▁desai	-6046
▁novel	-6047
▁akhtar	-6048
▁sir	-6049
▁spin	-6050
▁stead	-6051
▁aviation	-6052
▁passenger	-6053
▁impossible	-6054
▁wake	-6055
▁losing	-6056
▁malays	-6057
▁covered	-6058
▁herself	-6059
▁shalt	-6060
▁murdered	-6061
▁harassment	-6062
was	-6063
▁lank	-6064
ifying	-6065
▁phones	-6066
▁conve	-6067
▁sardar	-6068
▁effects	-6069
▁heritage	-6070
▁aid	-6071
▁dar	-6072
▁phas	-6073
▁agencies	-6074
▁lax	-6075
▁solid	-6076
▁sonam	-6077
▁sharif	-6078
▁enjoyed	-6079
▁certificate	-6080
▁grew	-6081
▁unve	-6082
▁standard	-6083
rary	-6084
▁biopic	-6085
▁streets	-6086
▁6:	-6087
▁bumrah	-6088
▁starred	-6089
▁beneficial	-6090
hvi	-6091
may	-6092
▁tea	-6093
▁fielded	-6094
▁concept	-6095
▁install	-6096
▁presently	-6097
▁ber	-6098
eless	-6099
▁enterpr	-6100
▁mall	-6101
▁isaiah	-6102
▁intelligence	-6103
lim	-6104
▁rare	-6105
▁gopal	-6106
▁throw	-6107
▁flights	-6108
▁pakistans	-6109
arya	-6110
stood	-6111
▁satara	-6112
▁childhood	-6113
▁eg	-6114
▁gautam	-6115
▁recovery	-6116
▁inher	-6117
▁blam	-6118
▁cards	-6119
▁washing	-6120
bhu	-6121
uram	-6122
▁cul	-6123
▁row	-6124
▁saudi	-6125
ishment	-6126
▁tow	-6127
jah	-6128
urt	-6129
▁kl	-6130
▁dut	-6131
▁newly	-6132
▁symbol	-6133
▁superstar	-6134
▁14.	-6135
▁error	-6136
▁fortun	-6137
▁transpa	-6138
▁celebrities	-6139
▁memory	-6140
once	-6141
▁boys	-6142
key	-6143
▁retired	-6144
▁shikhar	-6145
▁marathwada	-6146
▁jit	-6147
▁labor	-6148
▁measure	-6149
▁scen	-6150
▁aspects	-6151
▁permanent	-6152
▁fert	-6153
▁entrepreneurs	-6154
▁buildings	-6155
▁tej	-6156
▁broadcasting	-6157
▁kg	-6158
▁nuclear	-6159
▁recommended	-6160
▁remind	-6161
▁enemies	-6162
▁load	-6163
▁center	-6164
▁fighter	-6165
▁managing	-6166
▁keeps	-6167
rection	-6168
▁collapsed	-6169
▁corporate	-6170
▁wrest	-6171
▁prover	-6172
▁waters	-6173
▁wood	-6174
▁tribal	-6175
▁circuit	-6176
▁qualities	-6177
▁strategic	-6178
ayalam	-6179
▁jadeja	-6180
▁governance	-6181
govern	-6182
▁theyre	-6183
▁integrity	-6184
▁worse	-6185
▁adequ	-6186
▁organiz	-6187
▁hun	-6188
▁auto	-6189
▁honest	-6190
eline	-6191
uff	-6192
bhar	-6193
minton	-6194
▁catch	-6195
▁wealth	-6196
▁priests	-6197
▁baptized	-6198
▁sustainable	-6199
▁(2	-6200
▁definitely	-6201
▁4,	-6202
▁madh	-6203
vation	-6204
▁consp	-6205
▁kalyan	-6206
▁bond	-6207
rut	-6208
▁odis	-6209
▁purs	-6210
▁ward	-6211
orders	-6212
▁verma	-6213
▁tribute	-6214
%.	-6215
▁ani	-6216
▁akhil	-6217
▁marry	-6218
▁#	-6219
verted	-6220
▁reign	-6221
▁detailed	-6222
▁improving	-6223
▁jump	-6224
▁vikas	-6225
▁totally	-6226
▁formation	-6227
ped	-6228
▁lak	-6229
▁shrad	-6230
▁earthqu	-6231
ishing	-6232
▁escape	-6233
▁policies	-6234
plom	-6235
▁calm	-6236
▁swach	-6237
▁overall	-6238
▁entertainment	-6239
▁conven	-6240
▁delayed	-6241
▁regions	-6242
▁species	-6243
kes	-6244
▁kab	-6245
▁twenty	-6246
▁retirement	-6247
▁kad	-6248
andum	-6249
▁reaction	-6250
▁accidental	-6251
ida	-6252
▁involve	-6253
▁attempts	-6254
thr	-6255
▁mel	-6256
ughter	-6257
▁khans	-6258
▁seventh	-6259
▁greek	-6260
▁struck	-6261
shri	-6262
▁devi	-6263
▁fraud	-6264
▁duo	-6265
▁enthus	-6266
▁stream	-6267
▁falling	-6268
▁solomon	-6269
▁background	-6270
▁lalu	-6271
▁wing	-6272
▁singapore	-6273
uters	-6274
▁pill	-6275
▁brings	-6276
▁weapons	-6277
▁expenditure	-6278
uses	-6279
▁mistake	-6280
▁initially	-6281
▁nomination	-6282
along	-6283
▁trials	-6284
▁malayalam	-6285
indra	-6286
▁bharti	-6287
▁fault	-6288
▁incon	-6289
▁casualties	-6290
▁experiences	-6291
▁strengthening	-6292
bro	-6293
actor	-6294
▁chha	-6295
▁util	-6296
▁sride	-6297
▁style	-6298
ashtriya	-6299
▁nan	-6300
break	-6301
▁bigg	-6302
▁compre	-6303
▁wearing	-6304
▁prithviraj	-6305
▁revel	-6306
▁beaten	-6307
▁tiwari	-6308
▁plastic	-6309
▁aurangabad	-6310
.)	-6311
▁heads	-6312
▁knock	-6313
▁quant	-6314
▁constituted	-6315
askar	-6316
▁solutions	-6317
▁tiger	-6318
▁coalition	-6319
▁inhab	-6320
▁roshan	-6321
▁visiting	-6322
▁grat	-6323
▁understood	-6324
▁buses	-6325
▁theft	-6326
▁figure	-6327
▁deterior	-6328
▁collected	-6329
▁presidents	-6330
▁ho	-6331
▁nawab	-6332
▁historical	-6333
▁possession	-6334
▁secure	-6335
▁sudhir	-6336
ishw	-6337
lead	-6338
▁feels	-6339
▁integ	-6340
▁confirm	-6341
▁fol	-6342
▁length	-6343
▁studied	-6344
▁subur	-6345
▁prabha	-6346
inikanth	-6347
▁closely	-6348
▁danger	-6349
▁plants	-6350
▁personality	-6351
▁sets	-6352
▁subsid	-6353
▁surface	-6354
don	-6355
▁advocate	-6356
▁agitation	-6357
▁badminton	-6358
▁yesterday	-6359
▁championships	-6360
born	-6361
▁badly	-6362
▁vinay	-6363
▁divine	-6364
▁chaud	-6365
▁steve	-6366
▁aband	-6367
▁diplom	-6368
▁cheap	-6369
▁prote	-6370
vereign	-6371
▁sentence	-6372
▁criticism	-6373
ahar	-6374
▁mete	-6375
▁attract	-6376
▁distance	-6377
▁identify	-6378
▁passes	-6379
▁reforms	-6380
▁diabetes	-6381
▁shraddha	-6382
▁adult	-6383
▁sovereign	-6384
▁radhakrishna	-6385
▁harmony	-6386
▁vas	-6387
▁bike	-6388
▁sharp	-6389
▁warri	-6390
▁represented	-6391
ki	-6392
yaan	-6393
▁italy	-6394
▁worst	-6395
▁classes	-6396
▁relative	-6397
▁surround	-6398
▁ack	-6399
▁lun	-6400
ching	-6401
▁push	-6402
aswamy	-6403
▁2019.	-6404
▁analy	-6405
del	-6406
▁objective	-6407
▁technologies	-6408
▁yash	-6409
▁falls	-6410
▁parad	-6411
▁acknow	-6412
▁tempor	-6413
coh	-6414
▁ta	-6415
▁theme	-6416
▁interact	-6417
▁monitoring	-6418
ju	-6419
▁34	-6420
▁bhuj	-6421
▁color	-6422
▁indones	-6423
▁saul	-6424
▁ashwin	-6425
▁15.	-6426
▁cameras	-6427
▁structure	-6428
▁professional	-6429
▁debt	-6430
▁mercy	-6431
▁hal	-6432
▁battery	-6433
▁violent	-6434
▁memorandum	-6435
▁stones	-6436
▁thro	-6437
▁proof	-6438
▁fundament	-6439
odh	-6440
▁meal	-6441
liness	-6442
lasting	-6443
▁destroy	-6444
▁covenant	-6445
▁practices	-6446
▁nice	-6447
▁heres	-6448
▁rumours	-6449
▁reliance	-6450
▁bihari	-6451
▁motion	-6452
▁starts	-6453
arian	-6454
ategy	-6455
▁voted	-6456
▁recover	-6457
▁strategy	-6458
▁commanded	-6459
▁confessed	-6460
▁presidential	-6461
▁400	-6462
▁nrc	-6463
despite	-6464
▁ladakh	-6465
ili	-6466
▁grown	-6467
▁announce	-6468
cohol	-6469
▁teen	-6470
through	-6471
▁fallen	-6472
▁walking	-6473
▁triggered	-6474
▁eli	-6475
▁fired	-6476
▁edition	-6477
patil	-6478
rahul	-6479
▁decre	-6480
▁pandya	-6481
▁elector	-6482
arm	-6483
umps	-6484
▁bhat	-6485
▁carefully	-6486
▁indu	-6487
▁diagn	-6488
▁irani	-6489
▁agarwal	-6490
cuted	-6491
member	-6492
▁african	-6493
▁collection	-6494
board	-6495
▁luke	-6496
iration	-6497
▁hardik	-6498
▁heavily	-6499
▁imagine	-6500
▁protestors	-6501
▁questioning	-6502
▁mort	-6503
▁taste	-6504
▁corner	-6505
▁earned	-6506
▁meteor	-6507
▁joining	-6508
▁expressway	-6509
▁2020.	-6510
▁contribute	-6511
▁previously	-6512
▁mode	-6513
ishwarya	-6514
▁amazing	-6515
▁clothes	-6516
▁tensions	-6517
▁suggested	-6518
▁aaron	-6519
▁fixed	-6520
zes	-6521
▁appearance	-6522
▁hc	-6523
▁jnu	-6524
abled	-6525
▁liked	-6526
▁extent	-6527
▁mutual	-6528
▁rashtriya	-6529
thereafter	-6530
alys	-6531
othy	-6532
▁forgot	-6533
▁babylon	-6534
▁ministerial	-6535
hane	-6536
▁dog	-6537
▁spl	-6538
▁fool	-6539
▁tells	-6540
kot	-6541
ola	-6542
room	-6543
▁shocking	-6544
waj	-6545
▁bhans	-6546
▁leela	-6547
▁rawat	-6548
ressive	-6549
▁sourav	-6550
▁illness	-6551
▁examined	-6552
▁dani	-6553
▁wear	-6554
▁postp	-6555
▁emotional	-6556
fc	-6557
cul	-6558
gre	-6559
cles	-6560
avati	-6561
polit	-6562
▁concl	-6563
▁inconven	-6564
▁privilege	-6565
',	-6566
▁blow	-6567
▁retali	-6568
▁alcohol	-6569
▁consumer	-6570
▁hab	-6571
▁ranjan	-6572
▁rememb	-6573
▁todays	-6574
▁dialogue	-6575
,...	-6576
▁divor	-6577
▁labourers	-6578
▁nep	-6579
▁wheat	-6580
▁corrid	-6581
▁enhance	-6582
▁controversial	-6583
▁bott	-6584
▁jew	-6585
▁ship	-6586
▁ocean	-6587
▁garlic	-6588
▁manish	-6589
▁walked	-6590
▁putting	-6591
▁surgery	-6592
▁consequences	-6593
wara	-6594
ander	-6595
▁2018.	-6596
▁jacob	-6597
inc	-6598
turn	-6599
▁gained	-6600
▁package	-6601
▁comprises	-6602
▁pv	-6603
▁gav	-6604
▁sushil	-6605
▁distress	-6606
▁excellent	-6607
eds	-6608
▁16.	-6609
▁taluk	-6610
▁caut	-6611
▁rash	-6612
▁cyber	-6613
▁roman	-6614
▁shami	-6615
▁bureau	-6616
ded	-6617
mun	-6618
word	-6619
▁bhavan	-6620
▁william	-6621
▁cautious	-6622
▁differences	-6623
ught	-6624
▁hits	-6625
▁upro	-6626
iments	-6627
▁arch	-6628
▁dear	-6629
▁accord	-6630
▁everlasting	-6631
drf	-6632
him	-6633
orious	-6634
rithik	-6635
▁5,	-6636
▁sab	-6637
harya	-6638
▁lying	-6639
▁phases	-6640
▁pregnant	-6641
lig	-6642
▁om	-6643
atures	-6644
▁elderly	-6645
▁wounded	-6646
tra	-6647
eding	-6648
▁asks	-6649
▁fake	-6650
▁sangli	-6651
▁properties	-6652
▁respective	-6653
ope	-6654
▁moh	-6655
▁abhi	-6656
▁som	-6657
▁maid	-6658
▁radio	-6659
▁surprise	-6660
▁tong	-6661
▁sessions	-6662
▁solapur	-6663
▁vardhan	-6664
▁ult	-6665
cious	-6666
▁stret	-6667
▁guarant	-6668
▁samples	-6669
▁reserved	-6670
▁appreciation	-6671
▁cels	-6672
▁attending	-6673
▁index	-6674
▁likes	-6675
▁jaipur	-6676
▁congratulate	-6677
hl	-6678
▁diss	-6679
▁enemy	-6680
▁ganga	-6681
▁collap	-6682
▁deeply	-6683
umed	-6684
arted	-6685
▁pure	-6686
▁react	-6687
▁rajinikanth	-6688
athan	-6689
▁adequate	-6690
▁suddenly	-6691
▁15,	-6692
▁guru	-6693
iences	-6694
▁demonet	-6695
▁distributed	-6696
▁discl	-6697
▁konkan	-6698
▁batsmen	-6699
▁probably	-6700
▁encouraged	-6701
ho	-6702
▁arent	-6703
▁grate	-6704
▁convict	-6705
▁proverbs	-6706
illa	-6707
▁collaboration	-6708
both	-6709
▁arise	-6710
▁bowler	-6711
dia	-6712
long	-6713
▁191	-6714
▁amid	-6715
▁province	-6716
▁explosion	-6717
▁difficulties	-6718
▁cops	-6719
▁glad	-6720
▁judges	-6721
▁constable	-6722
▁spreading	-6723
▁alternative	-6724
thy	-6725
pass	-6726
▁193	-6727
▁worshi	-6728
▁sparked	-6729
▁dhananjay	-6730
bon	-6731
▁settle	-6732
dar	-6733
athy	-6734
▁penalty	-6735
▁infected	-6736
▁prosperity	-6737
40	-6738
▁iron	-6739
theast	-6740
▁blocked	-6741
▁celsius	-6742
▁silent	-6743
▁compass	-6744
▁sanction	-6745
urag	-6746
▁trin	-6747
▁founder	-6748
▁favourite	-6749
ec	-6750
usted	-6751
▁professor	-6752
▁mans	-6753
▁fertil	-6754
▁smooth	-6755
▁harvest	-6756
▁expression	-6757
-3	-6758
▁13.	-6759
▁impl	-6760
▁worker	-6761
▁academy	-6762
▁outrage	-6763
▁instructions	-6764
enses	-6765
national	-6766
▁arunachal	-6767
anti	-6768
▁sac	-6769
▁nick	-6770
▁pair	-6771
vin	-6772
eving	-6773
state	-6774
▁acquit	-6775
▁comprehens	-6776
three	-6777
▁concluded	-6778
sr	-6779
▁49	-6780
▁colours	-6781
▁excited	-6782
▁mothers	-6783
▁expensive	-6784
▁investors	-6785
▁journalists	-6786
.'	-6787
respond	-6788
▁depends	-6789
▁knowing	-6790
▁concerning	-6791
itha	-6792
▁aside	-6793
▁jawahar	-6794
▁advanced	-6795
▁champion	-6796
mk	-6797
▁kun	-6798
▁festiv	-6799
level	-6800
▁maintained	-6801
▁shir	-6802
▁bhujbal	-6803
fan	-6804
ashion	-6805
asprit	-6806
▁brain	-6807
instead	-6808
▁titled	-6809
▁maratha	-6810
▁offence	-6811
▁timothy	-6812
▁download	-6813
erred	-6814
orted	-6815
▁pant	-6816
▁domin	-6817
▁aishwarya	-6818
▁promotion	-6819
▁federation	-6820
▁revolution	-6821
▁arrangement	-6822
▁abdullah	-6823
▁masks	-6824
▁communities	-6825
▁hasn	-6826
▁forum	-6827
▁targeted	-6828
▁confusion	-6829
▁outstanding	-6830
estion	-6831
sw	-6832
yap	-6833
▁kaur	-6834
▁valid	-6835
▁irrigation	-6836
▁beneficiaries	-6837
ador	-6838
▁useful	-6839
sen	-6840
▁entr	-6841
▁6,	-6842
chas	-6843
aling	-6844
▁loves	-6845
▁pursu	-6846
▁amongst	-6847
▁thorough	-6848
produ	-6849
▁queen	-6850
▁slave	-6851
▁anurag	-6852
▁approx	-6853
▁clim	-6854
charge	-6855
▁naval	-6856
▁petro	-6857
▁bright	-6858
▁lashed	-6859
▁refuge	-6860
▁reserv	-6861
water	-6862
▁nadda	-6863
▁sanct	-6864
pective	-6865
▁pin	-6866
▁recon	-6867
▁returns	-6868
▁meat	-6869
▁prat	-6870
▁advert	-6871
▁applied	-6872
▁preparing	-6873
shah	-6874
▁17.	-6875
▁winner	-6876
▁locations	-6877
▁meanwhile	-6878
▁disappointed	-6879
▁8,	-6880
render	-6881
oration	-6882
▁gandhis	-6883
▁uses	-6884
▁whos	-6885
▁troub	-6886
▁ayushman	-6887
▁resource	-6888
▁rjd	-6889
▁roll	-6890
ography	-6891
▁chow	-6892
▁neighbours	-6893
▁spect	-6894
▁prabhu	-6895
▁investigate	-6896
▁eager	-6897
▁signs	-6898
▁otherwise	-6899
▁exams	-6900
▁fever	-6901
▁sweet	-6902
▁empowerment	-6903
▁rupee	-6904
▁bagged	-6905
▁speaks	-6906
▁precious	-6907
▁properly	-6908
▁sciences	-6909
▁procedure	-6910
▁succeeded	-6911
▁environmental	-6912
▁flu	-6913
▁mumb	-6914
▁firef	-6915
▁mexic	-6916
▁distur	-6917
bu	-6918
hm	-6919
▁0.	-6920
▁pages	-6921
▁meteorological	-6922
▁muse	-6923
finals	-6924
▁apostles	-6925
▁universities	-6926
▁mens	-6927
▁extend	-6928
▁participants	-6929
idden	-6930
▁cycl	-6931
▁fashion	-6932
▁trained	-6933
▁complained	-6934
▁38	-6935
▁wai	-6936
▁sunny	-6937
▁requirements	-6938
aria	-6939
▁tack	-6940
▁birds	-6941
▁comed	-6942
▁tennis	-6943
▁evident	-6944
▁designed	-6945
jid	-6946
ows	-6947
▁culp	-6948
▁yout	-6949
▁drawn	-6950
▁hike	-6951
▁brics	-6952
▁convicted	-6953
▁expectations	-6954
uman	-6955
▁drop	-6956
▁obed	-6957
versity	-6958
▁doubles	-6959
▁magazine	-6960
▁directors	-6961
pati	-6962
▁jet	-6963
kaiah	-6964
▁hrithik	-6965
▁jointly	-6966
▁grateful	-6967
▁gradually	-6968
▁earthquake	-6969
▁spiritually	-6970
ores	-6971
those	-6972
▁kish	-6973
▁balance	-6974
▁shepher	-6975
▁investments	-6976
awati	-6977
▁greatly	-6978
▁replaced	-6979
▁comprising	-6980
▁psy	-6981
eries	-6982
▁shel	-6983
▁although	-6984
▁42	-6985
▁kit	-6986
▁tam	-6987
▁variety	-6988
▁amar	-6989
▁nand	-6990
▁vast	-6991
▁bought	-6992
▁chandi	-6993
▁blessing	-6994
ingu	-6995
▁jitendra	-6996
dep	-6997
ghar	-6998
▁bon	-6999
▁era	-7000
place	-7001
▁tent	-7002
▁closer	-7003
▁fiscal	-7004
▁sonakshi	-7005
▁territories	-7006
▁recommendations	-7007
▁nia	-7008
▁pon	-7009
▁saina	-7010
▁upper	-7011
▁bullet	-7012
▁secondary	-7013
▁pronounced	-7014
▁conservation	-7015
bul	-7016
goa	-7017
oso	-7018
▁isro	-7019
▁dates	-7020
▁absolutely	-7021
▁tender	-7022
▁remanded	-7023
▁consideration	-7024
▁ru	-7025
▁ves	-7026
▁arora	-7027
▁brand	-7028
▁spotted	-7029
▁interrog	-7030
chase	-7031
▁patri	-7032
▁seeds	-7033
▁easier	-7034
▁devices	-7035
▁rajendra	-7036
sal	-7037
inthi	-7038
▁aspir	-7039
▁quiet	-7040
lock	-7041
▁18.	-7042
▁und	-7043
china	-7044
▁tight	-7045
▁yield	-7046
▁dinesh	-7047
▁ked	-7048
▁museum	-7049
▁restrictions	-7050
ixel	-7051
▁usa	-7052
hotra	-7053
karni	-7054
▁vadra	-7055
▁portra	-7056
▁researc	-7057
▁continuing	-7058
▁significance	-7059
ishad	-7060
lected	-7061
▁artist	-7062
▁raising	-7063
▁settled	-7064
▁mandatory	-7065
▁facilitate	-7066
meg	-7067
▁dy	-7068
▁shro	-7069
▁bhut	-7070
▁sales	-7071
▁articles	-7072
▁revelation	-7073
iveness	-7074
▁quoted	-7075
▁corinthi	-7076
▁ii	-7077
▁1.5	-7078
▁legs	-7079
▁azhar	-7080
▁indic	-7081
▁athlet	-7082
▁electoral	-7083
▁pas	-7084
▁sridevi	-7085
▁discipline	-7086
▁_	-7087
▁cb	-7088
▁saith	-7089
▁arrives	-7090
▁escaped	-7091
▁inherit	-7092
▁featured	-7093
▁appreciate	-7094
▁bea	-7095
▁devil	-7096
▁prizes	-7097
▁practical	-7098
▁nurs	-7099
▁youtube	-7100
▁44	-7101
▁thie	-7102
▁ambass	-7103
▁operational	-7104
▁soldier	-7105
▁powers	-7106
0,	-7107
fi	-7108
four	-7109
▁sacred	-7110
▁chapter	-7111
▁mahajan	-7112
▁ira	-7113
evers	-7114
▁belongs	-7115
urved	-7116
▁jaish	-7117
▁meets	-7118
▁papers	-7119
▁materials	-7120
eria	-7121
oward	-7122
▁rakesh	-7123
▁malaysia	-7124
▁maybe	-7125
▁swami	-7126
▁crimes	-7127
▁repair	-7128
▁borders	-7129
▁fundamental	-7130
irav	-7131
owed	-7132
lying	-7133
▁ghat	-7134
▁valu	-7135
▁pretty	-7136
▁malhotra	-7137
▁sik	-7138
▁2017.	-7139
▁bhopal	-7140
▁shroff	-7141
▁bowling	-7142
▁thieves	-7143
▁sentenced	-7144
ups	-7145
▁stun	-7146
▁hydro	-7147
sm	-7148
isted	-7149
▁paying	-7150
iny	-7151
▁65	-7152
night	-7153
▁banking	-7154
▁jasprit	-7155
▁delivery	-7156
▁opposing	-7157
▁satellite	-7158
▁achievement	-7159
▁resurrection	-7160
haz	-7161
▁celebration	-7162
▁bot	-7163
secution	-7164
▁akhilesh	-7165
▁venkaiah	-7166
xture	-7167
keeper	-7168
▁taxes	-7169
tt	-7170
fast	-7171
▁heavens	-7172
▁chargeshe	-7173
▁rath	-7174
theless	-7175
▁clashes	-7176
elt	-7177
isi	-7178
▁bib	-7179
▁flee	-7180
▁hate	-7181
vention	-7182
▁philipp	-7183
▁organizations	-7184
▁bmc	-7185
▁assess	-7186
inals	-7187
▁elig	-7188
▁fier	-7189
▁scholars	-7190
▁mountains	-7191
▁returning	-7192
▁corinthians	-7193
hua	-7194
▁friendly	-7195
▁premises	-7196
acle	-7197
▁appa	-7198
▁asha	-7199
▁snow	-7200
▁arrive	-7201
▁55	-7202
moham	-7203
▁pist	-7204
▁adopted	-7205
▁deliber	-7206
▁tremend	-7207
cers	-7208
omen	-7209
▁keen	-7210
▁resent	-7211
▁directorate	-7212
oba	-7213
▁gdp	-7214
anand	-7215
▁relax	-7216
▁solve	-7217
▁toler	-7218
ij	-7219
▁coff	-7220
▁arabia	-7221
▁pranab	-7222
▁2018-19	-7223
▁methods	-7224
▁academic	-7225
bas	-7226
▁wars	-7227
▁bhand	-7228
▁flock	-7229
▁gratitude	-7230
▁platforms	-7231
asc	-7232
hew	-7233
▁mild	-7234
▁midst	-7235
▁daniel	-7236
▁bowlers	-7237
▁inspiration	-7238
▁eth	-7239
▁sole	-7240
ingent	-7241
▁factory	-7242
▁greetings	-7243
▁dedication	-7244
▁kinds	-7245
▁nominated	-7246
▁ax	-7247
▁si	-7248
▁cart	-7249
▁semif	-7250
▁factors	-7251
ellow	-7252
preet	-7253
▁copy	-7254
▁wave	-7255
▁aiims	-7256
▁everyday	-7257
▁supriya	-7258
▁outbreak	-7259
▁mixed	-7260
isan	-7261
habad	-7262
nagiri	-7263
lin	-7264
bers	-7265
icky	-7266
agues	-7267
▁wine	-7268
▁reiter	-7269
▁aaditya	-7270
▁crossed	-7271
▁raining	-7272
▁staying	-7273
▁compassion	-7274
vn	-7275
life	-7276
▁dip	-7277
▁dur	-7278
final	-7279
▁dutta	-7280
▁traders	-7281
▁commander	-7282
▁manufacture	-7283
ae	-7284
▁gauri	-7285
aces	-7286
▁incor	-7287
▁beauty	-7288
▁plenty	-7289
▁listening	-7290
▁destruction	-7291
rition	-7292
▁siddi	-7293
▁thorat	-7294
▁starrer	-7295
abilities	-7296
▁punishment	-7297
▁situations	-7298
▁cleanliness	-7299
▁tense	-7300
▁expert	-7301
""""""""	-7302
▁figures	-7303
▁indonesia	-7304
ava	-7305
▁moral	-7306
▁motorcy	-7307
hak	-7308
olen	-7309
▁daw	-7310
▁core	-7311
▁escal	-7312
▁kills	-7313
▁farming	-7314
▁admission	-7315
▁proceedings	-7316
▁wad	-7317
▁blind	-7318
▁humanity	-7319
▁untoward	-7320
▁ib	-7321
▁sins	-7322
▁hosts	-7323
▁warner	-7324
▁islamic	-7325
▁cricketers	-7326
▁bath	-7327
▁obey	-7328
▁sule	-7329
cience	-7330
▁pointed	-7331
▁intention	-7332
mans	-7333
▁sear	-7334
▁guide	-7335
▁distan	-7336
▁fisher	-7337
▁mostly	-7338
▁stab	-7339
▁bigger	-7340
▁bhansali	-7341
▁nationwide	-7342
cro	-7343
oting	-7344
▁lake	-7345
itating	-7346
▁images	-7347
▁legislators	-7348
bsp	-7349
qui	-7350
ping	-7351
▁ble	-7352
ikwad	-7353
▁khad	-7354
▁obser	-7355
finally	-7356
▁opener	-7357
▁romans	-7358
▁withdrawn	-7359
▁satisfied	-7360
▁legislature	-7361
jud	-7362
▁azad	-7363
▁renewable	-7364
▁suggestions	-7365
15	-7366
anmar	-7367
sters	-7368
▁2000	-7369
▁ende	-7370
▁kaus	-7371
▁magist	-7372
▁forecast	-7373
▁kulkarni	-7374
▁enforcement	-7375
▁unemployment	-7376
▁shout	-7377
▁convin	-7378
▁imitate	-7379
▁acquitted	-7380
▁interrogation	-7381
▁transportation	-7382
▁pms	-7383
▁focused	-7384
▁attendance	-7385
uti	-7386
▁bhagat	-7387
▁creator	-7388
▁realize	-7389
aur	-7390
▁os	-7391
▁gor	-7392
▁fray	-7393
▁overw	-7394
▁editor	-7395
▁excess	-7396
▁letters	-7397
▁replace	-7398
▁activist	-7399
▁frequently	-7400
▁generations	-7401
▁rhe	-7402
▁baba	-7403
captain	-7404
▁visits	-7405
▁gaikwad	-7406
▁manipur	-7407
▁purchase	-7408
▁aay	-7409
▁mour	-7410
▁password	-7411
▁epis	-7412
onents	-7413
▁prest	-7414
osition	-7415
▁sanitation	-7416
will	-7417
▁empt	-7418
▁interim	-7419
▁reduction	-7420
leum	-7421
▁jewell	-7422
▁seemed	-7423
▁sheikh	-7424
▁temples	-7425
▁prevention	-7426
var	-7427
lands	-7428
▁philoso	-7429
fortunate	-7430
empted	-7431
▁tears	-7432
▁smriti	-7433
▁currency	-7434
aser	-7435
hani	-7436
▁pip	-7437
iracy	-7438
▁assets	-7439
▁patekar	-7440
▁jawaharlal	-7441
▁lights	-7442
▁darkness	-7443
▁overcome	-7444
▁subjects	-7445
▁incom	-7446
▁rishi	-7447
▁listed	-7448
▁obvious	-7449
▁9,	-7450
rick	-7451
▁khanna	-7452
▁stranded	-7453
zer	-7454
▁7,	-7455
▁retail	-7456
rim	-7457
chen	-7458
▁endeav	-7459
▁portal	-7460
▁chances	-7461
▁chandigarh	-7462
▁personally	-7463
▁acid	-7464
remiah	-7465
▁honey	-7466
▁strang	-7467
▁1,000	-7468
▁campus	-7469
▁vikram	-7470
▁petroleum	-7471
▁lu	-7472
elling	-7473
▁lifted	-7474
▁prestig	-7475
▁telecom	-7476
▁consists	-7477
anta	-7478
▁chit	-7479
▁relevant	-7480
fti	-7481
▁cum	-7482
▁stolen	-7483
▁spending	-7484
▁chargesheet	-7485
▁enterprises	-7486
▁unfortunate	-7487
▁19.	-7488
▁ank	-7489
▁prince	-7490
▁appointment	-7491
▁photographs	-7492
sou	-7493
▁owner	-7494
▁raman	-7495
▁praised	-7496
▁predicted	-7497
any	-7498
▁litre	-7499
▁vigil	-7500
holders	-7501
▁combat	-7502
▁exhibition	-7503
▁invitation	-7504
▁undertaken	-7505
▁washington	-7506
unk	-7507
fare	-7508
▁uns	-7509
▁abund	-7510
▁moves	-7511
enn	-7512
▁suit	-7513
▁chose	-7514
▁ratna	-7515
▁formal	-7516
▁pioneer	-7517
▁consumption	-7518
post	-7519
▁chain	-7520
▁larger	-7521
▁ensuring	-7522
apixel	-7523
▁vivek	-7524
inspect	-7525
▁holiday	-7526
▁interven	-7527
▁paradise	-7528
pad	-7529
▁slowly	-7530
▁operating	-7531
▁considering	-7532
hs	-7533
▁occasions	-7534
▁hub	-7535
▁ends	-7536
▁mayawati	-7537
lets	-7538
▁raja	-7539
▁spain	-7540
▁recall	-7541
▁satish	-7542
▁comprehensive	-7543
their	-7544
▁rans	-7545
▁entirely	-7546
▁matt	-7547
▁crude	-7548
▁prohib	-7549
▁ranked	-7550
▁obtained	-7551
▁starring	-7552
▁remembered	-7553
▁10,	-7554
▁theatre	-7555
▁|	-7556
bert	-7557
▁facts	-7558
▁flour	-7559
▁venture	-7560
ota	-7561
▁51	-7562
▁aud	-7563
▁immun	-7564
▁constant	-7565
▁unveiled	-7566
▁positions	-7567
-4	-7568
brother	-7569
▁bitter	-7570
atically	-7571
▁addresses	-7572
▁participating	-7573
nan	-7574
veen	-7575
▁rub	-7576
ashing	-7577
▁2019:	-7578
▁dubai	-7579
▁anymore	-7580
▁businesses	-7581
zy	-7582
▁sib	-7583
▁turns	-7584
▁releases	-7585
▁maldi	-7586
▁rooms	-7587
itaries	-7588
▁pattern	-7589
▁replied	-7590
▁principle	-7591
▁resentment	-7592
arnath	-7593
▁guests	-7594
vneshwar	-7595
▁approximately	-7596
tower	-7597
▁aims	-7598
▁cells	-7599
▁ratnagiri	-7600
▁sbi	-7601
▁mumba	-7602
▁chaudhary	-7603
▁salvation	-7604
▁transactions	-7605
▁significantly	-7606
▁demonetisation	-7607
▁41	-7608
▁buddh	-7609
▁mufti	-7610
▁supporters	-7611
▁missile	-7612
▁reacted	-7613
▁minority	-7614
▁politicians	-7615
▁preparation	-7616
iar	-7617
▁drivers	-7618
▁software	-7619
▁completion	-7620
▁contributed	-7621
▁prophecy	-7622
▁postponed	-7623
▁conclusion	-7624
▁sacrifices	-7625
asan	-7626
▁coin	-7627
ahabad	-7628
▁distin	-7629
▁exports	-7630
▁purchas	-7631
▁establishment	-7632
rekar	-7633
▁wives	-7634
▁onions	-7635
▁jeremiah	-7636
▁improvement	-7637
▁civic	-7638
▁rab	-7639
about	-7640
estyle	-7641
▁aadmi	-7642
▁pilgr	-7643
▁chhagan	-7644
▁sensitive	-7645
ua	-7646
▁overwhel	-7647
sy	-7648
▁chou	-7649
▁gall	-7650
▁hosted	-7651
▁samuel	-7652
▁absence	-7653
▁entering	-7654
▁owa	-7655
▁gehl	-7656
ushree	-7657
▁boil	-7658
▁ordin	-7659
▁sixes	-7660
▁tongue	-7661
▁secured	-7662
▁stressed	-7663
▁processing	-7664
▁sufficient	-7665
▁maintaining	-7666
▁dim	-7667
▁habit	-7668
▁parishad	-7669
▁witnessing	-7670
60	-7671
▁au	-7672
andal	-7673
never	-7674
▁coastal	-7675
thel	-7676
▁exec	-7677
▁corridor	-7678
▁congratulations	-7679
ben	-7680
rather	-7681
lfriend	-7682
▁salary	-7683
▁mistakes	-7684
▁festivals	-7685
▁temperatures	-7686
akumar	-7687
father	-7688
▁ashish	-7689
▁breast	-7690
▁examine	-7691
▁myanmar	-7692
▁dignitaries	-7693
atoes	-7694
▁tall	-7695
▁zone	-7696
▁invite	-7697
eta	-7698
▁39	-7699
eves	-7700
▁iaf	-7701
▁bare	-7702
▁hung	-7703
▁mandir	-7704
▁youre	-7705
▁coffee	-7706
▁decline	-7707
▁affordable	-7708
▁kumaraswamy	-7709
▁nirav	-7710
▁composed	-7711
▁watchtower	-7712
▁continuously	-7713
avi	-7714
onom	-7715
▁recip	-7716
iciency	-7717
▁rashtra	-7718
▁messages	-7719
▁abandoned	-7720
▁52	-7721
atra	-7722
▁decade	-7723
▁inhabit	-7724
▁counting	-7725
government	-7726
▁pool	-7727
▁lesson	-7728
▁outcome	-7729
aman	-7730
izes	-7731
rete	-7732
order	-7733
▁agend	-7734
▁merely	-7735
arpur	-7736
being	-7737
▁flat	-7738
▁depend	-7739
▁worksh	-7740
▁concent	-7741
▁probing	-7742
▁tickets	-7743
▁shoulder	-7744
▁correspond	-7745
11	-7746
upam	-7747
▁rio	-7748
▁exit	-7749
▁icici	-7750
▁patience	-7751
▁supplies	-7752
▁inconvenience	-7753
berg	-7754
cket	-7755
▁nic	-7756
amool	-7757
▁adding	-7758
▁allows	-7759
▁remote	-7760
megapixel	-7761
▁breaking	-7762
▁judgement	-7763
▁ahmednagar	-7764
▁nik	-7765
▁upa	-7766
ppers	-7767
▁gehlot	-7768
▁mainly	-7769
▁purposes	-7770
aks	-7771
▁cloud	-7772
▁43	-7773
▁shape	-7774
▁preach	-7775
▁waiver	-7776
▁strengthened	-7777
▁caa	-7778
▁dharm	-7779
▁paris	-7780
▁girish	-7781
▁adverse	-7782
▁engineer	-7783
▁gent	-7784
▁altar	-7785
▁stuck	-7786
▁tower	-7787
▁condemn	-7788
▁mixture	-7789
▁quarant	-7790
▁withdraw	-7791
▁categories	-7792
rators	-7793
▁bethel	-7794
▁cad	-7795
indeed	-7796
▁accur	-7797
▁analys	-7798
▁crying	-7799
▁mighty	-7800
▁parking	-7801
term	-7802
▁fer	-7803
▁pursue	-7804
laughter	-7805
▁2019-20	-7806
opsy	-7807
▁capable	-7808
▁stronger	-7809
hw	-7810
can	-7811
och	-7812
▁64	-7813
▁burden	-7814
▁expans	-7815
▁indore	-7816
▁square	-7817
▁finding	-7818
▁cooperative	-7819
beat	-7820
oral	-7821
▁sites	-7822
▁bhutan	-7823
▁collapse	-7824
▁tremendous	-7825
mm	-7826
oved	-7827
delhi	-7828
▁pink	-7829
▁reviewed	-7830
antic	-7831
▁neck	-7832
▁rani	-7833
▁colon	-7834
▁sidhu	-7835
▁fastest	-7836
▁allahabad	-7837
▁congregations	-7838
ifies	-7839
▁exists	-7840
▁pratap	-7841
▁mahindra	-7842
▁ale	-7843
dship	-7844
▁subs	-7845
▁compar	-7846
▁george	-7847
▁culprits	-7848
▁ambassador	-7849
▁characters	-7850
▁waterlogging	-7851
▁cord	-7852
▁math	-7853
▁noah	-7854
▁umesh	-7855
▁autopsy	-7856
▁apologise	-7857
▁forgotten	-7858
▁controlled	-7859
ift	-7860
▁showc	-7861
▁telling	-7862
▁hardship	-7863
▁researchers	-7864
▁surrounding	-7865
anj	-7866
avat	-7867
▁navi	-7868
▁shuk	-7869
▁cloth	-7870
▁interaction	-7871
....	-7872
▁liquor	-7873
▁repeat	-7874
▁advisor	-7875
▁extension	-7876
▁gb	-7877
upon	-7878
▁usd	-7879
▁agenda	-7880
▁observe	-7881
▁comfortable	-7882
75	-7883
alal	-7884
held	-7885
uhan	-7886
itect	-7887
▁apps	-7888
▁doors	-7889
▁pujar	-7890
▁ranks	-7891
▁mexico	-7892
▁procure	-7893
inspector	-7894
▁hospitalised	-7895
ibly	-7896
▁cub	-7897
▁globe	-7898
▁blamed	-7899
▁touched	-7900
▁yourselves	-7901
▁accordingly	-7902
child	-7903
▁huss	-7904
▁root	-7905
▁pieces	-7906
▁singles	-7907
▁conspiracy	-7908
anim	-7909
iety	-7910
▁thin	-7911
▁mol	-7912
▁lift	-7913
▁windows	-7914
▁governing	-7915
▁stability	-7916
arr	-7917
otted	-7918
▁rejoice	-7919
▁secular	-7920
▁relationships	-7921
ppy	-7922
teen	-7923
▁crown	-7924
▁savarkar	-7925
▁owaisi	-7926
▁noticed	-7927
tan	-7928
house	-7929
vendra	-7930
▁enquiry	-7931
▁construct	-7932
▁electronic	-7933
▁functioning	-7934
roid	-7935
▁12:	-7936
▁tap	-7937
▁signing	-7938
▁concrete	-7939
▁conferred	-7940
▁tat	-7941
▁rounds	-7942
▁struct	-7943
▁palghar	-7944
▁swearing	-7945
▁teachings	-7946
▁rajan	-7947
▁garden	-7948
▁framework	-7949
▁qualified	-7950
▁20.	-7951
▁arg	-7952
▁khur	-7953
▁opted	-7954
▁ishant	-7955
▁flowers	-7956
▁architect	-7957
▁continuous	-7958
▁girlfriend	-7959
▁fortunately	-7960
ensus	-7961
▁realise	-7962
▁visitors	-7963
▁!	-7964
stit	-7965
▁11,	-7966
▁dab	-7967
▁ken	-7968
pread	-7969
▁camps	-7970
▁psych	-7971
▁britain	-7972
inh	-7973
bage	-7974
▁douse	-7975
▁gates	-7976
▁triple	-7977
idespread	-7978
▁expanded	-7979
▁angels	-7980
▁artists	-7981
▁burning	-7982
▁casualty	-7983
▁sed	-7984
▁anant	-7985
▁kabir	-7986
addition	-7987
▁fitness	-7988
▁strange	-7989
▁survive	-7990
▁generally	-7991
▁greeted	-7992
▁machine	-7993
▁sincere	-7994
▁strikes	-7995
kal	-7996
wale	-7997
▁apple	-7998
▁actual	-7999
▁turning	-8000
▁trinamool	-8001
▁critically	-8002
test	-8003
▁heed	-8004
gments	-8005
▁venue	-8006
▁insult	-8007
▁payments	-8008
▁pleasure	-8009
▁repeatedly	-8010
▁satisfaction	-8011
bour	-8012
evan	-8013
▁empty	-8014
▁10,000	-8015
▁dollar	-8016
▁locked	-8017
▁benefited	-8018
80	-8019
want	-8020
▁gow	-8021
ulate	-8022
▁prag	-8023
▁shes	-8024
▁chest	-8025
▁timely	-8026
▁integral	-8027
▁neighbor	-8028
▁siddiqui	-8029
▁expansion	-8030
ranged	-8031
▁bowled	-8032
▁regime	-8033
▁arguments	-8034
▁consumers	-8035
▁condolences	-8036
▁certificates	-8037
amation	-8038
▁funding	-8039
▁fishermen	-8040
▁objection	-8041
▁highlighted	-8042
pes	-8043
iland	-8044
▁genu	-8045
▁hari	-8046
▁recru	-8047
▁dravid	-8048
▁accommod	-8049
▁maldives	-8050
▁conscience	-8051
goi	-8052
ania	-8053
▁mang	-8054
▁param	-8055
▁perse	-8056
▁stepped	-8057
rants	-8058
▁swed	-8059
▁pathan	-8060
▁indigen	-8061
▁restaur	-8062
▁encouraging	-8063
▁confirmation	-8064
ilas	-8065
▁ndrf	-8066
dients	-8067
▁declare	-8068
▁passport	-8069
▁250	-8070
▁landsl	-8071
▁planet	-8072
ipl	-8073
▁shil	-8074
▁abuse	-8075
▁simpl	-8076
▁summon	-8077
▁teaser	-8078
▁arrival	-8079
▁dealing	-8080
▁intense	-8081
▁martyred	-8082
▁chi	-8083
▁map	-8084
▁brut	-8085
▁genes	-8086
▁56	-8087
orter	-8088
▁foods	-8089
rations	-8090
▁bengali	-8091
▁chakrab	-8092
▁believers	-8093
▁conscious	-8094
▁politician	-8095
ocol	-8096
uded	-8097
▁hect	-8098
bhushan	-8099
▁shukla	-8100
▁newspaper	-8101
▁violation	-8102
hon	-8103
▁ug	-8104
achi	-8105
▁tun	-8106
izers	-8107
▁blame	-8108
taining	-8109
▁routes	-8110
directed	-8111
▁christs	-8112
▁islands	-8113
▁expenses	-8114
▁forthcoming	-8115
sing	-8116
▁cpi	-8117
▁2013	-8118
several	-8119
▁cattle	-8120
▁govind	-8121
▁hebrew	-8122
▁mangal	-8123
▁legendary	-8124
▁sanctioned	-8125
▁bhuvneshwar	-8126
than	-8127
ankar	-8128
icing	-8129
makers	-8130
▁mehbo	-8131
▁customs	-8132
▁protein	-8133
▁surprising	-8134
▁10:	-8135
▁bob	-8136
ingly	-8137
▁behavi	-8138
free	-8139
▁stal	-8140
▁chandr	-8141
ares	-8142
▁laug	-8143
▁poon	-8144
▁godly	-8145
▁nabbed	-8146
▁existence	-8147
▁allegation	-8148
▁laundering	-8149
▁competitions	-8150
emor	-8151
mine	-8152
▁yed	-8153
liest	-8154
▁drag	-8155
▁thereof	-8156
▁discovered	-8157
unte	-8158
urappa	-8159
▁obama	-8160
▁2017-1	-8161
▁contrast	-8162
▁supposed	-8163
▁jy	-8164
▁spr	-8165
▁shre	-8166
▁pandit	-8167
▁reveal	-8168
▁talent	-8169
▁religions	-8170
▁54	-8171
▁kes	-8172
▁vib	-8173
▁gogoi	-8174
▁janhvi	-8175
▁owners	-8176
▁swachh	-8177
▁genuine	-8178
▁whereas	-8179
▁advisory	-8180
▁substant	-8181
▁performing	-8182
▁widespread	-8183
cel	-8184
▁chahal	-8185
▁profit	-8186
▁hussain	-8187
▁generate	-8188
▁5-	-8189
ders	-8190
▁indo	-8191
▁surat	-8192
▁makers	-8193
tel	-8194
▁hopes	-8195
▁minist	-8196
alalitha	-8197
▁anxiety	-8198
pg	-8199
nic	-8200
lars	-8201
▁tmc	-8202
▁devast	-8203
▁hebrews	-8204
▁iraq	-8205
▁mala	-8206
▁horse	-8207
▁ingre	-8208
writ	-8209
▁laugh	-8210
▁dinner	-8211
▁wilder	-8212
▁singing	-8213
▁aro	-8214
power	-8215
▁deol	-8216
▁lady	-8217
▁vacant	-8218
gov	-8219
okes	-8220
▁ice	-8221
▁tag	-8222
▁contem	-8223
▁madhuri	-8224
ache	-8225
▁dat	-8226
owing	-8227
▁pulled	-8228
▁chakrabort	-8229
▁integrated	-8230
▁requirement	-8231
io	-8232
▁120	-8233
▁cath	-8234
▁faster	-8235
▁shashi	-8236
ethi	-8237
class	-8238
▁rebel	-8239
▁metres	-8240
▁tenure	-8241
▁assigned	-8242
▁temporary	-8243
▁interacted	-8244
▁impris	-8245
▁pepper	-8246
▁solved	-8247
▁engines	-8248
▁elements	-8249
▁magistrate	-8250
▁wilderness	-8251
▁imprisonment	-8252
mou	-8253
sels	-8254
▁swim	-8255
enders	-8256
▁royals	-8257
▁tourist	-8258
ultaneous	-8259
▁jewellery	-8260
▁officially	-8261
eld	-8262
▁ire	-8263
illion	-8264
▁pauls	-8265
▁scriptural	-8266
▁launches	-8267
▁depression	-8268
▁availability	-8269
hman	-8270
▁aus	-8271
▁thine	-8272
▁wished	-8273
▁toilets	-8274
70	-8275
works	-8276
▁halt	-8277
▁awake	-8278
▁crack	-8279
▁ransom	-8280
▁caution	-8281
▁tripura	-8282
▁asserted	-8283
fr	-8284
een	-8285
oram	-8286
▁finish	-8287
▁selling	-8288
▁prophets	-8289
anna	-8290
shar	-8291
▁21.	-8292
▁sor	-8293
▁bills	-8294
▁email	-8295
▁infect	-8296
▁regret	-8297
▁affects	-8298
▁anticip	-8299
▁possess	-8300
▁civilian	-8301
hud	-8302
▁fib	-8303
▁grave	-8304
▁divorce	-8305
▁succumb	-8306
▁marketing	-8307
yers	-8308
▁bold	-8309
▁crew	-8310
▁puri	-8311
ushing	-8312
ocation	-8313
▁contra	-8314
▁acceptable	-8315
si	-8316
hael	-8317
look	-8318
encing	-8319
▁updates	-8320
▁mehbooba	-8321
▁tool	-8322
▁2019,	-8323
▁negoti	-8324
▁courses	-8325
▁colleagues	-8326
oja	-8327
▁bik	-8328
▁glass	-8329
▁trend	-8330
▁filing	-8331
▁format	-8332
▁lowest	-8333
▁attackers	-8334
alu	-8335
remo	-8336
▁innoc	-8337
▁terri	-8338
certain	-8339
▁slight	-8340
▁involves	-8341
accordingly	-8342
▁committing	-8343
▁bay	-8344
▁bin	-8345
▁gay	-8346
▁taw	-8347
▁posed	-8348
▁displayed	-8349
▁spokesman	-8350
▁distancing	-8351
▁silence	-8352
▁inflation	-8353
▁recognized	-8354
▁effectively	-8355
▁gut	-8356
point	-8357
raman	-8358
▁desc	-8359
▁plus	-8360
▁rear	-8361
▁vine	-8362
ception	-8363
▁fierce	-8364
▁acknowled	-8365
jam	-8366
ario	-8367
▁reducing	-8368
iest	-8369
▁felicit	-8370
▁protested	-8371
▁chakraborty	-8372
only	-8373
▁dress	-8374
cabinet	-8375
▁native	-8376
▁channels	-8377
▁mac	-8378
irman	-8379
turned	-8380
▁nobel	-8381
▁recognize	-8382
▁reiterated	-8383
▁mud	-8384
▁tie	-8385
▁cardi	-8386
▁pharm	-8387
▁farhan	-8388
▁perfor	-8389
▁deposit	-8390
▁notified	-8391
▁hollywood	-8392
etime	-8393
ishabh	-8394
▁volunte	-8395
▁sacrific	-8396
▁involving	-8397
vijay	-8398
▁finals	-8399
▁prefer	-8400
▁supremo	-8401
▁airlines	-8402
▁nehwal	-8403
▁airports	-8404
▁distingu	-8405
▁everyones	-8406
sk	-8407
grad	-8408
▁aer	-8409
▁wag	-8410
bat	-8411
igad	-8412
▁kne	-8413
▁sham	-8414
▁jewish	-8415
▁equally	-8416
▁attached	-8417
col	-8418
yam	-8419
▁gap	-8420
behold	-8421
▁tired	-8422
▁pramod	-8423
bollywood	-8424
▁jayalalitha	-8425
ipped	-8426
▁cleared	-8427
▁jayanti	-8428
▁portion	-8429
45	-8430
▁[]	-8431
▁125	-8432
ariat	-8433
▁joins	-8434
brothers	-8435
▁uni	-8436
field	-8437
▁cher	-8438
▁couples	-8439
▁eligible	-8440
▁emotions	-8441
▁announces	-8442
▁guarantee	-8443
hin	-8444
▁rot	-8445
meric	-8446
▁ahmad	-8447
▁marked	-8448
▁sensex	-8449
▁screens	-8450
ker	-8451
name	-8452
uing	-8453
▁excl	-8454
mances	-8455
taking	-8456
▁duties	-8457
▁reservo	-8458
▁assignment	-8459
anga	-8460
▁fern	-8461
▁sikh	-8462
▁collision	-8463
▁erup	-8464
▁mung	-8465
▁rhea	-8466
▁tips	-8467
▁frust	-8468
▁utter	-8469
▁amethi	-8470
opp	-8471
▁dix	-8472
▁sli	-8473
▁cogn	-8474
▁sung	-8475
▁prayed	-8476
▁oxy	-8477
▁programs	-8478
▁popularity	-8479
iasm	-8480
such	-8481
aired	-8482
▁humble	-8483
▁riders	-8484
▁strive	-8485
▁affection	-8486
▁manjrekar	-8487
▁permitted	-8488
▁tanushree	-8489
▁performances	-8490
▁grab	-8491
▁sovereignty	-8492
zar	-8493
zek	-8494
rier	-8495
▁pim	-8496
▁bhos	-8497
▁furn	-8498
▁pour	-8499
▁brill	-8500
▁satans	-8501
▁saving	-8502
▁yellow	-8503
▁restored	-8504
▁celebrating	-8505
▁involvement	-8506
▁translation	-8507
ighth	-8508
▁johns	-8509
▁jonas	-8510
▁pujara	-8511
▁thailand	-8512
▁sentiments	-8513
▁47	-8514
ider	-8515
ether	-8516
ichand	-8517
▁injust	-8518
▁enthusiasm	-8519
▁substantial	-8520
haraoh	-8521
▁clarified	-8522
▁extensive	-8523
▁applicable	-8524
pay	-8525
▁gy	-8526
▁11:	-8527
▁nax	-8528
▁eggs	-8529
▁haven	-8530
▁tonnes	-8531
▁federal	-8532
▁commented	-8533
▁universal	-8534
▁constitutional	-8535
eties	-8536
▁couldn	-8537
▁prompt	-8538
▁rulers	-8539
▁vitamin	-8540
▁prospect	-8541
▁punished	-8542
▁secretariat	-8543
▁14,	-8544
▁ron	-8545
▁smt	-8546
erals	-8547
▁2011	-8548
itated	-8549
▁2018,	-8550
▁foret	-8551
▁links	-8552
▁feared	-8553
▁joshua	-8554
olic	-8555
▁rush	-8556
cill	-8557
▁pic	-8558
▁aayog	-8559
▁publications	-8560
▁mm	-8561
▁lah	-8562
▁miz	-8563
▁gifts	-8564
▁norms	-8565
▁baptism	-8566
▁helpful	-8567
▁rishabh	-8568
▁backward	-8569
▁explains	-8570
▁turmeric	-8571
▁breathing	-8572
▁jin	-8573
▁osc	-8574
▁topic	-8575
▁walls	-8576
▁beating	-8577
▁objected	-8578
agra	-8579
bhir	-8580
▁bio	-8581
▁sanit	-8582
▁globally	-8583
▁overseas	-8584
▁proclaim	-8585
▁inhabitants	-8586
▁secretaries	-8587
▁ol	-8588
entions	-8589
▁explan	-8590
▁sexually	-8591
▁primarily	-8592
hap	-8593
▁46	-8594
chell	-8595
▁breat	-8596
▁dixit	-8597
▁maiden	-8598
▁traged	-8599
▁coaches	-8600
▁pleasant	-8601
▁nutrition	-8602
oda	-8603
itime	-8604
▁mate	-8605
▁portug	-8606
▁forgive	-8607
▁passion	-8608
▁pleased	-8609
▁devotion	-8610
▁counterpart	-8611
▁simultaneous	-8612
osa	-8613
rum	-8614
hali	-8615
▁hik	-8616
▁wre	-8617
▁agra	-8618
▁labs	-8619
▁zero	-8620
▁cycle	-8621
▁accomplish	-8622
▁directions	-8623
ujan	-8624
▁600	-8625
▁nomine	-8626
▁stages	-8627
▁tracks	-8628
▁flooded	-8629
▁santosh	-8630
▁difficulty	-8631
akar	-8632
▁chris	-8633
▁respected	-8634
nevertheless	-8635
aval	-8636
rian	-8637
▁mirza	-8638
▁ruler	-8639
▁amazon	-8640
▁oppose	-8641
▁arrests	-8642
▁screening	-8643
▁ingredients	-8644
cor	-8645
jeev	-8646
▁kadam	-8647
▁forests	-8648
▁randeep	-8649
▁emerging	-8650
▁thankful	-8651
▁belonging	-8652
▁membership	-8653
▁chandrayaan	-8654
dis	-8655
mus	-8656
▁tir	-8657
▁pled	-8658
▁tied	-8659
▁dalit	-8660
▁towns	-8661
▁chilli	-8662
▁publis	-8663
▁tribes	-8664
▁profile	-8665
▁advantages	-8666
▁experiment	-8667
aan	-8668
-19.	-8669
utva	-8670
▁12,	-8671
▁192	-8672
▁sagar	-8673
▁breaks	-8674
▁cooking	-8675
addressing	-8676
▁kulbhushan	-8677
car	-8678
feren	-8679
▁evac	-8680
itious	-8681
senior	-8682
▁junior	-8683
▁gambhir	-8684
▁imports	-8685
po	-8686
▁roof	-8687
▁attra	-8688
▁slated	-8689
▁inheritance	-8690
sat	-8691
▁idol	-8692
▁ginger	-8693
▁latter	-8694
▁maritime	-8695
▁imperfect	-8696
▁dust	-8697
▁miles	-8698
▁sabar	-8699
▁ramdas	-8700
▁revised	-8701
▁petitions	-8702
▁youngsters	-8703
▁jord	-8704
▁ghosh	-8705
▁jawan	-8706
▁accurate	-8707
▁universe	-8708
aze	-8709
▁fate	-8710
▁booth	-8711
▁limits	-8712
▁desires	-8713
▁michael	-8714
▁qualify	-8715
▁convinced	-8716
raf	-8717
▁nay	-8718
▁shed	-8719
▁risen	-8720
ogether	-8721
▁oxygen	-8722
▁migrant	-8723
▁prabhas	-8724
▁suicides	-8725
▁attempted	-8726
jeet	-8727
▁fab	-8728
▁slams	-8729
▁madras	-8730
▁garbage	-8731
▁kapur	-8732
▁tribe	-8733
▁endure	-8734
▁economics	-8735
▁lifestyle	-8736
▁institutes	-8737
▁prestigious	-8738
guard	-8739
▁hdfc	-8740
▁wors	-8741
antiwar	-8742
▁prashant	-8743
oe	-8744
till	-8745
▁fame	-8746
▁visa	-8747
▁summoned	-8748
gam	-8749
ounds	-8750
▁owned	-8751
▁riots	-8752
▁raigad	-8753
▁behavior	-8754
hati	-8755
roll	-8756
▁ved	-8757
ician	-8758
month	-8759
▁asad	-8760
▁ashw	-8761
▁acres	-8762
▁laksh	-8763
▁comedy	-8764
▁declar	-8765
▁memories	-8766
▁shipping	-8767
▁translated	-8768
inth	-8769
▁iit	-8770
▁arts	-8771
▁batt	-8772
▁exped	-8773
▁khadse	-8774
▁producing	-8775
▁percentage	-8776
▁traditions	-8777
lu	-8778
five	-8779
mila	-8780
▁bip	-8781
wheel	-8782
▁hell	-8783
aulted	-8784
▁kidna	-8785
▁stick	-8786
tenance	-8787
▁thrill	-8788
▁comprom	-8789
▁pankaja	-8790
▁represents	-8791
vraj	-8792
▁130	-8793
▁mask	-8794
▁mahar	-8795
▁buying	-8796
▁pistol	-8797
▁reference	-8798
▁mungantiwar	-8799
mn	-8800
ints	-8801
lers	-8802
▁draft	-8803
▁intel	-8804
▁repent	-8805
▁spanish	-8806
▁moderate	-8807
▁procurement	-8808
▁1-0	-8809
▁namely	-8810
mates	-8811
▁alex	-8812
▁mally	-8813
▁tweets	-8814
▁electro	-8815
▁trapped	-8816
▁governors	-8817
▁jp	-8818
▁spo	-8819
▁twel	-8820
▁wire	-8821
▁compuls	-8822
▁pharaoh	-8823
▁employee	-8824
▁behaviour	-8825
▁59	-8826
▁alok	-8827
▁ncps	-8828
▁sans	-8829
utation	-8830
▁elimin	-8831
▁unanim	-8832
▁dg	-8833
hwag	-8834
▁vul	-8835
▁obst	-8836
▁sees	-8837
▁chase	-8838
▁ephes	-8839
▁empire	-8840
▁urgent	-8841
▁coordination	-8842
▁ig	-8843
east	-8844
▁bird	-8845
▁explo	-8846
▁volume	-8847
▁hindust	-8848
▁showers	-8849
▁ordinary	-8850
▁realised	-8851
▁ministries	-8852
▁23.	-8853
▁godd	-8854
▁2,000	-8855
▁minute	-8856
▁rahane	-8857
▁allocated	-8858
▁7:	-8859
▁hav	-8860
▁sai	-8861
odhpur	-8862
▁unclean	-8863
ifty	-8864
osis	-8865
▁kaj	-8866
▁pok	-8867
▁2022.	-8868
related	-8869
▁adjust	-8870
▁kumble	-8871
▁genesis	-8872
▁attribut	-8873
bcci	-8874
▁exh	-8875
▁ipc	-8876
▁norm	-8877
▁drown	-8878
▁unpre	-8879
austral	-8880
▁update	-8881
▁sending	-8882
▁recognition	-8883
▁dw	-8884
▁ase	-8885
nekar	-8886
anches	-8887
▁fifty	-8888
▁adults	-8889
▁margin	-8890
▁valuable	-8891
-16	-8892
olved	-8893
▁brave	-8894
▁episode	-8895
▁subsidy	-8896
▁enjoying	-8897
▁(3	-8898
▁2.5	-8899
erves	-8900
▁cous	-8901
▁grace	-8902
▁winds	-8903
▁estate	-8904
▁korean	-8905
▁washed	-8906
▁lawyers	-8907
▁remarkable	-8908
minister	-8909
▁executed	-8910
▁locality	-8911
▁personalities	-8912
▁mc	-8913
▁chick	-8914
amendment	-8915
▁felicitated	-8916
▁maintenance	-8917
fire	-8918
▁balak	-8919
▁brahm	-8920
▁pawan	-8921
▁exceed	-8922
▁mathem	-8923
▁android	-8924
▁apology	-8925
▁isolated	-8926
pra	-8927
vals	-8928
▁fran	-8929
▁gross	-8930
▁dharmendra	-8931
consequently	-8932
icop	-8933
▁demol	-8934
▁fulfil	-8935
children	-8936
▁covering	-8937
▁treasure	-8938
▁assaulted	-8939
▁stakeholders	-8940
▁contributions	-8941
▁53	-8942
aved	-8943
itled	-8944
perse	-8945
▁tort	-8946
▁piece	-8947
▁uncon	-8948
▁carbon	-8949
▁reaches	-8950
kat	-8951
onent	-8952
▁kher	-8953
▁juice	-8954
▁dating	-8955
▁thrown	-8956
▁injustice	-8957
▁pregnancy	-8958
▁nawazuddin	-8959
▁regulations	-8960
anes	-8961
▁niti	-8962
▁pays	-8963
▁nephew	-8964
▁boundaries	-8965
▁interrogated	-8966
▁2010	-8967
ishankar	-8968
▁checked	-8969
▁crashed	-8970
▁goddess	-8971
▁cheating	-8972
▁machines	-8973
▁considerable	-8974
cher	-8975
otic	-8976
▁hem	-8977
▁adds	-8978
allist	-8979
▁jordan	-8980
▁helicop	-8981
▁justices	-8982
▁rashtrapati	-8983
iniv	-8984
▁13:	-8985
▁rif	-8986
▁voc	-8987
ravati	-8988
▁pooja	-8989
▁renow	-8990
▁viewed	-8991
▁mislead	-8992
▁balanced	-8993
▁traveling	-8994
occ	-8995
▁jio	-8996
▁rawal	-8997
▁shift	-8998
▁tomar	-8999
▁heading	-9000
▁allowing	-9001
▁believes	-9002
▁commence	-9003
▁coverage	-9004
▁diversity	-9005
▁generated	-9006
reli	-9007
your	-9008
▁sahib	-9009
▁ships	-9010
▁elabor	-9011
▁kashyap	-9012
▁kaushal	-9013
aq	-9014
hor	-9015
flow	-9016
▁dair	-9017
wicket	-9018
▁2014,	-9019
▁amend	-9020
▁irrfan	-9021
▁apprehen	-9022
▁engagement	-9023
▁separately	-9024
▁achievements	-9025
gic	-9026
nor	-9027
▁leve	-9028
▁malaika	-9029
▁shivraj	-9030
▁commemor	-9031
▁ark	-9032
hudurg	-9033
rapped	-9034
▁trace	-9035
▁server	-9036
▁unbeat	-9037
icy	-9038
ogy	-9039
▁pdp	-9040
▁abbas	-9041
▁vidya	-9042
▁adjour	-9043
▁tackle	-9044
ferences	-9045
▁chopped	-9046
▁ireland	-9047
▁husbands	-9048
▁advertise	-9049
▁policeman	-9050
▁emphasized	-9051
▁inaugurate	-9052
babu	-9053
▁nil	-9054
lihood	-9055
▁evacu	-9056
▁assass	-9057
▁diverse	-9058
▁recalled	-9059
het	-9060
bery	-9061
▁assail	-9062
▁hidden	-9063
▁jodhpur	-9064
▁notices	-9065
▁livelihood	-9066
▁sew	-9067
▁2012	-9068
▁aimed	-9069
▁disperse	-9070
▁hide	-9071
▁rall	-9072
▁masood	-9073
▁sehwag	-9074
▁unless	-9075
▁earthly	-9076
▁scoring	-9077
▁conveyed	-9078
▁associate	-9079
-0.	-9080
▁conce	-9081
▁commend	-9082
▁sleeping	-9083
▁tripathi	-9084
▁ordinance	-9085
omi	-9086
somet	-9087
cedented	-9088
▁councill	-9089
▁hindutva	-9090
▁vacation	-9091
▁efficiency	-9092
kim	-9093
etnam	-9094
reshi	-9095
▁sequ	-9096
▁yours	-9097
▁backed	-9098
▁flying	-9099
▁kilomet	-9100
▁lifetime	-9101
▁northeast	-9102
agon	-9103
arsh	-9104
oided	-9105
▁inner	-9106
▁smoke	-9107
▁funeral	-9108
▁retained	-9109
▁efficient	-9110
▁105	-9111
soever	-9112
wealth	-9113
▁cares	-9114
chandra	-9115
▁hatred	-9116
▁criticized	-9117
▁challengers	-9118
▁cot	-9119
▁chemicals	-9120
▁offerings	-9121
▁bol	-9122
▁bhup	-9123
▁eighth	-9124
▁tragedy	-9125
▁convicts	-9126
▁entrance	-9127
▁indicated	-9128
▁protected	-9129
▁cab	-9130
▁nod	-9131
▁jain	-9132
▁acute	-9133
▁bottom	-9134
▁ensured	-9135
▁relation	-9136
▁assurance	-9137
▁disappoint	-9138
▁physically	-9139
onda	-9140
▁syn	-9141
▁earliest	-9142
▁situated	-9143
▁declaration	-9144
▁ky	-9145
▁31.	-9146
▁brown	-9147
▁seeks	-9148
▁tempt	-9149
acharya	-9150
teshwar	-9151
▁resigns	-9152
▁stretch	-9153
▁realized	-9154
▁intellect	-9155
▁destination	-9156
▁determination	-9157
▁joe	-9158
▁upload	-9159
▁auction	-9160
▁avoided	-9161
▁enhanced	-9162
▁operated	-9163
▁renowned	-9164
▁reactions	-9165
▁"'	-9166
inda	-9167
▁ray	-9168
sider	-9169
▁stro	-9170
▁input	-9171
▁lunch	-9172
▁rehab	-9173
▁pimpri	-9174
▁shakti	-9175
▁spouse	-9176
▁staged	-9177
▁sanjeev	-9178
▁watched	-9179
▁confused	-9180
▁gujarati	-9181
▁functions	-9182
▁unprecedented	-9183
rog	-9184
▁30.	-9185
▁weve	-9186
▁armies	-9187
▁bahujan	-9188
▁discrim	-9189
▁richest	-9190
▁commuters	-9191
▁campaigning	-9192
▁22.	-9193
▁ally	-9194
▁grass	-9195
▁dollars	-9196
▁mechanism	-9197
▁resulting	-9198
▁communications	-9199
km	-9200
icc	-9201
uster	-9202
▁drew	-9203
terror	-9204
▁paste	-9205
▁raghu	-9206
▁doubts	-9207
▁shilpa	-9208
▁trading	-9209
▁scenario	-9210
yl	-9211
hika	-9212
take	-9213
▁gains	-9214
▁rival	-9215
vernight	-9216
▁merchan	-9217
▁virtual	-9218
▁producers	-9219
▁representative	-9220
reen	-9221
▁bap	-9222
▁inqu	-9223
▁2016.	-9224
▁compos	-9225
▁combined	-9226
▁recognised	-9227
ull	-9228
ayam	-9229
▁25.	-9230
▁lam	-9231
happy	-9232
ilead	-9233
▁summ	-9234
ourable	-9235
rounder	-9236
▁button	-9237
▁grounds	-9238
nb	-9239
organ	-9240
▁jets	-9241
lement	-9242
▁usage	-9243
another	-9244
election	-9245
yari	-9246
▁javed	-9247
▁turkey	-9248
▁qureshi	-9249
▁analysis	-9250
▁statistics	-9251
oes	-9252
.""""	-9253
▁syria	-9254
▁bandra	-9255
▁harish	-9256
▁flo	-9257
endar	-9258
inate	-9259
▁latur	-9260
▁madhav	-9261
▁writers	-9262
▁unbeaten	-9263
▁abu	-9264
▁await	-9265
▁shell	-9266
▁zones	-9267
▁facult	-9268
▁mallya	-9269
▁beloved	-9270
far	-9271
▁sania	-9272
▁covers	-9273
▁knight	-9274
▁extraord	-9275
▁overnight	-9276
▁businessman	-9277
eti	-9278
ica	-9279
zed	-9280
asse	-9281
▁bis	-9282
rates	-9283
▁cough	-9284
▁yatra	-9285
▁tabled	-9286
▁chouhan	-9287
▁innovative	-9288
▁commandments	-9289
gl	-9290
def	-9291
esty	-9292
ilee	-9293
▁pel	-9294
▁1000	-9295
▁fatal	-9296
▁obero	-9297
▁tharo	-9298
▁consol	-9299
▁drawing	-9300
▁branches	-9301
▁humility	-9302
▁sidharth	-9303
▁inauguration	-9304
▁transparency	-9305
bur	-9306
ashe	-9307
▁iff	-9308
▁ceas	-9309
▁ital	-9310
phones	-9311
▁paddy	-9312
▁suspic	-9313
▁indigenous	-9314
▁anan	-9315
▁dogs	-9316
regard	-9317
zvendra	-9318
▁bibles	-9319
▁workshop	-9320
▁siddharth	-9321
▁encouragement	-9322
top	-9323
▁maur	-9324
▁sake	-9325
mother	-9326
▁yuvraj	-9327
▁bhagwat	-9328
▁allocation	-9329
▁households	-9330
▁transparent	-9331
▁adm	-9332
▁raw	-9333
▁wip	-9334
▁dealt	-9335
▁krish	-9336
▁vicky	-9337
▁gender	-9338
▁ranchi	-9339
▁cyclone	-9340
▁arranged	-9341
izer	-9342
▁mars	-9343
▁jyoti	-9344
▁senas	-9345
working	-9346
▁moments	-9347
▁instructed	-9348
aid	-9349
▁vo	-9350
arers	-9351
▁print	-9352
▁grover	-9353
▁twelve	-9354
▁developments	-9355
-21	-9356
dian	-9357
ruta	-9358
chest	-9359
▁dram	-9360
▁plot	-9361
▁wrath	-9362
▁driven	-9363
▁poetry	-9364
▁raises	-9365
▁smaller	-9366
▁smoking	-9367
▁threats	-9368
▁improves	-9369
▁collective	-9370
▁supervision	-9371
alle	-9372
iers	-9373
▁13,	-9374
▁16,	-9375
▁raid	-9376
▁habits	-9377
▁kanpur	-9378
▁oberoi	-9379
▁reduces	-9380
▁offences	-9381
▁disclosed	-9382
▁transformation	-9383
▁mt	-9384
▁ze	-9385
▁bind	-9386
▁saty	-9387
▁stom	-9388
▁syed	-9389
▁upto	-9390
▁choud	-9391
▁disha	-9392
▁gandh	-9393
▁halted	-9394
▁dignity	-9395
▁operate	-9396
▁chandrababu	-9397
▁commonwealth	-9398
▁examinations	-9399
18	-9400
felt	-9401
▁nifty	-9402
▁subscri	-9403
▁vietnam	-9404
▁momentum	-9405
▁newspapers	-9406
▁deteriorated	-9407
200	-9408
bhai	-9409
▁kosh	-9410
▁beliefs	-9411
▁simultaneously	-9412
cm	-9413
dt	-9414
▁urge	-9415
▁ayurved	-9416
▁lessons	-9417
▁minerals	-9418
▁)	-9419
etic	-9420
ouri	-9421
▁bsf	-9422
cture	-9423
umped	-9424
▁ring	-9425
▁2014.	-9426
▁split	-9427
▁wages	-9428
▁narrow	-9429
▁punjabi	-9430
▁receives	-9431
▁postmortem	-9432
▁eph	-9433
inkya	-9434
▁phen	-9435
▁tables	-9436
▁persecution	-9437
adhy	-9438
▁deleg	-9439
▁panch	-9440
▁remake	-9441
▁sealed	-9442
▁reviews	-9443
▁rendering	-9444
▁explanation	-9445
san	-9446
hind	-9447
▁ramp	-9448
▁neighbouring	-9449
▁amen	-9450
▁beef	-9451
▁fours	-9452
▁kiran	-9453
▁throne	-9454
▁annually	-9455
▁delighted	-9456
▁bypol	-9457
▁metal	-9458
▁vilas	-9459
ighters	-9460
▁emphasis	-9461
▁committees	-9462
▁excellence	-9463
▁implementing	-9464
inter	-9465
▁iffi	-9466
▁iyer	-9467
americ	-9468
urally	-9469
▁putin	-9470
▁termed	-9471
▁philist	-9472
▁routine	-9473
▁isolation	-9474
▁connections	-9475
▁57	-9476
aded	-9477
▁bun	-9478
▁naz	-9479
▁propag	-9480
▁mindset	-9481
▁ranking	-9482
otherwise	-9483
▁diplomatic	-9484
▁intervention	-9485
jot	-9486
▁24.	-9487
▁beast	-9488
▁cured	-9489
▁bearing	-9490
▁critics	-9491
▁lankesh	-9492
▁rehabil	-9493
ferencing	-9494
▁quarantine	-9495
▁relatively	-9496
krit	-9497
iforn	-9498
▁sadd	-9499
cellor	-9500
▁tools	-9501
▁analyst	-9502
▁hanging	-9503
▁pradeep	-9504
▁prescri	-9505
▁achieving	-9506
▁perspective	-9507
▁19,	-9508
▁tai	-9509
brand	-9510
▁ambul	-9511
▁kartik	-9512
▁motors	-9513
▁explore	-9514
▁persist	-9515
▁amravati	-9516
▁contrary	-9517
▁immunity	-9518
▁levelled	-9519
▁vv	-9520
▁kas	-9521
▁kim	-9522
▁robert	-9523
▁diverted	-9524
▁innocent	-9525
▁suburban	-9526
▁weakness	-9527
itra	-9528
pected	-9529
▁voter	-9530
▁borrow	-9531
▁default	-9532
▁masters	-9533
▁finalised	-9534
▁impressed	-9535
▁countrymen	-9536
▁aged	-9537
▁bans	-9538
▁icon	-9539
▁okay	-9540
▁danve	-9541
▁pulses	-9542
▁ajinkya	-9543
▁levites	-9544
▁thunder	-9545
▁complainant	-9546
▁@	-9547
roc	-9548
dist	-9549
▁chowk	-9550
▁stores	-9551
▁motorcycle	-9552
▁legislation	-9553
paul	-9554
▁lpg	-9555
▁ears	-9556
▁loyalty	-9557
ails	-9558
rupt	-9559
anaji	-9560
inton	-9561
▁bhai	-9562
▁scal	-9563
▁firmly	-9564
▁awaited	-9565
▁discont	-9566
▁familiar	-9567
▁gavaskar	-9568
▁heartfelt	-9569
▁yuzvendra	-9570
▁fi	-9571
▁raina	-9572
▁gilead	-9573
▁poison	-9574
▁graduate	-9575
▁abrogation	-9576
mat	-9577
▁tob	-9578
iciary	-9579
▁intim	-9580
▁outfit	-9581
▁weapon	-9582
▁cheaper	-9583
▁californ	-9584
▁occupied	-9585
▁telephone	-9586
▁legislator	-9587
hol	-9588
▁29.	-9589
arshan	-9590
▁meals	-9591
▁mitchell	-9592
▁psalmist	-9593
▁fulfillment	-9594
▁jayalalithaa	-9595
jj	-9596
osy	-9597
▁pi	-9598
esha	-9599
heav	-9600
▁vain	-9601
▁2017,	-9602
▁taluka	-9603
▁circles	-9604
▁library	-9605
▁whenever	-9606
▁cultivate	-9607
▁extraordinary	-9608
▁uae	-9609
▁appr	-9610
▁crushed	-9611
▁reveals	-9612
▁apparently	-9613
▁philosophy	-9614
arh	-9615
rist	-9616
▁fold	-9617
▁khal	-9618
▁medi	-9619
▁thick	-9620
▁franch	-9621
▁gorakh	-9622
▁iphone	-9623
▁exposed	-9624
▁mizoram	-9625
▁childrens	-9626
▁aspirations	-9627
cov	-9628
roli	-9629
party	-9630
▁kick	-9631
▁remed	-9632
▁deficit	-9633
▁pilgrims	-9634
▁subraman	-9635
▁suitable	-9636
▁inclusive	-9637
▁islamabad	-9638
▁defamation	-9639
▁jais	-9640
▁loud	-9641
▁neer	-9642
▁accus	-9643
▁butter	-9644
▁exempt	-9645
▁writes	-9646
▁predict	-9647
▁reputation	-9648
▁unfortunately	-9649
65	-9650
sed	-9651
▁67	-9652
rape	-9653
▁isha	-9654
▁rite	-9655
▁unex	-9656
▁bahad	-9657
▁faroo	-9658
▁stomach	-9659
▁determine	-9660
ino	-9661
wed	-9662
▁fet	-9663
▁hyp	-9664
swami	-9665
▁ritu	-9666
▁unse	-9667
▁baram	-9668
▁prose	-9669
▁shaikh	-9670
▁recruit	-9671
▁shepherd	-9672
▁transmission	-9673
▁cotton	-9674
▁mining	-9675
▁automatically	-9676
chwad	-9677
making	-9678
▁lucky	-9679
▁raksha	-9680
▁warrior	-9681
▁militant	-9682
▁relating	-9683
▁supplied	-9684
▁competitive	-9685
▁jams	-9686
▁shaw	-9687
▁revol	-9688
▁asaduddin	-9689
▁suspension	-9690
▁apprehended	-9691
lor	-9692
named	-9693
▁assum	-9694
▁shiva	-9695
▁sorry	-9696
▁thirty	-9697
▁harmful	-9698
▁processes	-9699
▁gandhinagar	-9700
▁professionals	-9701
12	-9702
atar	-9703
oomi	-9704
▁tah	-9705
▁depth	-9706
isition	-9707
▁liquid	-9708
▁wouldnt	-9709
▁rajkumar	-9710
▁california	-9711
▁72	-9712
▁iv	-9713
ubali	-9714
▁lone	-9715
▁neut	-9716
▁tawde	-9717
▁retain	-9718
▁sarpan	-9719
▁enabled	-9720
australia	-9721
▁foretold	-9722
▁judiciary	-9723
▁connecting	-9724
▁reservoirs	-9725
▁institutional	-9726
conf	-9727
hadi	-9728
▁sop	-9729
▁2022	-9730
▁pacer	-9731
▁lovers	-9732
▁missed	-9733
▁unlike	-9734
▁cordoned	-9735
▁handling	-9736
▁wildlife	-9737
▁objectives	-9738
▁electronics	-9739
amit	-9740
▁apt	-9741
fection	-9742
▁lahore	-9743
▁designated	-9744
▁administered	-9745
▁beach	-9746
▁drain	-9747
▁essay	-9748
▁richar	-9749
▁johnson	-9750
▁kitchen	-9751
▁theatres	-9752
gin	-9753
nat	-9754
kanth	-9755
▁dairy	-9756
▁lieut	-9757
▁probed	-9758
ulations	-9759
▁nominee	-9760
▁succumbed	-9761
▁assessment	-9762
rud	-9763
▁adul	-9764
utical	-9765
▁bonds	-9766
▁clock	-9767
▁repro	-9768
▁surge	-9769
▁haasan	-9770
▁acceler	-9771
▁""""""",	-9772
▁allotted	-9773
▁equipped	-9774
▁trillion	-9775
sey	-9776
uma	-9777
▁85	-9778
hent	-9779
atics	-9780
▁elim	-9781
▁safely	-9782
▁corrupt	-9783
▁tharoor	-9784
▁residential	-9785
▁productivity	-9786
▁discrimination	-9787
few	-9788
▁bhas	-9789
lessly	-9790
▁surviv	-9791
▁theory	-9792
▁brilliant	-9793
▁nationals	-9794
90	-9795
ibe	-9796
▁62	-9797
▁mangesh	-9798
gad	-9799
▁canad	-9800
▁firms	-9801
▁ports	-9802
▁semin	-9803
▁autonom	-9804
▁discoura	-9805
cts	-9806
imp	-9807
▁fur	-9808
▁beds	-9809
▁arose	-9810
▁plain	-9811
without	-9812
▁vulner	-9813
▁bahadur	-9814
▁mandate	-9815
▁clinical	-9816
▁uncertain	-9817
▁responding	-9818
▁possibilities	-9819
umn	-9820
zen	-9821
efire	-9822
▁tuss	-9823
▁disag	-9824
▁owing	-9825
▁jumped	-9826
▁targets	-9827
▁ideology	-9828
▁koshyari	-9829
▁warriors	-9830
▁ceasefire	-9831
▁reception	-9832
awa	-9833
gil	-9834
iel	-9835
cium	-9836
▁sank	-9837
▁volunt	-9838
ographer	-9839
▁italian	-9840
▁contempt	-9841
▁babasaheb	-9842
▁cooperate	-9843
uki	-9844
ulous	-9845
▁2008	-9846
▁padm	-9847
deputy	-9848
owered	-9849
▁depri	-9850
▁indul	-9851
evances	-9852
▁nurses	-9853
▁founded	-9854
▁mumbais	-9855
▁patnaik	-9856
plus	-9857
▁cyl	-9858
▁halls	-9859
▁inund	-9860
▁bother	-9861
▁grants	-9862
▁kilome	-9863
▁models	-9864
▁serves	-9865
▁sultan	-9866
▁ashamed	-9867
▁compare	-9868
▁monthly	-9869
▁claiming	-9870
▁creative	-9871
▁violating	-9872
iast	-9873
▁144	-9874
conds	-9875
▁2016,	-9876
sharing	-9877
▁discre	-9878
▁selfie	-9879
▁riteish	-9880
▁possibly	-9881
▁youngest	-9882
▁manifesto	-9883
▁grievances	-9884
▁sms	-9885
▁fond	-9886
▁msme	-9887
▁omar	-9888
▁vall	-9889
▁kisan	-9890
▁sangh	-9891
▁allies	-9892
▁buried	-9893
▁molest	-9894
▁salute	-9895
▁upgrad	-9896
▁insight	-9897
furthermore	-9898
▁thoroughly	-9899
sun	-9900
icks	-9901
▁kur	-9902
▁vij	-9903
▁flam	-9904
around	-9905
▁sheet	-9906
▁commod	-9907
liminary	-9908
narendra	-9909
▁combine	-9910
▁eternal	-9911
unfortunately	-9912
13	-9913
org	-9914
iece	-9915
made	-9916
shad	-9917
▁eid	-9918
orses	-9919
▁lion	-9920
▁2020,	-9921
▁brows	-9922
▁chart	-9923
▁conqu	-9924
▁kriti	-9925
▁landed	-9926
▁calcium	-9927
▁execution	-9928
▁illustration	-9929
▁8:	-9930
akha	-9931
inath	-9932
▁fron	-9933
▁gorge	-9934
▁folder	-9935
▁gorakhpur	-9936
▁28.	-9937
▁gosp	-9938
▁prevailed	-9939
▁originally	-9940
bl	-9941
loc	-9942
ori	-9943
tha	-9944
▁58	-9945
▁6-	-9946
atri	-9947
iban	-9948
▁gaj	-9949
▁viv	-9950
▁abdu	-9951
▁puts	-9952
abaddi	-9953
▁akbar	-9954
▁noise	-9955
▁ought	-9956
▁saeed	-9957
▁stays	-9958
▁litres	-9959
▁masjid	-9960
▁specified	-9961
dc	-9962
▁gear	-9963
▁kail	-9964
▁lamp	-9965
▁optim	-9966
▁airtel	-9967
▁incess	-9968
▁faculty	-9969
▁exciting	-9970
▁withdrawal	-9971
▁instruction	-9972
▁waterlogged	-9973
-17	-9974
dire	-9975
▁abhin	-9976
▁argent	-9977
▁heated	-9978
▁scores	-9979
▁chronic	-9980
▁rallies	-9981
▁calendar	-9982
▁similarly	-9983
▁corresponding	-9984
div	-9985
itary	-9986
▁cried	-9987
▁griev	-9988
▁milind	-9989
▁oldest	-9990
▁panvel	-9991
▁athletes	-9992
▁departed	-9993
▁jaishankar	-9994
17	-9995
▁feast	-9996
▁swing	-9997
▁hotels	-9998
▁maruti	-9999
▁dancing	-10000
▁removal	-10001
▁shouldnt	-10002
eev	-10003
phan	-10004
▁bose	-10005
▁kumb	-10006
▁unif	-10007
stream	-10008
▁ending	-10009
▁eagerly	-10010
▁partial	-10011
▁separated	-10012
▁nominations	-10013
pour	-10014
▁nathan	-10015
▁tabern	-10016
▁authent	-10017
▁cutting	-10018
▁largely	-10019
▁thereby	-10020
▁educated	-10021
95	-10022
nah	-10023
▁blaze	-10024
▁kajol	-10025
▁slain	-10026
▁navjot	-10027
▁princes	-10028
▁quantity	-10029
▁virender	-10030
▁referring	-10031
▁lieutenant	-10032
▁800	-10033
▁kin	-10034
ishes	-10035
short	-10036
▁impart	-10037
▁laxman	-10038
ifically	-10039
▁conclude	-10040
▁distinct	-10041
▁entitled	-10042
▁respects	-10043
▁safeguard	-10044
▁congestion	-10045
fl	-10046
erving	-10047
▁longest	-10048
▁posters	-10049
▁fighters	-10050
▁preserve	-10051
▁audiences	-10052
▁christmas	-10053
sch	-10054
▁dmk	-10055
▁farooq	-10056
▁homage	-10057
▁sikkim	-10058
▁consumed	-10059
▁pednekar	-10060
▁protecting	-10061
una	-10062
▁elev	-10063
▁surg	-10064
▁chauhan	-10065
▁terrible	-10066
▁suspicion	-10067
▁conviction	-10068
▁firefighters	-10069
asha	-10070
▁tik	-10071
jewala	-10072
yahweh	-10073
▁balan	-10074
whether	-10075
▁kashmiri	-10076
ng	-10077
exp	-10078
face	-10079
dible	-10080
▁edge	-10081
▁ghaz	-10082
▁rand	-10083
▁toilet	-10084
▁bridges	-10085
▁choices	-10086
▁desired	-10087
▁capitals	-10088
▁equality	-10089
▁combination	-10090
▁overwhelming	-10091
bai	-10092
lif	-10093
▁ori	-10094
▁thom	-10095
▁incur	-10096
▁topics	-10097
▁heights	-10098
▁switched	-10099
▁hindustan	-10100
▁preliminary	-10101
dh	-10102
▁kk	-10103
sell	-10104
▁jas	-10105
conut	-10106
▁shat	-10107
▁lankan	-10108
▁shelar	-10109
▁stokes	-10110
▁martyrs	-10111
sometimes	-10112
▁apprised	-10113
▁clothing	-10114
▁somewhere	-10115
▁missionary	-10116
▁err	-10117
▁muz	-10118
osure	-10119
▁cope	-10120
▁tope	-10121
▁iniqu	-10122
▁50,000	-10123
▁embass	-10124
▁nether	-10125
▁perpet	-10126
▁robbers	-10127
▁savings	-10128
▁disputes	-10129
▁intended	-10130
▁releasing	-10131
▁accomplished	-10132
burg	-10133
sena	-10134
▁2-1	-10135
alling	-10136
▁rough	-10137
▁scope	-10138
▁cousin	-10139
▁observ	-10140
mohammed	-10141
▁celebrates	-10142
vast	-10143
▁tand	-10144
halaya	-10145
▁sweep	-10146
▁wheel	-10147
ointing	-10148
▁pushed	-10149
▁amended	-10150
▁catholic	-10151
▁motivated	-10152
▁discussing	-10153
▁fertilizers	-10154
gst	-10155
▁alm	-10156
▁asean	-10157
▁pitch	-10158
▁hopeful	-10159
▁restore	-10160
▁describe	-10161
▁glorious	-10162
▁multitude	-10163
▁stringent	-10164
▁surjewala	-10165
▁hin	-10166
▁fare	-10167
▁rome	-10168
▁2015.	-10169
▁calam	-10170
▁immig	-10171
▁boards	-10172
▁burned	-10173
▁transg	-10174
▁shelter	-10175
presently	-10176
▁cleaning	-10177
▁likewise	-10178
▁sanskrit	-10179
▁differently	-10180
kum	-10181
umi	-10182
▁(5	-10183
▁axis	-10184
ahubali	-10185
▁bhawan	-10186
▁equity	-10187
▁distinguished	-10188
sic	-10189
crore	-10190
ratri	-10191
thren	-10192
▁bact	-10193
▁boat	-10194
orable	-10195
▁surgical	-10196
▁breakfast	-10197
▁communist	-10198
▁minorities	-10199
▁azam	-10200
▁diam	-10201
▁koch	-10202
▁peak	-10203
▁orbit	-10204
▁chinas	-10205
director	-10206
▁shekhar	-10207
▁promoted	-10208
▁uprooted	-10209
▁purchased	-10210
16	-10211
alt	-10212
amins	-10213
▁cruel	-10214
▁gowda	-10215
▁kiara	-10216
▁raids	-10217
▁shame	-10218
▁praful	-10219
▁consume	-10220
▁eminent	-10221
▁privacy	-10222
▁{	-10223
iso	-10224
▁ss	-10225
puri	-10226
▁bell	-10227
▁puja	-10228
▁ride	-10229
▁ignore	-10230
▁applying	-10231
▁detected	-10232
▁contacted	-10233
lok	-10234
▁18,	-10235
▁sukh	-10236
▁5,000	-10237
zerland	-10238
independ	-10239
▁deleted	-10240
▁supports	-10241
▁converted	-10242
▁cheteshwar	-10243
▁impressive	-10244
▁reasonable	-10245
fo	-10246
bly	-10247
sit	-10248
arly	-10249
bang	-10250
▁hood	-10251
▁kong	-10252
▁plun	-10253
acting	-10254
▁finger	-10255
▁rashid	-10256
▁vivekan	-10257
aceutical	-10258
▁amarinder	-10259
▁commenced	-10260
isa	-10261
world	-10262
▁hail	-10263
▁kath	-10264
▁rede	-10265
ilding	-10266
▁attain	-10267
▁exting	-10268
▁laying	-10269
▁kabaddi	-10270
▁alleging	-10271
▁lighting	-10272
23	-10273
ads	-10274
oper	-10275
uous	-10276
▁ausp	-10277
▁calc	-10278
▁flav	-10279
▁disin	-10280
▁delhis	-10281
▁horses	-10282
▁patole	-10283
▁preced	-10284
▁goswami	-10285
▁jinping	-10286
▁assailants	-10287
▁instrument	-10288
each	-10289
▁180	-10290
▁suz	-10291
oston	-10292
▁eden	-10293
▁fant	-10294
▁shad	-10295
▁burst	-10296
▁cargo	-10297
▁infant	-10298
▁jackie	-10299
▁neglig	-10300
▁tragic	-10301
rug	-10302
▁%1	-10303
▁63	-10304
▁ul	-10305
▁dir	-10306
utosh	-10307
▁pragya	-10308
▁pacific	-10309
▁strictly	-10310
▁inundated	-10311
▁directorial	-10312
▁msmes	-10313
▁coconut	-10314
▁seconds	-10315
▁boundary	-10316
▁brethren	-10317
ifications	-10318
▁inaugural	-10319
▁instances	-10320
▁divisional	-10321
▁exceptions	-10322
▁tabernacle	-10323
▁indef	-10324
▁divide	-10325
▁emerge	-10326
▁helmed	-10327
▁incent	-10328
▁discern	-10329
▁vessels	-10330
▁disciple	-10331
ww	-10332
irm	-10333
non	-10334
agan	-10335
▁rin	-10336
▁hardly	-10337
▁defined	-10338
▁erupted	-10339
▁suburbs	-10340
gir	-10341
drew	-10342
▁bac	-10343
acing	-10344
amped	-10345
eches	-10346
▁fees	-10347
▁hong	-10348
wahati	-10349
▁doval	-10350
▁liber	-10351
ificial	-10352
▁mayank	-10353
▁kailash	-10354
▁radhika	-10355
▁employed	-10356
▁phenomen	-10357
▁violated	-10358
▁settlement	-10359
▁presentation	-10360
14	-10361
77	-10362
sd	-10363
rana	-10364
▁22,	-10365
▁fro	-10366
▁jur	-10367
heavy	-10368
▁glor	-10369
asters	-10370
risers	-10371
▁embarr	-10372
▁motive	-10373
▁orange	-10374
▁refers	-10375
▁airline	-10376
▁vitamins	-10377
▁adjourned	-10378
▁scientist	-10379
▁wrestling	-10380
stud	-10381
▁ups	-10382
isive	-10383
speed	-10384
▁kane	-10385
cation	-10386
hattar	-10387
▁embra	-10388
▁grade	-10389
politan	-10390
▁boston	-10391
▁womans	-10392
▁chicken	-10393
▁withdrew	-10394
▁infections	-10395
▁lag	-10396
eling	-10397
human	-10398
rator	-10399
▁gill	-10400
▁scan	-10401
▁vend	-10402
active	-10403
worthy	-10404
▁rupani	-10405
▁acquired	-10406
▁communal	-10407
▁embarrass	-10408
▁intensified	-10409
▁tribulation	-10410
▁consultation	-10411
wi	-10412
▁lash	-10413
▁2015,	-10414
▁decor	-10415
▁dilig	-10416
▁funny	-10417
▁hiked	-10418
▁leone	-10419
▁defend	-10420
▁riches	-10421
▁spring	-10422
▁unexpected	-10423
▁acquisition	-10424
!""	-10425
vak	-10426
weta	-10427
▁cid	-10428
appro	-10429
otism	-10430
▁aven	-10431
ricted	-10432
ugopal	-10433
▁blasts	-10434
▁balakot	-10435
▁landing	-10436
▁trusted	-10437
▁ayushmann	-10438
ief	-10439
ird	-10440
▁66	-10441
▁2-0	-10442
▁toky	-10443
▁caring	-10444
▁desper	-10445
▁raping	-10446
▁earnest	-10447
▁extingu	-10448
▁metropolitan	-10449
ea	-10450
▁cs	-10451
▁hug	-10452
▁boyc	-10453
▁inse	-10454
▁mega	-10455
▁vary	-10456
rating	-10457
▁ideal	-10458
▁reverse	-10459
▁shreyas	-10460
▁filmfare	-10461
▁struggling	-10462
▁representing	-10463
▁rehabilitation	-10464
oman	-10465
▁anj	-10466
osity	-10467
▁bagh	-10468
▁risks	-10469
▁abhiyan	-10470
▁actively	-10471
▁shopping	-10472
▁semifinals	-10473
▁netherlands	-10474
▁'%	-10475
farm	-10476
▁rti	-10477
cript	-10478
erson	-10479
▁bore	-10480
▁mood	-10481
▁finds	-10482
▁grain	-10483
▁tasks	-10484
▁nanded	-10485
▁rajeev	-10486
▁sonali	-10487
▁defense	-10488
▁indefin	-10489
▁neutral	-10490
▁unclear	-10491
▁listened	-10492
▁dependent	-10493
nab	-10494
mail	-10495
▁700	-10496
▁taj	-10497
▁monet	-10498
▁adviser	-10499
▁refuted	-10500
▁indicate	-10501
▁speeches	-10502
▁franchise	-10503
▁meghalaya	-10504
▁acknowledged	-10505
bor	-10506
lla	-10507
tes	-10508
angg	-10509
rolled	-10510
▁dying	-10511
▁isaac	-10512
▁alerted	-10513
▁praying	-10514
tar	-10515
idhi	-10516
unal	-10517
▁evalu	-10518
▁tokyo	-10519
▁childs	-10520
▁elijah	-10521
▁parade	-10522
▁resort	-10523
▁ashwini	-10524
▁terminal	-10525
▁williamson	-10526
▁manufactured	-10527
▁pharmaceutical	-10528
):	-10529
,'	-10530
kart	-10531
udes	-10532
▁20,	-10533
▁kom	-10534
▁tdp	-10535
elect	-10536
astern	-10537
▁olive	-10538
autions	-10539
▁priced	-10540
▁sorrow	-10541
▁messiah	-10542
▁regulatory	-10543
▁69	-10544
acco	-10545
▁liv	-10546
▁ages	-10547
wanath	-10548
▁minim	-10549
▁rahim	-10550
▁grains	-10551
▁ventil	-10552
▁teaches	-10553
▁normally	-10554
▁economies	-10555
▁prisoners	-10556
▁compulsory	-10557
▁kilometres	-10558
22	-10559
jamin	-10560
necess	-10561
▁ninth	-10562
▁poured	-10563
▁deadline	-10564
▁classical	-10565
rific	-10566
▁county	-10567
▁hungry	-10568
▁unions	-10569
▁undergo	-10570
▁enhancing	-10571
arer	-10572
kare	-10573
raje	-10574
▁ias	-10575
haran	-10576
olkar	-10577
kummar	-10578
▁adarsh	-10579
▁buddha	-10580
▁forming	-10581
▁warrant	-10582
▁venugopal	-10583
▁gop	-10584
▁kaz	-10585
▁ammun	-10586
▁audio	-10587
▁hunger	-10588
▁upheld	-10589
▁2017-18	-10590
▁carries	-10591
▁element	-10592
▁passage	-10593
▁wherein	-10594
▁civilians	-10595
▁escalated	-10596
▁afterwards	-10597
▁artificial	-10598
▁sindhudurg	-10599
▁precautions	-10600
▁associations	-10601
▁capabilities	-10602
zing	-10603
▁ips	-10604
▁babu	-10605
▁havoc	-10606
▁preca	-10607
▁switzerland	-10608
2020	-10609
heri	-10610
ston	-10611
▁fry	-10612
▁wit	-10613
odder	-10614
▁veer	-10615
▁talaq	-10616
▁muzaff	-10617
▁shield	-10618
▁incessant	-10619
▁precaution	-10620
dip	-10621
hri	-10622
phi	-10623
▁hing	-10624
salman	-10625
▁chari	-10626
▁enorm	-10627
▁kashi	-10628
▁paint	-10629
▁serial	-10630
▁sweden	-10631
▁kishore	-10632
▁settings	-10633
▁choudhary	-10634
▁obedience	-10635
▁petitioner	-10636
ago	-10637
▁95	-10638
▁9:	-10639
gium	-10640
▁anu	-10641
▁hai	-10642
fight	-10643
south	-10644
▁deng	-10645
▁uproar	-10646
▁tobacco	-10647
▁apologised	-10648
▁demonstrate	-10649
▁iq	-10650
▁rig	-10651
▁pull	-10652
naments	-10653
dyurappa	-10654
▁upright	-10655
▁searched	-10656
▁slightly	-10657
▁auspicious	-10658
85	-10659
▁74	-10660
▁14:	-10661
▁dual	-10662
▁exha	-10663
econom	-10664
osaheb	-10665
▁widow	-10666
initial	-10667
▁palace	-10668
▁pilots	-10669
▁consent	-10670
▁robbery	-10671
▁superior	-10672
▁proposals	-10673
▁sunrisers	-10674
▁comparison	-10675
▁99	-10676
▁aren	-10677
▁tech	-10678
hearted	-10679
▁hailed	-10680
▁permit	-10681
▁vishal	-10682
▁benjamin	-10683
▁pursuing	-10684
additionally	-10685
▁scholarship	-10686
bus	-10687
iman	-10688
▁cli	-10689
▁unc	-10690
storm	-10691
luding	-10692
▁borne	-10693
▁recei	-10694
▁slowdown	-10695
▁troubled	-10696
▁elaborate	-10697
▁benefitted	-10698
▁recruitment	-10699
▁kak	-10700
▁2009	-10701
▁kris	-10702
▁fishe	-10703
▁swamy	-10704
▁kharge	-10705
▁bhosale	-10706
▁gearing	-10707
▁neglect	-10708
▁queries	-10709
▁capability	-10710
▁ultimately	-10711
▁complicated	-10712
arna	-10713
stan	-10714
tage	-10715
gradu	-10716
space	-10717
▁crow	-10718
▁rati	-10719
▁unus	-10720
▁manik	-10721
▁circle	-10722
▁shweta	-10723
▁tunnel	-10724
▁resumed	-10725
▁revoked	-10726
▁comeback	-10727
▁customer	-10728
▁disappointment	-10729
second	-10730
▁rinse	-10731
▁steal	-10732
▁fodder	-10733
▁vandal	-10734
▁amounts	-10735
▁readers	-10736
▁raosaheb	-10737
▁salaries	-10738
▁laboratory	-10739
ams	-10740
bek	-10741
box	-10742
ortion	-10743
▁hills	-10744
▁tally	-10745
▁switch	-10746
▁testim	-10747
▁musical	-10748
▁rendered	-10749
▁ambitious	-10750
▁basically	-10751
▁rajkummar	-10752
▁travelled	-10753
▁panchayats	-10754
▁observation	-10755
nia	-10756
▁env	-10757
lined	-10758
lipse	-10759
▁bedi	-10760
▁deny	-10761
▁vlad	-10762
isance	-10763
▁craft	-10764
▁sudha	-10765
osystem	-10766
vardhan	-10767
▁mosque	-10768
▁creates	-10769
▁kochhar	-10770
▁lakshmi	-10771
▁downpour	-10772
▁kashmirs	-10773
▁accepting	-10774
▁consuming	-10775
▁kedarnath	-10776
▁reflected	-10777
▁intelligent	-10778
ros	-10779
rians	-10780
▁disqu	-10781
▁perce	-10782
▁spell	-10783
sequent	-10784
▁naresh	-10785
▁eclipse	-10786
caa	-10787
cks	-10788
note	-10789
owned	-10790
▁bars	-10791
▁clip	-10792
▁garn	-10793
▁alias	-10794
▁jagan	-10795
▁needy	-10796
ikarjun	-10797
▁poonam	-10798
missions	-10799
ichandran	-10800
stitution	-10801
▁guardian	-10802
▁indirect	-10803
idav	-10804
itors	-10805
▁nose	-10806
▁adopt	-10807
▁flames	-10808
▁centers	-10809
▁khattar	-10810
▁vallabh	-10811
▁guwahati	-10812
▁raghuram	-10813
▁endurance	-10814
▁restricted	-10815
isc	-10816
▁fdi	-10817
▁siv	-10818
▁curb	-10819
▁raju	-10820
▁drunk	-10821
▁batter	-10822
▁rejects	-10823
▁ashutosh	-10824
▁frequent	-10825
▁inclusion	-10826
▁subramanian	-10827
▁unanimously	-10828
dm	-10829
luck	-10830
▁17,	-10831
▁sah	-10832
▁uri	-10833
rohit	-10834
▁rebu	-10835
oining	-10836
▁bipin	-10837
▁anupam	-10838
▁barack	-10839
▁dengue	-10840
▁contained	-10841
▁regulation	-10842
▁conferencing	-10843
▁anc	-10844
again	-10845
david	-10846
itarian	-10847
▁milest	-10848
▁refuses	-10849
▁weekend	-10850
▁condoled	-10851
▁flooding	-10852
▁surfaced	-10853
▁swimming	-10854
▁attacking	-10855
▁ecosystem	-10856
▁73	-10857
▁dc	-10858
▁tus	-10859
orous	-10860
▁azmi	-10861
▁cuts	-10862
▁jaya	-10863
▁admir	-10864
▁saint	-10865
illance	-10866
▁canaan	-10867
▁submer	-10868
▁upadhy	-10869
▁nowhere	-10870
▁components	-10871
▁limitations	-10872
▁philippines	-10873
mt	-10874
▁190	-10875
▁butt	-10876
▁onto	-10877
anagar	-10878
▁nanda	-10879
▁parked	-10880
▁sriniv	-10881
▁accusing	-10882
▁captains	-10883
▁digvijay	-10884
▁expelled	-10885
▁worsened	-10886
bad	-10887
?""""	-10888
aryan	-10889
astra	-10890
which	-10891
▁cbse	-10892
▁desk	-10893
petrol	-10894
▁disob	-10895
▁juven	-10896
▁amruta	-10897
▁paswan	-10898
▁taliban	-10899
initially	-10900
▁inducted	-10901
▁philistines	-10902
aba	-10903
lete	-10904
▁hyper	-10905
▁affidav	-10906
▁opinions	-10907
▁evolution	-10908
▁expecting	-10909
▁commissioners	-10910
64	-10911
kish	-10912
▁15:	-10913
anshi	-10914
▁poth	-10915
▁rama	-10916
▁rent	-10917
ritsar	-10918
▁dated	-10919
▁deeds	-10920
▁repay	-10921
▁teeth	-10922
▁basket	-10923
▁remand	-10924
▁stocks	-10925
▁anxious	-10926
▁descend	-10927
▁organic	-10928
▁buddhist	-10929
▁elsewhere	-10930
▁landslide	-10931
▁porn	-10932
screen	-10933
▁bones	-10934
▁fined	-10935
▁shivaj	-10936
▁ephesians	-10937
▁expanding	-10938
▁agreements	-10939
▁introduction	-10940
▁}	-10941
conn	-10942
high	-10943
▁gol	-10944
▁nim	-10945
▁bags	-10946
▁item	-10947
▁tbsp	-10948
▁wage	-10949
having	-10950
▁jacqu	-10951
▁muham	-10952
▁poses	-10953
achment	-10954
▁boxing	-10955
▁guided	-10956
▁protocol	-10957
▁vegetable	-10958
▁qualification	-10959
rop	-10960
uts	-10961
erer	-10962
lave	-10963
leep	-10964
yard	-10965
▁dow	-10966
aland	-10967
chand	-10968
luded	-10969
▁quota	-10970
▁kumars	-10971
▁provin	-10972
▁applies	-10973
▁canadian	-10974
▁featuring	-10975
▁ammunition	-10976
▁influenced	-10977
▁prohibited	-10978
▁vulnerable	-10979
sup	-10980
real	-10981
▁lyn	-10982
haiya	-10983
lings	-10984
▁geet	-10985
▁lamb	-10986
indias	-10987
▁chaos	-10988
▁kedar	-10989
▁kunal	-10990
▁liver	-10991
▁muker	-10992
▁belonged	-10993
▁romantic	-10994
▁srikanth	-10995
▁unnecess	-10996
▁wrestler	-10997
rooms	-10998
▁corn	-10999
▁nerv	-11000
▁noida	-11001
farmers	-11002
issions	-11003
▁convey	-11004
▁deadly	-11005
elections	-11006
▁presided	-11007
▁eliminate	-11008
▁procedures	-11009
▁mallikarjun	-11010
gon	-11011
osal	-11012
outs	-11013
rita	-11014
▁buff	-11015
▁rein	-11016
▁displ	-11017
▁extrad	-11018
▁guards	-11019
▁delegates	-11020
▁medallist	-11021
▁neglected	-11022
▁volunteers	-11023
--	-11024
cis	-11025
ounce	-11026
▁myth	-11027
▁atroc	-11028
▁hasan	-11029
▁threw	-11030
▁mulayam	-11031
▁chillies	-11032
▁painting	-11033
▁segments	-11034
▁yeddyurappa	-11035
tok	-11036
▁(4	-11037
afar	-11038
auth	-11039
haji	-11040
▁los	-11041
eared	-11042
▁khar	-11043
▁saff	-11044
▁akash	-11045
▁conver	-11046
▁curfew	-11047
▁kargil	-11048
▁openly	-11049
▁patani	-11050
▁automob	-11051
▁worshippers	-11052
ochi	-11053
▁24,	-11054
▁sas	-11055
▁beed	-11056
▁ours	-11057
▁sajid	-11058
▁incumb	-11059
▁worthy	-11060
▁steadily	-11061
▁stunning	-11062
▁creatures	-11063
hr	-11064
▁isis	-11065
▁shub	-11066
▁sonu	-11067
▁karthik	-11068
▁suspicious	-11069
▁publication	-11070
▁surveillance	-11071
:-	-11072
asy	-11073
itt	-11074
list	-11075
odes	-11076
▁myst	-11077
▁urdu	-11078
clearly	-11079
▁config	-11080
▁saints	-11081
▁strain	-11082
▁cheated	-11083
▁pillars	-11084
▁tractor	-11085
▁networks	-11086
▁threatening	-11087
uch	-11088
eshi	-11089
▁30,	-11090
▁bhi	-11091
▁rus	-11092
inity	-11093
▁priya	-11094
▁naveen	-11095
▁obtain	-11096
▁trumps	-11097
▁airways	-11098
▁pioneers	-11099
▁presents	-11100
▁expressing	-11101
▁priorities	-11102
▁retaliated	-11103
lay	-11104
▁md	-11105
eded	-11106
▁21-	-11107
▁nal	-11108
hulam	-11109
▁aust	-11110
▁cups	-11111
▁swift	-11112
general	-11113
▁marvel	-11114
▁acharya	-11115
▁embassy	-11116
▁wherever	-11117
▁logistics	-11118
▁illustrate	-11119
▁kilometers	-11120
▁suggestion	-11121
▁technological	-11122
ova	-11123
nity	-11124
rapy	-11125
▁desp	-11126
▁merc	-11127
▁stup	-11128
▁sway	-11129
▁symp	-11130
▁alter	-11131
▁fibre	-11132
▁weigh	-11133
▁worli	-11134
fitting	-11135
▁allied	-11136
▁rajkot	-11137
▁flowing	-11138
▁requests	-11139
▁spirituality	-11140
aib	-11141
hum	-11142
▁pav	-11143
arest	-11144
idhar	-11145
▁cure	-11146
▁jahan	-11147
!""""""	-11148
▁aghadi	-11149
▁kishan	-11150
▁output	-11151
▁truths	-11152
▁khurrana	-11153
▁mortality	-11154
▁semifinal	-11155
▁kav	-11156
virat	-11157
▁raje	-11158
▁giant	-11159
▁jason	-11160
▁lemon	-11161
▁moist	-11162
american	-11163
▁sedition	-11164
▁talented	-11165
▁diagnosed	-11166
▁fisheries	-11167
▁structures	-11168
▁disappeared	-11169
▁establishments	-11170
iya	-11171
▁alp	-11172
▁khe	-11173
force	-11174
▁alar	-11175
▁beth	-11176
▁hans	-11177
▁iqbal	-11178
▁taxpay	-11179
▁cardiac	-11180
▁holders	-11181
▁objects	-11182
▁screened	-11183
▁increasingly	-11184
▁jha	-11185
awadi	-11186
▁fasc	-11187
▁sanj	-11188
school	-11189
▁fract	-11190
▁lords	-11191
▁freely	-11192
▁cartrid	-11193
▁kapoors	-11194
▁narrated	-11195
▁refugees	-11196
▁appearing	-11197
▁publishers	-11198
▁negotiations	-11199
▁ravichandran	-11200
▁controversies	-11201
pande	-11202
▁bend	-11203
▁astron	-11204
▁conced	-11205
▁lauded	-11206
▁painful	-11207
▁deposited	-11208
▁engineers	-11209
▁inspiring	-11210
▁prevented	-11211
▁submerged	-11212
▁amendments	-11213
fil	-11214
▁ail	-11215
▁heg	-11216
▁hir	-11217
adays	-11218
inent	-11219
▁atom	-11220
▁eaten	-11221
▁ratan	-11222
ailable	-11223
▁thomas	-11224
▁werent	-11225
▁abundance	-11226
▁incumbent	-11227
▁chandrapur	-11228
▁misleading	-11229
nl	-11230
aker	-11231
iques	-11232
oused	-11233
health	-11234
▁ibrah	-11235
▁mosqu	-11236
ulating	-11237
▁gentle	-11238
▁formula	-11239
▁selfish	-11240
▁regarded	-11241
▁inx	-11242
▁kush	-11243
▁navn	-11244
▁ruth	-11245
▁jamia	-11246
▁discreet	-11247
▁incorpor	-11248
▁iniquity	-11249
▁potatoes	-11250
▁criminals	-11251
▁decreased	-11252
▁immensely	-11253
▁subsequent	-11254
▁mathematics	-11255
__	-11256
nas	-11257
ona	-11258
bound	-11259
▁atul	-11260
▁scar	-11261
laimed	-11262
▁afrid	-11263
▁forty	-11264
▁blocks	-11265
▁legacy	-11266
▁riding	-11267
▁rathore	-11268
▁credited	-11269
▁yashwant	-11270
▁aggressive	-11271
▁experiencing	-11272
▁municipality	-11273
viet	-11274
rified	-11275
▁scenes	-11276
▁contrad	-11277
▁disputed	-11278
▁measured	-11279
▁publicly	-11280
▁boyfriend	-11281
▁completing	-11282
100	-11283
▁27.	-11284
▁mha	-11285
▁flip	-11286
▁leak	-11287
▁intent	-11288
▁mohite	-11289
▁potass	-11290
▁foolish	-11291
▁lasting	-11292
▁preached	-11293
▁thrashed	-11294
▁affecting	-11295
▁maharasht	-11296
independent	-11297
▁identification	-11298
foli	-11299
herry	-11300
icking	-11301
▁admon	-11302
▁magic	-11303
▁opens	-11304
▁outer	-11305
▁ratio	-11306
▁argentina	-11307
▁chandrashe	-11308
▁procession	-11309
▁sacrificed	-11310
heer	-11311
▁zim	-11312
▁lips	-11313
▁nair	-11314
▁oblig	-11315
talking	-11316
priyanka	-11317
▁stalled	-11318
▁definition	-11319
▁restaurants	-11320
▁91	-11321
▁kem	-11322
▁menu	-11323
▁emper	-11324
inating	-11325
▁asleep	-11326
▁honble	-11327
▁neeraj	-11328
▁vidhan	-11329
▁virgin	-11330
▁prophes	-11331
▁ayurveda	-11332
▁launching	-11333
rod	-11334
anad	-11335
▁atha	-11336
▁mann	-11337
▁trap	-11338
▁chiefs	-11339
▁finely	-11340
▁awaiting	-11341
▁incorrect	-11342
▁companions	-11343
▁containing	-11344
▁resistance	-11345
odi	-11346
▁atms	-11347
▁stern	-11348
▁ancest	-11349
▁lasted	-11350
▁interfe	-11351
▁receipt	-11352
▁uniform	-11353
▁vaccines	-11354
▁navnirman	-11355
spr	-11356
home	-11357
mood	-11358
▁jub	-11359
kshaw	-11360
▁humb	-11361
▁moab	-11362
▁monu	-11363
▁poly	-11364
▁shab	-11365
▁admit	-11366
▁cater	-11367
▁dynam	-11368
▁rohan	-11369
▁saheb	-11370
▁stuff	-11371
▁detect	-11372
▁relent	-11373
mohammad	-11374
▁licence	-11375
▁portfoli	-11376
▁sarpanch	-11377
▁amenities	-11378
▁attractive	-11379
▁wickedness	-11380
▁vaccination	-11381
▁economically	-11382
aza	-11383
urav	-11384
▁bund	-11385
bhajan	-11386
▁bajaj	-11387
▁mural	-11388
▁scuff	-11389
▁waves	-11390
▁zilla	-11391
ocratic	-11392
▁ghulam	-11393
▁updated	-11394
▁somebody	-11395
▁disturbed	-11396
▁intervene	-11397
▁potassium	-11398
▁techniques	-11399
▁documentary	-11400
bris	-11401
serv	-11402
▁10-	-11403
▁dav	-11404
▁lou	-11405
rison	-11406
women	-11407
▁folk	-11408
inking	-11409
itudes	-11410
▁breach	-11411
▁nitesh	-11412
▁emotion	-11413
▁saffron	-11414
▁reminded	-11415
▁victorious	-11416
▁establishing	-11417
rag	-11418
ovic	-11419
step	-11420
▁jab	-11421
▁zak	-11422
enary	-11423
▁nabi	-11424
▁karun	-11425
▁males	-11426
▁oscar	-11427
rounded	-11428
vastava	-11429
▁adjoining	-11430
▁padmavati	-11431
83	-11432
atories	-11433
▁ansari	-11434
▁livest	-11435
▁mature	-11436
▁rested	-11437
▁stroke	-11438
▁donated	-11439
▁commonly	-11440
▁mentally	-11441
▁deshpande	-11442
▁detention	-11443
▁contingent	-11444
▁violations	-11445
sad	-11446
▁26.	-11447
▁jog	-11448
▁ker	-11449
▁janm	-11450
ainted	-11451
▁deals	-11452
▁singhs	-11453
▁bajrang	-11454
▁closing	-11455
▁baseless	-11456
oul	-11457
▁tu	-11458
▁sty	-11459
▁intr	-11460
▁mole	-11461
▁idols	-11462
▁afridi	-11463
▁lovely	-11464
▁pitted	-11465
▁suzuki	-11466
▁scindia	-11467
▁unusual	-11468
▁hospitality	-11469
cbi	-11470
ctc	-11471
▁78	-11472
emed	-11473
rich	-11474
wife	-11475
▁hrd	-11476
▁roh	-11477
▁tub	-11478
imala	-11479
rents	-11480
▁pard	-11481
▁reap	-11482
▁badal	-11483
▁fires	-11484
olester	-11485
▁excise	-11486
▁lyrics	-11487
▁resume	-11488
▁weekly	-11489
▁nervous	-11490
▁discover	-11491
▁depending	-11492
▁forgiveness	-11493
qvi	-11494
six	-11495
▁rejo	-11496
▁biden	-11497
england	-11498
▁wholes	-11499
▁jaiswal	-11500
▁shouted	-11501
▁cultures	-11502
▁searches	-11503
▁contempor	-11504
bc	-11505
full	-11506
onia	-11507
▁(19	-11508
▁17:	-11509
ailed	-11510
uting	-11511
▁giri	-11512
▁stim	-11513
▁tric	-11514
▁betra	-11515
▁taran	-11516
▁unbel	-11517
▁citing	-11518
▁pawars	-11519
▁dabangg	-11520
▁skilled	-11521
▁obedient	-11522
▁examining	-11523
▁exercises	-11524
▁brotherhood	-11525
russ	-11526
▁25,	-11527
▁31,	-11528
▁350	-11529
▁sna	-11530
▁rave	-11531
▁sher	-11532
▁foren	-11533
▁hurry	-11534
▁knife	-11535
▁lunar	-11536
▁madhu	-11537
▁mills	-11538
▁tihar	-11539
▁robust	-11540
▁thinks	-11541
▁unrest	-11542
▁instant	-11543
▁planted	-11544
▁bhandara	-11545
▁overseer	-11546
▁declining	-11547
▁dominated	-11548
▁indicates	-11549
▁societies	-11550
▁meaningful	-11551
▁circulation	-11552
24	-11553
mand	-11554
mate	-11555
odara	-11556
▁abol	-11557
▁epid	-11558
▁fifa	-11559
irates	-11560
▁utmost	-11561
whatever	-11562
▁backing	-11563
▁scholar	-11564
▁meantime	-11565
▁recognise	-11566
▁accessible	-11567
▁atrocities	-11568
▁fulfilling	-11569
▁meditation	-11570
63	-11571
vp	-11572
▁24:	-11573
ayana	-11574
▁assumed	-11575
▁handled	-11576
▁defeating	-11577
▁helicopter	-11578
▁republican	-11579
▁acknowledge	-11580
▁commandment	-11581
ingh	-11582
▁pud	-11583
arama	-11584
▁pock	-11585
ineeti	-11586
rology	-11587
▁colom	-11588
▁helpl	-11589
▁hoped	-11590
▁advent	-11591
▁scream	-11592
olesterol	-11593
▁goodness	-11594
▁grandson	-11595
▁overflow	-11596
▁vehicular	-11597
▁mangeshkar	-11598
▁containment	-11599
▁restoration	-11600
▁demonstration	-11601
tur	-11602
brid	-11603
rows	-11604
ahmed	-11605
▁mosc	-11606
▁soha	-11607
▁rises	-11608
▁smile	-11609
▁thief	-11610
attered	-11611
kashmir	-11612
▁parame	-11613
consider	-11614
▁pharise	-11615
▁amritsar	-11616
▁befitting	-11617
▁privileges	-11618
▁vishwanath	-11619
ril	-11620
bath	-11621
▁ecc	-11622
▁gon	-11623
thank	-11624
▁mike	-11625
▁aaryan	-11626
▁hiding	-11627
▁sensor	-11628
▁titular	-11629
▁baahubali	-11630
▁typically	-11631
▁peacefully	-11632
▁grandmother	-11633
enth	-11634
imir	-11635
inte	-11636
▁28,	-11637
igarh	-11638
▁gest	-11639
▁mail	-11640
rishnan	-11641
▁steady	-11642
▁spinner	-11643
▁crossing	-11644
▁discount	-11645
▁interior	-11646
▁migrants	-11647
▁surrounded	-11648
aam	-11649
rey	-11650
awar	-11651
them	-11652
▁bash	-11653
▁hygi	-11654
rocket	-11655
▁latin	-11656
▁mines	-11657
▁naqvi	-11658
iliated	-11659
▁disple	-11660
▁restra	-11661
▁soviet	-11662
▁consolid	-11663
▁rational	-11664
▁demonstrated	-11665
fiz	-11666
baaz	-11667
cane	-11668
vice	-11669
ourse	-11670
▁desol	-11671
▁census	-11672
▁bleeding	-11673
▁choosing	-11674
▁cholesterol	-11675
▁expectation	-11676
agg	-11677
dish	-11678
▁aqu	-11679
▁bride	-11680
▁unans	-11681
▁desert	-11682
▁manual	-11683
▁stating	-11684
▁vibrant	-11685
▁athawale	-11686
▁disagree	-11687
▁laughing	-11688
▁discharge	-11689
▁husbandry	-11690
mind	-11691
▁lil	-11692
ested	-11693
commer	-11694
spring	-11695
▁cream	-11696
▁frank	-11697
▁greed	-11698
▁parth	-11699
▁spake	-11700
▁coloss	-11701
▁iconic	-11702
▁paresh	-11703
▁sinned	-11704
▁dedicate	-11705
▁muhammad	-11706
▁interfere	-11707
▁prosperous	-11708
▁approaching	-11709
▁grandfather	-11710
▁smartphones	-11711
fed	-11712
▁cms	-11713
igare	-11714
▁enab	-11715
▁grim	-11716
▁pose	-11717
▁walks	-11718
building	-11719
economic	-11720
▁renamed	-11721
▁sharply	-11722
▁kanhaiya	-11723
▁tomatoes	-11724
▁component	-11725
▁forwarded	-11726
▁intellectual	-11727
▁61	-11728
▁83	-11729
▁ng	-11730
abha	-11731
orig	-11732
umes	-11733
▁dik	-11734
▁grid	-11735
▁kank	-11736
▁pump	-11737
▁tact	-11738
author	-11739
ported	-11740
▁canal	-11741
▁spots	-11742
▁denies	-11743
▁setback	-11744
▁designer	-11745
▁enormous	-11746
▁monetary	-11747
▁reliable	-11748
▁textiles	-11749
▁affidavit	-11750
▁opponents	-11751
kol	-11752
hist	-11753
oria	-11754
▁ate	-11755
lause	-11756
▁assy	-11757
▁cows	-11758
▁neet	-11759
▁juris	-11760
▁spear	-11761
▁kidney	-11762
▁pillar	-11763
▁preval	-11764
▁refuse	-11765
▁sounds	-11766
▁visual	-11767
▁inspire	-11768
▁smashed	-11769
▁hectares	-11770
▁sugarcane	-11771
▁associates	-11772
▁successive	-11773
▁ace	-11774
zekiah	-11775
▁bhumi	-11776
▁maria	-11777
▁martin	-11778
▁treaty	-11779
▁clarity	-11780
▁disqual	-11781
▁francis	-11782
▁bothered	-11783
▁findings	-11784
▁evacuated	-11785
▁voluntary	-11786
▁pertaining	-11787
rbi	-11788
ales	-11789
▁icu	-11790
▁pmc	-11791
aning	-11792
grade	-11793
otics	-11794
▁ferv	-11795
▁guns	-11796
▁knot	-11797
▁abram	-11798
▁aimim	-11799
▁nanak	-11800
▁reass	-11801
▁castes	-11802
▁chased	-11803
▁enters	-11804
▁hitting	-11805
▁ibrahim	-11806
▁physics	-11807
▁removing	-11808
▁websites	-11809
▁americans	-11810
▁livestock	-11811
▁altogether	-11812
▁productions	-11813
alli	-11814
anis	-11815
▁gem	-11816
▁pom	-11817
raine	-11818
▁sami	-11819
▁tail	-11820
▁shutt	-11821
▁spare	-11822
regular	-11823
▁pravin	-11824
▁compete	-11825
▁traveled	-11826
▁jacqueline	-11827
▁worshipped	-11828
cho	-11829
cre	-11830
obo	-11831
idays	-11832
▁jeal	-11833
erable	-11834
▁absor	-11835
▁colony	-11836
▁greets	-11837
▁titles	-11838
▁vishnu	-11839
▁shashan	-11840
▁navratri	-11841
▁sometime	-11842
▁uploaded	-11843
▁harbhajan	-11844
▁inaugurates	-11845
lv	-11846
hun	-11847
bank	-11848
bhav	-11849
▁21,	-11850
▁tum	-11851
▁vel	-11852
▁ther	-11853
▁gayle	-11854
▁kochi	-11855
▁lever	-11856
▁loses	-11857
▁debris	-11858
▁nights	-11859
▁deserve	-11860
▁polluted	-11861
▁colleague	-11862
▁targeting	-11863
▁circulated	-11864
▁missionaries	-11865
net	-11866
▁fu	-11867
hede	-11868
illy	-11869
mill	-11870
mins	-11871
▁wet	-11872
babwe	-11873
▁beings	-11874
▁moscow	-11875
▁rampal	-11876
▁trucks	-11877
▁gardens	-11878
▁seasons	-11879
▁tatkare	-11880
▁vladimir	-11881
rus	-11882
inch	-11883
▁abe	-11884
▁rift	-11885
▁kalam	-11886
▁teasp	-11887
▁assure	-11888
▁formally	-11889
▁empowered	-11890
▁introduce	-11891
▁satellites	-11892
73	-11893
cons	-11894
▁vom	-11895
▁fears	-11896
▁hegde	-11897
▁madan	-11898
▁thiru	-11899
▁messeng	-11900
▁nearest	-11901
▁whoever	-11902
▁doubling	-11903
▁feedback	-11904
▁junction	-11905
▁prevailing	-11906
▁specifically	-11907
bted	-11908
door	-11909
uven	-11910
▁haj	-11911
▁ujj	-11912
umber	-11913
▁jama	-11914
▁tehs	-11915
ondkar	-11916
weight	-11917
▁archa	-11918
▁phosp	-11919
▁traced	-11920
▁capture	-11921
▁segment	-11922
▁baramati	-11923
▁chemistry	-11924
▁financing	-11925
▁parineeti	-11926
▁workplace	-11927
▁inspection	-11928
▁overturned	-11929
ugs	-11930
▁hi	-11931
▁bish	-11932
▁dict	-11933
▁mush	-11934
▁occurs	-11935
▁sowing	-11936
devendra	-11937
▁disabled	-11938
▁vigilant	-11939
▁milestone	-11940
▁unanswered	-11941
▁communicate	-11942
▁ni	-11943
iven	-11944
▁26,	-11945
izens	-11946
offic	-11947
▁anna	-11948
▁dabh	-11949
bility	-11950
itored	-11951
▁hooda	-11952
▁wings	-11953
▁youll	-11954
▁sensit	-11955
▁underw	-11956
lessness	-11957
manpreet	-11958
▁shardul	-11959
▁forensic	-11960
▁sporting	-11961
confidence	-11962
▁resurrected	-11963
aap	-11964
drop	-11965
pora	-11966
rani	-11967
event	-11968
ideen	-11969
prior	-11970
▁aids	-11971
▁bicy	-11972
▁kiss	-11973
▁lapt	-11974
agraph	-11975
chester	-11976
ruption	-11977
▁banner	-11978
▁dancer	-11979
▁rashmi	-11980
▁refund	-11981
▁criteria	-11982
▁quarters	-11983
▁recommendation	-11984
-5	-11985
▁mg	-11986
gand	-11987
opar	-11988
▁lux	-11989
ighty	-11990
▁cave	-11991
▁shim	-11992
▁boast	-11993
▁dared	-11994
aramaiah	-11995
▁existed	-11996
▁premium	-11997
▁printed	-11998
▁tonight	-11999
▁deposits	-12000
▁tribunal	-12001
▁sanctuary	-12002
▁specially	-12003
26	-12004
ao	-12005
▁68	-12006
gone	-12007
pret	-12008
▁tig	-12009
▁til	-12010
ahead	-12011
heart	-12012
▁angu	-12013
asonal	-12014
persons	-12015
▁poland	-12016
▁ronald	-12017
▁devoted	-12018
▁gaining	-12019
▁describes	-12020
▁obviously	-12021
▁testimony	-12022
▁instruments	-12023
iser	-12024
ocso	-12025
omed	-12026
▁bho	-12027
arity	-12028
cling	-12029
▁barn	-12030
▁mund	-12031
▁wore	-12032
balkar	-12033
▁modif	-12034
▁ranji	-12035
▁scarc	-12036
▁abused	-12037
▁miscon	-12038
▁penned	-12039
▁tariff	-12040
▁uphold	-12041
▁debated	-12042
▁portugal	-12043
▁printing	-12044
▁reflects	-12045
▁whatsoever	-12046
▁christianity	-12047
bia	-12048
▁71	-12049
▁dj	-12050
irao	-12051
show	-12052
▁vai	-12053
crime	-12054
▁diff	-12055
▁hurd	-12056
▁sood	-12057
▁uday	-12058
▁finch	-12059
▁quake	-12060
▁sanon	-12061
▁shant	-12062
▁swept	-12063
▁gospel	-12064
▁respir	-12065
▁throat	-12066
district	-12067
▁emperor	-12068
▁jealous	-12069
▁wayanad	-12070
▁ambulance	-12071
▁disasters	-12072
▁propaganda	-12073
▁considerably	-12074
uda	-12075
dney	-12076
true	-12077
wani	-12078
▁khat	-12079
▁koth	-12080
▁smell	-12081
▁marine	-12082
▁meters	-12083
▁rammed	-12084
▁vessel	-12085
▁iranian	-12086
▁scuffle	-12087
▁viewers	-12088
▁courageous	-12089
▁progressive	-12090
▁gi	-12091
▁dos	-12092
▁mast	-12093
▁tabu	-12094
▁hails	-12095
▁argued	-12096
▁dalits	-12097
▁accorded	-12098
▁scarcity	-12099
▁celebrity	-12100
▁factories	-12101
▁southeast	-12102
76	-12103
aga	-12104
ape	-12105
▁29,	-12106
▁evol	-12107
▁align	-12108
▁bhima	-12109
▁nutri	-12110
▁osman	-12111
▁immune	-12112
▁mantra	-12113
▁damages	-12114
▁precise	-12115
▁nagaland	-12116
▁vadodara	-12117
▁exclusive	-12118
▁architecture	-12119
fs	-12120
▁kut	-12121
▁sul	-12122
asion	-12123
▁asif	-12124
▁manu	-12125
▁neha	-12126
▁plug	-12127
▁umar	-12128
▁plate	-12129
▁ridic	-12130
▁amrita	-12131
▁tejash	-12132
ensively	-12133
jahideen	-12134
▁fishing	-12135
▁relates	-12136
▁favorite	-12137
▁consensus	-12138
▁investing	-12139
▁literally	-12140
▁offspring	-12141
itan	-12142
ouds	-12143
▁rac	-12144
▁2021	-12145
▁seal	-12146
▁2013.	-12147
▁2018:	-12148
▁adapt	-12149
▁tenth	-12150
▁sakshi	-12151
students	-12152
▁therein	-12153
▁zealous	-12154
▁headlines	-12155
▁undertake	-12156
▁chancellor	-12157
pun	-12158
▁bhim	-12159
▁crem	-12160
▁forb	-12161
▁undes	-12162
▁walse	-12163
▁wasted	-12164
▁eliminated	-12165
odaf	-12166
▁lon	-12167
andan	-12168
▁seam	-12169
▁bribe	-12170
▁hoping	-12171
▁pledge	-12172
▁convert	-12173
▁lecture	-12174
▁openers	-12175
▁charging	-12176
▁potholes	-12177
▁unlikely	-12178
▁magnitude	-12179
▁compromise	-12180
▁sabarimala	-12181
▁politically	-12182
▁conversations	-12183
nep	-12184
gate	-12185
ushi	-12186
inkle	-12187
judge	-12188
▁parv	-12189
▁hypoc	-12190
▁rahman	-12191
remember	-12192
▁jalgaon	-12193
▁adultery	-12194
▁suggests	-12195
ographical	-12196
▁exercising	-12197
▁filmmakers	-12198
▁positively	-12199
▁commissioned	-12200
88	-12201
▁mw	-12202
idar	-12203
▁obl	-12204
acles	-12205
offee	-12206
thats	-12207
▁snap	-12208
licted	-12209
▁alike	-12210
▁chore	-12211
▁kenya	-12212
▁saini	-12213
▁turmo	-12214
odafone	-12215
▁suhana	-12216
▁urmila	-12217
▁varied	-12218
▁rejuven	-12219
▁shashank	-12220
▁jurisdict	-12221
▁commodities	-12222
▁corporations	-12223
mel	-12224
pent	-12225
▁bog	-12226
front	-12227
▁dais	-12228
christ	-12229
▁mandi	-12230
▁resil	-12231
ucherry	-12232
▁ethnic	-12233
▁shadow	-12234
▁kothrud	-12235
▁turmoil	-12236
▁churches	-12237
▁saddened	-12238
▁chinchwad	-12239
▁partition	-12240
▁submission	-12241
▁neighbourhood	-12242
gas	-12243
mur	-12244
▁ku	-12245
oves	-12246
▁23,	-12247
▁sax	-12248
print	-12249
ullah	-12250
▁poems	-12251
▁sample	-12252
▁belgium	-12253
▁powered	-12254
▁briefing	-12255
▁foreigners	-12256
▁integration	-12257
isma	-12258
▁ump	-12259
astar	-12260
rughan	-12261
▁naxal	-12262
▁zafar	-12263
century	-12264
likewise	-12265
▁failing	-12266
▁karachi	-12267
▁entities	-12268
▁treasury	-12269
▁zimbabwe	-12270
▁actresses	-12271
▁presenting	-12272
▁unseasonal	-12273
akk	-12274
ema	-12275
wis	-12276
▁128	-12277
▁nap	-12278
▁tex	-12279
isers	-12280
▁doct	-12281
▁hafiz	-12282
▁shatt	-12283
▁wards	-12284
icating	-12285
▁acquire	-12286
▁chamber	-12287
▁denmark	-12288
▁hezekiah	-12289
▁mourning	-12290
hule	-12291
isms	-12292
next	-12293
rous	-12294
angel	-12295
cking	-12296
▁hema	-12297
▁owns	-12298
▁tons	-12299
▁durga	-12300
▁usual	-12301
▁verse	-12302
gaonkar	-12303
winning	-12304
▁chanda	-12305
commerce	-12306
▁disrupt	-12307
▁enables	-12308
▁firefox	-12309
▁license	-12310
▁checking	-12311
▁directing	-12312
▁estimates	-12313
nut	-12314
gods	-12315
ipat	-12316
meet	-12317
▁sne	-12318
orney	-12319
▁batch	-12320
chiroli	-12321
▁arbaaz	-12322
▁extrem	-12323
▁fruitage	-12324
▁pipeline	-12325
▁teenager	-12326
▁abilities	-12327
▁slaughter	-12328
▁consistent	-12329
▁respiratory	-12330
▁anticipatory	-12331
▁manufacturers	-12332
-6	-12333
].	-12334
hee	-12335
mil	-12336
sam	-12337
pura	-12338
▁lav	-12339
woman	-12340
▁knee	-12341
▁3,000	-12342
▁bottle	-12343
▁pedest	-12344
▁sydney	-12345
▁tushar	-12346
▁gandhiji	-12347
▁impacted	-12348
▁rumoured	-12349
▁matondkar	-12350
▁shattered	-12351
▁councillors	-12352
▁vivekananda	-12353
bt	-12354
jat	-12355
▁za	-12356
▁110	-12357
▁kms	-12358
▁mlc	-12359
▁waq	-12360
▁shin	-12361
▁archi	-12362
▁smugg	-12363
▁souls	-12364
▁steep	-12365
largest	-12366
▁appeals	-12367
▁doubled	-12368
▁federer	-12369
▁mystery	-12370
▁calamity	-12371
▁motorists	-12372
▁conventions	-12373
ste	-12374
arius	-12375
riers	-12376
endras	-12377
▁poore	-12378
▁warns	-12379
▁clouds	-12380
▁dawood	-12381
▁transf	-12382
▁tankers	-12383
▁almighty	-12384
▁enabling	-12385
▁negligence	-12386
yav	-12387
▁"2	-12388
▁nh	-12389
▁gil	-12390
iabad	-12391
▁nurt	-12392
▁accum	-12393
▁ashes	-12394
▁hadnt	-12395
▁indra	-12396
▁urges	-12397
atively	-12398
▁errors	-12399
▁execut	-12400
▁decides	-12401
▁discovery	-12402
▁puducherry	-12403
▁extensively	-12404
▁104	-12405
▁guy	-12406
▁kel	-12407
▁rit	-12408
raged	-12409
▁dams	-12410
▁epic	-12411
▁kits	-12412
▁lung	-12413
▁nase	-12414
▁boney	-12415
▁fails	-12416
central	-12417
▁delete	-12418
▁fabric	-12419
▁rolled	-12420
▁healing	-12421
▁paralle	-12422
▁landmark	-12423
▁movements	-12424
ml	-12425
dem	-12426
▁dna	-12427
▁weep	-12428
▁roots	-12429
▁sanju	-12430
ounding	-12431
▁mandal	-12432
▁potato	-12433
▁sacked	-12434
▁stored	-12435
▁tussle	-12436
▁flipkart	-12437
▁underwent	-12438
▁temptation	-12439
▁description	-12440
▁siddaramaiah	-12441
▁`	-12442
eka	-12443
hna	-12444
▁ios	-12445
▁ras	-12446
▁rect	-12447
▁minus	-12448
▁crowds	-12449
▁joyful	-12450
▁rajputs	-12451
▁donation	-12452
▁shameful	-12453
▁defending	-12454
▁scattered	-12455
▁77	-12456
gers	-12457
math	-12458
ental	-12459
heads	-12460
▁21-1	-12461
▁fost	-12462
▁yuva	-12463
patnam	-12464
▁flash	-12465
▁recre	-12466
▁setup	-12467
▁shyam	-12468
▁deeper	-12469
▁signal	-12470
▁hygiene	-12471
▁notable	-12472
▁dabholkar	-12473
▁delivering	-12474
▁verification	-12475
fa	-12476
jal	-12477
▁wi	-12478
utta	-12479
▁lap	-12480
▁bhan	-12481
▁cake	-12482
▁neel	-12483
▁parks	-12484
▁raging	-12485
▁slogan	-12486
▁grabbed	-12487
▁hanuman	-12488
▁spirits	-12489
▁trolled	-12490
▁backdrop	-12491
▁unemployed	-12492
▁expressions	-12493
▁administrator	-12494
empl	-12495
spin	-12496
▁baal	-12497
▁cori	-12498
▁jeho	-12499
▁20,000	-12500
▁intimid	-12501
▁israeli	-12502
▁surpass	-12503
▁fielding	-12504
▁resorted	-12505
▁tolerate	-12506
▁accusations	-12507
▁grandchildren	-12508
69	-12509
ez	-12510
dal	-12511
anas	-12512
fting	-12513
wandi	-12514
▁370.	-12515
▁gren	-12516
▁unsu	-12517
bourne	-12518
within	-12519
▁arbit	-12520
▁dadar	-12521
▁flows	-12522
▁godse	-12523
▁dharma	-12524
▁machin	-12525
▁ration	-12526
▁rebell	-12527
▁wardha	-12528
▁equival	-12529
▁publish	-12530
▁breathed	-12531
eventually	-12532
▁corporator	-12533
bet	-12534
uct	-12535
acre	-12536
▁vic	-12537
atched	-12538
▁maval	-12539
▁persu	-12540
▁reads	-12541
▁ranjit	-12542
▁murders	-12543
▁sabbath	-12544
terrorism	-12545
▁jonathan	-12546
▁cartridges	-12547
▁devastated	-12548
▁incredible	-12549
▁businessmen	-12550
▁exceptional	-12551
▁vallabhbhai	-12552
▁jj	-12553
ganj	-12554
gold	-12555
isro	-12556
mble	-12557
osys	-12558
▁tay	-12559
orial	-12560
urthi	-12561
immedi	-12562
sanjay	-12563
▁shots	-12564
viously	-12565
▁arjuna	-12566
▁ukraine	-12567
▁spectrum	-12568
▁conflicts	-12569
▁sentiment	-12570
nc	-12571
▁nc	-12572
ilal	-12573
mati	-12574
rets	-12575
▁ari	-12576
▁mong	-12577
▁pans	-12578
▁pond	-12579
▁swar	-12580
bharat	-12581
▁lions	-12582
▁paise	-12583
▁divers	-12584
▁harbour	-12585
▁dwelling	-12586
▁touching	-12587
▁coriander	-12588
▁supportive	-12589
▁prosecution	-12590
▁transformed	-12591
▁deteriorating	-12592
▁quarterfinals	-12593
ums	-12594
▁84	-12595
amid	-12596
have	-12597
▁jim	-12598
oboam	-12599
plete	-12600
▁bapu	-12601
▁rely	-12602
▁twin	-12603
elight	-12604
▁archae	-12605
▁render	-12606
▁browser	-12607
▁drowned	-12608
▁tanhaji	-12609
▁deprived	-12610
▁imported	-12611
▁juvenile	-12612
▁chaturved	-12613
▁fortunate	-12614
▁recovering	-12615
▁maharashtras	-12616
uet	-12617
▁fy	-12618
▁rt	-12619
alia	-12620
chem	-12621
reek	-12622
▁tsp	-12623
▁uts	-12624
▁phal	-12625
giving	-12626
▁awhad	-12627
▁graph	-12628
▁scrut	-12629
manship	-12630
ologist	-12631
▁gutted	-12632
▁jailed	-12633
▁oxford	-12634
▁tomato	-12635
regarding	-12636
▁duration	-12637
▁survivor	-12638
▁tejashwi	-12639
▁treating	-12640
▁recording	-12641
▁shatrughan	-12642
▁complaining	-12643
hia	-12644
mns	-12645
iano	-12646
▁14-	-12647
▁21:	-12648
▁nur	-12649
think	-12650
▁keys	-12651
▁scot	-12652
▁doctr	-12653
▁laxmi	-12654
▁loose	-12655
▁niger	-12656
▁poles	-12657
▁wasim	-12658
▁davids	-12659
▁harder	-12660
▁infilt	-12661
▁raghav	-12662
▁slaves	-12663
▁voices	-12664
affected	-12665
▁counted	-12666
▁luckily	-12667
▁slapped	-12668
▁decrease	-12669
▁showcase	-12670
▁williams	-12671
▁adversely	-12672
▁depressed	-12673
▁digestion	-12674
▁neighbors	-12675
▁assemblies	-12676
▁speculation	-12677
gg	-12678
▁uz	-12679
appa	-12680
▁ncb	-12681
tical	-12682
▁chaw	-12683
▁drdo	-12684
▁flaw	-12685
▁topp	-12686
▁dried	-12687
▁lalit	-12688
▁thess	-12689
▁hazard	-12690
▁immoral	-12691
▁focusing	-12692
▁mobility	-12693
▁favourable	-12694
▁restaurant	-12695
▁resolutions	-12696
▁concentration	-12697
sol	-12698
admk	-12699
ules	-12700
wart	-12701
▁egg	-12702
▁guess	-12703
▁shine	-12704
▁waived	-12705
▁miracle	-12706
▁marginal	-12707
▁repaired	-12708
▁speakers	-12709
▁divisions	-12710
▁monitored	-12711
▁overseers	-12712
▁skyrocket	-12713
▁contributing	-12714
dig	-12715
oft	-12716
).""	-12717
▁nis	-12718
▁tib	-12719
▁2004	-12720
▁repo	-12721
rupted	-12722
usions	-12723
▁satya	-12724
respect	-12725
▁greece	-12726
▁postal	-12727
▁rating	-12728
▁chaturthi	-12729
▁irregular	-12730
▁temporarily	-12731
79	-12732
eri	-12733
▁alb	-12734
▁arp	-12735
▁gom	-12736
▁mug	-12737
▁ahir	-12738
▁zion	-12739
▁diksh	-12740
▁grows	-12741
▁retri	-12742
▁anthem	-12743
▁copper	-12744
▁cubits	-12745
▁kindly	-12746
▁spared	-12747
▁debates	-12748
▁tenders	-12749
▁torture	-12750
▁apparent	-12751
▁captivity	-12752
▁rebellion	-12753
▁chaturvedi	-12754
▁solidarity	-12755
zo	-12756
imd	-12757
▁hiv	-12758
▁dawn	-12759
acular	-12760
harraf	-12761
keeping	-12762
starrer	-12763
▁advers	-12764
▁anyway	-12765
▁pathak	-12766
▁premie	-12767
▁shrine	-12768
▁ceremon	-12769
▁diction	-12770
▁fernand	-12771
▁stabbed	-12772
▁disposal	-12773
▁firstborn	-12774
▁pharisees	-12775
84	-12776
hah	-12777
uli	-12778
▁nt	-12779
urea	-12780
▁%1$	-12781
▁tip	-12782
comes	-12783
▁ekta	-12784
▁heal	-12785
▁jaff	-12786
▁sarah	-12787
▁morcha	-12788
▁tiktok	-12789
produced	-12790
▁liberal	-12791
▁slipped	-12792
▁clinched	-12793
▁automatic	-12794
▁excessive	-12795
▁reporting	-12796
▁substance	-12797
▁pensioners	-12798
▁prescribed	-12799
▁harmanpreet	-12800
▁replacement	-12801
▁precautionary	-12802
▁89	-12803
▁atl	-12804
▁dup	-12805
▁pmo	-12806
▁pall	-12807
▁citys	-12808
▁mahas	-12809
▁maker	-12810
elected	-12811
parents	-12812
▁ashram	-12813
▁excite	-12814
▁modest	-12815
▁arabian	-12816
▁fantastic	-12817
▁ghaziabad	-12818
▁kartarpur	-12819
▁lightning	-12820
▁southwest	-12821
400	-12822
▁82	-12823
char	-12824
iran	-12825
prom	-12826
onkar	-12827
▁erad	-12828
▁evms	-12829
▁berth	-12830
▁atomic	-12831
▁counse	-12832
▁exempl	-12833
▁palest	-12834
▁ramdev	-12835
▁sundar	-12836
▁topped	-12837
▁disposed	-12838
▁promptly	-12839
▁naturally	-12840
▁progressing	-12841
uce	-12842
▁8-	-12843
▁jol	-12844
▁pnb	-12845
imely	-12846
▁1950	-12847
▁dues	-12848
▁fors	-12849
▁pent	-12850
▁stops	-12851
▁briefed	-12852
▁closure	-12853
▁marshal	-12854
▁sitaram	-12855
▁startup	-12856
▁abundant	-12857
▁informal	-12858
▁untimely	-12859
▁vodafone	-12860
▁convenient	-12861
▁indefinite	-12862
▁collections	-12863
▁cp	-12864
onso	-12865
rons	-12866
▁bim	-12867
▁vow	-12868
▁moha	-12869
▁blank	-12870
▁brook	-12871
▁immor	-12872
agonist	-12873
quiring	-12874
▁demons	-12875
▁variants	-12876
▁comprised	-12877
▁intensity	-12878
▁manchester	-12879
▁satisfying	-12880
▁unnecessary	-12881
▁congratulates	-12882
gc	-12883
iga	-12884
yog	-12885
▁eu	-12886
oshi	-12887
icity	-12888
igate	-12889
irbhar	-12890
▁birla	-12891
▁mahil	-12892
▁mobil	-12893
▁saves	-12894
▁bungal	-12895
▁graced	-12896
▁waited	-12897
▁pursued	-12898
▁attorney	-12899
▁decisive	-12900
▁garments	-12901
▁gunfight	-12902
▁prosecut	-12903
▁exchanges	-12904
▁observing	-12905
▁preserved	-12906
▁accordance	-12907
▁commendable	-12908
map	-12909
dium	-12910
▁160	-12911
▁agit	-12912
▁csir	-12913
▁remn	-12914
▁cited	-12915
▁tries	-12916
rential	-12917
▁ankita	-12918
▁deepen	-12919
▁levied	-12920
▁plague	-12921
▁diamond	-12922
▁hosting	-12923
▁onwards	-12924
▁bacteria	-12925
▁literary	-12926
▁container	-12927
immediately	-12928
▁exploration	-12929
ann	-12930
imb	-12931
▁"[	-12932
▁sak	-12933
early	-12934
▁chok	-12935
▁draws	-12936
▁socio	-12937
▁youve	-12938
urities	-12939
▁ananya	-12940
▁holder	-12941
▁insist	-12942
▁andheri	-12943
▁earning	-12944
▁incense	-12945
▁shepherds	-12946
▁sidelines	-12947
▁kidnapping	-12948
vo	-12949
jai	-12950
zal	-12951
abil	-12952
eeth	-12953
karn	-12954
soft	-12955
andez	-12956
gujar	-12957
marks	-12958
▁disk	-12959
▁hunt	-12960
▁crazy	-12961
▁dhule	-12962
▁nadal	-12963
▁brutal	-12964
▁dishon	-12965
▁evangel	-12966
ahmedabad	-12967
▁siblings	-12968
▁pathankot	-12969
▁equivalent	-12970
▁philippians	-12971
erts	-12972
hale	-12973
▁"1,	-12974
▁27,	-12975
hansi	-12976
▁abet	-12977
▁trio	-12978
gandhi	-12979
▁antib	-12980
▁lifes	-12981
▁lodge	-12982
▁rifle	-12983
hapuram	-12984
▁copies	-12985
▁naxals	-12986
▁afflict	-12987
▁lookout	-12988
▁posting	-12989
▁arriving	-12990
▁dealings	-12991
▁rewarded	-12992
▁taxpayers	-12993
▁electrical	-12994
▁intervened	-12995
▁objections	-12996
▁consultations	-12997
aint	-12998
ront	-12999
jammu	-13000
▁brass	-13001
▁query	-13002
▁spoil	-13003
▁uncom	-13004
▁cleans	-13005
▁scroll	-13006
▁slowed	-13007
division	-13008
▁clinton	-13009
▁dikshit	-13010
▁laughed	-13011
operation	-13012
▁alarming	-13013
▁contempl	-13014
▁hardware	-13015
▁incurred	-13016
▁magnific	-13017
▁stopping	-13018
▁upadhyay	-13019
▁computers	-13020
▁enterprise	-13021
▁faithfully	-13022
▁representation	-13023
▁jn	-13024
inks	-13025
make	-13026
▁haw	-13027
▁imd	-13028
▁sco	-13029
▁yam	-13030
▁hang	-13031
▁narc	-13032
▁forbes	-13033
▁lander	-13034
▁mahila	-13035
▁sinful	-13036
▁submar	-13037
▁vijayan	-13038
▁conclave	-13039
▁gorgeous	-13040
▁terminus	-13041
▁expresses	-13042
▁automobile	-13043
▁immorality	-13044
▁persecuted	-13045
▁extradition	-13046
▁accommodation	-13047
jet	-13048
oult	-13049
yang	-13050
▁rod	-13051
occup	-13052
ograp	-13053
phies	-13054
▁lact	-13055
▁nest	-13056
▁corps	-13057
▁mahal	-13058
opposed	-13059
▁hemant	-13060
▁hostel	-13061
▁kumari	-13062
▁rarely	-13063
▁sameer	-13064
▁infosys	-13065
▁jubilee	-13066
▁manasse	-13067
▁nirupam	-13068
▁talents	-13069
▁composer	-13070
▁generous	-13071
▁invested	-13072
▁surendra	-13073
▁troubles	-13074
▁fernandez	-13075
▁productive	-13076
▁controlling	-13077
▁announcements	-13078
▁py	-13079
etti	-13080
film	-13081
▁dug	-13082
isons	-13083
sover	-13084
▁dare	-13085
▁2013,	-13086
▁cadre	-13087
▁kumbh	-13088
▁unite	-13089
portion	-13090
▁beside	-13091
▁fright	-13092
▁malini	-13093
▁relate	-13094
everyone	-13095
▁averted	-13096
▁furious	-13097
▁residing	-13098
▁absconded	-13099
▁athletics	-13100
▁paragraph	-13101
▁cognisance	-13102
▁harvesting	-13103
▁assassination	-13104
],	-13105
▁16:	-13106
▁19:	-13107
▁bop	-13108
ivali	-13109
▁deaf	-13110
▁lata	-13111
icians	-13112
tering	-13113
▁fights	-13114
▁landsc	-13115
▁subodh	-13116
▁curious	-13117
▁sickness	-13118
▁vomiting	-13119
anthapuram	-13120
▁desperate	-13121
▁offensive	-13122
▁innovations	-13123
▁strengthens	-13124
2019	-13125
best	-13126
▁2002	-13127
▁tire	-13128
bengal	-13129
▁carol	-13130
▁lakes	-13131
▁texas	-13132
keepers	-13133
▁arises	-13134
▁contam	-13135
▁taiwan	-13136
▁admiral	-13137
▁cummins	-13138
▁designs	-13139
▁pushkar	-13140
▁midnight	-13141
▁attracted	-13142
▁discontent	-13143
▁transaction	-13144
fli	-13145
onym	-13146
ugram	-13147
▁thri	-13148
▁aston	-13149
▁shake	-13150
▁tahir	-13151
▁inputs	-13152
▁swayam	-13153
security	-13154
omination	-13155
▁elevated	-13156
▁estimate	-13157
▁meditate	-13158
▁proteins	-13159
▁utilised	-13160
▁hardships	-13161
▁functional	-13162
▁nd	-13163
▁gaw	-13164
▁ches	-13165
▁stan	-13166
umping	-13167
▁naked	-13168
▁varma	-13169
avatmal	-13170
yakumar	-13171
▁aiadmk	-13172
▁differ	-13173
▁domain	-13174
▁focuss	-13175
▁qualif	-13176
▁vasund	-13177
▁lending	-13178
▁contacts	-13179
▁ascertain	-13180
▁inspected	-13181
▁magazines	-13182
▁musharraf	-13183
▁autonomous	-13184
66	-13185
-19,	-13186
▁ish	-13187
▁pig	-13188
itius	-13189
actory	-13190
marked	-13191
united	-13192
▁galax	-13193
▁slept	-13194
▁tejas	-13195
▁famine	-13196
▁hacked	-13197
interest	-13198
▁nursing	-13199
▁founding	-13200
▁campaigned	-13201
▁influential	-13202
vananthapuram	-13203
aho	-13204
▁hou	-13205
esome	-13206
▁info	-13207
▁irctc	-13208
present	-13209
▁decent	-13210
▁charles	-13211
▁females	-13212
▁shopian	-13213
▁wellness	-13214
corruption	-13215
▁apartment	-13216
▁landslides	-13217
▁mujahideen	-13218
▁parameters	-13219
▁*	-13220
ahu	-13221
apsee	-13222
ijing	-13223
trump	-13224
▁leop	-13225
▁silk	-13226
▁blend	-13227
▁parab	-13228
▁sends	-13229
▁starc	-13230
▁swiss	-13231
uration	-13232
▁sadhvi	-13233
▁valued	-13234
▁liberty	-13235
▁periods	-13236
▁suffers	-13237
▁bhiwandi	-13238
▁chapters	-13239
▁hinduism	-13240
▁holidays	-13241
▁responses	-13242
▁unopposed	-13243
▁willingly	-13244
▁journalism	-13245
▁shivakumar	-13246
str	-13247
isen	-13248
▁fug	-13249
▁sut	-13250
gence	-13251
▁tops	-13252
▁audit	-13253
reshing	-13254
▁jhansi	-13255
▁extends	-13256
▁wrongdo	-13257
▁brutally	-13258
▁prompted	-13259
▁congresss	-13260
▁laboratories	-13261
72	-13262
94	-13263
sur	-13264
▁dd	-13265
alid	-13266
flix	-13267
raim	-13268
▁16-	-13269
asure	-13270
▁apte	-13271
▁bhub	-13272
▁unle	-13273
advant	-13274
▁annum	-13275
▁bobde	-13276
▁datab	-13277
▁sibal	-13278
▁netaji	-13279
▁string	-13280
▁fearing	-13281
▁invites	-13282
▁karisma	-13283
▁profound	-13284
▁worrying	-13285
▁interpret	-13286
▁technique	-13287
▁undergone	-13288
▁understands	-13289
?'	-13290
300	-13291
rgy	-13292
▁76	-13293
oric	-13294
prof	-13295
▁pla	-13296
acked	-13297
celon	-13298
isite	-13299
▁dedu	-13300
▁ener	-13301
▁akola	-13302
▁invis	-13303
▁reaff	-13304
▁sorts	-13305
ographic	-13306
▁russell	-13307
▁implications	-13308
▁clarification	-13309
▁94	-13310
▁mcc	-13311
▁obsc	-13312
daspur	-13313
▁debit	-13314
▁goats	-13315
▁shoes	-13316
▁floral	-13317
▁lesser	-13318
▁sewage	-13319
▁versus	-13320
▁exposure	-13321
▁ignoring	-13322
▁manasseh	-13323
▁osmanabad	-13324
▁virtually	-13325
▁attempting	-13326
▁excitement	-13327
▁frustrated	-13328
▁contemporary	-13329
eff	-13330
pac	-13331
▁bru	-13332
▁baat	-13333
▁lest	-13334
▁oman	-13335
▁siso	-13336
▁stip	-13337
▁urea	-13338
▁lover	-13339
▁misra	-13340
▁murli	-13341
▁vocal	-13342
chnology	-13343
▁dressed	-13344
▁tallest	-13345
▁airspace	-13346
▁bankrupt	-13347
▁circular	-13348
▁survival	-13349
▁supplement	-13350
▁undertaking	-13351
sar	-13352
▁92	-13353
hira	-13354
▁cos	-13355
acent	-13356
avali	-13357
ouses	-13358
▁neil	-13359
origin	-13360
▁saxena	-13361
▁valent	-13362
▁invalid	-13363
▁kotwali	-13364
▁prolong	-13365
▁vishwaj	-13366
▁adoption	-13367
▁entrusted	-13368
▁marriages	-13369
▁northwest	-13370
▁preventive	-13371
▁continually	-13372
-15	-13373
tic	-13374
edia	-13375
iors	-13376
▁1.3	-13377
▁119	-13378
▁12-	-13379
▁lip	-13380
▁por	-13381
▁wif	-13382
aving	-13383
▁agri	-13384
▁mold	-13385
▁2020:	-13386
▁khadi	-13387
▁pannu	-13388
▁safer	-13389
▁prejud	-13390
▁revers	-13391
▁derived	-13392
▁therapy	-13393
▁dominant	-13394
▁engaging	-13395
▁teaspoon	-13396
▁extending	-13397
▁gadchiroli	-13398
2017	-13399
aray	-13400
ayed	-13401
tech	-13402
text	-13403
▁eco	-13404
daugh	-13405
▁rams	-13406
▁abdom	-13407
gujarat	-13408
▁booths	-13409
▁merger	-13410
▁booking	-13411
▁disobed	-13412
▁knocked	-13413
▁miracul	-13414
▁ronaldo	-13415
▁stunned	-13416
▁unhappy	-13417
▁somewhat	-13418
▁constitute	-13419
▁deployment	-13420
▁financially	-13421
▁jurisdiction	-13422
mba	-13423
▁86	-13424
priv	-13425
▁175	-13426
▁ara	-13427
▁hiz	-13428
▁rud	-13429
▁tune	-13430
akshay	-13431
▁asaram	-13432
▁column	-13433
▁eleven	-13434
▁trends	-13435
▁ephraim	-13436
▁filming	-13437
▁scandal	-13438
▁vishwas	-13439
▁disadvant	-13440
▁melbourne	-13441
▁vasundhara	-13442
05	-13443
▁lk	-13444
▁zo	-13445
unch	-13446
▁gulf	-13447
▁saha	-13448
▁taxi	-13449
irable	-13450
▁berlin	-13451
▁framed	-13452
▁harris	-13453
▁peters	-13454
actually	-13455
graduate	-13456
▁carrier	-13457
▁mustard	-13458
▁netflix	-13459
▁wrapped	-13460
▁fruitful	-13461
additional	-13462
▁generating	-13463
▁rejuvenation	-13464
▁wicketkeeper	-13465
86	-13466
▁ns	-13467
orms	-13468
vani	-13469
▁bam	-13470
▁mao	-13471
▁sod	-13472
ichol	-13473
oning	-13474
urabh	-13475
▁firs	-13476
▁khel	-13477
ingers	-13478
nesium	-13479
▁ammon	-13480
▁encro	-13481
▁micah	-13482
▁redmi	-13483
ettiwar	-13484
western	-13485
▁flower	-13486
▁keshav	-13487
▁augment	-13488
▁freight	-13489
▁honours	-13490
▁pushing	-13491
▁rituals	-13492
▁stirred	-13493
▁strangers	-13494
▁nationalism	-13495
74	-13496
lord	-13497
omin	-13498
rgyz	-13499
▁18:	-13500
▁asc	-13501
▁moz	-13502
otech	-13503
▁bull	-13504
▁corp	-13505
▁mani	-13506
▁pics	-13507
usters	-13508
▁irrit	-13509
▁bypoll	-13510
▁colors	-13511
▁floors	-13512
▁shoaib	-13513
▁unfair	-13514
▁aligarh	-13515
▁athlete	-13516
▁casting	-13517
▁wishing	-13518
karnataka	-13519
▁holistic	-13520
bangladesh	-13521
▁sanctions	-13522
▁perception	-13523
▁transition	-13524
▁candidature	-13525
▁commemorate	-13526
▁disabilities	-13527
▁internationally	-13528
agi	-13529
amar	-13530
heed	-13531
souza	-13532
▁anch	-13533
▁sail	-13534
writer	-13535
▁agent	-13536
▁arnab	-13537
▁envis	-13538
▁karti	-13539
deepika	-13540
▁assume	-13541
▁timing	-13542
▁manisha	-13543
▁seminar	-13544
▁gurugram	-13545
▁passover	-13546
▁versions	-13547
▁apprehens	-13548
▁magnesium	-13549
▁mauritius	-13550
▁preferred	-13551
▁treasures	-13552
amm	-13553
eli	-13554
los	-13555
mic	-13556
aste	-13557
rena	-13558
▁bak	-13559
▁dcp	-13560
▁suv	-13561
▁goel	-13562
▁prey	-13563
▁heroes	-13564
▁stabil	-13565
▁crashes	-13566
▁adorable	-13567
▁flagship	-13568
▁merchant	-13569
▁tracking	-13570
▁digvijaya	-13571
▁evidently	-13572
▁invisible	-13573
▁dictionary	-13574
dri	-13575
isk	-13576
nao	-13577
▁pc	-13578
iana	-13579
ishi	-13580
jits	-13581
uese	-13582
▁20:	-13583
▁22:	-13584
▁hid	-13585
▁iii	-13586
▁abst	-13587
▁belt	-13588
celona	-13589
▁mango	-13590
▁steam	-13591
special	-13592
yasagar	-13593
▁chawla	-13594
▁clinch	-13595
▁nilesh	-13596
▁israels	-13597
▁maxwell	-13598
▁artistes	-13599
▁parallel	-13600
▁proposes	-13601
▁declaring	-13602
▁collectors	-13603
▁interviews	-13604
ursed	-13605
▁buzz	-13606
▁pang	-13607
▁pier	-13608
▁bikes	-13609
▁manip	-13610
▁tilak	-13611
limited	-13612
▁cloudy	-13613
▁jersey	-13614
▁mirror	-13615
occupied	-13616
▁rioting	-13617
▁typical	-13618
▁vaibhav	-13619
▁divorced	-13620
▁harassed	-13621
▁outcomes	-13622
▁spinners	-13623
▁assembled	-13624
▁diagnosis	-13625
▁gurdaspur	-13626
▁mainstream	-13627
▁preparedness	-13628
▁advertisement	-13629
▁chandrashekhar	-13630
''	-13631
tc	-13632
mah	-13633
mits	-13634
rats	-13635
▁2005	-13636
▁dish	-13637
▁hash	-13638
▁tomb	-13639
▁cheer	-13640
▁grasp	-13641
▁refin	-13642
onement	-13643
itorious	-13644
▁outlook	-13645
▁missions	-13646
▁sensation	-13647
▁demolished	-13648
▁magnificent	-13649
▁spectacular	-13650
.50	-13651
maj	-13652
idas	-13653
▁chun	-13654
▁seva	-13655
▁dimin	-13656
▁layer	-13657
▁stamp	-13658
▁wales	-13659
▁raipur	-13660
▁kingdoms	-13661
▁miracles	-13662
▁intensive	-13663
▁assaulting	-13664
wc	-13665
▁gn	-13666
▁kc	-13667
eted	-13668
karan	-13669
▁flex	-13670
▁turb	-13671
▁vern	-13672
others	-13673
▁lists	-13674
▁traff	-13675
▁absent	-13676
▁drinks	-13677
▁nikhil	-13678
▁praveen	-13679
▁taapsee	-13680
condition	-13681
manirbhar	-13682
▁confront	-13683
▁insisted	-13684
▁preacher	-13685
▁chandrase	-13686
▁exemption	-13687
▁necessarily	-13688
▁bhattacharya	-13689
ean	-13690
ffe	-13691
udu	-13692
▁zu	-13693
bles	-13694
▁bjd	-13695
▁shet	-13696
▁vand	-13697
▁pocso	-13698
▁shore	-13699
▁swall	-13700
raditya	-13701
▁buyers	-13702
▁hanged	-13703
▁hassan	-13704
▁menace	-13705
▁venkat	-13706
▁andaman	-13707
▁bottles	-13708
▁distant	-13709
▁rightly	-13710
formation	-13711
▁yavatmal	-13712
▁historian	-13713
▁scripture	-13714
▁undeserved	-13715
▁essentially	-13716
▁consistently	-13717
92	-13718
riy	-13719
yar	-13720
▁tb	-13721
asim	-13722
cycl	-13723
neys	-13724
▁kok	-13725
otion	-13726
▁amal	-13727
▁ethi	-13728
▁helm	-13729
▁bobby	-13730
▁facto	-13731
▁paths	-13732
aneswar	-13733
▁galwan	-13734
▁kamala	-13735
▁koffee	-13736
▁nirbha	-13737
▁queues	-13738
▁dissent	-13739
righteous	-13740
▁machinery	-13741
▁thrilling	-13742
▁restriction	-13743
▁tournaments	-13744
▁reservations	-13745
':	-13746
kel	-13747
lyn	-13748
vas	-13749
▁ll	-13750
hams	-13751
▁2.0	-13752
▁obe	-13753
iaomi	-13754
▁beer	-13755
▁jury	-13756
▁marc	-13757
▁palm	-13758
▁prox	-13759
▁angle	-13760
▁arrog	-13761
▁hamid	-13762
▁jonah	-13763
▁nurse	-13764
▁qatar	-13765
▁anjali	-13766
▁babies	-13767
▁entity	-13768
▁ethiop	-13769
▁paraly	-13770
▁rathod	-13771
▁shells	-13772
▁taylor	-13773
aternity	-13774
▁bicycle	-13775
▁boycott	-13776
▁categor	-13777
▁singers	-13778
▁disorder	-13779
▁nowadays	-13780
▁prospects	-13781
▁approaches	-13782
▁theocratic	-13783
▁extinguished	-13784
▁harshvardhan	-13785
adh	-13786
aiz	-13787
aph	-13788
leys	-13789
▁oli	-13790
clock	-13791
▁phog	-13792
▁scra	-13793
▁wank	-13794
▁kotak	-13795
eshwari	-13796
umbling	-13797
▁choksi	-13798
▁cruise	-13799
▁doused	-13800
▁rifles	-13801
▁tandon	-13802
▁bopanna	-13803
▁crowded	-13804
▁expects	-13805
▁remnant	-13806
▁thriller	-13807
▁inhabited	-13808
tp	-13809
▁203	-13810
▁jat	-13811
▁npr	-13812
ccess	-13813
irmed	-13814
start	-13815
▁datt	-13816
▁mane	-13817
okovic	-13818
▁argue	-13819
▁budge	-13820
▁cared	-13821
▁chess	-13822
▁flags	-13823
spinner	-13824
▁cooked	-13825
▁planes	-13826
wheelers	-13827
▁beijing	-13828
▁honesty	-13829
▁parable	-13830
▁reigned	-13831
▁sisodia	-13832
▁koregaon	-13833
▁speeding	-13834
▁nutrients	-13835
▁contestants	-13836
▁meritorious	-13837
nrc	-13838
half	-13839
rase	-13840
▁gab	-13841
atile	-13842
gated	-13843
▁dias	-13844
▁burns	-13845
▁cameo	-13846
▁mahad	-13847
▁trium	-13848
respass	-13849
▁traits	-13850
▁wouldn	-13851
▁execute	-13852
▁cylinder	-13853
▁reserves	-13854
▁wondered	-13855
▁graduated	-13856
▁colossians	-13857
▁2-	-13858
▁96	-13859
▁fc	-13860
ethe	-13861
▁kor	-13862
▁luc	-13863
overs	-13864
▁guys	-13865
▁lane	-13866
▁scor	-13867
▁adjud	-13868
▁bears	-13869
▁cheese	-13870
▁elisha	-13871
▁fairly	-13872
▁immort	-13873
▁maneka	-13874
▁restart	-13875
struction	-13876
▁confined	-13877
▁pensions	-13878
▁stranger	-13879
▁departure	-13880
▁paintings	-13881
▁occupation	-13882
▁registering	-13883
▁multilateral	-13884
kin	-13885
aned	-13886
▁35.	-13887
▁jak	-13888
oints	-13889
watch	-13890
▁ezek	-13891
▁holi	-13892
▁para	-13893
▁sore	-13894
pering	-13895
▁curse	-13896
▁dutch	-13897
▁harry	-13898
▁quits	-13899
▁nutrit	-13900
▁snatch	-13901
▁auditor	-13902
▁cameron	-13903
▁pressed	-13904
▁regards	-13905
▁textile	-13906
▁comprise	-13907
▁clearance	-13908
▁prophetic	-13909
▁compliance	-13910
▁destroying	-13911
bp	-13912
kul	-13913
esco	-13914
itis	-13915
▁umb	-13916
aware	-13917
stars	-13918
▁ghee	-13919
holder	-13920
idding	-13921
unlike	-13922
▁merit	-13923
▁rainy	-13924
abhoomi	-13925
▁cancel	-13926
▁distra	-13927
▁eccles	-13928
▁indoor	-13929
▁loaded	-13930
▁phogat	-13931
▁speedy	-13932
▁varsha	-13933
▁offline	-13934
▁relaxed	-13935
yavardhan	-13936
▁database	-13937
▁pradeshs	-13938
▁scrapped	-13939
▁instantly	-13940
oma	-13941
▁sd	-13942
etus	-13943
▁15-	-13944
bling	-13945
covid	-13946
ranti	-13947
reach	-13948
▁blog	-13949
▁chic	-13950
▁icmr	-13951
▁trick	-13952
▁unnao	-13953
onsored	-13954
▁funded	-13955
▁turnout	-13956
▁councils	-13957
▁conductor	-13958
▁schooling	-13959
▁portuguese	-13960
▁devastating	-13961
aben	-13962
tled	-13963
▁ahu	-13964
▁isi	-13965
▁kag	-13966
▁kud	-13967
oming	-13968
▁chik	-13969
▁sams	-13970
▁deora	-13971
▁illeg	-13972
▁vihar	-13973
▁kyrgyz	-13974
▁mortem	-13975
▁sengar	-13976
▁spaces	-13977
▁splend	-13978
▁lacking	-13979
▁linking	-13980
▁rajouri	-13981
centuries	-13982
▁endeavour	-13983
▁projected	-13984
▁subjected	-13985
▁screenplay	-13986
▁advancement	-13987
▁commissions	-13988
▁distinction	-13989
▁partnerships	-13990
▁developmental	-13991
-1.	-13992
mik	-13993
nob	-13994
uds	-13995
bani	-13996
good	-13997
▁gha	-13998
isans	-13999
▁guin	-14000
▁slew	-14001
ancing	-14002
sharad	-14003
▁drops	-14004
▁elite	-14005
▁glenn	-14006
▁mouse	-14007
defence	-14008
fulness	-14009
tension	-14010
▁adoles	-14011
▁ruined	-14012
▁anguish	-14013
▁radical	-14014
▁roughly	-14015
▁saurabh	-14016
▁shabana	-14017
▁missiles	-14018
▁scotland	-14019
▁snowfall	-14020
▁wankhede	-14021
▁commanding	-14022
▁phenomenon	-14023
▁standstill	-14024
▁discouraged	-14025
800	-14026
iat	-14027
▁81	-14028
hiya	-14029
love	-14030
▁3-0	-14031
▁pwd	-14032
refer	-14033
▁hack	-14034
scious	-14035
▁figur	-14036
▁pumps	-14037
▁resid	-14038
▁beware	-14039
▁proven	-14040
▁essence	-14041
▁fortune	-14042
▁refresh	-14043
▁expertise	-14044
▁obstacles	-14045
▁unlimited	-14046
▁ecclesiast	-14047
▁pioneering	-14048
▁humanitarian	-14049
▁administrators	-14050
bag	-14051
fits	-14052
stru	-14053
▁108	-14054
▁rae	-14055
▁shy	-14056
chari	-14057
ortic	-14058
stone	-14059
▁hamp	-14060
▁leap	-14061
ienced	-14062
▁karim	-14063
▁chocol	-14064
reacting	-14065
▁bhagwan	-14066
▁mukerji	-14067
▁pilgrim	-14068
▁scalped	-14069
▁anderson	-14070
▁merciful	-14071
▁disappear	-14072
▁justified	-14073
▁microsoft	-14074
stitutional	-14075
▁fatalities	-14076
▁promotions	-14077
▁convocation	-14078
▁descendants	-14079
▁appointments	-14080
bri	-14081
▁rr	-14082
stec	-14083
▁gaz	-14084
▁lac	-14085
▁viz	-14086
north	-14087
table	-14088
▁1990	-14089
▁flame	-14090
▁khari	-14091
▁renov	-14092
▁uzbek	-14093
wheeler	-14094
▁battal	-14095
▁depict	-14096
▁muscle	-14097
▁houston	-14098
▁muscles	-14099
▁praises	-14100
▁phosphor	-14101
▁conversion	-14102
▁medication	-14103
▁nutritious	-14104
▁faithfulness	-14105
▁jyotiraditya	-14106
isal	-14107
paak	-14108
▁pvt	-14109
▁arth	-14110
▁impe	-14111
▁ruin	-14112
athing	-14113
hriyal	-14114
▁maize	-14115
▁mudra	-14116
▁refle	-14117
▁spice	-14118
perhaps	-14119
usively	-14120
▁amazed	-14121
▁dharam	-14122
▁ishaan	-14123
▁ladies	-14124
▁shaken	-14125
▁stupid	-14126
chairman	-14127
▁assures	-14128
▁banning	-14129
▁biotech	-14130
▁legally	-14131
astically	-14132
▁coaching	-14133
▁commands	-14134
▁convened	-14135
▁keyboard	-14136
▁maturity	-14137
▁trespass	-14138
▁campaigns	-14139
▁pressures	-14140
▁viewpoint	-14141
▁mastermind	-14142
▁destinations	-14143
arel	-14144
mita	-14145
othe	-14146
urai	-14147
▁dum	-14148
arayi	-14149
kopar	-14150
▁chad	-14151
▁tiny	-14152
▁phalke	-14153
▁revive	-14154
▁unlock	-14155
▁widows	-14156
▁wounds	-14157
iyurappa	-14158
▁jagdish	-14159
▁thessal	-14160
▁ravinder	-14161
▁preceding	-14162
▁varieties	-14163
▁qualifying	-14164
auc	-14165
rar	-14166
rss	-14167
▁gm	-14168
aiah	-14169
hour	-14170
▁20-	-14171
▁rcb	-14172
iders	-14173
japan	-14174
▁nadi	-14175
listed	-14176
▁array	-14177
▁dirty	-14178
▁drove	-14179
▁payal	-14180
▁chahar	-14181
▁climbed	-14182
▁microsd	-14183
▁pursuit	-14184
▁richard	-14185
appointed	-14186
▁inclined	-14187
▁initiate	-14188
▁inquired	-14189
▁motivate	-14190
▁captaincy	-14191
▁delicious	-14192
▁extortion	-14193
▁patriarch	-14194
▁vidyasagar	-14195
▁accountable	-14196
35	-14197
boo	-14198
▁jeh	-14199
vekar	-14200
wakar	-14201
▁grey	-14202
▁torn	-14203
ighter	-14204
▁ghost	-14205
▁mehul	-14206
▁sabka	-14207
▁swung	-14208
rolling	-14209
▁convoy	-14210
▁kishor	-14211
▁miscre	-14212
▁clashed	-14213
▁confron	-14214
▁rampant	-14215
theastern	-14216
▁manpower	-14217
▁promotes	-14218
▁statutes	-14219
▁warnings	-14220
▁afterward	-14221
▁pokhriyal	-14222
▁consisting	-14223
▁strategies	-14224
▁corporators	-14225
▁drastically	-14226
▁certification	-14227
bra	-14228
aiya	-14229
ella	-14230
▁dgp	-14231
▁www	-14232
harsh	-14233
▁reop	-14234
vering	-14235
▁spite	-14236
▁sujay	-14237
schools	-14238
▁judged	-14239
▁thirst	-14240
ckerberg	-14241
▁bypolls	-14242
▁filling	-14243
▁teenage	-14244
▁turkish	-14245
▁produces	-14246
▁judgments	-14247
▁graduation	-14248
▁perfection	-14249
▁prophecies	-14250
▁characteristics	-14251
▁kv	-14252
ruled	-14253
▁cute	-14254
▁mosa	-14255
states	-14256
▁bluet	-14257
▁bombs	-14258
▁mohit	-14259
▁sadar	-14260
▁impose	-14261
▁samson	-14262
▁sheila	-14263
▁unsung	-14264
▁adamant	-14265
▁djokovic	-14266
▁hydrogen	-14267
▁labourer	-14268
▁megastar	-14269
▁pinarayi	-14270
▁rajawadi	-14271
▁earmarked	-14272
▁proceeded	-14273
▁affiliated	-14274
▁vandalised	-14275
▁consequence	-14276
hao	-14277
▁sq	-14278
▁185	-14279
▁cji	-14280
▁tcs	-14281
▁duck	-14282
office	-14283
▁ignor	-14284
▁patra	-14285
▁healed	-14286
▁masses	-14287
▁wisely	-14288
▁desktop	-14289
▁emirates	-14290
▁epidemic	-14291
▁guinness	-14292
▁remedies	-14293
▁villiers	-14294
▁bluetooth	-14295
▁centenary	-14296
▁medicinal	-14297
▁prabhakar	-14298
▁incomplete	-14299
▁privileged	-14300
▁overwhelmed	-14301
▁unrighteous	-14302
▁3-	-14303
▁oh	-14304
hips	-14305
pled	-14306
rise	-14307
▁spy	-14308
alkar	-14309
rimin	-14310
third	-14311
▁kmph	-14312
▁pole	-14313
▁waqf	-14314
nagpur	-14315
▁aditi	-14316
▁pompe	-14317
▁zakir	-14318
▁earths	-14319
applause	-14320
▁enacted	-14321
▁swedish	-14322
▁dramatic	-14323
▁numbered	-14324
▁companion	-14325
▁excellency	-14326
▁liberation	-14327
▁cultivation	-14328
gis	-14329
▁kr	-14330
▁org	-14331
▁ssp	-14332
pired	-14333
▁2007	-14334
▁plas	-14335
▁rage	-14336
▁rajg	-14337
▁sion	-14338
teenth	-14339
▁abhay	-14340
▁asset	-14341
▁tibet	-14342
▁wells	-14343
▁cement	-14344
▁leaked	-14345
▁surren	-14346
ventions	-14347
referring	-14348
▁barcelona	-14349
▁exchanged	-14350
▁intensify	-14351
▁sabarmati	-14352
▁brahmastra	-14353
▁uncertainty	-14354
▁chairmanship	-14355
▁rajyavardhan	-14356
inf	-14357
▁79	-14358
▁87	-14359
poll	-14360
▁esp	-14361
▁fog	-14362
plant	-14363
▁nasa	-14364
▁vart	-14365
invest	-14366
market	-14367
▁ahuja	-14368
▁shang	-14369
reliant	-14370
▁arisen	-14371
▁arshad	-14372
▁celebs	-14373
▁misuse	-14374
▁themes	-14375
official	-14376
▁concess	-14377
▁mandavi	-14378
▁endeavor	-14379
▁mutually	-14380
▁startups	-14381
▁taxation	-14382
▁wireless	-14383
▁writings	-14384
▁egyptians	-14385
▁attributed	-14386
▁advertising	-14387
▁psychological	-14388
-10	-14389
nar	-14390
sri	-14391
hrad	-14392
▁heb	-14393
▁ott	-14394
▁sap	-14395
adhya	-14396
antry	-14397
avane	-14398
▁avin	-14399
▁echo	-14400
▁grav	-14401
▁gymn	-14402
▁scul	-14403
▁spat	-14404
effect	-14405
hradun	-14406
▁leban	-14407
▁calcul	-14408
▁chains	-14409
▁cigare	-14410
▁intake	-14411
▁panaji	-14412
▁shivam	-14413
▁weaker	-14414
▁zaheer	-14415
▁abhijit	-14416
▁airstri	-14417
▁conserv	-14418
▁destiny	-14419
▁mithali	-14420
▁paramil	-14421
▁variant	-14422
velopment	-14423
▁bungalow	-14424
▁richards	-14425
▁striking	-14426
▁aftermath	-14427
▁correctly	-14428
▁strengths	-14429
▁underground	-14430
2)	-14431
600	-14432
mada	-14433
▁188	-14434
otsav	-14435
singh	-14436
▁carb	-14437
▁kant	-14438
▁2010,	-14439
▁2010.	-14440
▁hated	-14441
▁himal	-14442
▁shram	-14443
▁enjoys	-14444
▁foiled	-14445
▁gaurav	-14446
▁immers	-14447
▁samiti	-14448
▁briefly	-14449
▁renewed	-14450
▁samaria	-14451
▁triumph	-14452
▁ghatkopar	-14453
▁disturbing	-14454
▁criticising	-14455
▁willingness	-14456
muk	-14457
nit	-14458
▁97	-14459
dhan	-14460
▁bij	-14461
onomy	-14462
▁nuts	-14463
▁sony	-14464
ancies	-14465
▁alien	-14466
▁diarr	-14467
▁dipak	-14468
▁insol	-14469
▁kharif	-14470
▁reeling	-14471
▁fatality	-14472
▁constables	-14473
▁gatherings	-14474
▁progressed	-14475
▁protective	-14476
▁securities	-14477
▁territorial	-14478
ael	-14479
educ	-14480
ogue	-14481
viol	-14482
▁3.5	-14483
phant	-14484
ubhai	-14485
▁aman	-14486
▁disb	-14487
▁tale	-14488
▁angan	-14489
▁boats	-14490
▁mahav	-14491
▁polar	-14492
▁kicked	-14493
▁locate	-14494
▁rampur	-14495
▁sarasw	-14496
▁urging	-14497
▁fitting	-14498
akhapatnam	-14499
▁economist	-14500
▁interface	-14501
▁streaming	-14502
▁retaliation	-14503
▁accompanying	-14504
▁paramilitary	-14505
44	-14506
isp	-14507
sbi	-14508
emen	-14509
rele	-14510
sind	-14511
▁lee	-14512
ports	-14513
▁peas	-14514
▁aries	-14515
▁cease	-14516
▁nayak	-14517
▁snake	-14518
washing	-14519
▁hasina	-14520
▁hirani	-14521
▁hizbul	-14522
▁perish	-14523
▁verses	-14524
▁dispers	-14525
▁flavour	-14526
▁galilee	-14527
▁narmada	-14528
▁vinayak	-14529
▁advances	-14530
▁condemns	-14531
▁disclose	-14532
▁mildness	-14533
▁swayamse	-14534
▁graduates	-14535
▁treasuries	-14536
21	-14537
ifa	-14538
oph	-14539
▁ft	-14540
heat	-14541
offs	-14542
rank	-14543
zech	-14544
▁bai	-14545
▁bse	-14546
▁obc	-14547
aimur	-14548
metoo	-14549
▁dera	-14550
urable	-14551
▁aired	-14552
▁georg	-14553
▁wuhan	-14554
▁blockb	-14555
▁maidan	-14556
▁ponder	-14557
▁reluct	-14558
▁reside	-14559
breaking	-14560
▁enlight	-14561
▁relieve	-14562
▁assisted	-14563
▁perfectly	-14564
▁impression	-14565
▁assignments	-14566
wl	-14567
yr	-14568
lick	-14569
oler	-14570
rail	-14571
rend	-14572
▁leh	-14573
▁lob	-14574
hetic	-14575
▁brah	-14576
▁mini	-14577
▁arena	-14578
▁dense	-14579
▁fleet	-14580
▁solic	-14581
▁kazakh	-14582
▁kelkar	-14583
▁raided	-14584
▁gaonkar	-14585
▁newborn	-14586
▁enrolled	-14587
▁fugitive	-14588
▁nirbhaya	-14589
▁reconcil	-14590
▁scathing	-14591
▁shouting	-14592
▁thrilled	-14593
▁decorated	-14594
▁offenders	-14595
▁reasoning	-14596
▁recipient	-14597
▁councillor	-14598
▁disruption	-14599
▁yediyurappa	-14600
▁satisfactory	-14601
▁interventions	-14602
43	-14603
alis	-14604
iala	-14605
▁utt	-14606
esthe	-14607
until	-14608
▁bone	-14609
▁climb	-14610
▁synag	-14611
▁spices	-14612
▁stance	-14613
▁vijaya	-14614
▁feeding	-14615
▁buddhism	-14616
▁manifold	-14617
▁monument	-14618
▁exemplary	-14619
▁harassing	-14620
▁emphasised	-14621
▁beneficiary	-14622
▁photography	-14623
dd	-14624
gor	-14625
duct	-14626
obar	-14627
odus	-14628
ulla	-14629
▁asi	-14630
▁dor	-14631
oxide	-14632
uming	-14633
▁hole	-14634
▁reck	-14635
▁shun	-14636
please	-14637
▁dilem	-14638
▁diwas	-14639
▁roast	-14640
▁saarc	-14641
▁behave	-14642
▁clergy	-14643
▁martyr	-14644
▁netany	-14645
friendly	-14646
▁evolved	-14647
▁shooter	-14648
▁sinners	-14649
▁tremors	-14650
▁egyptian	-14651
▁malegaon	-14652
▁directory	-14653
▁kidnapped	-14654
▁bhubaneswar	-14655
▁resignations	-14656
▁accountability	-14657
.1	-14658
96	-14659
hp	-14660
kam	-14661
▁"3	-14662
hire	-14663
vard	-14664
▁50-	-14665
▁bod	-14666
eight	-14667
major	-14668
▁100%	-14669
▁adap	-14670
▁basu	-14671
▁dash	-14672
▁coinc	-14673
▁scott	-14674
▁shahs	-14675
▁shook	-14676
▁stagn	-14677
▁stall	-14678
▁thumb	-14679
ciation	-14680
▁bendre	-14681
▁fronts	-14682
▁laptop	-14683
▁polish	-14684
ologists	-14685
▁educate	-14686
▁festive	-14687
▁hardeep	-14688
▁streams	-14689
including	-14690
▁boosting	-14691
▁outreach	-14692
▁batteries	-14693
▁operators	-14694
▁encourages	-14695
▁advertisements	-14696
999.	-14697
ouni	-14698
rome	-14699
▁106	-14700
hanol	-14701
imani	-14702
[...]
