<s>	0
<pad>	0
</s>	0
<unk>	0
या	-0
्या	-1
▁आ	-2
▁क	-3
▁प	-4
▁स	-5
्र	-6
▁म	-7
▁त	-8
ार	-9
ला	-10
▁अ	-11
हे	-12
▁व	-13
▁न	-14
▁"	-15
▁आहे	-16
▁द	-17
र्	-18
ात	-19
▁ह	-20
्य	-21
ले	-22
ां	-23
▁या	-24
ही	-25
च्या	-26
ली	-27
▁ज	-28
ान	-29
▁त्या	-30
ती	-31
रा	-32
चा	-33
िक	-34
▁प्र	-35
ना	-36
▁ब	-37
चे	-38
वा	-39
▁श	-40
ची	-41
ल्या	-42
ून	-43
ण्या	-44
क्	-45
▁कर	-46
ंत	-47
ने	-48
▁हो	-49
स्	-50
्ह	-51
▁ग	-52
▁के	-53
▁का	-54
▁भ	-55
नी	-56
▁आण	-57
▁अस	-58
ित	-59
▁आणि	-60
ता	-61
वर	-62
▁ना	-63
सा	-64
▁उ	-65
▁वि	-66
ते	-67
▁घ	-68
▁रा	-69
त्	-70
ंद	-71
▁य	-72
▁झ	-73
▁र	-74
ध्य	-75
ील	-76
ेत	-77
▁यां	-78
▁दि	-79
▁झा	-80
क्ष	-81
▁नाही	-82
▁च	-83
▁ए	-84
्ट	-85
णा	-86
▁पा	-87
▁नि	-88
▁ख	-89
▁ल	-90
ठी	-91
ेश	-92
▁मा	-93
मा	-94
का	-95
▁त्यां	-96
▁सं	-97
कार	-98
▁वा	-99
▁स्	-100
▁सु	-101
ध्ये	-102
हि	-103
साठी	-104
▁आहेत	-105
ण्यात	-106
री	-107
्री	-108
▁मु	-109
मु	-110
वि	-111
ष्ट	-112
मध्ये	-113
▁फ	-114
णी	-115
णार	-116
ळे	-117
ास	-118
▁आप	-119
वी	-120
द्	-121
▁को	-122
▁ते	-123
ल्	-124
▁इ	-125
वे	-126
▁दे	-127
कर	-128
▁म्ह	-129
▁सा	-130
▁ट	-131
्हा	-132
▁हे	-133
▁जा	-134
्यां	-135
रो	-136
दी	-137
▁पो	-138
प्र	-139
▁पर	-140
मी	-141
शी	-142
▁भा	-143
▁ला	-144
▁मो	-145
ंग	-146
▁एक	-147
मुळे	-148
स्त	-149
र्व	-150
लि	-151
▁ठ	-152
णे	-153
▁राज	-154
▁भार	-155
▁पु	-156
धी	-157
स्थ	-158
""	-159
की	-160
से	-161
ंड	-162
श्	-163
ळी	-164
▁कार	-165
▁मि	-166
▁हा	-167
ाने	-168
ोक	-169
ंब	-170
▁होते	-171
कड	-172
हा	-173
▁सर्व	-174
ळा	-175
ंतर	-176
▁केले	-177
▁यांनी	-178
▁असे	-179
ांनी	-180
तो	-181
▁केली	-182
▁उप	-183
ांग	-184
न्	-185
दा	-186
ारी	-187
▁ध	-188
▁तु	-189
म्	-190
▁ये	-191
ांना	-192
▁तर	-193
▁करण्यात	-194
तील	-195
▁सुर	-196
बा	-197
▁काही	-198
र्ण	-199
भा	-200
▁झाले	-201
िया	-202
जी	-203
ार्	-204
रे	-205
िका	-206
▁ड	-207
्रा	-208
▁बा	-209
तात	-210
▁मी	-211
त्या	-212
धान	-213
पा	-214
▁आले	-215
त्य	-216
पू	-217
▁ही	-218
्रे	-219
▁लोक	-220
▁म्हण	-221
टी	-222
▁दो	-223
▁काय	-224
▁शक	-225
ारा	-226
गा	-227
▁करण्या	-228
शा	-229
ात्र	-230
वड	-231
लं	-232
िं	-233
▁केला	-234
द्ध	-235
▁दा	-236
▁आपल्या	-237
ित्र	-238
▁ति	-239
तर	-240
्यात	-241
▁सर	-242
ातील	-243
लिस	-244
डी	-245
▁वे	-246
ेट	-247
▁तो	-248
▁यांच्या	-249
▁१	-250
▁पोलिस	-251
▁दु	-252
▁होती	-253
ंद्र	-254
ति	-255
र्थ	-256
नंतर	-257
जे	-258
▁सो	-259
द्या	-260
मे	-261
▁ती	-262
▁कु	-263
▁घेत	-264
▁पण	-265
ंत्री	-266
▁होता	-267
▁गु	-268
ाना	-269
्ष	-270
िव	-271
पट	-272
दार	-273
▁सम	-274
बत	-275
▁मह	-276
▁सरकार	-277
▁देश	-278
ग्	-279
▁अध	-280
▁व्य	-281
पास	-282
चार	-283
क्र	-284
ेव	-285
▁गो	-286
म्ही	-287
लया	-288
िती	-289
▁लाग	-290
त्र	-291
▁त्यांनी	-292
▁सांग	-293
देश	-294
▁(	-295
मान	-296
▁भाज	-297
▁झाला	-298
▁करा	-299
ख्य	-300
▁उत्	-301
गी	-302
▁दाख	-303
▁चित्र	-304
सी	-305
▁‘	-306
च्	-307
क्त	-308
ऱ्या	-309
▁रु	-310
पर्	-311
▁की	-312
पी	-313
ांच्या	-314
लेल्या	-315
▁आली	-316
▁झाली	-317
▁परि	-318
▁त्यांच्या	-319
▁गे	-320
▁वर्	-321
▁त्यांना	-322
ोर	-323
▁जात	-324
जा	-325
▁2	-326
▁स्व	-327
प्रधान	-328
▁करत	-329
ष्ट्र	-330
हो	-331
▁चित्रपट	-332
▁आम	-333
स्ट	-334
नि	-335
ंतप्रधान	-336
मंत्री	-337
▁कोण	-338
▁घट	-339
कडे	-340
▁घे	-341
रु	-342
नेक	-343
ंत्र	-344
▁ने	-345
▁मिळ	-346
हिती	-347
▁अभ	-348
▁अनेक	-349
थे	-350
ईल	-351
पर	-352
▁माहिती	-353
▁भाजप	-354
व्ह	-355
ोल	-356
के	-357
नु	-358
मध	-359
ोग	-360
▁मात्र	-361
क्षा	-362
▁निवड	-363
▁त्यामुळे	-364
चं	-365
ष्	-366
▁1	-367
ाय	-368
▁वाढ	-369
▁पंतप्रधान	-370
▁२	-371
▁स्थ	-372
▁मुख्य	-373
▁मोदी	-374
▁आपण	-375
ांची	-376
▁माझ	-377
▁आरो	-378
दल	-379
▁चा	-380
▁राह	-381
▁आला	-382
▁अधिक	-383
▁असल्या	-384
प्	-385
▁आय	-386
▁सि	-387
ेल	-388
्रीय	-389
्रेस	-390
▁काम	-391
रात	-392
▁“	-393
वार	-394
सं	-395
िल	-396
▁दाखल	-397
ांचा	-398
ंध	-399
▁दिव	-400
ांत	-401
ोज	-402
▁पू	-403
▁मला	-404
▁तुम	-405
सार	-406
▁निर्	-407
ण्यासाठी	-408
▁होत	-409
▁सुरू	-410
खा	-411
▁मृ	-412
▁म्हणा	-413
धार	-414
▁एका	-415
▁असा	-416
यंत	-417
ूक	-418
▁ऑ	-419
▁दोन	-420
▁असून	-421
ँग	-422
▁कार्य	-423
▁दिली	-424
ज्	-425
रिक	-426
▁न्या	-427
तीय	-428
वळ	-429
ंबई	-430
ूप	-431
न्हा	-432
▁मोठ	-433
कडून	-434
ुक	-435
ल्ली	-436
माण	-437
ध्यक्ष	-438
▁म्हणून	-439
सो	-440
ँग्रेस	-441
डा	-442
▁सह	-443
दे	-444
▁तसे	-445
▁अप	-446
खील	-447
▁महि	-448
दर	-449
र्श	-450
पासून	-451
वेळी	-452
ंना	-453
वास	-454
▁त्याला	-455
कि	-456
▁सांगित	-457
ण्याची	-458
मार	-459
ध्या	-460
▁वर्ष	-461
▁त्याच्या	-462
▁जी	-463
▁मुंबई	-464
▁साम	-465
ोट	-466
▁पोलिसांनी	-467
▁भारता	-468
▁शिक	-469
▁काँग्रेस	-470
ाव	-471
ब्	-472
▁मान	-473
▁संघ	-474
▁अशी	-475
▁अभि	-476
▁दिल्ली	-477
लीस	-478
टक	-479
ाप	-480
ुल	-481
‍या	-482
▁भारतीय	-483
▁वाट	-484
▁.	-485
टर	-486
व्हा	-487
▁समा	-488
बर	-489
ऊन	-490
▁पहि	-491
▁निवडण	-492
बाबत	-493
▁पोलीस	-494
िय	-495
ष्टी	-496
""""	-497
▁ओ	-498
▁भारत	-499
▁मिळा	-500
▁आता	-501
ांचे	-502
▁क्ष	-503
▁शा	-504
▁विचार	-505
▁पड	-506
पूर	-507
▁आम्ही	-508
▁माग	-509
िम	-510
▁थ	-511
▁येत	-512
▁से	-513
▁सुरु	-514
पर्यंत	-515
▁तसेच	-516
म्या	-517
यी	-518
यला	-519
▁किं	-520
मधील	-521
ंदा	-522
▁राज्य	-523
स्तान	-524
▁आज	-525
▁प्रकर	-526
▁विक	-527
रोध	-528
▁20	-529
ेक	-530
ये	-531
▁न्याया	-532
ज्ञ	-533
▁पुढ	-534
▁नवी	-535
▁शि	-536
▁निर्ण	-537
दर्श	-538
▁”	-539
हर	-540
▁हि	-541
▁रो	-542
▁रुग्	-543
बी	-544
ुन	-545
▁प्रत्य	-546
▁खे	-547
▁भू	-548
▁मृत्य	-549
▁ता	-550
र्म	-551
आय	-552
लयात	-553
▁ठा	-554
▁नव्ह	-555
ांमध्ये	-556
▁केल्या	-557
▁सांगितले	-558
▁दिले	-559
वारी	-560
▁क्र	-561
च्छ	-562
पण	-563
वेश	-564
पे	-565
रव	-566
गत	-567
▁करून	-568
▁देखील	-569
▁महत्	-570
▁प्रय	-571
▁दिस	-572
्हाला	-573
▁ठेव	-574
्यांना	-575
▁गां	-576
▁अर्थ	-577
रेंद्र	-578
▁प्रकार	-579
▁राष्ट्र	-580
▁चाल	-581
▁मद	-582
द्दल	-583
▁होणार	-584
ोध	-585
▁जे	-586
शे	-587
▁मुख्यमंत्री	-588
▁प्रा	-589
▁झाल्या	-590
▁पाहि	-591
▁सी	-592
▁यु	-593
▁उपस्थ	-594
▁महा	-595
▁चौ	-596
▁जो	-597
ुकी	-598
▁मत	-599
▁काळ	-600
▁चांग	-601
ृत्	-602
▁मार्	-603
खी	-604
▁नरेंद्र	-605
किस्तान	-606
▁मृत्यू	-607
्यांनी	-608
डे	-609
▁खूप	-610
▁त्यानंतर	-611
ंनी	-612
वात	-613
▁विद्या	-614
ूर	-615
▁गा	-616
जय	-617
▁चर्	-618
सर	-619
▁प्रश्	-620
▁विश्	-621
त्न	-622
▁दिवस	-623
वादी	-624
▁अध्यक्ष	-625
▁मे	-626
▁भाग	-627
▁गांधी	-628
▁लक्ष	-629
णाऱ्या	-630
▁अशा	-631
▁निय	-632
बद्दल	-633
▁करणार	-634
ातून	-635
म्यान	-636
व्या	-637
▁म्हणाले	-638
▁किंवा	-639
ष्ट्रीय	-640
सि	-641
शि	-642
वले	-643
▁अनु	-644
▁घड	-645
ांवर	-646
▁बोल	-647
वान	-648
मात्र	-649
▁प्रयत्न	-650
▁माझ्या	-651
विष	-652
▁नाग	-653
ंचा	-654
▁सध्या	-655
▁दिला	-656
सोबत	-657
▁:	-658
च्च	-659
▁पाकिस्तान	-660
▁यांना	-661
द्य	-662
▁करण्यासाठी	-663
वाद	-664
▁पूर्ण	-665
▁म्हणजे	-666
व्	-667
▁तुम्ही	-668
▁नाहीत	-669
▁वाह	-670
▁गर	-671
▁प्रे	-672
▁मन	-673
▁त्याने	-674
यक	-675
▁रे	-676
वस्थ	-677
▁'	-678
सह	-679
▁जण	-680
लक	-681
ण्याचा	-682
▁त्यात	-683
ख्या	-684
लो	-685
▁टा	-686
▁घटना	-687
▁दुस	-688
▁म्हट	-689
▁निर्णय	-690
▁कारण	-691
पु	-692
वन	-693
बंध	-694
▁टी	-695
▁नो	-696
नं	-697
क्ती	-698
▁इतर	-699
▁यहो	-700
▁तीन	-701
▁उपस्थित	-702
्रि	-703
▁तेव्हा	-704
▁येथे	-705
विध	-706
िर	-707
ंच्या	-708
▁पक्ष	-709
▁वेग	-710
▁देण्यात	-711
▁दर	-712
पूर्ण	-713
▁नस	-714
▁शिव	-715
▁शिक्ष	-716
▁अज	-717
▁शे	-718
▁जग	-719
▁स्वत	-720
ताना	-721
ंट	-722
▁उत्तर	-723
▁-	-724
▁जख	-725
्‍या	-726
▁शेत	-727
▁व्ह	-728
ल्प	-729
ंतु	-730
▁भूम	-731
▁व्या	-732
▁महारा	-733
▁यात	-734
जन	-735
▁प्रति	-736
▁करू	-737
▁घा	-738
▁तया	-739
▁आव	-740
▁प्रदेश	-741
र्वी	-742
▁रुप	-743
▁वापर	-744
▁तरी	-745
श्य	-746
मित	-747
घा	-748
▁खा	-749
कृ	-750
▁माजी	-751
▁तपास	-752
ोष	-753
वाई	-754
ंची	-755
कीय	-756
▁मदत	-757
▁असलेल्या	-758
ीत	-759
िन	-760
मुख	-761
जार	-762
▁अभिने	-763
अर	-764
ीर	-765
▁क्षेत	-766
डि	-767
▁छ	-768
चित	-769
▁जखमी	-770
▁व्हा	-771
वली	-772
ंप	-773
▁जिल	-774
▁कमी	-775
▁केंद	-776
▁काढ	-777
▁रुग्णा	-778
▁शेतक	-779
भे	-780
..	-781
▁पाह	-782
▁पाठ	-783
ाच्या	-784
▁असेल	-785
वाच्या	-786
भार	-787
हित	-788
▁३	-789
▁डॉ	-790
▁मुला	-791
▁होईल	-792
घात	-793
पणे	-794
सभा	-795
▁त्याचा	-796
▁स्ट	-797
्स	-798
शल	-799
▁ठर	-800
▁असल्याचे	-801
▁यांची	-802
वरून	-803
नंद	-804
लेले	-805
▁आपल्याला	-806
▁अटक	-807
वून	-808
▁असते	-809
रोबर	-810
को	-811
न्या	-812
▁प्रश	-813
▁बंद	-814
लिक	-815
▁असं	-816
▁मध्ये	-817
न्ही	-818
▁बस	-819
क्‍	-820
वू	-821
खे	-822
वला	-823
ूत	-824
व्य	-825
▁घेतली	-826
ष्ठ	-827
▁दोघ	-828
▁गोष्टी	-829
ंभ	-830
ंज	-831
रोधात	-832
▁महिला	-833
▁लि	-834
गर	-835
श्यक	-836
मि	-837
ळ्या	-838
णात	-839
▁यावेळी	-840
▁विधान	-841
▁कॉ	-842
▁कधी	-843
▁शिवसे	-844
▁चर्चा	-845
▁महत्त्	-846
वाय	-847
द्याप	-848
ण्यास	-849
्यांच्या	-850
▁जन	-851
भाग	-852
्त	-853
▁बॉ	-854
▁अद्याप	-855
▁बन	-856
▁झालेल्या	-857
▁इंड	-858
▁प्रश्न	-859
दान	-860
र्ट	-861
▁गुन्हा	-862
▁विद्यार्थ	-863
वत	-864
क्रम	-865
▁खास	-866
▁भर	-867
▁म्हटले	-868
▁वेळ	-869
▁आत्	-870
एस	-871
ुंब	-872
▁निर्माण	-873
▁कोटी	-874
▁२०	-875
▁सग	-876
शन	-877
▁स्प	-878
मू	-879
▁201	-880
त्री	-881
▁लढ	-882
क्षण	-883
▁येणार	-884
स्थिती	-885
र्ज	-886
पूर्वी	-887
▁वै	-888
▁मंत्री	-889
▁यामुळे	-890
▁न्यायालया	-891
▁शक्य	-892
▁देत	-893
▁पाहिजे	-894
वसा	-895
▁अमे	-896
▁हल्	-897
▁3	-898
▁आवश्यक	-899
▁सिने	-900
टुंब	-901
▁कि	-902
ंगा	-903
र्भ	-904
▁यश	-905
बल	-906
▁भारतात	-907
▁ज्या	-908
▁पुन्हा	-909
▁त्याची	-910
▁स्थान	-911
ोन	-912
▁खान	-913
▁केंद्रीय	-914
▁याबाबत	-915
▁योग	-916
▁कृ	-917
▁पहिल्या	-918
▁टक्	-919
▁दोन्ही	-920
▁त्यांची	-921
▁घेतला	-922
▁राहुल	-923
▁व्हि	-924
ाता	-925
▁घटने	-926
वरील	-927
▁आरोपी	-928
पती	-929
▁बदल	-930
दरम्यान	-931
▁करणे	-932
▁प्रमाण	-933
▁नागरिक	-934
▁बै	-935
हन	-936
▁क्षेत्र	-937
माणे	-938
प्रकर	-939
ात्	-940
▁अंत	-941
▁ऐ	-942
तिक	-943
▁संबंध	-944
▁भाष	-945
लेला	-946
▁स्पर्	-947
▁लाख	-948
▁ठिका	-949
वाल	-950
▁रि	-951
▁केंद्र	-952
▁घ्या	-953
▁चौक	-954
▁प्रत्येक	-955
मेश	-956
▁नेत	-957
ांड	-958
▁समावेश	-959
▁आठ	-960
ार्थ	-961
न्स	-962
▁राज्या	-963
विषयी	-964
▁रुग्णालयात	-965
▁अति	-966
▁करतो	-967
▁कोणत्या	-968
▁नेते	-969
▁सिं	-970
कर्	-971
▁तयार	-972
्व	-973
ण्याचे	-974
▁मार	-975
▁व्यक्त	-976
▁तुम्हाला	-977
डिया	-978
▁कुटुंब	-979
▁शु	-980
▁मार्ग	-981
▁बैठ	-982
न्य	-983
▁जास्त	-984
▁पाणी	-985
▁बि	-986
▁देव	-987
▁स्पर्ध	-988
टा	-989
▁सर्वात	-990
▁गेल्या	-991
00	-992
शत	-993
हान	-994
सु	-995
▁पद	-996
न्न	-997
▁पी	-998
बरोबर	-999
ऱ्‍या	-1000
▁चार	-1001
▁मोठ्या	-1002
▁नोंद	-1003
डू	-1004
▁मुल	-1005
धिक	-1006
लेख	-1007
▁पाच	-1008
हार	-1009
▁परंतु	-1010
▁नुक	-1011
▁शोध	-1012
▁निवडणुकी	-1013
▁होतो	-1014
▁विष	-1015
▁भेट	-1016
▁फार	-1017
हु	-1018
▁सू	-1019
▁अपघात	-1020
▁पार	-1021
ैकी	-1022
प्त	-1023
डक	-1024
्ल	-1025
▁सरकारने	-1026
▁पुर	-1027
▁आल्या	-1028
तीत	-1029
▁नाव	-1030
ुक्त	-1031
प्रकरणी	-1032
▁महाराष्ट्र	-1033
▁वर	-1034
नुसार	-1035
▁योज	-1036
प्रमाणे	-1037
वाचे	-1038
▁त्यांचे	-1039
क्षक	-1040
▁चे	-1041
▁घोष	-1042
मक	-1043
▁बे	-1044
▁याचा	-1045
शेष	-1046
▁आरोग	-1047
▁त्यांचा	-1048
▁गरज	-1049
▁आनंद	-1050
गे	-1051
▁यांचा	-1052
यर	-1053
▁आणखी	-1054
थील	-1055
लेली	-1056
मो	-1057
▁करण्याची	-1058
िट	-1059
▁त्याचे	-1060
्वि	-1061
▁भूमिका	-1062
▁धाव	-1063
▁फे	-1064
ल्वे	-1065
▁कॅ	-1066
▁सोशल	-1067
▁राष्ट्रीय	-1068
▁परिस्थिती	-1069
▁विविध	-1070
▁चौकशी	-1071
▁आरोप	-1072
▁समज	-1073
▁आहो	-1074
▁सुरुवात	-1075
▁मागणी	-1076
्यू	-1077
हेर	-1078
▁सर्वो	-1079
वकर	-1080
▁तिच्या	-1081
▁कारवाई	-1082
▁हिंद	-1083
▁डि	-1084
▁कुठ	-1085
▁पुढे	-1086
द्धा	-1087
▁तक्र	-1088
वर्	-1089
▁आहोत	-1090
वण्यात	-1091
▁पत्	-1092
▁चि	-1093
राज	-1094
▁गेले	-1095
र्य	-1096
ंच	-1097
मीर	-1098
स्थान	-1099
णवी	-1100
एल	-1101
▁याची	-1102
तु	-1103
ांध	-1104
▁शकतो	-1105
मिक	-1106
िकेट	-1107
▁–	-1108
वाला	-1109
ळून	-1110
▁रेल्वे	-1111
▁४	-1112
श्च	-1113
वण	-1114
▁द्या	-1115
▁पाट	-1116
▁कंप	-1117
▁चित्रपटा	-1118
▁दह	-1119
▁सोड	-1120
मन	-1121
▁याच	-1122
गार	-1123
▁मीडिया	-1124
▁विशेष	-1125
ूल	-1126
▁राष्ट्रवादी	-1127
▁होऊ	-1128
▁केलेल्या	-1129
ृह	-1130
▁राहि	-1131
ंत्रा	-1132
▁खेळ	-1133
▁लोकांना	-1134
▁असतात	-1135
▁१९	-1136
गि	-1137
""""""	-1138
भव	-1139
बाब	-1140
▁सेवा	-1141
▁हात	-1142
▁क्रिकेट	-1143
ांसाठी	-1144
▁प्रमुख	-1145
▁अमेरिक	-1146
▁संद	-1147
स्य	-1148
करे	-1149
▁तुमच्या	-1150
शय	-1151
▁5	-1152
▁दहशत	-1153
▁अव	-1154
षी	-1155
▁ट्र	-1156
ंबर	-1157
वणी	-1158
र्स	-1159
वारे	-1160
▁येश	-1161
ग्र	-1162
त्ता	-1163
रुद्ध	-1164
▁अह	-1165
स्ता	-1166
▁सद	-1167
▁पत्र	-1168
▁हजार	-1169
▁ठिकाणी	-1170
लय	-1171
▁जाते	-1172
मेद	-1173
▁आई	-1174
णाम	-1175
श्‍	-1176
▁संस्थ	-1177
▁स्पष्ट	-1178
करण	-1179
▁लवकर	-1180
▁५	-1181
▁दृ	-1182
▁केवळ	-1183
▁"""	-1184
▁पट	-1185
▁उमेद	-1186
▁साध	-1187
▁सहा	-1188
▁—	-1189
पेक्षा	-1190
स्त्र	-1191
स्कार	-1192
▁संपूर्ण	-1193
▁येईल	-1194
▁जाणार	-1195
च्छा	-1196
▁जवळ	-1197
▁मोठा	-1198
▁बांध	-1199
▁ची	-1200
▁अजून	-1201
▁विजय	-1202
्यावर	-1203
र्मा	-1204
.""	-1205
▁पे	-1206
पाद	-1207
▁यासाठी	-1208
िता	-1209
दारी	-1210
▁नवीन	-1211
तीने	-1212
▁उद्	-1213
वाची	-1214
िंक	-1215
▁सर्	-1216
▁मग	-1217
पैकी	-1218
ध्यम	-1219
▁यांचे	-1220
▁ओळ	-1221
टन	-1222
खाली	-1223
▁सै	-1224
ठा	-1225
ंचे	-1226
ंभीर	-1227
हीर	-1228
▁व्यक्ती	-1229
चारा	-1230
▁वाहत	-1231
▁ठाकरे	-1232
▁बँ	-1233
विरोधात	-1234
म्प	-1235
▁गंभीर	-1236
नाथ	-1237
कल्प	-1238
▁’	-1239
▁आपले	-1240
▁येथील	-1241
▁परिष	-1242
▁बो	-1243
▁स्वतः	-1244
▁"""""""	-1245
आर	-1246
▁आत्म	-1247
▁फाय	-1248
काळ	-1249
▁कर्	-1250
चन	-1251
्टी	-1252
▁निवडणूक	-1253
▁विकास	-1254
▁करीत	-1255
▁ख्रि	-1256
▁निर्म	-1257
▁आमच्या	-1258
्यांची	-1259
▁बु	-1260
तं	-1261
णाला	-1262
लिया	-1263
▁टक्के	-1264
▁पवार	-1265
▁जीवन	-1266
▁दिग्	-1267
▁आमदार	-1268
▁उपचार	-1269
र्थिक	-1270
▁कोणती	-1271
▁परा	-1272
वूड	-1273
▁पत्नी	-1274
▁अमित	-1275
▁मतदार	-1276
▁सिंह	-1277
▁मंत्रा	-1278
▁ई	-1279
▁घेऊन	-1280
▁खात	-1281
श्मीर	-1282
ेशन	-1283
▁जाहीर	-1284
▁तिला	-1285
▁बाय	-1286
▁व्यवस्थ	-1287
▁केलं	-1288
▁कोणी	-1289
▁परिणाम	-1290
▁फड	-1291
▁ओळख	-1292
▁जिल्ह	-1293
▁करण्याचा	-1294
मधून	-1295
▁दी	-1296
▁4	-1297
▁अं	-1298
ूण	-1299
द्वारे	-1300
ब्ध	-1301
▁उत्त	-1302
▁योग्य	-1303
ण्याच्या	-1304
▁फोट	-1305
टे	-1306
▁होत्या	-1307
००	-1308
▁आर्थिक	-1309
काश	-1310
▁आवड	-1311
स्ती	-1312
▁पाटील	-1313
▁प्रकरणी	-1314
▁पुढील	-1315
▁सात	-1316
▁आरोग्य	-1317
▁कपूर	-1318
▁उपल	-1319
▁दुर्	-1320
▁परमेश	-1321
▁करतात	-1322
ज्ञान	-1323
िक्ष	-1324
▁ट्वि	-1325
▁करता	-1326
▁पक्षा	-1327
खर	-1328
णवीस	-1329
न्यात	-1330
लंदा	-1331
ब्द	-1332
▁उपलब्ध	-1333
▁कुमार	-1334
▁ग्रा	-1335
▁फडणवीस	-1336
▁शकत	-1337
▁डो	-1338
▁ऑफ	-1339
▁तू	-1340
▁पै	-1341
▁नंतर	-1342
▁मृत	-1343
▁विमान	-1344
एम	-1345
क्स	-1346
▁शह	-1347
▁आलं	-1348
▁किती	-1349
यचे	-1350
▁रुपया	-1351
ृत्त	-1352
्याने	-1353
▁आपला	-1354
राष्ट्रीय	-1355
▁इंडिया	-1356
▁यावर	-1357
▁पुरस्कार	-1358
▁मुली	-1359
▁श्री	-1360
पद	-1361
्वी	-1362
▁बहु	-1363
▁आम्हाला	-1364
▁घटनास्थ	-1365
▁माण	-1366
▁तक्रार	-1367
▁फोटो	-1368
▁शहर	-1369
▁ताब	-1370
क्ट	-1371
वेंद्र	-1372
▁अड	-1373
ोड	-1374
▁टाक	-1375
ल्ला	-1376
क्टर	-1377
वाचा	-1378
▁वाद	-1379
र्भात	-1380
सम	-1381
▁देशा	-1382
▁विरोध	-1383
िंग	-1384
ताच	-1385
▁स्थाप	-1386
▁प्रवा	-1387
▁जीव	-1388
▁मंड	-1389
▁उच्च	-1390
▁आढ	-1391
ुर	-1392
नो	-1393
ंवर	-1394
▁बाब	-1395
▁तरु	-1396
▁राम	-1397
▁बैठकी	-1398
▁तुझ	-1399
▁इत	-1400
शिवाय	-1401
▁शकते	-1402
भू	-1403
▁देशात	-1404
▁आंतर	-1405
र्गत	-1406
विरुद्ध	-1407
▁जबाब	-1408
▁एकत्र	-1409
▁असतो	-1410
बाद	-1411
भागी	-1412
▁घाल	-1413
▁न्यायालयाने	-1414
▁जेव	-1415
▁परत	-1416
सान	-1417
▁अधिकारी	-1418
▁शक्यता	-1419
▁असताना	-1420
▁प्रवेश	-1421
मत	-1422
▁जोर	-1423
त्व	-1424
ुष	-1425
क्षि	-1426
▁?	-1427
▁जाईल	-1428
ेच्या	-1429
शिया	-1430
ल्यानंतर	-1431
क्षी	-1432
▁बाहेर	-1433
▁घेतले	-1434
▁मोठी	-1435
▁कळ	-1436
पणा	-1437
▁याप्रकरणी	-1438
▁नये	-1439
चना	-1440
डिओ	-1441
▁शिवसेना	-1442
▁कर्म	-1443
▁मीडियावर	-1444
्वर	-1445
▁अभिनेत्री	-1446
▁प्रेम	-1447
▁शेतकऱ	-1448
ल्याने	-1449
▁सुधार	-1450
घाडी	-1451
जर	-1452
▁खेळा	-1453
▁अधिका	-1454
▁सिनेमा	-1455
कु	-1456
▁६	-1457
▁घर	-1458
▁भाव	-1459
▁समिती	-1460
▁प्रमाणात	-1461
▁कार्या	-1462
लन	-1463
▁विश्वास	-1464
▁बॅ	-1465
▁ताब्यात	-1466
य़	-1467
▁खु	-1468
व्हे	-1469
▁व्हायर	-1470
▁यामध्ये	-1471
था	-1472
▁स्वा	-1473
▁इंग	-1474
▁आधार	-1475
टने	-1476
भर	-1477
▁सामना	-1478
▁आर	-1479
क्क	-1480
▁कोणत्याही	-1481
▁जिंक	-1482
▁त्यासाठी	-1483
▁देवेंद्र	-1484
▁माल	-1485
▁कार्यक्रम	-1486
▁कशा	-1487
▁नेह	-1488
▁चित्रपटात	-1489
यात	-1490
▁दिग्दर्श	-1491
रण	-1492
▁संधी	-1493
दि	-1494
▁सर्वोच्च	-1495
▁बी	-1496
क्षित	-1497
▁सिंग	-1498
▁वेळी	-1499
मंत्र	-1500
▁खासदार	-1501
▁राजकीय	-1502
ांब	-1503
▁घोषणा	-1504
▁मंद	-1505
▁आपली	-1506
▁शर्मा	-1507
▁वाच	-1508
▁सहकार	-1509
द्द	-1510
त्त	-1511
▁अश	-1512
▁संर	-1513
ष्ट्रा	-1514
पदा	-1515
ंदोल	-1516
▁राज्यात	-1517
▁भाजपा	-1518
रीत	-1519
ल्ड	-1520
▁गेला	-1521
▁विधानसभा	-1522
ंका	-1523
मां	-1524
▁सच	-1525
▁जिल्हा	-1526
▁मंत्र	-1527
▁कौ	-1528
▁रुग्ण	-1529
▁अग	-1530
▁शास	-1531
▁विभाग	-1532
▁दला	-1533
▁त्यावर	-1534
णं	-1535
▁खरे	-1536
▁नव्हते	-1537
णि	-1538
र्जा	-1539
▁हॉ	-1540
▁च्या	-1541
▁फक्त	-1542
▁आंतरराष्ट्रीय	-1543
▁श्र	-1544
▁जागा	-1545
▁येशू	-1546
▁रुपये	-1547
्यांचा	-1548
▁आंदोल	-1549
णारे	-1550
▁आदेश	-1551
भाव	-1552
▁राजी	-1553
व्ही	-1554
▁चीन	-1555
▁अभ्या	-1556
▁गाव	-1557
▁घटनास्थळी	-1558
▁आघाडी	-1559
▁बायबल	-1560
▁ऐक	-1561
▁नात	-1562
▁शिक्षण	-1563
मार्	-1564
स्ट्रे	-1565
▁कंपनी	-1566
लिवूड	-1567
▁शेअर	-1568
कृती	-1569
▁काळात	-1570
र्च	-1571
पो	-1572
र्ग	-1573
ानी	-1574
्यांचे	-1575
▁करण्यास	-1576
हास	-1577
▁औ	-1578
र्णधार	-1579
▁उत्पाद	-1580
कांना	-1581
जू	-1582
▁मंज	-1583
▁उमेदवार	-1584
▁कसे	-1585
▁पावसा	-1586
▁मान्य	-1587
ढे	-1588
▁उद्य	-1589
▁प्रक्र	-1590
क्षे	-1591
देखील	-1592
▁सल	-1593
▁लोकसभा	-1594
▁माध्यम	-1595
▁लवकरच	-1596
▁घेण्यात	-1597
राव	-1598
▁पि	-1599
20	-1600
▁आवा	-1601
▁गोष्ट	-1602
▁जर	-1603
▁मध्य	-1604
जरात	-1605
▁वाहतूक	-1606
शील	-1607
षण	-1608
▁प्रशास	-1609
ोत्	-1610
्ये	-1611
साद	-1612
▁संख्या	-1613
गिरी	-1614
गतिक	-1615
▁दुसऱ्या	-1616
योग	-1617
नात	-1618
नाच्या	-1619
▁अतिशय	-1620
▁भारताच्या	-1621
▁स्वी	-1622
▁जाण	-1623
▁पद्ध	-1624
▁नेहमी	-1625
▁दरम्यान	-1626
▁शिवसेने	-1627
▁पश्च	-1628
▁इस	-1629
ळेल	-1630
▁संक	-1631
▁त्याच	-1632
ईट	-1633
मला	-1634
भरात	-1635
▁अभिनेता	-1636
पाल	-1637
णाचा	-1638
ल्याचे	-1639
पत्र	-1640
▁शब्द	-1641
▁तिने	-1642
प्प	-1643
▁नेम	-1644
▁पाऊ	-1645
▁धो	-1646
▁पाहा	-1647
▁जवान	-1648
▁सहभागी	-1649
▁ह्या	-1650
ावा	-1651
▁गृह	-1652
▁समोर	-1653
घड	-1654
▁पुस्त	-1655
कां	-1656
▁संघा	-1657
▁कायम	-1658
▁समस	-1659
▁करताना	-1660
ेटा	-1661
हून	-1662
▁नुकसान	-1663
▁पृ	-1664
▁एन	-1665
▁दूर	-1666
जवळ	-1667
▁कोणतीही	-1668
▁सुरक्षा	-1669
▁उद्ध	-1670
चणी	-1671
▁मतदारसं	-1672
दाहर	-1673
▁नव्हती	-1674
▁मध	-1675
्यु	-1676
रोधी	-1677
▁हवा	-1678
▁मू	-1679
▁ठे	-1680
▁टे	-1681
▁कोणता	-1682
▁प्रदर्श	-1683
▁लागले	-1684
▁दक्षि	-1685
▁गुजरात	-1686
▁७	-1687
चल	-1688
▁भी	-1689
्रो	-1690
▁नका	-1691
▁एकूण	-1692
▁आयुष	-1693
स्ट्रेलिया	-1694
ूने	-1695
▁लग्	-1696
▁विज	-1697
▁आत्मह	-1698
▁नव्हता	-1699
▁तंत्र	-1700
▁काळजी	-1701
▁मरा	-1702
▁बॉलिवूड	-1703
▁व्हिडिओ	-1704
▁आयोज	-1705
राष्ट्र	-1706
युक्त	-1707
▁२०१	-1708
राट	-1709
▁संप	-1710
▁पोहो	-1711
मात	-1712
▁जागतिक	-1713
स्वी	-1714
क्रमा	-1715
णाऱ्‍या	-1716
▁होतं	-1717
▁पं	-1718
▁कला	-1719
हली	-1720
▁कर्णधार	-1721
धन	-1722
▁आधी	-1723
हात	-1724
▁दिवशी	-1725
▁खेळाडू	-1726
णाची	-1727
तिहास	-1728
पीठ	-1729
▁हर	-1730
▁लहान	-1731
म्मू	-1732
▁ठाण्यात	-1733
▁रोजी	-1734
▁प्रतिक	-1735
▁अर्ज	-1736
▁विश्‍	-1737
▁आलेल्या	-1738
▁असेही	-1739
भूत	-1740
ातावर	-1741
▁भागात	-1742
स्ते	-1743
▁डॉक्टर	-1744
▁दौ	-1745
ंबा	-1746
▁जि	-1747
▁लाभ	-1748
▁शेव	-1749
्यातील	-1750
▁लिहि	-1751
▁म्हणाला	-1752
मता	-1753
▁भारताने	-1754
▁करावा	-1755
सभे	-1756
णारा	-1757
▁मिळाली	-1758
▁करुन	-1759
▁कसो	-1760
▁मज	-1761
एन	-1762
▁लागला	-1763
हीत	-1764
ेचे	-1765
...	-1766
▁टीका	-1767
▁कोरो	-1768
▁जाऊ	-1769
▁जोरदार	-1770
्यांमध्ये	-1771
▁खाली	-1772
पड	-1773
▁जातो	-1774
▁कोहली	-1775
▁ले	-1776
▁अभ्यास	-1777
▁गुंत	-1778
▁नी	-1779
▁6	-1780
▁व्हायरल	-1781
▁प्रशिक्ष	-1782
▁करण्याचे	-1783
▁१०	-1784
▁परी	-1785
▁संश	-1786
ृत	-1787
▁लेख	-1788
▁घरी	-1789
▁सुना	-1790
फे	-1791
▁वातावर	-1792
▁जोड	-1793
▁कसोटी	-1794
फी	-1795
▁मुलगा	-1796
▁मै	-1797
▁दिसत	-1798
▁स्वीकार	-1799
▁करायला	-1800
▁संरक्षण	-1801
मल	-1802
तून	-1803
▁गुण	-1804
▁तिस	-1805
▁चांगले	-1806
▁संजय	-1807
▁न्यायालयात	-1808
▁राजकार	-1809
▁मिळेल	-1810
धा	-1811
▁कामा	-1812
▁प्रसि	-1813
आधी	-1814
▁अत्य	-1815
▁यहोवा	-1816
▁नव्या	-1817
▁मुद्	-1818
▁यो	-1819
▁माझा	-1820
▁भाजपचे	-1821
▁अन्य	-1822
▁हल्ल्या	-1823
▁अगदी	-1824
सळ	-1825
▁सुविध	-1826
▁एखा	-1827
▁पोहोच	-1828
व्यवस्थ	-1829
▁चो	-1830
▁पुन	-1831
▁न्याय	-1832
▁फर	-1833
▁सुमार	-1834
ृत्ती	-1835
▁ऑस्ट्रेलिया	-1836
▁वृत्त	-1837
▁त्र	-1838
▁सुट	-1839
▁दिलेल्या	-1840
▁शकतात	-1841
▁रस्त	-1842
▁व्याप	-1843
विण्यात	-1844
▁८	-1845
थम	-1846
▁देशातील	-1847
क्का	-1848
वाने	-1849
▁संबंधित	-1850
▁काँग्रेसचे	-1851
▁तेथे	-1852
ॉन	-1853
▁गेली	-1854
▁उद्धव	-1855
▁अपे	-1856
▁फु	-1857
▁तत्	-1858
▁त्यांच्यावर	-1859
▁आग	-1860
▁त्यावेळी	-1861
▁क्षेत्रात	-1862
ियन	-1863
यन	-1864
रू	-1865
गड	-1866
नामा	-1867
बीआय	-1868
▁प्रकाश	-1869
ात्मक	-1870
▁इस्रा	-1871
यो	-1872
संद	-1873
▁चांगली	-1874
िके	-1875
मद	-1876
▁व्यक्‍	-1877
ानंतर	-1878
▁संस	-1879
▁जम्मू	-1880
्याच्या	-1881
▁येते	-1882
श्र	-1883
▁पर्	-1884
वेत	-1885
▁अत्यंत	-1886
लंब	-1887
▁कप	-1888
▁दक्षिण	-1889
▁न्यू	-1890
िमंड	-1891
▁ठार	-1892
▁खर्च	-1893
▁कोरोना	-1894
▁नियंत्र	-1895
▁जेव्हा	-1896
जिक	-1897
▁आव्ह	-1898
▁पत्रकार	-1899
▁एकदा	-1900
▁याला	-1901
▁अॅ	-1902
▁पहिला	-1903
▁समाज	-1904
ुरी	-1905
▁विराट	-1906
▁सदस्य	-1907
▁शहा	-1908
▁जनते	-1909
▁टॉ	-1910
काळी	-1911
▁रंग	-1912
▁आतापर्यंत	-1913
▁जय	-1914
▁एस	-1915
▁अन	-1916
बळ	-1917
थ्वी	-1918
▁विध	-1919
▁फा	-1920
कात	-1921
नावर	-1922
▁7	-1923
▁शाह	-1924
राच्या	-1925
▁वस्त	-1926
▁राष्ट्रपती	-1927
▁योजना	-1928
▁निर्मिती	-1929
एफ	-1930
▁मोठे	-1931
▁घात	-1932
▁करावे	-1933
▁कोर्ट	-1934
ईन	-1935
▁मांड	-1936
▁प्रच	-1937
र्ड	-1938
▁जबाबदारी	-1939
डीओ	-1940
▁उल्	-1941
ात्री	-1942
▁संत	-1943
▁प्रकल्प	-1944
▁दिवसां	-1945
▁वर्षी	-1946
▁सां	-1947
▁तेल	-1948
▁एकमे	-1949
▁लक्षात	-1950
▁लागली	-1951
▁देवाच्या	-1952
क्की	-1953
ार्व	-1954
▁सौ	-1955
ंडी	-1956
ड्	-1957
र्‍या	-1958
▁इच्छा	-1959
▁सगळ	-1960
▁पोलिसांना	-1961
▁उपाय	-1962
ित्य	-1963
ोप	-1964
▁निवडणुकीत	-1965
द्र	-1966
वाधिक	-1967
▁टीम	-1968
ेने	-1969
▁मित्र	-1970
▁निर्णया	-1971
ळक	-1972
▁करते	-1973
▁दिल्या	-1974
▁निका	-1975
लम	-1976
▁काहीच	-1977
ळू	-1978
▁लागेल	-1979
▁माझी	-1980
ांशी	-1981
सन	-1982
▁विरोधात	-1983
▁प्रचंड	-1984
▁दिसून	-1985
▁स्थिती	-1986
▁चांगला	-1987
▁मिळाले	-1988
▁नियम	-1989
जण	-1990
भागा	-1991
▁९	-1992
णारी	-1993
▁काहीही	-1994
.”	-1995
ध्	-1996
मान्य	-1997
▁काश्मीर	-1998
▁स्थानिक	-1999
▁अर्	-2000
नाला	-2001
▁संशोध	-2002
रि	-2003
▁मॅ	-2004
▁थांब	-2005
वण्यासाठी	-2006
संग	-2007
▁नेतृत्	-2008
▁पृथ्वी	-2009
दु	-2010
▁सेव	-2011
▁सामन्यात	-2012
पत	-2013
वं	-2014
▁10	-2015
वाह	-2016
▁प्रस्ता	-2017
▁आद	-2018
त्ती	-2019
वेग	-2020
▁शकता	-2021
ंक	-2022
ोटा	-2023
्यांवर	-2024
▁भे	-2025
▁मिळाला	-2026
करता	-2027
ांकडून	-2028
▁प्रक्रिया	-2029
▁परिषद	-2030
ंग्रेस	-2031
नाचा	-2032
श्चित	-2033
▁वड	-2034
-1	-2035
भेत	-2036
त्कार	-2037
▁शर	-2038
गामी	-2039
ंदर	-2040
▁ढ	-2041
▁वेळा	-2042
▁वाहन	-2043
▁,	-2044
ंमध्ये	-2045
बे	-2046
सून	-2047
▁माझे	-2048
▁बरे	-2049
गु	-2050
▁वाढत	-2051
▁विरोधी	-2052
▁उद्योग	-2053
▁मिळत	-2054
▁योजने	-2055
ष्क	-2056
सुद्धा	-2057
▁धु	-2058
▁भारताचा	-2059
▁रोज	-2060
डीने	-2061
▁वन	-2062
▁पुरव	-2063
▁समस्या	-2064
▁""""	-2065
▁सामा	-2066
▁यादी	-2067
▁सर्वाधिक	-2068
▁जन्	-2069
▁आठवड	-2070
▁रात्री	-2071
यु	-2072
▁हल्ला	-2073
▁पार्	-2074
▁कार्यक्रमा	-2075
▁मंत्रालया	-2076
▁याद	-2077
य्य	-2078
‍न	-2079
▁सल्ला	-2080
्लंड	-2081
लर	-2082
्याला	-2083
▁शेतकरी	-2084
▁गुंतवण	-2085
▁व्हिडीओ	-2086
▁गौ	-2087
▁बोलत	-2088
▁प्रकरण	-2089
विक	-2090
),	-2091
▁गट	-2092
▁विद्यार्थी	-2093
▁नव	-2094
▁अली	-2095
▁राज्यातील	-2096
▁करावी	-2097
▁बघ	-2098
▁उदाहर	-2099
तू	-2100
▁उत्तम	-2101
▁वातावरण	-2102
स्क	-2103
▁सार्व	-2104
तरी	-2105
लाव	-2106
▁अधिकाऱ	-2107
▁उपचारा	-2108
▁अक्ष	-2109
▁फि	-2110
▁तिथे	-2111
▁इथे	-2112
्‍	-2113
▁एम	-2114
यची	-2115
▁क्रमां	-2116
र्न	-2117
▁ऊ	-2118
त्ये	-2119
ल्स	-2120
▁पराभव	-2121
▁करणाऱ्या	-2122
▁फलंदा	-2123
रावर	-2124
▁कोणताही	-2125
▁हत्या	-2126
परंतु	-2127
▁कॉंग्रेस	-2128
▁वित	-2129
ंगळ	-2130
▁फेटा	-2131
ॅट	-2132
▁खो	-2133
र्या	-2134
▁राजा	-2135
▁प्रथम	-2136
▁यशस्वी	-2137
▁परिस	-2138
▁याचे	-2139
सीसी	-2140
▁विश्‍वास	-2141
▁शरी	-2142
▁पेट	-2143
▁पदा	-2144
▁दर्श	-2145
▁१५	-2146
ष्ण	-2147
▁फायदा	-2148
▁ग्र	-2149
▁झालेली	-2150
▁पूर्व	-2151
▁वार	-2152
▁रोहित	-2153
▁तरुण	-2154
▁कायदा	-2155
▁प्रकारे	-2156
समोर	-2157
णावर	-2158
ेड	-2159
▁समु	-2160
▁नक्की	-2161
्ड	-2162
णाच्या	-2163
▁प्रसिद्ध	-2164
▁नकार	-2165
नाटक	-2166
▁सत्ता	-2167
▁सलमान	-2168
▁बात	-2169
▁आव्हान	-2170
स्प	-2171
▁१२	-2172
▁सुमारे	-2173
नाची	-2174
▁जाग	-2175
▁विश्व	-2176
प्ट	-2177
र्ष	-2178
▁सार	-2179
▁8	-2180
▁साकार	-2181
ळीत	-2182
▁वाटते	-2183
▁अजूनही	-2184
▁परिव	-2185
▁दहशतवादी	-2186
▁चिंत	-2187
▁बंगा	-2188
▁बाजू	-2189
▁पर्यंत	-2190
नाचे	-2191
वानगी	-2192
▁भविष	-2193
▁कोवि	-2194
▁मागे	-2195
▁बँक	-2196
▁साव	-2197
▁वी	-2198
▁तुला	-2199
▁प्रत्ये	-2200
िकेत	-2201
र्ती	-2202
▁कामगिरी	-2203
▁सरकारच्या	-2204
▁रद्द	-2205
ैद	-2206
▁राहा	-2207
▁पश्चिम	-2208
▁आढळ	-2209
▁कसा	-2210
फा	-2211
▁इंग्लंड	-2212
▁मुलगी	-2213
न्हे	-2214
▁सादर	-2215
▁प्रवास	-2216
▁कोणते	-2217
कडा	-2218
▁ट्रम्प	-2219
▁यानंतर	-2220
▁बाजार	-2221
▁धर	-2222
▁घरात	-2223
यू	-2224
▁असल्याची	-2225
▁यादव	-2226
दला	-2227
▁कार्यकर्	-2228
बु	-2229
वढ	-2230
्रिया	-2231
ॉल	-2232
▁कुठे	-2233
पूर्व	-2234
▁चर्चे	-2235
▁पाऊस	-2236
आप	-2237
संब	-2238
▁मंत्रिमंड	-2239
▁डे	-2240
▁माध्यमातून	-2241
▁मुले	-2242
▁कायद्या	-2243
▁व्	-2244
ाध्यक्ष	-2245
▁पर्या	-2246
▁आगामी	-2247
▁लोकांनी	-2248
▁झालं	-2249
▁सत	-2250
नुष	-2251
रुष	-2252
▁जल	-2253
ंटर	-2254
ायला	-2255
▁तरीही	-2256
चालक	-2257
प्रकार	-2258
▁स्थापन	-2259
विले	-2260
▁माहीत	-2261
▁अर्थात	-2262
▁मात	-2263
▁शांत	-2264
▁शरद	-2265
▁वैद्य	-2266
▁वाज	-2267
▁लॉ	-2268
▁असतील	-2269
▁वेगवेग	-2270
संदर्भात	-2271
▁जातात	-2272
▁बाळ	-2273
▁धक्का	-2274
्याची	-2275
▁पालक	-2276
▁सापड	-2277
ँड	-2278
▁अखे	-2279
लमध्ये	-2280
राम	-2281
▁पथ	-2282
▁सुविधा	-2283
▁2019	-2284
▁बैठकीत	-2285
▁शत	-2286
चारी	-2287
▁दृष्टी	-2288
लट	-2289
▁दीप	-2290
नला	-2291
▁ट्विट	-2292
▁पोस्ट	-2293
▁धोर	-2294
▁साज	-2295
▁कर्नाटक	-2296
▁यांच्यात	-2297
िस	-2298
▁राजीनामा	-2299
ोगा	-2300
▁अंदा	-2301
▁संयुक्त	-2302
र्त	-2303
▁सिद्ध	-2304
काला	-2305
▁हिंदु	-2306
▁याचिका	-2307
▁पाय	-2308
▁असणार	-2309
▁खंड	-2310
▁११	-2311
फ्र	-2312
कांनी	-2313
▁ठरव	-2314
▁तात	-2315
▁ट्रे	-2316
▁परिषदे	-2317
▁उघड	-2318
▁सोन	-2319
▁असलेले	-2320
मीन	-2321
दायक	-2322
▁नारा	-2323
खंड	-2324
गो	-2325
मर	-2326
▁यांच्यावर	-2327
शिष्ट	-2328
वहार	-2329
▁वाईट	-2330
हू	-2331
▁थो	-2332
वसाय	-2333
र्जी	-2334
▁मुंबईत	-2335
▁शुभे	-2336
▁तिचा	-2337
▁गरजे	-2338
गण	-2339
▁प्रार्थ	-2340
ड्या	-2341
▁फोन	-2342
▁दावा	-2343
रिक्त	-2344
▁मृतदे	-2345
▁रण	-2346
▁पंतप्रधानांनी	-2347
▁प्रकरणात	-2348
वल	-2349
▁अनुभव	-2350
▁अर	-2351
▁वाटत	-2352
▁राख	-2353
▁आत्महत्या	-2354
गीत	-2355
▁मार्गदर्श	-2356
▁अग्	-2357
▁पॅ	-2358
▁मालिक	-2359
▁पाया	-2360
▁ट्विटर	-2361
▁विद्यापीठ	-2362
▁लागू	-2363
ुका	-2364
िव्ह	-2365
▁परिसरात	-2366
नगर	-2367
▁अधिकार	-2368
▁तयारी	-2369
▁प्रदर्शित	-2370
पटू	-2371
▁अपघातात	-2372
▁प्रतिक्रिया	-2373
▁गाय	-2374
गाव	-2375
▁कशी	-2376
बि	-2377
▁अनि	-2378
▁उत्प	-2379
▁स्वात	-2380
गती	-2381
▁इतिहास	-2382
▁अंतिम	-2383
▁सामाजिक	-2384
य़ा	-2385
दिव	-2386
ूट	-2387
▁स्वच्छ	-2388
▁म्हणतात	-2389
भूमी	-2390
▁नोक	-2391
▁प्राप्त	-2392
▁खर	-2393
▁जगातील	-2394
भाज	-2395
▁डी	-2396
▁निश्चित	-2397
▁क्	-2398
▁तुल	-2399
▁राहणार	-2400
मती	-2401
▁देऊ	-2402
▁पात	-2403
▁बला	-2404
▁ठेवा	-2405
▁विका	-2406
▁दहशतवाद	-2407
▁करु	-2408
▁पव	-2409
▁विभागा	-2410
यचा	-2411
▁अर्थव्यवस्थ	-2412
▁बंध	-2413
▁रोख	-2414
▁पती	-2415
▁मुख्यमंत्र	-2416
▁कमा	-2417
▁स्पर्धेत	-2418
▁परवानगी	-2419
▁इन्	-2420
▁पुणे	-2421
सिंग	-2422
मिळ	-2423
ऱया	-2424
ीला	-2425
▁सचिव	-2426
▁पहिली	-2427
निक	-2428
द्धी	-2429
ानं	-2430
▁लग्न	-2431
ाची	-2432
शांत	-2433
▁धर्म	-2434
थून	-2435
▁पौ	-2436
त्ते	-2437
सभेत	-2438
▁परमेश्वर	-2439
▁कल्प	-2440
▁नव्हे	-2441
▁यांच्यासह	-2442
कांत	-2443
▁मतदारसंघ	-2444
▁शुभेच्छा	-2445
▁घडली	-2446
▁भारताचे	-2447
नाने	-2448
▁वैद्यकीय	-2449
▁होण्याची	-2450
▁वडील	-2451
▁ज्	-2452
▁स्वातंत्र	-2453
▁मनात	-2454
▁रू	-2455
झा	-2456
▁वाचा	-2457
▁बिहार	-2458
ृष्टी	-2459
▁वक्त	-2460
▁गर्	-2461
▁गोळी	-2462
▁मराठी	-2463
▁स्वर	-2464
बजा	-2465
िलो	-2466
▁कोणाला	-2467
▁आहात	-2468
▁मतदान	-2469
▁नगर	-2470
▁लो	-2471
▁आलेली	-2472
▁सीबीआय	-2473
वरुन	-2474
▁विकासा	-2475
▁निधी	-2476
▁सुनावणी	-2477
▁तुझ्या	-2478
दाना	-2479
ब्र	-2480
▁चालू	-2481
▁याच्या	-2482
▁आयुक्त	-2483
▁9	-2484
ांती	-2485
सारख्या	-2486
▁असू	-2487
▁प्रस्ताव	-2488
रोज	-2489
▁हिं	-2490
▁चंद्र	-2491
बजावणी	-2492
ंधी	-2493
तसे	-2494
जनिक	-2495
▁अखेर	-2496
सारखे	-2497
▁गुन्हे	-2498
▁भु	-2499
सिक	-2500
▁सरकारी	-2501
▁पुरुष	-2502
▁साक्षी	-2503
▁वस्तू	-2504
▁प्रचार	-2505
▁निती	-2506
टका	-2507
▁जु	-2508
▁मिळणार	-2509
▁संवाद	-2510
▁अंमल	-2511
▁कर्ज	-2512
▁प्रतिसाद	-2513
खल	-2514
वेद	-2515
▁पाव	-2516
▁रॉ	-2517
▁जगा	-2518
▁तसं	-2519
▁सगळे	-2520
▁प्रक	-2521
▁होऊन	-2522
▁भारताला	-2523
ाग	-2524
त्यामुळे	-2525
शाही	-2526
▁15	-2527
▁गाडी	-2528
▁यहोवाच्या	-2529
▁उत्पादन	-2530
झील	-2531
▁पंजा	-2532
▁शिक्षा	-2533
▁त्रास	-2534
▁मृतदेह	-2535
▁मनुष	-2536
▁भारतातील	-2537
▁म्हटलं	-2538
▁भाजपने	-2539
▁देण्यासाठी	-2540
▁विषया	-2541
ुसार	-2542
▁मंत्रालय	-2543
▁सरकारला	-2544
थी	-2545
▁करार	-2546
▁साली	-2547
▁करण्याच्या	-2548
ल्यामुळे	-2549
▁राजस्थान	-2550
▁देवा	-2551
▁वर्त	-2552
ठीण	-2553
▁पर्य	-2554
▁वर्षां	-2555
▁ताप	-2556
मवारी	-2557
पुढे	-2558
▁पाठि	-2559
▁"“	-2560
▁तंत्रज्ञान	-2561
▁अजित	-2562
▁शेवट	-2563
▁सुव	-2564
▁वृ	-2565
▁गण	-2566
िष्ठ	-2567
▁सुधारणा	-2568
▁प्रव	-2569
▁सन्	-2570
्रान	-2571
श्व	-2572
▁झालेले	-2573
▁प्रत्यक्ष	-2574
‍ॅ	-2575
लच्या	-2576
्येष्ठ	-2577
▁बैठक	-2578
▁सर्वांना	-2579
▁झालेला	-2580
▁सुरक्षित	-2581
▁राही	-2582
▁होतील	-2583
▁संस्था	-2584
रीक्षक	-2585
▁लढा	-2586
▁अहवाल	-2587
हेब	-2588
यं	-2589
▁हवे	-2590
ेतील	-2591
म्ह	-2592
▁संघटने	-2593
▁ख्रिस्ती	-2594
▁कठीण	-2595
▁जगात	-2596
▁आवाहन	-2597
▁प्रसार	-2598
▁मूल	-2599
▁अंमलबजावणी	-2600
बार	-2601
▁मंजुरी	-2602
▁गोलंदा	-2603
त्याने	-2604
▁उल्लेख	-2605
▁महत्त्व	-2606
▁औष	-2607
श्वास	-2608
▁इच्छ	-2609
▁घटनेची	-2610
▁पाड	-2611
ंदी	-2612
▁करेल	-2613
नासाठी	-2614
पथ	-2615
▁चाह	-2616
▁जन्म	-2617
ध्द	-2618
ळात	-2619
▁राष्ट्रा	-2620
▁आदी	-2621
ोत्सा	-2622
▁होतात	-2623
▁12	-2624
णाचे	-2625
▁तातडीने	-2626
▁फिर	-2627
षक	-2628
▁ज्येष्ठ	-2629
▁नवा	-2630
▁घरा	-2631
▁पैसे	-2632
▁असता	-2633
दाचित	-2634
▁परमेश्व	-2635
▁बलात्कार	-2636
▁भूमिकेत	-2637
▁महामार्	-2638
▁शो	-2639
▁नाते	-2640
▁भाजपच्या	-2641
▁कोठ	-2642
▁महत्त्वाचे	-2643
कुमार	-2644
▁उपयोग	-2645
▁जाऊन	-2646
▁प्रोत्सा	-2647
▁जागी	-2648
▁पहा	-2649
▁विधे	-2650
क्‍त	-2651
▁देणार	-2652
▁आफ्र	-2653
▁कलाकार	-2654
प्री	-2655
▁टक्क	-2656
▁बांग	-2657
▁वचन	-2658
▁उतर	-2659
▁शहरात	-2660
▁संपर्	-2661
▁नियंत्रण	-2662
▁एखाद्या	-2663
▁पवित्र	-2664
▁व्यवस्थाप	-2665
▁विषय	-2666
तसेच	-2667
▁प्रेक्षक	-2668
मित्त	-2669
▁2020	-2670
▁ठेवण्यात	-2671
▁कृषी	-2672
▁सार्वजनिक	-2673
पदी	-2674
▁डाव	-2675
▁देशाच्या	-2676
▁इस्राएल	-2677
ाचा	-2678
▁टो	-2679
▁आशा	-2680
रळ	-2681
▁उत्स	-2682
▁दोघे	-2683
वती	-2684
▁आध	-2685
काने	-2686
कावर	-2687
्रोल	-2688
▁कम	-2689
्राम	-2690
्याचा	-2691
सिं	-2692
▁अंदाज	-2693
▁१८	-2694
चर	-2695
▁मिळव	-2696
ोस	-2697
▁2018	-2698
▁आयोजित	-2699
▁संशोधन	-2700
▁कर्मचारी	-2701
क्ति	-2702
▁कर्मचा	-2703
लाही	-2704
▁देऊन	-2705
▁अंतर्गत	-2706
दै	-2707
▁उचल	-2708
▁प्रकृती	-2709
▁महिले	-2710
▁बाबतीत	-2711
▁मोदींनी	-2712
▁यापूर्वी	-2713
▁कधीही	-2714
▁मंदि	-2715
लादेश	-2716
▁रूप	-2717
▁संदेश	-2718
ट्ट	-2719
▁व्यक्‍ती	-2720
▁पर्याय	-2721
▁दिल्लीत	-2722
▁वरिष्ठ	-2723
▁१४	-2724
▁नदी	-2725
▁किलो	-2726
▁जणांना	-2727
▁वॉ	-2728
सेल	-2729
▁संख्य	-2730
▁झाल्यानंतर	-2731
▁खरेदी	-2732
▁सहकार्य	-2733
विद्या	-2734
र्क	-2735
▁घेऊ	-2736
▁यंत्र	-2737
▁सुद्धा	-2738
षित	-2739
▁अपेक्षा	-2740
▁गुंतवणूक	-2741
▁पूर्णपणे	-2742
▁बसला	-2743
▁अग्नि	-2744
ंडा	-2745
मंड	-2746
▁टप्प	-2747
▁दिसणार	-2748
▁कधीच	-2749
▁प्रतिनि	-2750
ेला	-2751
▁सन्मान	-2752
▁शाळ	-2753
मुख्य	-2754
▁प्रार्थना	-2755
पान	-2756
▁अधिकृत	-2757
▁अम	-2758
डून	-2759
्याचे	-2760
▁आलेले	-2761
▁19	-2762
▁पंजाब	-2763
▁ज्ञ	-2764
▁केलेले	-2765
▁याने	-2766
म्स	-2767
ल्पा	-2768
▁असल्याने	-2769
▁धोका	-2770
▁भेटी	-2771
इन	-2772
▁जाणून	-2773
▁गृहमंत्री	-2774
▁असल्याचा	-2775
प्रमुख	-2776
▁येऊ	-2777
▁अन्न	-2778
▁नको	-2779
सू	-2780
▁हिंदी	-2781
▁व्यवहार	-2782
पंतप्रधान	-2783
▁कदाचित	-2784
▁चुकी	-2785
▁सोह	-2786
काच्या	-2787
▁रवि	-2788
▁सत्य	-2789
▁केलेली	-2790
▁सांगण्यात	-2791
▁जमा	-2792
▁अडचणी	-2793
वासी	-2794
फोट	-2795
▁पुरा	-2796
▁पहिल्यांदा	-2797
▁कुणी	-2798
ंदे	-2799
माना	-2800
▁लाव	-2801
व्र	-2802
▁त्यातून	-2803
▁आधारित	-2804
पाळ	-2805
▁मार्गा	-2806
▁भाऊ	-2807
▁दुसरा	-2808
▁महाराष्ट्रात	-2809
▁दुखा	-2810
▁उद्देश	-2811
▁केल्यानंतर	-2812
▁सूचना	-2813
▁ब्रि	-2814
▁दाखव	-2815
▁झाल्याचे	-2816
▁चांगल्या	-2817
▁महाराष्ट्रा	-2818
वक	-2819
▁खासगी	-2820
▁काळा	-2821
ल्यावर	-2822
▁चक	-2823
प्रे	-2824
▁ली	-2825
▁पहिले	-2826
यचं	-2827
त्तर	-2828
▁साय	-2829
▁बंदी	-2830
▁सोबत	-2831
▁चिंता	-2832
▁शपथ	-2833
▁संस्	-2834
नेट	-2835
▁१३	-2836
▁असो	-2837
▁उपस्थिती	-2838
▁जणांचा	-2839
▁सामान्य	-2840
द्दी	-2841
▁भावना	-2842
▁अ‍ॅ	-2843
णासाठी	-2844
▁जनता	-2845
▁प्रश्‍न	-2846
▁हेच	-2847
ळावर	-2848
▁विमानत	-2849
षे	-2850
▁युद्ध	-2851
त्यांनी	-2852
▁साक्षीदार	-2853
▁गुरु	-2854
▁भाजपला	-2855
▁पसर	-2856
योज	-2857
▁तणा	-2858
्रम	-2859
िब	-2860
▁आदित्य	-2861
▁डा	-2862
▁बोला	-2863
▁ठरला	-2864
▁पडला	-2865
▁कल्पना	-2866
कारी	-2867
▁हाती	-2868
▁बँके	-2869
▁प्रोत्साहन	-2870
त्यांच्या	-2871
▁मानव	-2872
▁आदर	-2873
रिका	-2874
▁करणारे	-2875
▁भीती	-2876
▁"‘	-2877
म्हण	-2878
▁लोकां	-2879
▁देतो	-2880
धिकारी	-2881
▁स्त	-2882
▁समर्थ	-2883
▁पक्षाचे	-2884
▁टॉम	-2885
▁मनो	-2886
दीप	-2887
▁पाठिंबा	-2888
ित्या	-2889
▁पाहिले	-2890
ल्यास	-2891
▁येतात	-2892
▁राहील	-2893
▁येतो	-2894
डिला	-2895
▁मुलांना	-2896
▁सहभाग	-2897
▁काढून	-2898
▁मोबा	-2899
▁इमार	-2900
जो	-2901
मीण	-2902
▁करी	-2903
ग्रस्त	-2904
▁कोविड	-2905
आणि	-2906
▁इरा	-2907
चित्र	-2908
▁केरळ	-2909
▁राहिले	-2910
▁संब	-2911
▁खालील	-2912
ूस	-2913
▁सिनेमात	-2914
▁आज्ञ	-2915
▁तीव्र	-2916
▁व्यवस्था	-2917
▁२००	-2918
नेत	-2919
ंसाठी	-2920
▁वडिला	-2921
ेचा	-2922
▁धावा	-2923
ांतर	-2924
▁सांगितलं	-2925
ळं	-2926
▁लावली	-2927
▁निकाल	-2928
धव	-2929
▁प्रवाश	-2930
▁"(	-2931
▁पॉ	-2932
▁महान	-2933
▁तिघ	-2934
▁महिन्यात	-2935
ईक	-2936
णू	-2937
दू	-2938
यावेळी	-2939
क्कम	-2940
देशी	-2941
ष्टा	-2942
▁नसल्याचे	-2943
▁थेट	-2944
▁अत्या	-2945
मेंट	-2946
ांमुळे	-2947
▁करारा	-2948
▁हृ	-2949
यल	-2950
▁कल्या	-2951
▁आभार	-2952
फर	-2953
▁पुस्तक	-2954
▁कोणीही	-2955
▁अफ	-2956
वित	-2957
▁आंदोलन	-2958
▁औषध	-2959
प्रा	-2960
प्रकारे	-2961
▁हिंदुस्थान	-2962
▁करतील	-2963
▁गि	-2964
▁सोडून	-2965
▁प्रिय	-2966
▁जिल्ह्यात	-2967
माझ	-2968
वेल	-2969
िकी	-2970
लीन	-2971
▁बातमी	-2972
क्षेप	-2973
धीश	-2974
▁स्पर्धा	-2975
जरी	-2976
▁तपासणी	-2977
िक्स	-2978
▁एअर	-2979
▁नेहमीच	-2980
वृत्ती	-2981
▁हवी	-2982
ंडे	-2983
▁उपचारासाठी	-2984
▁व्ही	-2985
▁स्वप्	-2986
▁दुसरी	-2987
▁कां	-2988
▁कामगार	-2989
नीय	-2990
▁आशिया	-2991
सिंह	-2992
▁नै	-2993
▁स्मार	-2994
▁दहा	-2995
▁निरा	-2996
▁प्रगती	-2997
▁दिग्दर्शक	-2998
▁नाश	-2999
▁संशय	-3000
▁पालन	-3001
▁तात्	-3002
▁१७	-3003
▁१६	-3004
▁अका	-3005
▁प्रभाव	-3006
▁अक्षय	-3007
▁क्षेत्रा	-3008
▁फॉ	-3009
नंती	-3010
▁सकाळी	-3011
▁स्वागत	-3012
▁घोषित	-3013
▁लोकशाही	-3014
▁राय	-3015
राला	-3016
परि	-3017
ांक	-3018
▁उभार	-3019
▁पाहायला	-3020
▁मिळते	-3021
झीलंड	-3022
▁भारताची	-3023
▁त्याच्यावर	-3024
▁ऑनला	-3025
▁विनंती	-3026
करिता	-3027
▁कलम	-3028
▁स्त्री	-3029
▁बजा	-3030
▁/	-3031
▁ग्रामीण	-3032
▁ग्राह	-3033
धित	-3034
▁हिंदू	-3035
▁पासून	-3036
▁क्षेत्रातील	-3037
▁मोह	-3038
▁हल	-3039
याच्या	-3040
सीटी	-3041
▁वं	-3042
▁दृष्ट	-3043
▁सतत	-3044
त्मिक	-3045
▁दल	-3046
▁तार	-3047
२०	-3048
ेशी	-3049
मच्या	-3050
ंतर्गत	-3051
▁तोड	-3052
▁पटेल	-3053
▁लांब	-3054
▁चाचणी	-3055
मकी	-3056
साहेब	-3057
रिया	-3058
▁सवाल	-3059
▁साहित	-3060
सित	-3061
क्या	-3062
▁दुर्घ	-3063
▁लाल	-3064
▁काँग्रेसच्या	-3065
▁याबद्दल	-3066
▁आजार	-3067
▁येशूने	-3068
▁पातळी	-3069
विला	-3070
▁तिची	-3071
▁सोप	-3072
▁क्षमता	-3073
ॉट	-3074
▁लागणार	-3075
▁वर्षात	-3076
दय	-3077
ोरे	-3078
▁सचिन	-3079
▁रस्ते	-3080
▁असले	-3081
▁ऊर्जा	-3082
▁असलेला	-3083
▁निधन	-3084
▁संदर्भात	-3085
▁मुद्दा	-3086
▁हु	-3087
▁वेगवेगळ्या	-3088
शमन	-3089
▁सदस	-3090
चाल	-3091
▁दार	-3092
▁गरजेचे	-3093
टना	-3094
यीन	-3095
▁सुशांत	-3096
▁भाषा	-3097
in	-3098
▁पेट्रोल	-3099
झेल	-3100
▁जवळपास	-3101
▁चित	-3102
▁इंटर	-3103
शेने	-3104
▁उठ	-3105
▁आयपी	-3106
▁पूर्वी	-3107
ळ्यात	-3108
▁देण्याची	-3109
▁11	-3110
▁युती	-3111
लक्ष	-3112
▁नसते	-3113
काश्मीर	-3114
▁चित्रपटाचे	-3115
विंद	-3116
▁आकार	-3117
कारक	-3118
कृष्ट	-3119
▁टिक	-3120
प्रिल	-3121
▁लोकांच्या	-3122
▁वर्षे	-3123
प्रिय	-3124
▁कॅमे	-3125
▁निर	-3126
▁स्त्र	-3127
▁करो	-3128
लावधी	-3129
▁असल्याचं	-3130
-19	-3131
▁पार्श्व	-3132
▁संचालक	-3133
काही	-3134
▁अल्प	-3135
▁ब्र	-3136
▁अनिल	-3137
▁लागत	-3138
▁नोकरी	-3139
न्ह	-3140
ध्यात्मिक	-3141
▁बळी	-3142
▁बहि	-3143
▁प्	-3144
▁कालावधी	-3145
▁देशभरात	-3146
▁तशी	-3147
▁पडले	-3148
▁वास्त	-3149
ांज	-3150
▁मारहा	-3151
▁समाधान	-3152
ाचे	-3153
▁धा	-3154
▁तिचे	-3155
▁हवाई	-3156
इल	-3157
▁असल्यामुळे	-3158
▁धोनी	-3159
▁खूपच	-3160
त्यांना	-3161
▁विकसित	-3162
▁मर्या	-3163
▁[	-3164
यांना	-3165
▁भारती	-3166
▁तक्रारी	-3167
ॅशन	-3168
प्पा	-3169
▁देणे	-3170
▁गोळीबार	-3171
▁बांगलादेश	-3172
▁श्रे	-3173
पुर	-3174
▁शिवा	-3175
▁दृष्टीने	-3176
▁साजरा	-3177
▁2017	-3178
▁बचा	-3179
मण	-3180
▁प्रदेशाध्यक्ष	-3181
an	-3182
हीद	-3183
▁न्यूझीलंड	-3184
डित	-3185
▁जारी	-3186
▁बरेच	-3187
▁अख	-3188
▁करायचे	-3189
त्रा	-3190
▁जप्त	-3191
▁आध्यात्मिक	-3192
▁साधला	-3193
▁दोघांना	-3194
▁चव्हा	-3195
यको	-3196
▁कोसळ	-3197
▁पर्यावर	-3198
▁भागी	-3199
▁दौऱ्या	-3200
▁कोणतेही	-3201
▁अच	-3202
एक	-3203
▁लिहिले	-3204
च्चन	-3205
▁श्रील	-3206
▁क्री	-3207
▁निक	-3208
▁येतील	-3209
ळाच्या	-3210
▁व्यापार	-3211
जात	-3212
मुख्यमंत्री	-3213
▁100	-3214
िला	-3215
वादा	-3216
▁प्रेर	-3217
▁फेटाळ	-3218
ढा	-3219
ृती	-3220
सर्व	-3221
▁ठेवले	-3222
▁स्वातंत्र्य	-3223
▁बोलताना	-3224
▁यासंदर्भात	-3225
▁सोनिया	-3226
▁पडली	-3227
मुंबई	-3228
▁शाळा	-3229
संख्या	-3230
राचा	-3231
▁दिवसा	-3232
▁प्रकारच्या	-3233
▁माहित	-3234
करी	-3235
on	-3236
रत	-3237
▁अट	-3238
▁मुस्	-3239
▁दखल	-3240
▁महाविद्या	-3241
▁एप्रिल	-3242
▁आमची	-3243
▁50	-3244
▁कुल	-3245
▁रवी	-3246
▁लष्क	-3247
▁आवश्यकता	-3248
▁हस्त	-3249
काम	-3250
▁शिंदे	-3251
्यांसाठी	-3252
जि	-3253
▁दिलं	-3254
▁प्रवासी	-3255
बीर	-3256
वावर	-3257
▁देवाने	-3258
▁विधानसभे	-3259
▁भांड	-3260
▁होणाऱ्या	-3261
▁राजकारण	-3262
▁एवढ	-3263
▁राऊ	-3264
▁कामे	-3265
▁इश	-3266
▁डोक	-3267
▁वीज	-3268
▁एफ	-3269
▁तास	-3270
▁विद्यार्थ्यांना	-3271
▁लागते	-3272
▁दर्जा	-3273
ंती	-3274
▁करणारा	-3275
▁14	-3276
▁दिन	-3277
▁शिक्षक	-3278
साने	-3279
▁नाहीये	-3280
वाणी	-3281
▁जून	-3282
णार्	-3283
ानुसार	-3284
आम्ही	-3285
▁आमचे	-3286
▁अग्निशमन	-3287
▁गै	-3288
▁किर	-3289
▁पां	-3290
▁उदाहरण	-3291
▁सुपर	-3292
राचे	-3293
▁तिसऱ्या	-3294
▁बच्चन	-3295
ॅन	-3296
ित्	-3297
▁तसंच	-3298
▁सुंदर	-3299
आपल्या	-3300
▁अरु	-3301
▁25	-3302
▁चव्हाण	-3303
▁एकाच	-3304
व्यात	-3305
▁त्यामध्ये	-3306
▁घसर	-3307
▁वळ	-3308
षा	-3309
▁नाय	-3310
▁आमचा	-3311
▁प्रशिक्षण	-3312
▁घटक	-3313
▁जुल	-3314
▁फुट	-3315
वीत	-3316
▁उडा	-3317
रोखर	-3318
▁सगळ्या	-3319
▁ऍ	-3320
▁पोह	-3321
फत	-3322
▁सभा	-3323
ॅक	-3324
नाल्ड	-3325
▁वेगळे	-3326
▁म्हणतो	-3327
▁विजया	-3328
▁बरोबर	-3329
▁मंडळी	-3330
▁पदार्थ	-3331
▁यांनीही	-3332
▁बाळग	-3333
▁शिवाजी	-3334
वाखाली	-3335
▁शै	-3336
ियम	-3337
देशीर	-3338
बाहेर	-3339
▁कंपन	-3340
यत	-3341
▁राब	-3342
▁घेणे	-3343
▁स्तो	-3344
हारा	-3345
▁परराष्ट्र	-3346
▁अभिनंद	-3347
▁सत्ते	-3348
▁प्रतिनिधी	-3349
▁अभिया	-3350
गेच	-3351
▁त्यातील	-3352
▁खट	-3353
▁महास	-3354
▁असलेली	-3355
▁मिळताच	-3356
▁पद्धतीने	-3357
ऐव	-3358
▁अथ	-3359
देव	-3360
▁सीसीटी	-3361
▁निर्देश	-3362
ॅम	-3363
▁परिषदेत	-3364
▁चित्रपटाच्या	-3365
▁खात्री	-3366
म्मद	-3367
▁बाल	-3368
ांकडे	-3369
▁स्म	-3370
▁मानले	-3371
धारण	-3372
▁अवलंब	-3373
▁घेण्यासाठी	-3374
माग	-3375
मिनी	-3376
▁महे	-3377
गस्ट	-3378
सीसीआय	-3379
▁निघ	-3380
श्वर	-3381
▁नियु	-3382
▁सीसीटीव्ही	-3383
▁भि	-3384
er	-3385
भूमीवर	-3386
संस्थ	-3387
▁जाधव	-3388
▁लगेच	-3389
▁हल्ल्यात	-3390
्रजी	-3391
ार्मिक	-3392
▁संकट	-3393
ेंद्र	-3394
▁येऊन	-3395
▁रक्कम	-3396
▁कल्याण	-3397
▁फेरीत	-3398
▁गाठ	-3399
▁सर्वच	-3400
▁प्रिया	-3401
▁दोषी	-3402
▁तुमचा	-3403
शास्त्र	-3404
मग	-3405
फार	-3406
▁पीडित	-3407
ष्कर	-3408
▁हवामान	-3409
’,	-3410
▁सुवर्ण	-3411
▁परीक्षा	-3412
▁उपक्रम	-3413
▁शक्ती	-3414
▁जिल्ह्यातील	-3415
▁केजरी	-3416
▁जिव	-3417
ज्ञाना	-3418
▁इन्स्ट	-3419
ेची	-3420
प्टे	-3421
▁दिवा	-3422
▁हस्ते	-3423
▁संपर्क	-3424
▁तोंड	-3425
भाजप	-3426
▁स्टार	-3427
▁राऊत	-3428
शु	-3429
▁विजे	-3430
▁आलेला	-3431
▁निष्	-3432
▁निषे	-3433
▁मदती	-3434
▁नौ	-3435
▁म्हणजेच	-3436
णाली	-3437
▁नावे	-3438
▁मंगळ	-3439
▁नागरिकांना	-3440
ज्य	-3441
काचा	-3442
▁कर्मचाऱ	-3443
▁मंदिर	-3444
▁मते	-3445
▁ताल	-3446
▁संगीत	-3447
▁क्रीडा	-3448
ाभ	-3449
▁पाहून	-3450
▁निरीक्षक	-3451
म्हणून	-3452
▁आयोजन	-3453
▁किंमत	-3454
▁२५	-3455
▁वाग	-3456
▁दीपिका	-3457
प्टेंबर	-3458
पात	-3459
▁रशिया	-3460
▁वेळे	-3461
▁तित	-3462
▁दररोज	-3463
ढी	-3464
ात्मा	-3465
लोक	-3466
▁राष्ट्रवादीचे	-3467
▁शेती	-3468
▁मॉ	-3469
▁दिवसांपासून	-3470
▁स्क	-3471
▁तुमचे	-3472
▁विद्य	-3473
▁पेक्षा	-3474
▁बरा	-3475
▁उमेदवारी	-3476
काय	-3477
▁वर्ग	-3478
▁पात्र	-3479
▁उपास	-3480
▁जुलै	-3481
▁फस	-3482
▁शकले	-3483
षिक	-3484
▁अभिनंदन	-3485
क्य	-3486
▁नवे	-3487
▁गरी	-3488
▁सामन्या	-3489
थाप	-3490
▁कठ	-3491
▁यंदा	-3492
सर्ग	-3493
▁पोलिसांच्या	-3494
▁मूळ	-3495
▁पाळ	-3496
▁प्रमा	-3497
सब	-3498
▁आयोग	-3499
बूत	-3500
▁मागील	-3501
▁म्हणूनच	-3502
मागे	-3503
▁आवाज	-3504
पाला	-3505
▁घाला	-3506
वीर	-3507
▁अपय	-3508
▁केलेला	-3509
▁ऑगस्ट	-3510
▁संस्कृती	-3511
▁स्वतंत्र	-3512
▁गर्दी	-3513
▁आगी	-3514
▁राहिला	-3515
ोब	-3516
▁खरोखर	-3517
कांच्या	-3518
▁परिसर	-3519
ुस	-3520
▁इथ	-3521
▁सोपे	-3522
▁कृती	-3523
▁विस्त	-3524
िटल	-3525
र्फे	-3526
▁उभ	-3527
▁खोट	-3528
▁सहन	-3529
▁विवाह	-3530
▁मंजूर	-3531
▁सूत्र	-3532
नील	-3533
▁महिन्या	-3534
▁I	-3535
▁रूग्	-3536
▁तसा	-3537
▁आयोगा	-3538
▁प्रभा	-3539
▁निवडणुक	-3540
राबाद	-3541
▁सोमवारी	-3542
काची	-3543
▁कुटुंबी	-3544
ाला	-3545
मिळना	-3546
▁अशोक	-3547
▁परिवार	-3548
▁नक्कीच	-3549
ोत्स	-3550
▁महत्त्वाची	-3551
▁२१	-3552
▁पावसामुळे	-3553
ुनिक	-3554
▁तप	-3555
▁फलंदाज	-3556
▁आयपीएल	-3557
भारत	-3558
▁धार्मिक	-3559
▁नितीन	-3560
णीय	-3561
ल्य	-3562
▁सला	-3563
▁आत	-3564
▁राष्ट्राध्यक्ष	-3565
ग्रह	-3566
▁तुमची	-3567
▁ष	-3568
▁उर्	-3569
▁मुद	-3570
▁दिवसांपूर्वी	-3571
▁उभे	-3572
▁रोग	-3573
▁अध्यक्षते	-3574
▁अडक	-3575
▁अभिन	-3576
यम	-3577
▁विश्वच	-3578
▁अवस्थ	-3579
▁फरक	-3580
न्नई	-3581
▁जोडी	-3582
▁यातील	-3583
▁येत्या	-3584
▁कार्यक्रमात	-3585
रोप	-3586
▁निघा	-3587
▁माहितीनुसार	-3588
▁निषेध	-3589
▁मनुष्य	-3590
श्री	-3591
▁हैद	-3592
वाड	-3593
▁हॉस्प	-3594
▁बॅन	-3595
▁बाळा	-3596
क्टो	-3597
सोबतच	-3598
▁दुर्लक्ष	-3599
▁पद्धती	-3600
▁सप्टेंबर	-3601
तः	-3602
▁दिग्दर्शन	-3603
▁13	-3604
▁कट	-3605
थापि	-3606
एसटी	-3607
▁जीवनात	-3608
▁पकड	-3609
▁महिन	-3610
ल्याची	-3611
▁रोजगार	-3612
▁राज्यमंत्री	-3613
▁मना	-3614
▁घेणार	-3615
▁नाकार	-3616
▁स्वयं	-3617
▁द्	-3618
▁अन्	-3619
▁अमेरिका	-3620
▁ज्ञान	-3621
▁झाल्याने	-3622
मीटर	-3623
्यासाठी	-3624
▁माणूस	-3625
▁मार्च	-3626
▁फलंदाजी	-3627
▁अध्यक्षतेखाली	-3628
▁18	-3629
त्याच	-3630
ारंभ	-3631
▁वक्तव्य	-3632
▁याविषयी	-3633
▁वेगाने	-3634
णीत	-3635
▁ठरले	-3636
▁शास्त्र	-3637
▁तब्	-3638
▁शिवाय	-3639
▁अर्थमंत्री	-3640
▁आयुष्य	-3641
▁पुत्र	-3642
▁मालिका	-3643
▁हिंसा	-3644
▁आरोपींना	-3645
▁इले	-3646
▁शहीद	-3647
हानी	-3648
▁टाळ	-3649
▁प्रकल्पा	-3650
पूत	-3651
णवीर	-3652
▁एकही	-3653
निव	-3654
सेंबर	-3655
▁यहोवाने	-3656
कल	-3657
▁उत्तरे	-3658
फ्	-3659
▁हट	-3660
▁हजर	-3661
▁अतिरिक्त	-3662
साला	-3663
संबंधी	-3664
ांपैकी	-3665
▁धोरण	-3666
▁होणे	-3667
▁प्रसंग	-3668
▁आश्वास	-3669
▁अवि	-3670
▁बनव	-3671
▁मान्यता	-3672
क्टोबर	-3673
भरातील	-3674
डीत	-3675
▁समाजा	-3676
▁साहित्य	-3677
▁त्यानुसार	-3678
▁जागीच	-3679
िवस	-3680
▁फटका	-3681
ेद	-3682
▁ग्राम	-3683
दैवाने	-3684
▁शिष	-3685
▁रक्त	-3686
▁खळ	-3687
▁प्रशिक्षक	-3688
शिव	-3689
▁पार्टी	-3690
▁खरा	-3691
▁लोकांचा	-3692
▁पौला	-3693
▁केजरीवाल	-3694
▁दुः	-3695
▁30	-3696
▁अब	-3697
▁शहरातील	-3698
▁आशी	-3699
राची	-3700
व्हेंबर	-3701
ाग्राम	-3702
▁बांधव	-3703
▁जपान	-3704
▁यातून	-3705
▁विज्ञान	-3706
▁इशारा	-3707
विली	-3708
▁मजबूत	-3709
ळाची	-3710
▁स्त्रिया	-3711
नेते	-3712
▁कार्ड	-3713
▁शुक्र	-3714
▁नागपूर	-3715
▁लढत	-3716
त्तम	-3717
▁ऑलि	-3718
▁पोट	-3719
आपण	-3720
बंदी	-3721
ॅशनल	-3722
▁तै	-3723
▁२४	-3724
ानावर	-3725
▁बुध	-3726
▁भरपूर	-3727
▁जमिनी	-3728
▁तात्काळ	-3729
डकरी	-3730
▁सर्वसा	-3731
णाऱ	-3732
▁चेंड	-3733
▁जम	-3734
धीर	-3735
▁इतकी	-3736
▁दिशेने	-3737
मित्र	-3738
▁राजपूत	-3739
▁कौत	-3740
▁अरविंद	-3741
▁याआधी	-3742
▁टि	-3743
ंद्रा	-3744
णार्थ	-3745
▁शत्र	-3746
▁अहवाला	-3747
लाय	-3748
▁विधेयक	-3749
ानेवारी	-3750
▁करण	-3751
▁चोर	-3752
वाना	-3753
▁नीति	-3754
▁गरीब	-3755
▁डोनाल्ड	-3756
▁प्रकारची	-3757
कूर	-3758
▁वेगळी	-3759
▁अस्त	-3760
▁तुलनेत	-3761
▁अधिव	-3762
▁डिसेंबर	-3763
at	-3764
▁पुरवठा	-3765
▁संकल्प	-3766
▁सैनिक	-3767
ेत्र	-3768
▁शौ	-3769
▁ब्रा	-3770
ष्का	-3771
▁आंध	-3772
▁C	-3773
▁आज्ञा	-3774
ानक	-3775
स्टर	-3776
▁संघात	-3777
▁३०	-3778
ांसह	-3779
▁गावात	-3780
▁विचारले	-3781
▁लोकप्रिय	-3782
फ्ट	-3783
मूद	-3784
ांमधील	-3785
▁विरुद्ध	-3786
विण्यासाठी	-3787
▁उपाययोज	-3788
▁मानसिक	-3789
ंदिवस	-3790
पूर्वक	-3791
▁जगभरात	-3792
▁लष्कर	-3793
▁हक्क	-3794
▁शेवटी	-3795
▁अद्यापही	-3796
▁यांच्याशी	-3797
▁मिळू	-3798
▁उत्सा	-3799
नाव	-3800
▁प्रयोग	-3801
पौ	-3802
सरी	-3803
▁चेह	-3804
▁प्रकरणाची	-3805
इट	-3806
▁जेट	-3807
▁धडक	-3808
ंके	-3809
▁रणवीर	-3810
ंगिक	-3811
थमिक	-3812
स्त्रा	-3813
▁नोव्हेंबर	-3814
ड्डा	-3815
पालिक	-3816
▁सुरूवात	-3817
▁संकेत	-3818
▁इतके	-3819
ार्‍या	-3820
▁शकेल	-3821
गिनी	-3822
अंतर्गत	-3823
तार	-3824
▁बाज	-3825
▁गडकरी	-3826
▁काल	-3827
मिळनाडू	-3828
र्घ	-3829
▁वाप	-3830
र्वाद	-3831
▁तेच	-3832
▁गोंध	-3833
▁प्रभ	-3834
▁हार्	-3835
▁उद	-3836
▁कुठल्या	-3837
▁चेन्नई	-3838
▁कस	-3839
▁पाहू	-3840
▁गुन्ह	-3841
प्रीम	-3842
चीन	-3843
जीव	-3844
काचे	-3845
▁उलट	-3846
▁पाण्या	-3847
▁कौतुक	-3848
▁मोबाईल	-3849
मूर्ती	-3850
▁शेतकऱ्यांना	-3851
▁ऑक्टोबर	-3852
पि	-3853
क्षम	-3854
र्चा	-3855
▁ऋ	-3856
▁डिझेल	-3857
▁सैन्या	-3858
▁मुंबईतील	-3859
▁जानेवारी	-3860
पाट	-3861
▁डॉक्टरांनी	-3862
▁खळबळ	-3863
▁मानवी	-3864
आज	-3865
▁समान	-3866
▁नियुक्ती	-3867
ल्याचा	-3868
क्षणिक	-3869
▁दिवसे	-3870
▁मंगळवारी	-3871
▁शस्त्र	-3872
तान	-3873
▁सहाय्य	-3874
फोन	-3875
ुत	-3876
च्छेद	-3877
▁खि	-3878
ज्ज	-3879
▁निवडणुका	-3880
▁गोलंदाज	-3881
ीच्या	-3882
▁घाबर	-3883
टेल	-3884
▁16	-3885
▁कथा	-3886
ज्ञात	-3887
▁प्रती	-3888
▁असल्यास	-3889
▁दुरु	-3890
▁निवडणुकीच्या	-3891
▁सुनील	-3892
ेन	-3893
▁चर्चेत	-3894
▁देशमुख	-3895
▁अजय	-3896
▁द्वि	-3897
▁‘‘	-3898
वडे	-3899
▁प्रो	-3900
▁चढ	-3901
वासा	-3902
श्‍च	-3903
▁आहेस	-3904
प्रदेश	-3905
▁कारणे	-3906
▁घालून	-3907
▁स्तोत्र	-3908
स्कृ	-3909
▁लागतो	-3910
▁महत्वाचे	-3911
लिम	-3912
▁यू	-3913
▁भाषण	-3914
सेना	-3915
▁नागरी	-3916
▁गॅ	-3917
▁मेट	-3918
▁पाकिस्तानी	-3919
लात	-3920
▁राव	-3921
▁काहीतरी	-3922
▁प्ल	-3923
▁रस्त्यावर	-3924
▁भ्र	-3925
ांतील	-3926
▁प्राथमिक	-3927
▁प्रणाली	-3928
▁२२	-3929
▁फेटाळून	-3930
▁बाद	-3931
▁स्वप्न	-3932
▁वग	-3933
▁सिंध	-3934
आता	-3935
▁महत्त्वाचा	-3936
▁दलाच्या	-3937
बरोबरच	-3938
▁सुप्रीम	-3939
▁विक्री	-3940
▁प्रकारचे	-3941
▁उपमुख्यमंत्री	-3942
▁समावि	-3943
▁अमिताभ	-3944
▁शनिव	-3945
▁लै	-3946
▁इंग्रजी	-3947
शास	-3948
▁महत्व	-3949
रुख	-3950
कारात्मक	-3951
▁संख्येने	-3952
▁तणाव	-3953
▁व्यवसाय	-3954
▁जै	-3955
▁मारहाण	-3956
▁आठवड्यात	-3957
▁राज्याचे	-3958
▁छा	-3959
▁कठोर	-3960
▁हजारो	-3961
वता	-3962
ऱ्यात	-3963
▁हैदराबाद	-3964
▁प्रमाणावर	-3965
▁क्रमांक	-3966
▁स्मार्ट	-3967
▁प्रत्यक्षात	-3968
▁नेत्यांनी	-3969
थ्या	-3970
▁दिवसेंदिवस	-3971
क्शन	-3972
▁काग	-3973
▁!	-3974
▁सांगत	-3975
▁फ्रान	-3976
▁बंगाल	-3977
000	-3978
▁बचाव	-3979
▁झोप	-3980
▁पार्श्वभूमीवर	-3981
पासूनच	-3982
▁यादीत	-3983
सळधार	-3984
▁शुक्रवारी	-3985
▁ठेवला	-3986
▁पायाभूत	-3987
▁लोकसभे	-3988
▁उत्पन्न	-3989
त्यात	-3990
▁विशिष्ट	-3991
▁प्रत्येकी	-3992
▁किमान	-3993
कालीन	-3994
▁विकेट	-3995
ठिका	-3996
▁गौरव	-3997
▁सामन	-3998
▁पडत	-3999
रेल	-4000
अर्थ	-4001
▁दू	-4002
तुम्ही	-4003
▁एकच	-4004
ऐवजी	-4005
▁हाता	-4006
▁छोट	-4007
पोर्ट	-4008
▁पाक	-4009
▁नुकताच	-4010
▁टॅ	-4011
▁अर्थसं	-4012
▁मधील	-4013
▁मैत्री	-4014
▁बुधवारी	-4015
▁समजून	-4016
▁कुणाला	-4017
▁A	-4018
दम	-4019
▁अब्	-4020
▁संघर्ष	-4021
▁त्याचबरोबर	-4022
वय	-4023
▁मिळून	-4024
▁मतदारसंघातून	-4025
सल	-4026
▁नागरिकांनी	-4027
▁दिल्लीतील	-4028
▁वैय	-4029
▁कोलक	-4030
▁बॅनर्जी	-4031
▁पाकिस्तानच्या	-4032
▁सकारात्मक	-4033
ांनो	-4034
यामध्ये	-4035
णीव	-4036
खरे	-4037
▁चॅ	-4038
▁दुर्घटने	-4039
▁तब्बल	-4040
▁आशीर्वाद	-4041
तथापि	-4042
लीवूड	-4043
▁मिळवला	-4044
▁पहिल्यांदाच	-4045
स्व	-4046
▁वेब	-4047
िना	-4048
▁शाळेत	-4049
▁जातील	-4050
▁स्वतःला	-4051
तेने	-4052
ळाने	-4053
▁सहज	-4054
▁जर्म	-4055
▁दंड	-4056
▁पावसाने	-4057
▁जमीन	-4058
▁विषा	-4059
▁मेह	-4060
▁फरार	-4061
▁भागीदारी	-4062
or	-4063
▁पोहच	-4064
▁समुद्र	-4065
▁राज्यपाल	-4066
▁विसर	-4067
वलं	-4068
ब्रु	-4069
▁बदला	-4070
▁मुलाख	-4071
ाराच्या	-4072
▁अल	-4073
किंग	-4074
▁उत्सुक	-4075
▁पाकिस्तानचे	-4076
▁कार्यालय	-4077
लंड	-4078
,’	-4079
वढे	-4080
▁सलग	-4081
▁मालिकेत	-4082
▁प्रेषित	-4083
▁रुपयांची	-4084
बाजी	-4085
▁200	-4086
▁बीसीसीआय	-4087
▁संघाचा	-4088
▁अमेरिकेचे	-4089
▁तुरु	-4090
▁देवाचे	-4091
भि	-4092
▁योगदान	-4093
▁मुख	-4094
तिहासिक	-4095
▁सर्वे	-4096
▁देण्यास	-4097
▁राहू	-4098
▁प्री	-4099
▁महामार्गा	-4100
▁अथवा	-4101
▁महाराज	-4102
▁%	-4103
ांश	-4104
सीय	-4105
▁आंब	-4106
▁घोटा	-4107
▁हाल	-4108
ar	-4109
▁स्थापना	-4110
▁पुरे	-4111
▁प्रियांका	-4112
▁इमारती	-4113
▁सातत्याने	-4114
▁एल	-4115
▁नातेवाई	-4116
पट्टी	-4117
▁मौ	-4118
▁शतक	-4119
▁संबोध	-4120
▁प्रवक्	-4121
▁सरा	-4122
▁स्टेशन	-4123
शान	-4124
▁वैशिष्ट	-4125
जेत	-4126
्रिक	-4127
▁भो	-4128
▁प्रदेशात	-4129
?""	-4130
ोजन	-4131
▁हीच	-4132
साम	-4133
▁लढाई	-4134
▁S	-4135
▁पक्षनेते	-4136
▁जखमींना	-4137
लेट	-4138
▁काँग्रेसने	-4139
▁सभाग	-4140
▁विक्रम	-4141
▁शाहरुख	-4142
▁द्र	-4143
मारी	-4144
वल्या	-4145
▁मुसळधार	-4146
▁अहमद	-4147
माला	-4148
▁परिस्थितीत	-4149
तेचा	-4150
▁राजधान	-4151
▁रविवारी	-4152
हीम	-4153
म्ब	-4154
▁तापमान	-4155
ोरी	-4156
▁नमूद	-4157
▁नसेल	-4158
▁वस	-4159
दृ	-4160
▁पान	-4161
▁चित्रपटाची	-4162
▁सर्वोत्तम	-4163
▁तरतू	-4164
▁भविष्य	-4165
▁पक्षाच्या	-4166
▁ट्रक	-4167
▁भीषण	-4168
▁शिफार	-4169
जेरी	-4170
▁कै	-4171
▁पाप	-4172
▁मोहम्मद	-4173
गरी	-4174
▁लॉकडा	-4175
▁",	-4176
स्थाप	-4177
▁दिसते	-4178
▁घडले	-4179
▁वाहि	-4180
▁कोर्टाने	-4181
▁आंध्र	-4182
▁आढावा	-4183
▁प्रकरणाचा	-4184
▁पंच	-4185
▁अर्थव्यवस्था	-4186
भाष	-4187
▁गैर	-4188
▁ऐतिहासिक	-4189
तोय	-4190
स्कर	-4191
र्प	-4192
▁गमा	-4193
▁विजयी	-4194
▁व्यक्ति	-4195
लीत	-4196
▁नोंदणी	-4197
ोत	-4198
▁तां	-4199
▁आनंदी	-4200
▁निवडून	-4201
▁याशिवाय	-4202
निमित्त	-4203
▁दृष्टिक	-4204
▁कमाई	-4205
▁द्यावे	-4206
▁न्यायाधीश	-4207
वणे	-4208
ातच	-4209
▁अज्ञात	-4210
ांजली	-4211
▁प्रधान	-4212
▁व्यावसाय	-4213
ल्क	-4214
सबुक	-4215
तिरिक्त	-4216
▁नेतृत्वाखाली	-4217
फेक	-4218
चक	-4219
▁लक्ष्य	-4220
ुत्तर	-4221
काल	-4222
वण्याचा	-4223
▁करोना	-4224
▁घ्यावी	-4225
▁राजनाथ	-4226
ांत्य	-4227
ित्त	-4228
▁तुरुंग	-4229
क्रिय	-4230
▁असणे	-4231
यांनी	-4232
▁खेळी	-4233
ंढ	-4234
▁इंद	-4235
▁तरुणी	-4236
▁नागरिकत्व	-4237
▁यांच्यातील	-4238
पाई	-4239
व्हर	-4240
▁सरकारकडून	-4241
▁हजेरी	-4242
पदाची	-4243
▁इलेक्ट	-4244
▁पाऊल	-4245
▁लावला	-4246
▁पावले	-4247
▁वाहतुकी	-4248
▁दत्त	-4249
▁दुखापत	-4250
▁करायची	-4251
डम	-4252
ासाठी	-4253
▁स्फोट	-4254
िक्	-4255
कडील	-4256
▁रच	-4257
▁त्याबाबत	-4258
▁प्रक्रिय	-4259
घे	-4260
▁इम	-4261
धान्य	-4262
▁धर्मा	-4263
▁जबाबदार	-4264
▁शनिवारी	-4265
कारण	-4266
▁यहू	-4267
वया	-4268
▁रहि	-4269
▁सलामी	-4270
▁सदर	-4271
रल	-4272
▁जिवंत	-4273
मुळं	-4274
▁घटन	-4275
▁आश्च	-4276
▁पैसा	-4277
मंत	-4278
ब्रुवारी	-4279
▁चंद्रकांत	-4280
संबंध	-4281
▁बाबा	-4282
▁जाणीव	-4283
▁प्राण	-4284
▁त्यापैकी	-4285
▁केल्याने	-4286
▁तंत्रज्ञाना	-4287
ल्ल	-4288
▁पाल	-4289
पक्षी	-4290
▁येणाऱ्या	-4291
▁तरतूद	-4292
▁अधी	-4293
निर्	-4294
▁भाजपमध्ये	-4295
▁उड	-4296
ार्ज	-4297
▁कोल	-4298
▁कार्यकारी	-4299
▁ममता	-4300
▁राहत	-4301
▁17	-4302
▁पर्यावरण	-4303
ंकर	-4304
▁इन	-4305
▁वेस्ट	-4306
▁माय	-4307
यण	-4308
▁जावे	-4309
▁शांतता	-4310
▁लोकांची	-4311
द्दीन	-4312
र्वे	-4313
▁फ्रान्स	-4314
वाही	-4315
्हां	-4316
▁ठरली	-4317
▁सेवे	-4318
▁त्याबद्दल	-4319
▁श्	-4320
▁पदवी	-4321
▁सोन्या	-4322
गन	-4323
▁री	-4324
▁दुप	-4325
▁सुटका	-4326
▁शासकीय	-4327
▁न्यायमूर्ती	-4328
▁न्यायालयाच्या	-4329
▁प्रभू	-4330
▁बंदोब	-4331
▁झळक	-4332
सेवक	-4333
▁ऑनलाईन	-4334
▁उद्दि	-4335
माने	-4336
▁टीव्ही	-4337
▁अवलंबून	-4338
▁अंग	-4339
▁हाच	-4340
▁काढला	-4341
▁ट्रेलर	-4342
▁कपिल	-4343
▁स्थिर	-4344
▁घेण्याची	-4345
▁शैक्षणिक	-4346
▁५०	-4347
▁इतका	-4348
▁शी	-4349
▁हाय	-4350
▁इच्छित	-4351
▁नियमित	-4352
▁याकडे	-4353
द्योग	-4354
▁घेता	-4355
प्ता	-4356
ृहात	-4357
▁शिवसेनेचे	-4358
▁वर्ण	-4359
▁विषाणू	-4360
राष्ट्रपती	-4361
▁एच	-4362
▁रुग्णालया	-4363
▁धवन	-4364
ेट्टी	-4365
ांवरील	-4366
दास	-4367
लीज	-4368
▁मुस्लिम	-4369
▁कार्यरत	-4370
▁राज्याच्या	-4371
▁किम	-4372
▁मागित	-4373
▁सीमा	-4374
▁होण्या	-4375
▁गायक	-4376
▁पाहत	-4377
▁दोघांनी	-4378
▁कल	-4379
वरही	-4380
▁व्यावसायिक	-4381
▁मुद्दे	-4382
▁पटका	-4383
मधल्या	-4384
▁प्रदान	-4385
वेदन	-4386
▁दरवा	-4387
▁प्रेरणा	-4388
▁चां	-4389
वर्धन	-4390
▁सामने	-4391
▁कौशल	-4392
▁नेतृत्व	-4393
लेज	-4394
रित्या	-4395
▁चम	-4396
▁राजीव	-4397
▁धन्य	-4398
▁केंद्रा	-4399
१९	-4400
▁विन	-4401
▁लैंगिक	-4402
▁बाजूला	-4403
▁म्हणणे	-4404
al	-4405
▁साठी	-4406
परी	-4407
ॉक	-4408
िन्ह	-4409
राज्य	-4410
▁लाखो	-4411
▁आकडा	-4412
▁पक्षप्रमुख	-4413
केश	-4414
▁जोशी	-4415
ुरू	-4416
▁लु	-4417
माझ्या	-4418
ायचे	-4419
जीत	-4420
ठिकाणी	-4421
▁महत्त्वाच्या	-4422
ंडन	-4423
▁म्हणत	-4424
▁फेब्रुवारी	-4425
▁जाती	-4426
▁राजधानी	-4427
पदक	-4428
स्पर	-4429
▁सभ	-4430
ुप	-4431
▁40	-4432
▁मिळवून	-4433
▁एकत्रित	-4434
▁उडाली	-4435
▁P	-4436
▁बहुते	-4437
▁मुक्त	-4438
▁37	-4439
▁तळ	-4440
▁अनेकदा	-4441
▁समजू	-4442
▁केस	-4443
चाकी	-4444
त्रिक	-4445
▁महत्त्वपूर्ण	-4446
▁वाढली	-4447
▁ख्रिस्ता	-4448
▁पळ	-4449
साई	-4450
िज	-4451
प्रेस	-4452
▁त्रि	-4453
▁क्रमांकावर	-4454
▁आस	-4455
वणार	-4456
▁त्यास	-4457
लिंग	-4458
▁पळून	-4459
स्ला	-4460
तेव्हा	-4461
साच्या	-4462
▁बाजारात	-4463
▁दया	-4464
▁क्रिकेटपटू	-4465
▁साध्य	-4466
▁बैठकीला	-4467
▁म्हणते	-4468
▁एक्	-4469
▁बद	-4470
▁इंटरनेट	-4471
▁२३	-4472
▁स्वरूप	-4473
▁)	-4474
वंत	-4475
▁उद्दिष्ट	-4476
▁पूर	-4477
र्भातील	-4478
▁रहा	-4479
▁असंही	-4480
▁दावी	-4481
लियन	-4482
▁कार्यालया	-4483
▁सामंज	-4484
▁युवा	-4485
▁बांधकाम	-4486
▁भागातील	-4487
मय	-4488
कार्य	-4489
स्कृतिक	-4490
▁टप्प्यात	-4491
ारावर	-4492
▁असणाऱ्या	-4493
चि	-4494
▁साथ	-4495
▁नेमके	-4496
▁सुरवात	-4497
ंटा	-4498
▁आलो	-4499
▁व्यवस्थापन	-4500
▁अनुभ	-4501
▁कैद	-4502
▁चित्रपटाचा	-4503
▁संसद	-4504
▁पाहता	-4505
▁अफगा	-4506
▁जीएसटी	-4507
बॉल	-4508
▁फेरी	-4509
▁देण्या	-4510
ंशी	-4511
०००	-4512
द्यावर	-4513
▁अपेक्षित	-4514
▁दश	-4515
▁गाड्या	-4516
▁हॉस्पिट	-4517
▁झाल्याची	-4518
याला	-4519
निट	-4520
▁किलोमीटर	-4521
म्र	-4522
▁तेथील	-4523
▁21	-4524
▁परिसरातील	-4525
▁प्रसाद	-4526
गल	-4527
▁बॉलीवूड	-4528
▁कॉन्	-4529
▁मंत्रालयाने	-4530
▁फिल्	-4531
पक्षीय	-4532
▁शत्रू	-4533
पौर	-4534
▁प्रतिबंध	-4535
▁साहा	-4536
▁सामर्थ	-4537
▁पोलिसांकडून	-4538
▁ठिकाण	-4539
▁त्यांच्याकडे	-4540
▁चूक	-4541
घु	-4542
▁शक्‍	-4543
▁बऱ्या	-4544
▁जॉ	-4545
▁दोघेही	-4546
▁अमेरिकन	-4547
▁उपांत्य	-4548
▁देताना	-4549
ज्या	-4550
▁आक्षेप	-4551
म्पिक	-4552
ार्पण	-4553
▁बाकी	-4554
▁खाज	-4555
▁जेटली	-4556
▁महोत्स	-4557
▁कार्	-4558
▁आधीच	-4559
▁माझ्यासाठी	-4560
स्वा	-4561
ेवर	-4562
▁देशाचे	-4563
▁नाराजी	-4564
▁गुरुवारी	-4565
▁चौथ्या	-4566
कृत	-4567
▁अंतर	-4568
▁बंदोबस्त	-4569
▁प्रभावी	-4570
▁शव	-4571
नेही	-4572
▁कोंडी	-4573
▁म्हणाली	-4574
▁मोहि	-4575
डो	-4576
▁सुख	-4577
▁१९९	-4578
लेम	-4579
▁दम	-4580
▁चोरी	-4581
▁दुष्	-4582
ेव्ह	-4583
▁आत्म्या	-4584
▁मतदारसंघात	-4585
झर	-4586
▁तैनात	-4587
▁उपाध्यक्ष	-4588
▁उद्या	-4589
▁ब्ल	-4590
▁शोक	-4591
▁बराच	-4592
सेस	-4593
ंवार	-4594
▁युव	-4595
▁स्थानावर	-4596
▁जागे	-4597
▁देतात	-4598
ध्यक्षा	-4599
▁फेसबुक	-4600
िश	-4601
दाबाद	-4602
▁सत्र	-4603
▁जबर	-4604
▁सांभा	-4605
▁परस्पर	-4606
▁आश्वासन	-4607
▁मनोहर	-4608
▁अर्जुन	-4609
▁बरी	-4610
▁कोणा	-4611
▁सण	-4612
▁वार्	-4613
आम	-4614
▁दिलेली	-4615
ड्डी	-4616
▁अचानक	-4617
▁करणाऱ्‍या	-4618
▁ग्	-4619
▁पास	-4620
▁सावध	-4621
ासह	-4622
्यांशी	-4623
परमेश	-4624
▁रूग्णा	-4625
ांतून	-4626
▁देशाला	-4627
▁धार	-4628
ेवारी	-4629
संख्य	-4630
▁नाईक	-4631
▁भ्रष्टा	-4632
▁उपाययोजना	-4633
▁अंध	-4634
▁नेट	-4635
▁निदर्श	-4636
लास	-4637
▁घटनेनंतर	-4638
▁मां	-4639
▁आपल्याकडे	-4640
▁वारंवार	-4641
▁मार्गदर्शन	-4642
▁विद्यार्थ्यांनी	-4643
तेच्या	-4644
▁शेतकर्‍या	-4645
▁टाळा	-4646
▁सुरुवातीला	-4647
▁निमित्त	-4648
नल	-4649
▁वित्त	-4650
▁निवृत्ती	-4651
▁देवाची	-4652
▁महामार्ग	-4653
▁समर्थन	-4654
लवा	-4655
▁कोर्टात	-4656
▁अरुण	-4657
▁ट्वी	-4658
▁संशयित	-4659
फो	-4660
बद्ध	-4661
▁देवाला	-4662
▁अंश	-4663
यकोर्ट	-4664
▁हरिया	-4665
▁बहुतेक	-4666
▁वक	-4667
▁असत	-4668
ोण	-4669
▁सांगतो	-4670
▁सांस्कृतिक	-4671
▁मध्यम	-4672
त्कृष्ट	-4673
राह	-4674
▁अश्	-4675
श्‍चन	-4676
▁वर्ल्ड	-4677
▁दृष्टिकोन	-4678
भारता	-4679
▁केल्याचा	-4680
▁यांच्याकडे	-4681
▁इराण	-4682
▁अनुष्का	-4683
▁प्रकाशित	-4684
▁सन	-4685
▁ठेवून	-4686
ांचं	-4687
एच	-4688
णिस्तान	-4689
▁राहतात	-4690
▁अधिकाऱ्यांनी	-4691
सारखी	-4692
िमित्त	-4693
▁दै	-4694
▁भूक	-4695
▁पद्धत	-4696
▁करणारी	-4697
निवड	-4698
▁व्यवसा	-4699
▁हायकोर्ट	-4700
जिटल	-4701
▁केल्यास	-4702
▁वाटतं	-4703
▁सामंजस्य	-4704
▁प्रशासनाने	-4705
▁विचारला	-4706
▁राजकारणात	-4707
▁प्रतिष्ठ	-4708
▁जित	-4709
▁हळू	-4710
क्तिक	-4711
▁यावरून	-4712
ठे	-4713
घन	-4714
याचा	-4715
▁दीर्घ	-4716
▁दुसरे	-4717
टीस	-4718
▁फायदे	-4719
▁काप	-4720
▁मान्यवर	-4721
▁सरकारवर	-4722
घर	-4723
▁नग	-4724
▁चिर	-4725
वर्षी	-4726
▁आजही	-4727
▁पाकिस्तानने	-4728
लू	-4729
कान	-4730
▁बाबी	-4731
▁म्हणाल्या	-4732
पाकिस्तान	-4733
▁|	-4734
▁खुला	-4735
▁लावले	-4736
▁कडक	-4737
ाराला	-4738
▁भूमी	-4739
करून	-4740
▁शिखर	-4741
▁खरी	-4742
▁शरीर	-4743
▁निशा	-4744
▁ग्री	-4745
सर्गिक	-4746
▁वेगळा	-4747
▁देण्याचा	-4748
▁वाटले	-4749
▁जिंकून	-4750
वृत्त	-4751
▁घेतल्या	-4752
▁आणले	-4753
▁अस्तित्	-4754
▁आकर्	-4755
▁पुनरु	-4756
▁दरात	-4757
▁दुःख	-4758
▁राहिली	-4759
▁धोक	-4760
नास	-4761
▁जागांवर	-4762
▁सुरूच	-4763
टो	-4764
▁शकणार	-4765
▁व्हायरस	-4766
▁आठवण	-4767
▁आयुष्यात	-4768
▁कोणालाही	-4769
्म	-4770
▁काढले	-4771
नवी	-4772
र्नर	-4773
▁शाळे	-4774
▁दिवाळी	-4775
लंय	-4776
▁ख्रिश्‍चन	-4777
▁दगड	-4778
▁भरव	-4779
▁विना	-4780
▁हत्ये	-4781
▁चुक	-4782
▁विनो	-4783
,”	-4784
▁उल्लं	-4785
▁तिच्यावर	-4786
ंजन	-4787
पीठा	-4788
▁खून	-4789
▁सर्वत्र	-4790
▁कोर	-4791
श्‍यक	-4792
▁हंगा	-4793
es	-4794
▁सगळी	-4795
पाठ	-4796
▁मेहन	-4797
▁यहोवाला	-4798
तन	-4799
▁खाजगी	-4800
▁घटनेचा	-4801
▁कार्यकर्ते	-4802
लाच्या	-4803
▁तिथ	-4804
▁दौऱ्यावर	-4805
सारखा	-4806
▁कागद	-4807
बो	-4808
यान	-4809
▁उज	-4810
▁चेंडू	-4811
▁केल्यामुळे	-4812
▁मरण	-4813
▁ऐकून	-4814
▁छाया	-4815
▁अध्या	-4816
▁भागा	-4817
▁विभागाचे	-4818
खान	-4819
हरू	-4820
▁प्रशासन	-4821
▁हॉस्पिटलमध्ये	-4822
en	-4823
▁दिवसांत	-4824
▁पाठी	-4825
▁बहिणी	-4826
▁संघाने	-4827
▁सुदैवाने	-4828
लये	-4829
स्थानी	-4830
▁बर	-4831
▁तपशील	-4832
ताप	-4833
▁याज	-4834
जित	-4835
ावर	-4836
▁इन्स्टाग्राम	-4837
जनक	-4838
ष्कळ	-4839
मोहन	-4840
▁जामीन	-4841
▁मुंडे	-4842
▁मार्गावर	-4843
▁सारा	-4844
▁आलिया	-4845
▁तामिळनाडू	-4846
राग	-4847
यावर	-4848
▁साधन	-4849
▁रिलीज	-4850
लेश	-4851
उदाहर	-4852
अप	-4853
लाल	-4854
सर्	-4855
▁शासन	-4856
▁फो	-4857
विषयक	-4858
▁ताक	-4859
तेच	-4860
▁संसदे	-4861
▁देशाची	-4862
▁महात्मा	-4863
ळाचे	-4864
ारखंड	-4865
▁सेट	-4866
संस्था	-4867
▁24	-4868
▁पाठवण्यात	-4869
ऊंट	-4870
फान	-4871
▁आकड	-4872
▁बहुत	-4873
▁जीवित	-4874
▁विभागाने	-4875
▁विश्वचषक	-4876
▁अक	-4877
▁जयंती	-4878
याने	-4879
▁चित्री	-4880
▁त्वर	-4881
▁सर्वोत्कृष्ट	-4882
▁आधुनिक	-4883
▁श्रीलंके	-4884
▁तृ	-4885
▁जनतेला	-4886
▁समाविष्ट	-4887
▁रॉय	-4888
▁असेच	-4889
▁शांती	-4890
▁पराभ	-4891
▁अमेरिकेच्या	-4892
▁इम्रान	-4893
कीत	-4894
भारतीय	-4895
▁गोवा	-4896
▁स्थग	-4897
अल	-4898
▁M	-4899
विकास	-4900
▁आकाश	-4901
▁व्हायला	-4902
उदाहरणार्थ	-4903
▁आल्यानंतर	-4904
▁पदक	-4905
▁आरा	-4906
विच्छेद	-4907
▁बारा	-4908
▁ऑलिम्पिक	-4909
▁प्रत्युत्तर	-4910
▁शास्त	-4911
नंदा	-4912
नच्या	-4913
दिवसीय	-4914
▁घटनेत	-4915
▁वकील	-4916
▁पश्चात	-4917
▁देते	-4918
▁दुरुस्ती	-4919
▁पथक	-4920
▁अर्पण	-4921
▁येथून	-4922
▁मोड	-4923
▁वाटा	-4924
सीआय	-4925
▁माफी	-4926
▁इंडियन	-4927
▁पिक	-4928
्हांला	-4929
▁ठरेल	-4930
ंगल	-4931
िकल	-4932
▁कॉलेज	-4933
▁संघटना	-4934
▁शेट्टी	-4935
▁सिन्हा	-4936
▁धक्कादायक	-4937
महा	-4938
वावे	-4939
▁नॅशनल	-4940
▁देशांमध्ये	-4941
▁लस	-4942
▁घडला	-4943
▁मुख्या	-4944
▁सरकारचा	-4945
▁योगी	-4946
▁साखर	-4947
▁निर्मला	-4948
▁ओढ	-4949
▁हॅ	-4950
▁नेपाळ	-4951
▁सर्वांनी	-4952
▁होय	-4953
विधान	-4954
▁मोठय़ा	-4955
▁थोड	-4956
ाराचा	-4957
▁गुला	-4958
▁हृदय	-4959
▁पाहिजेत	-4960
▁जवळच्या	-4961
ण्ड	-4962
निष्ठ	-4963
▁लंडन	-4964
▁दुचाकी	-4965
सात	-4966
महारा	-4967
ान्स	-4968
▁महाराष्ट्रातील	-4969
▁दिशा	-4970
▁सोहळ्या	-4971
त्याच्या	-4972
▁मेट्रो	-4973
▁महापालिक	-4974
▁सल्लागार	-4975
ंदू	-4976
बरी	-4977
▁अडथ	-4978
▁मालम	-4979
▁पुलवा	-4980
▁धावांची	-4981
▁आश्चर्य	-4982
देशात	-4983
▁४०	-4984
▁अजिब	-4985
▁बार	-4986
मोर	-4987
पुरव	-4988
लंबित	-4989
▁रस्ता	-4990
▁डिजिटल	-4991
▁घाटन	-4992
▁सीमे	-4993
पालिका	-4994
ांतर्गत	-4995
▁यंत्रणा	-4996
▁रणबीर	-4997
ेडकर	-4998
▁हून	-4999
प्रति	-5000
▁नसून	-5001
▁संध्या	-5002
▁मैदान	-5003
▁हातात	-5004
▁तपा	-5005
▁नजर	-5006
▁पुढच्या	-5007
▁नैसर्गिक	-5008
▁सध्याच्या	-5009
▁ठाणे	-5010
गम	-5011
▁सुरेश	-5012
▁हेही	-5013
▁वाढदिव	-5014
ळणी	-5015
िरा	-5016
▁वर्षांच्या	-5017
वते	-5018
▁सुल	-5019
▁मुलं	-5020
▁संभा	-5021
▁उल्लंघन	-5022
▁शवविच्छेद	-5023
▁दिलासा	-5024
▁प्रवक्ते	-5025
▁फळ	-5026
▁अशक्य	-5027
णूक	-5028
▁गोंधळ	-5029
▁स्तरावर	-5030
शक्ती	-5031
am	-5032
▁गड	-5033
हारी	-5034
मध्येही	-5035
काँग्रेस	-5036
▁विस्तार	-5037
▁घडत	-5038
▁अंतरा	-5039
▁वाजता	-5040
▁उशि	-5041
▁पदार्पण	-5042
▁दलाचे	-5043
▁होण्यास	-5044
▁अव्	-5045
▁लोकसभेत	-5046
▁कोल्हा	-5047
▁चोप्रा	-5048
▁कार्यक्रमाला	-5049
▁करायचा	-5050
▁अफगाणिस्तान	-5051
▁बऱ्याच	-5052
▁इंध	-5053
▁दिग्दर्शित	-5054
▁दोष	-5055
ल्यात	-5056
▁अस्	-5057
▁गणेश	-5058
▁शकला	-5059
▁शंका	-5060
पक	-5061
▁प्रारंभ	-5062
मदाबाद	-5063
▁वैयक्तिक	-5064
▁डाय	-5065
ग्री	-5066
▁यांच्यासोबत	-5067
▁झे	-5068
ीप	-5069
▁विवे	-5070
▁सरकारचे	-5071
त्तीस	-5072
▁अँड	-5073
▁गाड	-5074
▁वापरा	-5075
▁निर्मात	-5076
तारा	-5077
▁निवास	-5078
यां	-5079
रुन	-5080
▁सुरक्षे	-5081
कृष्ण	-5082
▁नायडू	-5083
▁बाजारपे	-5084
ic	-5085
स्तर	-5086
णामुळे	-5087
▁जर्मनी	-5088
▁चालना	-5089
सिस	-5090
▁गेलो	-5091
विरुद्धच्या	-5092
▁ठाकूर	-5093
▁मारली	-5094
▁चकमकी	-5095
▁पातळीवर	-5096
▁पोलिसांत	-5097
झी	-5098
▁N	-5099
▁तत्त्व	-5100
▁कायदेशीर	-5101
▁संघटन	-5102
▁टाका	-5103
▁अधिवेशन	-5104
▁एकदिवसीय	-5105
▁आक्रम	-5106
विन	-5107
ळव	-5108
दूत	-5109
▁गोलंदाजी	-5110
▁चर्च	-5111
▁मीटर	-5112
▁सावंत	-5113
▁मोदींच्या	-5114
▁आख	-5115
▁ज्यामुळे	-5116
कोळ	-5117
▁अब्द	-5118
▁जरा	-5119
तीच्या	-5120
▁नारायण	-5121
▁इतरांना	-5122
▁लोकांचे	-5123
▁लूक	-5124
▁सौर	-5125
▁आत्महत्ये	-5126
▁असली	-5127
▁धन्यवाद	-5128
▁करील	-5129
▁बुद्ध	-5130
वयीन	-5131
▁केल्याचे	-5132
.5	-5133
यांच्या	-5134
कू	-5135
▁देईल	-5136
वडिला	-5137
▁नष्ट	-5138
▁सरकारची	-5139
▁जनरल	-5140
▁नऊ	-5141
देवी	-5142
▁वेद	-5143
▁अमेरिकेत	-5144
▁वजन	-5145
▁झारखंड	-5146
▁भविष्यात	-5147
▁१००	-5148
णाऱया	-5149
▁वर्षीय	-5150
▁कुटुंबिया	-5151
मट	-5152
▁डॉलर	-5153
▁इस्ला	-5154
▁जाणाऱ्या	-5155
धर	-5156
ज्ज्ञ	-5157
▁"'	-5158
▁परंप	-5159
सृष्टी	-5160
▁यहोवाचे	-5161
▁येशूच्या	-5162
▁प्राधान्य	-5163
लिन	-5164
▁आंबेडकर	-5165
▁घेण्यास	-5166
▁संघाचे	-5167
▁सैन्य	-5168
पदाचा	-5169
▁संताप	-5170
▁परदेशी	-5171
▁२६	-5172
डर	-5173
मेल	-5174
▁कोविंद	-5175
मित्रांनो	-5176
▁अंब	-5177
▁शिर	-5178
▁नर	-5179
▁सुच	-5180
▁वादा	-5181
▁स्पष्टी	-5182
▁हॉटेल	-5183
राष्ट्रवादी	-5184
वणूक	-5185
▁मोट	-5186
▁लक्षणे	-5187
ारीरिक	-5188
त्यानंतर	-5189
येत	-5190
▁पर्यटन	-5191
▁जहा	-5192
▁दौरा	-5193
▁पुष्कळ	-5194
▁ब्रिटन	-5195
▁अर्थसंकल्प	-5196
▁२८	-5197
▁असावे	-5198
▁मिश्र	-5199
▁करणं	-5200
निस	-5201
वण्याची	-5202
▁लॉकडाऊन	-5203
▁प्रदेशातील	-5204
▁पाकिस्तानला	-5205
▁भाषेत	-5206
▁सहकारी	-5207
▁विषयावर	-5208
रावा	-5209
▁मिळवले	-5210
▁आयोगाने	-5211
,000	-5212
▁साठ	-5213
ूह	-5214
▁देण्याचे	-5215
दिक	-5216
▁तेज	-5217
▁गोयल	-5218
विरोधी	-5219
दायी	-5220
▁असला	-5221
▁भाजपची	-5222
धरी	-5223
▁धमकी	-5224
▁वाढले	-5225
▁कुठल्याही	-5226
कला	-5227
▁कोलकाता	-5228
▁दृढ	-5229
▁प्रियंका	-5230
▁समृ	-5231
▁राहतील	-5232
▁आढळून	-5233
▁प्रका	-5234
▁पस	-5235
आयटी	-5236
▁डोंग	-5237
▁तेंड	-5238
▁अभिमान	-5239
▁विमानतळ	-5240
▁रूग्णालयात	-5241
हळू	-5242
▁थोडा	-5243
▁आयु	-5244
▁जलद	-5245
लांतर	-5246
▁चालक	-5247
▁लप	-5248
▁विद	-5249
▁फ्रे	-5250
▁फुटबॉल	-5251
र्दी	-5252
विधी	-5253
▁तुलना	-5254
▁अध्यक्षा	-5255
▁देता	-5256
▁अयो	-5257
▁दबा	-5258
▁तोपर्यंत	-5259
पोलिस	-5260
▁कामका	-5261
▁आफ्रिके	-5262
▁अव्वल	-5263
▁संपाद	-5264
पन	-5265
▁झालो	-5266
▁आरोपीला	-5267
▁ख्रिस्त	-5268
▁लोकसंख्या	-5269
पूर्वीच	-5270
▁ट्वीट	-5271
▁समुदा	-5272
ुकोण	-5273
वायला	-5274
▁क्षण	-5275
▁इस्राए	-5276
प्ती	-5277
▁अशीच	-5278
▁उर्वर	-5279
▁टेस्ट	-5280
▁पोलिसात	-5281
▁होण्यासाठी	-5282
ंसा	-5283
लयीन	-5284
▁यहोवाची	-5285
▁रुपयांचा	-5286
▁202	-5287
▁गुप्त	-5288
▁तालुक	-5289
▁संदीप	-5290
▁सक्रिय	-5291
शाली	-5292
▁आयसीसी	-5293
ळत	-5294
गारी	-5295
ट्य	-5296
य्या	-5297
▁आहार	-5298
▁मेंढ	-5299
▁सावर	-5300
▁काढण्यात	-5301
स्वामी	-5302
▁लावून	-5303
आयआर	-5304
▁मनसे	-5305
▁अभिनेते	-5306
पीएफ	-5307
▁गोल	-5308
▁घ्यावा	-5309
▁पोहोचले	-5310
▁नव्हतं	-5311
▁इंज	-5312
▁निकाला	-5313
ोबत	-5314
▁स्वतःच्या	-5315
प्ति	-5316
▁शिका	-5317
▁सामील	-5318
▁कशाप्रकारे	-5319
▁अत्याचार	-5320
लीही	-5321
▁आदर्श	-5322
▁आमिर	-5323
▁राजेश	-5324
▁विधेय	-5325
▁अण	-5326
▁उल	-5327
▁शारीरिक	-5328
▁ॲ	-5329
▁खड	-5330
▁घातली	-5331
▁मार्क	-5332
▁व्यक्‍त	-5333
▁साथी	-5334
▁पर्व	-5335
▁सज्ज	-5336
▁फिर्या	-5337
▁गाज	-5338
▁अग्र	-5339
▁शुद्ध	-5340
दो	-5341
▁मराठ	-5342
▁त्याचं	-5343
▁पुलवामा	-5344
इस	-5345
▁जसे	-5346
ांसोबत	-5347
वधी	-5348
▁चौधरी	-5349
▁नोटीस	-5350
▁किंमती	-5351
▁एनडी	-5352
▁अजिबात	-5353
▁पाहु	-5354
सूल	-5355
ित्येक	-5356
▁दास	-5357
▁बरीच	-5358
ॉर्ड	-5359
▁अपवाद	-5360
▁प्रदू	-5361
▁भाजपचा	-5362
▁अकाऊंट	-5363
▁उर	-5364
▁वाय	-5365
▁पौलाने	-5366
गज	-5367
▁त्यावरून	-5368
याचे	-5369
▁कसं	-5370
▁बॅट	-5371
▁मर्यादा	-5372
▁घेतलेल्या	-5373
▁अधीक्षक	-5374
▁झाल्यावर	-5375
▁विकत	-5376
▁वादग्रस्त	-5377
ीचे	-5378
▁त्यांच्याकडून	-5379
▁एकमेव	-5380
▁स्वामी	-5381
दित	-5382
धिका	-5383
▁हर्ष	-5384
▁पांडे	-5385
▁आदित्यनाथ	-5386
गू	-5387
बाज	-5388
▁पाण्याची	-5389
▁दुष्ट	-5390
▁खाते	-5391
ंस	-5392
असे	-5393
▁वतीने	-5394
फेल	-5395
▁तेवढ	-5396
▁नाणे	-5397
▁स्पष्टीकरण	-5398
▁व्हावे	-5399
▁नोट	-5400
दर्शक	-5401
▁जयंत	-5402
▁हानी	-5403
▁घ्यायला	-5404
ंटी	-5405
▁तोडगा	-5406
वतो	-5407
ेसाठी	-5408
जनी	-5409
▁एक्स	-5410
▁२७	-5411
▁प्ला	-5412
▁मोशे	-5413
▁वर्णन	-5414
ांपेक्षा	-5415
▁पृथ्वीवर	-5416
पुरवठा	-5417
▁आवश्‍यक	-5418
▁भाजपाचे	-5419
▁नावाच्या	-5420
▁प्रदेशचे	-5421
▁ठोस	-5422
▁माघ	-5423
▁छत्तीस	-5424
ुलकर	-5425
▁असावा	-5426
▁ट्विटरवर	-5427
स्फोट	-5428
▁बंगळ	-5429
▁मंडळ	-5430
▁पक्षांनी	-5431
चंद्र	-5432
▁बंधू	-5433
▁गांभ	-5434
वाडा	-5435
▁ऑफिस	-5436
▁नाना	-5437
▁माझं	-5438
▁मृत्यु	-5439
णामी	-5440
तेची	-5441
▁नसतो	-5442
▁२९	-5443
▁रोड	-5444
▁सेवक	-5445
प्रत्य	-5446
्यांकडून	-5447
▁स्वच्छता	-5448
▁झाड	-5449
▁किरकोळ	-5450
थ्य	-5451
▁महिलांना	-5452
▁गटात	-5453
▁ध्ये	-5454
▁महापौर	-5455
▁माझ्याकडे	-5456
▁रिझ	-5457
▁आदि	-5458
▁पद्	-5459
ूत्रे	-5460
▁खंडपीठ	-5461
▁कर्त	-5462
▁पित	-5463
▁दिल्लीच्या	-5464
चो	-5465
णास	-5466
िनी	-5467
▁ठोक	-5468
ारीख	-5469
▁नीट	-5470
▁करीन	-5471
▁युरोप	-5472
▁स्वाक्ष	-5473
▁22	-5474
▁झो	-5475
न्ना	-5476
▁लक्ष्	-5477
▁त्व	-5478
▁सांगा	-5479
▁कच	-5480
▁छान	-5481
कधी	-5482
▁तत्काळ	-5483
▁वक्तव्या	-5484
▁मनापासून	-5485
याची	-5486
रंगा	-5487
▁दान	-5488
▁मूल्य	-5489
▁सुभाष	-5490
वै	-5491
धारी	-5492
हेरी	-5493
▁डोळे	-5494
▁नितीश	-5495
▁वृद्ध	-5496
▁मोज	-5497
▁चालत	-5498
▁भट्ट	-5499
▁दिलेले	-5500
▁मतदाना	-5501
▁पुत	-5502
णीस	-5503
▁विश्‍वासू	-5504
▁वाढला	-5505
▁जवळजवळ	-5506
▁ठेवली	-5507
पाची	-5508
▁कराल	-5509
▁बाळासाहेब	-5510
तीच	-5511
सै	-5512
कोण	-5513
हिद	-5514
▁राग	-5515
▁शूट	-5516
▁परमेश्वराने	-5517
घाटन	-5518
▁विवा	-5519
ण्याकरता	-5520
टली	-5521
▁मर	-5522
▁वगळ	-5523
▁कॅमेरा	-5524
▁व्याया	-5525
प्रमाणेच	-5526
▁एके	-5527
ल्ल्या	-5528
▁क्रमवारी	-5529
▁आजच्या	-5530
▁एकमेकां	-5531
▁अधिकाऱ्या	-5532
▁तिन्ही	-5533
▁तेंडुलकर	-5534
▁कड	-5535
▁चाच	-5536
▁सामोरे	-5537
चाही	-5538
▁बहुमत	-5539
क्ता	-5540
▁रामनाथ	-5541
▁आपलं	-5542
▁स्वराज	-5543
▁वेत	-5544
▁इं	-5545
अशा	-5546
▁निशाणा	-5547
▁पाठवले	-5548
▁वारा	-5549
▁संपत्ती	-5550
▁काँग्रेसला	-5551
▁उशिरा	-5552
ांबद्दल	-5553
▁कित्येक	-5554
ंगी	-5555
▁सक्षम	-5556
▁प्रवाशांना	-5557
▁मिळालेल्या	-5558
▁कंग	-5559
▁फ्र	-5560
▁सभे	-5561
▁माणस	-5562
▁टाटा	-5563
▁शासनाने	-5564
▁किंग	-5565
▁घेण्याचा	-5566
प्तिस्	-5567
▁अस्तित्वात	-5568
▁जुन	-5569
▁ठाम	-5570
▁मिश	-5571
शीर	-5572
▁ज्यात	-5573
▁सहाय्यक	-5574
▁B	-5575
▁गॅस	-5576
्टन	-5577
▁खरं	-5578
प्स	-5579
येश	-5580
▁फॅ	-5581
तेचे	-5582
▁वंश	-5583
वाडी	-5584
▁थोर	-5585
▁प्राणी	-5586
चत	-5587
▁तिक	-5588
▁देशांच्या	-5589
▁यहु	-5590
▁वाढते	-5591
▁वेगवान	-5592
माणिक	-5593
▁आकडेवारी	-5594
▁कथ	-5595
▁शेख	-5596
▁फारच	-5597
▁कोरिया	-5598
▁कब	-5599
▁मलिक	-5600
▁प्राचीन	-5601
▁होताना	-5602
▁दुसरीकडे	-5603
▁कुटुंबातील	-5604
▁पूजा	-5605
त्याला	-5606
▁दिग्गज	-5607
▁जाण्याची	-5608
▁३१	-5609
▁संदे	-5610
▁आनंदा	-5611
▁डेव्ह	-5612
▁ग्राहक	-5613
▁राणे	-5614
▁आढळले	-5615
▁अहमदाबाद	-5616
▁मल	-5617
▁पराभूत	-5618
न्ट	-5619
▁आधारे	-5620
▁यावे	-5621
▁मुखर्जी	-5622
▁तुझी	-5623
▁तुझे	-5624
▁कौशल्य	-5625
▁माझ्यावर	-5626
▁वाढेल	-5627
▁नेता	-5628
▁कामात	-5629
▁मैदाना	-5630
कॉ	-5631
▁जाहि	-5632
▁तांत्रिक	-5633
▁सरासरी	-5634
▁कळत	-5635
▁धावांनी	-5636
▁रिंग	-5637
▁मूलभूत	-5638
वर्ती	-5639
टीत	-5640
रुश	-5641
▁ठप्प	-5642
▁वर्षा	-5643
▁बंड	-5644
▁शुल्क	-5645
▁त्यांच्यासोबत	-5646
जल	-5647
तम	-5648
▁पर्यटक	-5649
▁कान	-5650
▁युवक	-5651
▁स्मृती	-5652
▁राधा	-5653
न्याया	-5654
▁चिद	-5655
▁घेतलं	-5656
▁रुपयांच्या	-5657
षेक	-5658
▁सगळं	-5659
▁महसूल	-5660
▁घटनेमुळे	-5661
▁कार्यवाही	-5662
▁त्यांच्यात	-5663
▁आपाप	-5664
▁आमंत्र	-5665
▁महेंद्र	-5666
▁त्यांच्याशी	-5667
▁उपस्थितीत	-5668
पक्ष	-5669
▁फोड	-5670
▁बाप्तिस्	-5671
▁त्यामुळेच	-5672
ंकडे	-5673
▁ताण	-5674
▁आसाम	-5675
▁चित्रपटातील	-5676
▁370	-5677
क्षेत	-5678
▁अपयशी	-5679
▁घातला	-5680
▁तिसरा	-5681
▁मिळतो	-5682
▁विनोद	-5683
ळकर	-5684
प्रती	-5685
▁जबरद	-5686
▁लागतात	-5687
▁बंगालच्या	-5688
विस्तर	-5689
▁जिथे	-5690
▁फाशी	-5691
▁फिल्म	-5692
-2	-5693
त्रपती	-5694
▁अब्रा	-5695
▁बहुतांश	-5696
▁गती	-5697
▁संबोधित	-5698
साची	-5699
▁लष्करी	-5700
▁महिन्यां	-5701
यहो	-5702
लाच	-5703
▁28	-5704
ईपर्यंत	-5705
▁ओळखले	-5706
▁उत्तरा	-5707
▁मॅच	-5708
माल	-5709
उन	-5710
इंग	-5711
ज्ञानिक	-5712
▁मंदिरात	-5713
▁मदतीने	-5714
▁अनेकांना	-5715
▁हिंसाचार	-5716
▁कायदे	-5717
▁रवाना	-5718
▁मोक	-5719
▁हळूहळू	-5720
प्य	-5721
▁श्रीमंत	-5722
▁ईशान	-5723
▁ग्रं	-5724
कत	-5725
▁तारीख	-5726
चने	-5727
ियर	-5728
▁रक्षण	-5729
रेट	-5730
▁पृष्ठ	-5731
▁R	-5732
पेयी	-5733
▁अब्ज	-5734
यामुळे	-5735
▁टाकले	-5736
ानिमित्त	-5737
िंटन	-5738
▁गरम	-5739
▁प्या	-5740
▁दिवसात	-5741
▁तेलंग	-5742
▁सविस्तर	-5743
▁अल्पवयीन	-5744
ायी	-5745
द्रा	-5746
▁मोदींना	-5747
▁असतं	-5748
▁दीपक	-5749
▁श्रद्ध	-5750
▁वार्षिक	-5751
▁हार्दिक	-5752
▁खुलासा	-5753
▁घ्यावे	-5754
केल	-5755
▁उड्डा	-5756
▁प्रचारा	-5757
ीय	-5758
▁निध	-5759
▁सूर	-5760
▁चांगलाच	-5761
▁कायद	-5762
▁विभागात	-5763
खन	-5764
▁कोक	-5765
कांवर	-5766
ासोबत	-5767
le	-5768
नाय	-5769
र्जे	-5770
▁सामर्थ्य	-5771
▁भावन	-5772
▁जोहर	-5773
▁संसदेत	-5774
▁पावसाचा	-5775
▁तेव्हापासून	-5776
जु	-5777
▁समजा	-5778
▁ठरवले	-5779
▁निवडणुकीसाठी	-5780
मत्	-5781
▁दशल	-5782
▁एवढे	-5783
▁भूमिके	-5784
▁कोल्हापूर	-5785
▁राज्यांमध्ये	-5786
▁थोडे	-5787
▁उर्वरित	-5788
▁बिन	-5789
▁प्रमाणे	-5790
डीपी	-5791
सध्या	-5792
▁डेटा	-5793
▁नोटा	-5794
▁F	-5795
शिवसेना	-5796
▁मनमोहन	-5797
▁तेथून	-5798
▁आत्मवि	-5799
▁बनले	-5800
▁मेहनत	-5801
लिब	-5802
▁दूध	-5803
▁आशियाई	-5804
▁सिनेम	-5805
▁बाजारपेठ	-5806
्‍त	-5807
▁मिर	-5808
▁अर्ध	-5809
▁पुरावा	-5810
▁सीतारा	-5811
▁आणली	-5812
▁लेखक	-5813
▁सहसा	-5814
▁मारले	-5815
तुम	-5816
▁ठराव	-5817
▁योजन	-5818
▁विखे	-5819
▁सुलभ	-5820
▁सुवार्	-5821
▁महायु	-5822
▁रुग्णांची	-5823
डमिंटन	-5824
▁महत्वाची	-5825
▁छाप	-5826
▁ड्र	-5827
▁उपराष्ट्रपती	-5828
ख्याने	-5829
ion	-5830
▁रचना	-5831
▁दमदार	-5832
▁दुसर्‍या	-5833
▁स्मार्टफोन	-5834
स्टार	-5835
▁पावसाची	-5836
▁इंडिज	-5837
▁ठरणार	-5838
▁नाशिक	-5839
▁झळकणार	-5840
▁सोना	-5841
यकल	-5842
▁उभा	-5843
ियन्स	-5844
▁सगळ्यात	-5845
▁समितीने	-5846
स्पद	-5847
▁दुपारी	-5848
▁शिष्य	-5849
▁आट	-5850
यांची	-5851
▁दशलक्ष	-5852
ळाचा	-5853
▁क्ल	-5854
प्रीत	-5855
▁आगीत	-5856
▁पक्षाने	-5857
▁वरील	-5858
ण्यातील	-5859
▁घरे	-5860
▁खरंच	-5861
▁बॉलिवूडमध्ये	-5862
पाचे	-5863
▁ठेवू	-5864
ुली	-5865
▁गळ	-5866
▁संगण	-5867
▁छोट्या	-5868
नग	-5869
▁फ्ल	-5870
▁विजेत	-5871
▁द्विपक्षीय	-5872
लीम	-5873
▁नाटक	-5874
▁त्यानं	-5875
वाचं	-5876
प्रसंग	-5877
▁आत्मा	-5878
▁दावीद	-5879
खोर	-5880
ंबरम	-5881
▁जीवितहानी	-5882
▁खबर	-5883
▁संघाला	-5884
हीण	-5885
▁मिळालं	-5886
▁व्यापारी	-5887
▁प्रशासकीय	-5888
▁मुदत	-5889
▁स्पे	-5890
▁विद्यमान	-5891
जारी	-5892
▁षटक	-5893
▁व्याज	-5894
▁गोळीबारात	-5895
कुल	-5896
▁घडवून	-5897
ांमधून	-5898
▁टाय	-5899
स्टिक	-5900
▁।	-5901
▁खरोखरच	-5902
▁दहशतवादा	-5903
▁मधु	-5904
▁दर्शन	-5905
▁बॉम्ब	-5906
▁दुसऱ्‍या	-5907
फाय	-5908
▁आफ्रिका	-5909
▁आत्ता	-5910
▁केलाय	-5911
▁प्रामाणिक	-5912
▁अवस्था	-5913
▁म्हणता	-5914
▁स्वर्ग	-5915
▁आणण्यासाठी	-5916
र्द	-5917
▁करि	-5918
▁दोघांचा	-5919
▁विमा	-5920
▁सांगू	-5921
▁सूत्रांनी	-5922
▁23	-5923
▁ताकद	-5924
▁महेश	-5925
बला	-5926
निया	-5927
ांपासून	-5928
सरकार	-5929
▁कुणा	-5930
शाच्या	-5931
▁व्हावी	-5932
रीज	-5933
साय	-5934
ान्	-5935
र्तन	-5936
▁वाढी	-5937
▁वयाच्या	-5938
महाराष्ट्र	-5939
▁राज्यपाला	-5940
गृह	-5941
विड	-5942
ंडर	-5943
▁रॅ	-5944
▁नंबर	-5945
▁निघून	-5946
▁साधारण	-5947
▁तुरुंगात	-5948
▁बॅडमिंटन	-5949
▁मिळाल्या	-5950
▁मुलाला	-5951
▁विचारा	-5952
मार्फत	-5953
▁प्रां	-5954
▁साडे	-5955
बाई	-5956
▁इत्या	-5957
▁बॉक्स	-5958
▁समर्प	-5959
▁बळक	-5960
▁पुढा	-5961
▁ड्रा	-5962
▁प्रण	-5963
▁बालक	-5964
▁ऑनलाइन	-5965
▁प्रथमच	-5966
▁यापुढे	-5967
फॉ	-5968
▁रड	-5969
पत्रक	-5970
▁सुप्र	-5971
▁इंदिरा	-5972
▁राहतो	-5973
▁कालावधीत	-5974
▁दिल्लीचे	-5975
▁स्तु	-5976
▁त्वरित	-5977
▁सांभाळ	-5978
▁असावी	-5979
▁ब्रे	-5980
▁राहते	-5981
▁दिलेला	-5982
▁परिषदेचे	-5983
▁झाल्यामुळे	-5984
ॉप	-5985
▁थंड	-5986
▁याबाबतची	-5987
▁राज्यसभेत	-5988
▁प्रेक्षकांच्या	-5989
▁लागल्या	-5990
▁पदाधिकारी	-5991
▁पाकिस्तानचा	-5992
▁भौ	-5993
व्हि	-5994
▁कामाला	-5995
▁प्रकरणातील	-5996
▁निमंत्र	-5997
▁मुंबईच्या	-5998
▁मंत्रिमंडळाची	-5999
करीता	-6000
▁जुन्या	-6001
▁झालाय	-6002
▁याचिके	-6003
▁उंच	-6004
ऊस	-6005
▁राहून	-6006
▁नियोजन	-6007
▁आल्याचे	-6008
▁इलेक्ट्र	-6009
▁बहीण	-6010
▁मोफत	-6011
▁जप	-6012
▁प्रमो	-6013
▁झु	-6014
स्तीत	-6015
▁खटला	-6016
▁गोळा	-6017
▁अभिषेक	-6018
▁उद्योज	-6019
▁द्यावा	-6020
▁गम	-6021
▁वाजपेयी	-6022
श्‍वास	-6023
▁झाल्यास	-6024
▁वर्षांत	-6025
▁मुलांच्या	-6026
▁कोळ	-6027
▁महाराष्ट्राचे	-6028
▁मनोज	-6029
▁देवाचा	-6030
▁नावाने	-6031
▁रुपयां	-6032
▁तिकी	-6033
▁तुम्हांला	-6034
णुकी	-6035
▁विस्क	-6036
▁चिदंबरम	-6037
▁शहरा	-6038
▁शेतकऱ्यांच्या	-6039
ऊक	-6040
षमा	-6041
▁रौ	-6042
▁निर्धार	-6043
नेश	-6044
मिथ	-6045
▁35	-6046
▁उंची	-6047
ांनाही	-6048
▁चकमकीत	-6049
▁वैज्ञानिक	-6050
▁पंड	-6051
▁जीबी	-6052
ंकडून	-6053
▁कोठे	-6054
णीच्या	-6055
▁गिरी	-6056
▁सरळ	-6057
▁केव्हा	-6058
▁कॉन्फर	-6059
▁द्यायला	-6060
▁इतिहासात	-6061
▁वर्षांपासून	-6062
स्तव	-6063
▁नमु	-6064
▁त्यातच	-6065
▁रस	-6066
ंपैकी	-6067
▁दिलीप	-6068
▁गांधींनी	-6069
▁सर्वांचे	-6070
▁हित	-6071
▁स्थगिती	-6072
19	-6073
st	-6074
▁पत	-6075
▁मागितली	-6076
▁असल्याचेही	-6077
▁वस्तु	-6078
▁ग्रामस्थ	-6079
ंनो	-6080
▁अॅप	-6081
इत	-6082
▁पिं	-6083
▁यांचं	-6084
▁सत्या	-6085
▁साक्ष	-6086
▁साहाय्य	-6087
▁समस्य	-6088
▁रेक	-6089
▁त्याकडे	-6090
पाक	-6091
निंग	-6092
सेवा	-6093
▁संविधान	-6094
ंसह	-6095
▁26	-6096
▁पाद	-6097
▁नेले	-6098
▁वायू	-6099
▁हिमा	-6100
▁वेगळ्या	-6101
पत्ता	-6102
▁लागतील	-6103
▁धडा	-6104
▁उपनि	-6105
▁मत्त	-6106
▁मार्गदर्शक	-6107
टकार	-6108
▁मुद्द	-6109
▁शकतील	-6110
संती	-6111
ृत्य	-6112
▁वाटेल	-6113
ंपर	-6114
पत्रे	-6115
▁दाखवून	-6116
▁तुझा	-6117
▁मिशन	-6118
▁बाप्तिस्मा	-6119
▁खोटे	-6120
▁एक्स्	-6121
it	-6122
ण्यावर	-6123
▁क्लिक	-6124
▁पोर्ट	-6125
▁रेड्डी	-6126
▁कंपनीने	-6127
▁गुणव	-6128
वावा	-6129
▁अवघड	-6130
▁कुणीही	-6131
▁इब	-6132
क्रिया	-6133
पाच्या	-6134
▁औद्योग	-6135
▁प्रेमळ	-6136
शाळा	-6137
▁मीठ	-6138
▁G	-6139
▁छळ	-6140
▁धन	-6141
▁अद्	-6142
▁आयात	-6143
▁मनोर	-6144
ायची	-6145
भेद	-6146
्यो	-6147
▁जस	-6148
बिया	-6149
माध्यम	-6150
कट	-6151
ॉर्क	-6152
▁मशी	-6153
▁लेखा	-6154
▁राफेल	-6155
▁चाहत	-6156
▁यरुश	-6157
.)	-6158
डन	-6159
वीन	-6160
▁कव	-6161
▁इतक्या	-6162
▁परंपरा	-6163
▁प्रत्येकाला	-6164
शंकर	-6165
णिज्य	-6166
▁रमेश	-6167
▁पोस्टर	-6168
कडेच	-6169
वेळा	-6170
िटणीस	-6171
ाराची	-6172
▁उमट	-6173
▁गोव्या	-6174
▁हळ	-6175
▁अधि	-6176
▁व्हॉट	-6177
▁चंद्रा	-6178
▁फी	-6179
▁जेणे	-6180
▁वर्षांचा	-6181
ळाला	-6182
कांची	-6183
▁नुकतेच	-6184
▁उद्घाटन	-6185
डिंग	-6186
भागीय	-6187
▁रोखण्यासाठी	-6188
▁गांग	-6189
▁नम्र	-6190
▁सेल्	-6191
re	-6192
▁विकासासाठी	-6193
▁चर	-6194
▁विक्र	-6195
▁नेण्यात	-6196
▁उपा	-6197
▁असाच	-6198
▁हेतू	-6199
▁मोहीम	-6200
लोड	-6201
▁नां	-6202
▁क्षम	-6203
▁चक्र	-6204
▁वाहने	-6205
▁देणारे	-6206
▁संसर्ग	-6207
▁आपत्ती	-6208
▁छत्रपती	-6209
दृष्ट	-6210
▁आजवर	-6211
▁परमेश्‍	-6212
▁पाण्यात	-6213
▁साच	-6214
▁होण्याचा	-6215
▁आघाडीवर	-6216
भगिनी	-6217
▁पेत्र	-6218
▁फक्‍त	-6219
▁सुषमा	-6220
▁महासंचा	-6221
▁महत्वपूर्ण	-6222
▁आड	-6223
र्षी	-6224
▁सोय	-6225
▁संघाच्या	-6226
▁आदिवासी	-6227
▁लावण्यात	-6228
लेय	-6229
▁बाजूने	-6230
मोदी	-6231
▁तुट	-6232
▁ट्रेन	-6233
▁श्रद्धा	-6234
▁पाण्याचा	-6235
▁गुंतवणुकी	-6236
▁मनी	-6237
▁पुरावे	-6238
ॉर	-6239
▁प्रसारण	-6240
▁व्यायाम	-6241
▁अटल	-6242
वलेल्या	-6243
▁प्रशंसा	-6244
▁गर्भ	-6245
▁संपु	-6246
▁दाखवले	-6247
ंमुळे	-6248
ण्याचं	-6249
▁अनुकरण	-6250
▁रिंगणात	-6251
▁नसल्याने	-6252
इड	-6253
▁चोख	-6254
▁कोठडी	-6255
▁दुर्घटनेत	-6256
▁2016	-6257
▁याको	-6258
▁स्मिथ	-6259
▁शेवटच्या	-6260
टेज	-6261
▁परिणामी	-6262
▁सुमारास	-6263
▁विधी	-6264
मुख्याने	-6265
▁अवघ	-6266
▁माणसे	-6267
खड	-6268
गीय	-6269
▁बरो	-6270
▁साकारली	-6271
▁हिर	-6272
▁असतानाच	-6273
प्रसंगी	-6274
कर्ष	-6275
वतात	-6276
▁स्टेड	-6277
योगी	-6278
▁उत्साह	-6279
श्‍चित	-6280
▁पश्‍च	-6281
▁राखून	-6282
▁वापरकर्	-6283
▁उत्कृष्ट	-6284
▁विजेते	-6285
▁जवानांनी	-6286
ॅप	-6287
▁रांग	-6288
माच्या	-6289
▁१९८	-6290
▁टेनिस	-6291
▁सर्वजण	-6292
▁निग	-6293
वरच	-6294
्तीय	-6295
▁स्थानी	-6296
▁कार्यात	-6297
▁गायकवाड	-6298
▁जाहिरात	-6299
डीला	-6300
▁कॅन	-6301
▁देवी	-6302
रंगाबाद	-6303
चण	-6304
रोग	-6305
▁मूर्	-6306
▁इत्यादी	-6307
▁निमित्ताने	-6308
▁सैफ	-6309
तातील	-6310
▁वेतन	-6311
▁चुकीचे	-6312
न्ड	-6313
वेष	-6314
▁अँ	-6315
▁हमी	-6316
▁चाचण्या	-6317
शासित	-6318
▁अंबानी	-6319
▁राहण्याची	-6320
ॉय	-6321
▁ऐका	-6322
▁मारा	-6323
▁विशा	-6324
▁समजते	-6325
सच्या	-6326
▁औद्योगिक	-6327
बन	-6328
नाम	-6329
ोने	-6330
बाबतीत	-6331
▁उपासना	-6332
▁मिळालेली	-6333
व्यतिरिक्त	-6334
▁अरे	-6335
▁सॉ	-6336
▁भग	-6337
दिल्ली	-6338
▁श्रेय	-6339
,'	-6340
▁शर्म	-6341
अमे	-6342
▁...	-6343
▁वितरण	-6344
▁रवींद्र	-6345
▁मूर्ती	-6346
▁आहेच	-6347
▁पडणार	-6348
▁विनय	-6349
ऱ्यांनी	-6350
मधे	-6351
▁घो	-6352
▁शब्	-6353
▁योहान	-6354
▁भेटीला	-6355
▁ज्यांना	-6356
▁सख	-6357
▁छत्तीसगड	-6358
▁ठेवण्यासाठी	-6359
▁हॉकी	-6360
▁शिफारस	-6361
▁वेध	-6362
मुक्त	-6363
▁घसरण	-6364
▁आवडते	-6365
▁मास्क	-6366
▁केंद्रित	-6367
▁60	-6368
▁सरच	-6369
▁कपडे	-6370
▁रंगा	-6371
हाच्या	-6372
▁सोडले	-6373
ांविरोधात	-6374
▁थर	-6375
ेश्वर	-6376
▁पक्षात	-6377
▁समाजवादी	-6378
वट	-6379
रूद्ध	-6380
▁घेतो	-6381
नामुळे	-6382
▁स्वस्त	-6383
▁व्यक्तीला	-6384
ंसोबत	-6385
▁सुनि	-6386
▁द्यावी	-6387
▁किमी	-6388
▁अंतराळ	-6389
▁संकेतस्थ	-6390
▁31	-6391
▁टक्क्यां	-6392
▁हस	-6393
▁आजारी	-6394
▁गुप्ता	-6395
▁बायबलमध्ये	-6396
म्य	-6397
▁लसी	-6398
अर्थात	-6399
▁सापडला	-6400
ग्न	-6401
विदा	-6402
▁कृत	-6403
▁घुस	-6404
▁सरदार	-6405
▁पडू	-6406
▁राजन	-6407
▁श्रद्धांजली	-6408
▁त्याचप्रमाणे	-6409
स्ट्री	-6410
▁कुर	-6411
▁सेल	-6412
▁सूर्य	-6413
▁मिळतील	-6414
▁मेरी	-6415
▁समजले	-6416
▁चांगलीच	-6417
▁नाणेफेक	-6418
तेत	-6419
▁जॉन	-6420
▁श्वास	-6421
▁मिश्रा	-6422
▁वाटचाल	-6423
▁प्रामुख्याने	-6424
एका	-6425
झिट	-6426
कालिक	-6427
▁गांगुली	-6428
▁मुलीच्या	-6429
▁३५	-6430
▁सांगता	-6431
▁लाट	-6432
▁त्यांचं	-6433
ंगत	-6434
▁पैश	-6435
▁लिम	-6436
▁यापैकी	-6437
▁कंपन्या	-6438
▁वाटतो	-6439
योग्य	-6440
▁कशाला	-6441
▁नगरसेवक	-6442
ईत	-6443
▁जगभरातील	-6444
▁वित्तीय	-6445
▁विभागाच्या	-6446
▁हवं	-6447
▁अक्षर	-6448
▁रुपयांचे	-6449
क्सी	-6450
▁ओला	-6451
▁बनला	-6452
▁पाचव्या	-6453
▁समर्पित	-6454
▁देणाऱ्या	-6455
दुर्	-6456
सागर	-6457
बाधित	-6458
▁पुनर्	-6459
▁निर्यात	-6460
▁आवडत	-6461
ऱ्यांना	-6462
▁नावाचा	-6463
▁विधानसभेत	-6464
ासमोर	-6465
▁कपात	-6466
सूत्रे	-6467
▁नेमकी	-6468
▁वापरले	-6469
▁अपयश	-6470
▁वेबसा	-6471
▁उपयुक्त	-6472
▁राज्यसभे	-6473
्यातून	-6474
▁भाविक	-6475
य़ात	-6476
▁भगिनी	-6477
▁कोहलीने	-6478
▁रह	-6479
▁शास्त्री	-6480
हल	-6481
▁मेड	-6482
▁चोरट	-6483
नाही	-6484
▁सेने	-6485
▁येशूला	-6486
ापक	-6487
▁बर्	-6488
चार्य	-6489
▁दुकान	-6490
▁व्यापक	-6491
कोट	-6492
▁वय	-6493
िंक्य	-6494
ूम	-6495
मूल	-6496
▁दण	-6497
▁चेहरा	-6498
▁सर्वांत	-6499
▁भोस	-6500
▁नुकतीच	-6501
▁पहिल्याच	-6502
▁कशामुळे	-6503
▁विस्कळीत	-6504
लर्स	-6505
जेव्हा	-6506
▁सरचिटणीस	-6507
▁चित्रपटाला	-6508
▁लघु	-6509
▁नेटवर्	-6510
जास	-6511
वायचे	-6512
▁थोड्या	-6513
▁T	-6514
▁दाखवली	-6515
▁नियंत्रणात	-6516
▁विमानतळावर	-6517
▁वर्षांपूर्वी	-6518
्यान	-6519
▁द्रा	-6520
▁नेमका	-6521
▁प्रदर्शन	-6522
बेल	-6523
विरोध	-6524
ह्य	-6525
▁३७	-6526
▁27	-6527
ामुळे	-6528
ठ्	-6529
ध्दा	-6530
लापूर	-6531
▁बिघड	-6532
▁राजेंद्र	-6533
▁0	-6534
ध्व	-6535
▁टप्पा	-6536
▁शूटिंग	-6537
▁धान	-6538
▁रात्र	-6539
▁सगळ्यांना	-6540
निर्म	-6541
.3	-6542
▁अख्	-6543
एशन	-6544
▁पोच	-6545
कडो	-6546
खित	-6547
ठीक	-6548
▁राधाकृष्ण	-6549
वडील	-6550
▁बंधन	-6551
▁तपासा	-6552
▁देसाई	-6553
▁मोर्चा	-6554
कं	-6555
▁70	-6556
▁सिंधू	-6557
▁भास	-6558
▁500	-6559
▁पंक	-6560
▁१९७	-6561
ार्थी	-6562
▁पाहणी	-6563
▁स्टेट	-6564
▁महाग	-6565
▁प्रकाशन	-6566
▁प्राण्या	-6567
▁एकमेकांना	-6568
▁यांच्याविरोधात	-6569
▁टन	-6570
▁अल्	-6571
▁व्यस्त	-6572
▁पोटनिवड	-6573
▁प्रकारचा	-6574
▁मोहन	-6575
▁यासारख्या	-6576
ro	-6577
▁स्टेडियम	-6578
ंतू	-6579
तीचे	-6580
▁महासंचालक	-6581
▁कबु	-6582
▁कन्या	-6583
▁मर्यादित	-6584
▁मार्गाने	-6585
वाज	-6586
▁पैकी	-6587
▁जिंकली	-6588
▁महानगर	-6589
▁रोम	-6590
▁वाघ	-6591
▁अडचण	-6592
▁छायाचित्र	-6593
तीन	-6594
▁राजे	-6595
▁पसंती	-6596
▁जान	-6597
▁अनंत	-6598
▁व्यास	-6599
▁मोबाइल	-6600
▁अजिंक्य	-6601
जग	-6602
जीवन	-6603
▁सोने	-6604
▁बौ	-6605
▁हवेत	-6606
▁नात्याने	-6607
▁महापालिका	-6608
▁नसतात	-6609
▁पडलेल्या	-6610
▁मस्त	-6611
्ज	-6612
▁बळ	-6613
▁थोडी	-6614
▁लेखी	-6615
▁भाष्य	-6616
▁शाहिद	-6617
▁पुढाकार	-6618
▁दरव	-6619
▁त्याच्याकडे	-6620
▁जेवण	-6621
▁जुळ	-6622
▁अवघ्या	-6623
▁प्रसंगी	-6624
▁महाविद्यालया	-6625
ुटी	-6626
काळात	-6627
▁बलि	-6628
▁बचत	-6629
▁मेगा	-6630
▁एकनाथ	-6631
▁ब्रिट	-6632
▁नावावर	-6633
▁पोलिसांचा	-6634
वडेकर	-6635
▁घेतात	-6636
▁हल्लेख	-6637
▁तेही	-6638
▁दबाव	-6639
▁उन्हा	-6640
टेड	-6641
मुखी	-6642
▁अभियान	-6643
भो	-6644
नियर	-6645
▁चालली	-6646
▁आधारावर	-6647
▁गार	-6648
▁सभापती	-6649
▁तड	-6650
न्‍न	-6651
आरसी	-6652
ेतून	-6653
▁साप	-6654
▁प्रेमा	-6655
▁हस्तक्षेप	-6656
▁परिषदेच्या	-6657
▁देख	-6658
▁द्वारे	-6659
▁जिल्हाधिकारी	-6660
▁खां	-6661
▁तोच	-6662
▁प्राधिक	-6663
▁न्यायालयीन	-6664
▁सभेत	-6665
वाश	-6666
वारा	-6667
▁कसून	-6668
▁चांदी	-6669
▁समितीचे	-6670
▁फेर	-6671
▁सोयी	-6672
दोष	-6673
ल्याचं	-6674
▁पसरली	-6675
▁तज्ज्ञ	-6676
▁जाळ	-6677
▁झपाट	-6678
▁गेलेल्या	-6679
▁बँकेच्या	-6680
▁स्पर्धेतील	-6681
▁धीर	-6682
शिक्ष	-6683
लचा	-6684
भूषण	-6685
ायचा	-6686
यासाठी	-6687
▁कृष्ण	-6688
▁खुप	-6689
▁घडा	-6690
▁समार	-6691
▁दरवर्षी	-6692
▁स्थापने	-6693
▁चित्रपटातून	-6694
▁उपचारादरम्यान	-6695
-20	-6696
▁फेक	-6697
▁फॉर्म	-6698
लिश	-6699
सीबी	-6700
▁मागण्या	-6701
▁क्रमवारीत	-6702
▁एक्स्प्रेस	-6703
▁पंचा	-6704
▁समन्	-6705
▁खराब	-6706
▁यावी	-6707
▁पुण्यात	-6708
पाचा	-6709
▁सर्वसामान्य	-6710
▁मंत्रालयाच्या	-6711
▁कमि	-6712
▁ठाऊक	-6713
ातल्या	-6714
▁क्षमा	-6715
ानु	-6716
▁प्राध्या	-6717
▁उपनिरीक्षक	-6718
त्वे	-6719
▁मेळा	-6720
▁कुठलीही	-6721
▁अनेकांनी	-6722
▁सुवर्णपदक	-6723
िड	-6724
नंजय	-6725
▁मृत्यूची	-6726
ंकाळी	-6727
▁महत्वाचा	-6728
▁कदम	-6729
गेल्या	-6730
▁उत्तराखंड	-6731
पार	-6732
▁बाग	-6733
▁हरियाणा	-6734
▁डोळ	-6735
▁फाइल	-6736
रीय	-6737
ूकी	-6738
▁सब	-6739
मंडळ	-6740
▁बोलू	-6741
वृष्टी	-6742
▁विश्र	-6743
▁नीतिसूत्रे	-6744
लाग	-6745
▁लॅ	-6746
देशिक	-6747
▁मानतो	-6748
▁लीग	-6749
▁ठेवणे	-6750
समा	-6751
्य़	-6752
▁नाम	-6753
▁अपहर	-6754
▁फ्रेंच	-6755
▁सायंकाळी	-6756
▁त्यांच्यासाठी	-6757
▁मंत्रिमंडळाने	-6758
णसी	-6759
▁धरण	-6760
▁माना	-6761
▁करीता	-6762
▁वेळेत	-6763
निर्माण	-6764
बंद	-6765
ारीक	-6766
▁मॉड	-6767
▁ग्राहकांना	-6768
हेत	-6769
▁प्ले	-6770
▁लेखात	-6771
▁सिद्धार्थ	-6772
▁संध्याकाळी	-6773
ांपर्यंत	-6774
▁दोघी	-6775
▁कर्कर	-6776
▁परमेश्वरा	-6777
▁अवस्थेत	-6778
▁स्थितीत	-6779
गाच्या	-6780
▁डॉलर्स	-6781
▁येण्याची	-6782
▁महामार्गावर	-6783
▁ऐकले	-6784
▁भरवसा	-6785
जासत्ता	-6786
▁आरक्षण	-6787
▁गांभीर	-6788
▁चीनच्या	-6789
▁किश	-6790
▁फसवणूक	-6791
ग्रहा	-6792
▁वचना	-6793
ंद्रीय	-6794
▁एफआयआर	-6795
शास्त्रा	-6796
▁कार्यालयात	-6797
बू	-6798
▁विल	-6799
▁येणे	-6800
क्षेत्र	-6801
▁रेकॉर्ड	-6802
▁औरंगाबाद	-6803
ct	-6804
▁भेद	-6805
आरपीएफ	-6806
नमध्ये	-6807
▁लिमिट	-6808
▁आक्रमक	-6809
▁पहिलाच	-6810
शेत	-6811
साचा	-6812
ंगापूर	-6813
▁सर्व्ह	-6814
चीही	-6815
▁जरी	-6816
▁कामकाज	-6817
▁आपल्यावर	-6818
नाखाली	-6819
वण्याचे	-6820
▁कृत्ये	-6821
▁अर्थाने	-6822
▁सलामीवीर	-6823
होय	-6824
▁प्रतिमा	-6825
▁पालकांनी	-6826
▁संपर्कात	-6827
▁शिवसेनेने	-6828
▁कॉंग्रेसचे	-6829
ॉड	-6830
▁पांड	-6831
▁फूट	-6832
▁इंधन	-6833
▁वर्षाच्या	-6834
▁समितीच्या	-6835
ंभा	-6836
▁वाहून	-6837
▁कुठेही	-6838
▁देशाचा	-6839
▁मिळतात	-6840
पोलिसांनी	-6841
▁बल	-6842
▁बोलले	-6843
▁अनुदान	-6844
▁ज्यामध्ये	-6845
▁रौप्य	-6846
▁विधानसभेच्या	-6847
सायन	-6848
यांचा	-6849
).	-6850
▁2014	-6851
▁बंधु	-6852
▁अभिनय	-6853
di	-6854
▁धनंजय	-6855
राध	-6856
▁आभ	-6857
ोपाठ	-6858
▁सांगितली	-6859
▁शेतकऱ्यांचे	-6860
▁अशाच	-6861
▁शाखे	-6862
ण्याला	-6863
▁म्हणू	-6864
▁चालला	-6865
▁३२	-6866
▁समी	-6867
▁बायको	-6868
दोन	-6869
▁लगा	-6870
▁करणाऱ	-6871
ंदन	-6872
इंड	-6873
▁ब्रिटिश	-6874
▁अनुप	-6875
▁लोकांमध्ये	-6876
▁किन	-6877
▁एखादा	-6878
▁चॅम्प	-6879
▁तिकीट	-6880
▁शॉ	-6881
▁तुम्हा	-6882
▁पथकाने	-6883
याशिवाय	-6884
सेफ	-6885
ीचा	-6886
▁नव्याने	-6887
▁लिमिटेड	-6888
▁पंतप्रधानांच्या	-6889
संच	-6890
पाणी	-6891
▁आल्याने	-6892
▁शपथविधी	-6893
▁मंत्रिमंडळ	-6894
कच्या	-6895
▁खर्चा	-6896
▁सहायक	-6897
▁थक	-6898
शियन	-6899
▁मोहिमे	-6900
▁महिलेने	-6901
▁पांढ	-6902
▁शर्य	-6903
पुणे	-6904
▁बिग	-6905
▁देखरे	-6906
▁विशेषतः	-6907
▁महाजन	-6908
▁शेकडो	-6909
▁मनोवृत्ती	-6910
खोरी	-6911
ासार	-6912
▁हृद	-6913
▁१९४	-6914
▁दारू	-6915
▁रिया	-6916
▁सारख्या	-6917
ुती	-6918
ब्ल	-6919
▁सुधीर	-6920
ांविषयी	-6921
▁मैदानात	-6922
▁खू	-6923
▁पुस्तके	-6924
▁नुकत्याच	-6925
▁देवगण	-6926
▁नाराज	-6927
▁पारित	-6928
न्यायाधीश	-6929
धु	-6930
फळ	-6931
▁तब	-6932
▁नकोस	-6933
▁कमांड	-6934
▁सोहळा	-6935
▁वाणिज्य	-6936
▁कच्	-6937
▁राजीना	-6938
▁निवृत्त	-6939
▁पक्षाला	-6940
ैर्य	-6941
▁तृण	-6942
▁विझ	-6943
▁वैशिष्ट्ये	-6944
▁घडू	-6945
▁अडचणीत	-6946
▁भाजपकडून	-6947
▁स्टी	-6948
▁सत्तेत	-6949
▁मैदानावर	-6950
विणे	-6951
▁अमेरिकेतील	-6952
▁संग	-6953
यॉर्क	-6954
ारे	-6955
िणी	-6956
▁रिक	-6957
तर्फे	-6958
▁फुटेज	-6959
▁सीतारामन	-6960
▁चिन्ह	-6961
▁उदाहरणे	-6962
ुरु	-6963
िर्म	-6964
▁शुभ	-6965
▁डावात	-6966
▁गोड	-6967
ेमध्ये	-6968
▁निराशा	-6969
▁बेपत्ता	-6970
▁संख्येत	-6971
टीने	-6972
▁कर्जा	-6973
▁व्हॉट्स	-6974
▁घालण्यात	-6975
▁कार्यकर्त	-6976
-0	-6977
▁६०	-6978
लाचे	-6979
▁दाद	-6980
▁ध्व	-6981
▁ह्‍या	-6982
▁आजपर्यंत	-6983
▁प्रजासत्ता	-6984
परेशन	-6985
र्व्ह	-6986
▁क्लि	-6987
▁निवेदन	-6988
उंट	-6989
▁सापडले	-6990
▁जास्तीत	-6991
बॉ	-6992
त्थ	-6993
▁वेदना	-6994
▁पहिलीच	-6995
खळी	-6996
▁इंडियाचा	-6997
▁भ्रष्टाचार	-6998
▁महिने	-6999
▁सन्मानित	-7000
▁प्रश्नांची	-7001
▁अटी	-7002
▁घडामो	-7003
▁पार्क	-7004
▁खबरदारी	-7005
▁अधिकाऱ्यांना	-7006
वाट	-7007
ोदर	-7008
▁धू	-7009
▁रजनी	-7010
▁विचारात	-7011
▁भवन	-7012
▁सराव	-7013
नाकडून	-7014
▁बौद्ध	-7015
▁कुलदीप	-7016
▁प्रादेशिक	-7017
▁कंगना	-7018
▁ध्येय	-7019
▁यहूदा	-7020
▁परिपूर्ण	-7021
▁आर्	-7022
▁ज्यांनी	-7023
▁शास्त्रव	-7024
रिज	-7025
▁फ्	-7026
वेअर	-7027
▁गाणी	-7028
▁सूचित	-7029
▁चालणार	-7030
▁चित्रपटाने	-7031
▁एखादी	-7032
▁काराग	-7033
▁आत्मविश्वास	-7034
सेने	-7035
▁ढकल	-7036
▁सारे	-7037
▁नावाची	-7038
▁जावडेकर	-7039
▁महिलांच्या	-7040
▁नित	-7041
्यांत	-7042
▁चालले	-7043
▁मुकेश	-7044
▁सांगते	-7045
▁ठो	-7046
्रोत	-7047
▁इमारत	-7048
▁घरातील	-7049
▁सांगून	-7050
▁गुजरातमध्ये	-7051
शिक	-7052
▁आलाय	-7053
▁बद्दल	-7054
▁शालेय	-7055
▁आश्र	-7056
▁मिसर	-7057
▁जायचे	-7058
▁विवेक	-7059
वने	-7060
▁मासे	-7061
▁सेंट	-7062
मेक	-7063
दृष्ट्या	-7064
▁उत्पादक	-7065
▁प्रमाणपत्र	-7066
▁ईयो	-7067
▁मंग	-7068
क्ष्म	-7069
▁घेण्या	-7070
▁स्तुती	-7071
▁नसा	-7072
नेस	-7073
▁तरतु	-7074
स्को	-7075
▁शोष	-7076
▁सेना	-7077
▁विमाना	-7078
▁स्पष्टपणे	-7079
▁80	-7080
▁हरव	-7081
▁पुस्तकात	-7082
▁जंग	-7083
▁उत्सव	-7084
▁राहावे	-7085
▁किरण	-7086
▁शहरी	-7087
पया	-7088
▁माज	-7089
▁बनाव	-7090
▁पार्थ	-7091
▁केल्याची	-7092
▁निर्णयाला	-7093
▁सिनेमाच्या	-7094
▁D	-7095
फ्रे	-7096
▁निश्‍चित	-7097
म्हणूनच	-7098
▁सीबीआयने	-7099
ांडे	-7100
यच्या	-7101
संदर्भातील	-7102
▁पाठविण्यात	-7103
दीय	-7104
▁ग्रे	-7105
▁राणी	-7106
▁देशातल्या	-7107
▁इलेक्ट्रॉन	-7108
.2	-7109
डाख	-7110
्मक	-7111
▁फौ	-7112
▁ठीक	-7113
▁दुख	-7114
▁असूनही	-7115
▁आमच्याकडे	-7116
▁टक्क्यांनी	-7117
बाय	-7118
िकट	-7119
▁आठवणी	-7120
पदासाठी	-7121
ताला	-7122
▁मुलीला	-7123
▁धोकादायक	-7124
▁लढतीत	-7125
▁निर्बंध	-7126
▁यासंबंधी	-7127
▁गांभीर्याने	-7128
▁न्यायालयाचे	-7129
▁कर्तव्य	-7130
50	-7131
▁तट	-7132
▁लखन	-7133
▁अब्राहा	-7134
▁श्रीनगर	-7135
व्वा	-7136
सळून	-7137
▁हिने	-7138
▁वाराणसी	-7139
▁तरीसुद्धा	-7140
▁जाण्यासाठी	-7141
लाची	-7142
▁अंक	-7143
▁पडतो	-7144
▁नेत्या	-7145
▁उत्सुकता	-7146
▁देशभरातील	-7147
▁विश्रांती	-7148
.1	-7149
▁पालिक	-7150
▁पुरेसे	-7151
▁सैताना	-7152
▁हल्ल्यानंतर	-7153
शाचे	-7154
नान	-7155
▁भय	-7156
▁भरून	-7157
▁स्टो	-7158
▁बुद्धी	-7159
▁स्थलांतर	-7160
▁पृथ्वीराज	-7161
▁कमाल	-7162
टुंबिक	-7163
वेळ	-7164
▁धाड	-7165
▁यशया	-7166
▁कारकि	-7167
▁पाठलाग	-7168
▁सुट्टी	-7169
▁पाकिस्तानात	-7170
▁वाचन	-7171
▁कबुली	-7172
मुक	-7173
र्णी	-7174
▁कंट	-7175
ष्टात	-7176
▁माध्य	-7177
▁गोष्टींचा	-7178
▁चित्रपटसृष्टी	-7179
फु	-7180
▁W	-7181
....	-7182
शिंग	-7183
▁खऱ्‍या	-7184
▁सातारा	-7185
▁अस्वस्थ	-7186
▁राखी	-7187
▁चौघ	-7188
जिल	-7189
▁शरीफ	-7190
▁सखोल	-7191
▁चारही	-7192
▁बऱ्‍या	-7193
▁१९६	-7194
फि	-7195
▁तिर	-7196
▁होईपर्यंत	-7197
यंकर	-7198
▁द्वेष	-7199
▁लिहून	-7200
आयए	-7201
टके	-7202
धर्म	-7203
▁१९५	-7204
▁गौतम	-7205
▁यंत्रणे	-7206
▁लोकसंख्य	-7207
and	-7208
▁पद्म	-7209
▁मतभेद	-7210
▁वाढत्या	-7211
▁काश्मीरमध्ये	-7212
ंही	-7213
कीस	-7214
न्सर	-7215
▁ठळक	-7216
फॉर्म	-7217
▁जेथे	-7218
▁सकाळ	-7219
▁मालकी	-7220
▁वाहिली	-7221
▁केंद्रात	-7222
▁संकल्पना	-7223
▁क्रिकेटमध्ये	-7224
तच	-7225
भाई	-7226
▁प्रस	-7227
▁बेकाय	-7228
▁वर्मा	-7229
्टर	-7230
▁शिकवण	-7231
त्ति	-7232
माफी	-7233
शाला	-7234
▁उंचा	-7235
▁नौदला	-7236
रुप	-7237
▁अहवालात	-7238
▁देशांनी	-7239
लित	-7240
▁गाणे	-7241
▁सर्वेक्षण	-7242
साचे	-7243
षिक्‍त	-7244
▁अगोदर	-7245
▁कांदा	-7246
त्ना	-7247
▁असाल	-7248
तेसाठी	-7249
▁फिर्याद	-7250
वाढ	-7251
▁लालू	-7252
▁मालमत्ता	-7253
्यूट	-7254
▁ठिक	-7255
▁२०१४	-7256
▁राज्ये	-7257
▁त्यामुळं	-7258
▁पानांवरील	-7259
बोल	-7260
▁उष्ण	-7261
▁उत्ते	-7262
▁वडिलांनी	-7263
लाचा	-7264
▁संघटनेने	-7265
पुढ	-7266
▁बळकट	-7267
▁कोटींची	-7268
▁यंदाच्या	-7269
प्पट	-7270
▁जोडणी	-7271
▁राज्याचा	-7272
▁पोलिसांची	-7273
▁शवविच्छेदनासाठी	-7274
▁खाद्य	-7275
▁जबरदस्त	-7276
▁श्रीलंका	-7277
पचार	-7278
▁हार	-7279
▁सभागृहात	-7280
ायचं	-7281
िकार	-7282
▁उपकर	-7283
ममध्ये	-7284
▁सेंटर	-7285
▁राज्यां	-7286
▁सश	-7287
▁मले	-7288
▁पिता	-7289
्यामध्ये	-7290
▁दिल्यानंतर	-7291
▁कण	-7292
▁टाकून	-7293
▁प्रभु	-7294
गडा	-7295
वर्ग	-7296
▁मंडळीत	-7297
पहि	-7298
स्थापित	-7299
▁घोटाळा	-7300
▁साकारणार	-7301
▁संपुष्टात	-7302
छा	-7303
रुण	-7304
▁गरजा	-7305
▁पडून	-7306
ुरा	-7307
क्सि	-7308
▁याजक	-7309
▁फेटाळली	-7310
▁भारतासाठी	-7311
▁अभ्यासक्रम	-7312
▁मुर	-7313
▁साह	-7314
▁उड्डाण	-7315
▁विरोधकांनी	-7316
▁वीर	-7317
प्रथम	-7318
▁कचरा	-7319
.4	-7320
ैतिक	-7321
▁अख्तर	-7322
▁निदान	-7323
कूल	-7324
चाली	-7325
▁जणू	-7326
▁निरी	-7327
▁तरतुदी	-7328
▁है	-7329
▁नोंदवला	-7330
▁निष्कर्ष	-7331
▁प्रसिद्धी	-7332
▁चित्रपटामध्ये	-7333
तेला	-7334
▁सौदी	-7335
▁केलीय	-7336
▁संतोष	-7337
▁तिवारी	-7338
▁पोलिसांकडे	-7339
▁मजा	-7340
▁अर्थातच	-7341
▁गव्ह	-7342
▁मोदींवर	-7343
दृष्टी	-7344
▁प्राय	-7345
▁होणारा	-7346
शै	-7347
ळला	-7348
▁भुज	-7349
▁मेहता	-7350
▁जीवनावर	-7351
▁नातेसंबंध	-7352
▁श्रीदेवी	-7353
▁देण्याच्या	-7354
स्टी	-7355
▁कुलक	-7356
▁क्रे	-7357
▁सांगली	-7358
व्यवस्था	-7359
िंच	-7360
▁कमल	-7361
▁शाखा	-7362
▁काळातील	-7363
▁दोघांची	-7364
▁दोघांमध्ये	-7365
पणी	-7366
▁29	-7367
पुरा	-7368
▁खात्यात	-7369
ियो	-7370
▁होणारे	-7371
▁पदुकोण	-7372
▁घडामोडी	-7373
▁व्यवस्थित	-7374
▁मिळवण्यासाठी	-7375
▁झळ	-7376
▁नेमक	-7377
om	-7378
▁नेहरू	-7379
▁लवकरात	-7380
शिप	-7381
▁बुम	-7382
▁कष्ट	-7383
▁त्रुटी	-7384
▁दुकाने	-7385
▁रिपोर्ट	-7386
▁आपापल्या	-7387
▁लोकसभेच्या	-7388
तंय	-7389
ार्क	-7390
▁करायचं	-7391
▁शब्दांत	-7392
▁पुनरुत्थ	-7393
▁विद्यापीठा	-7394
▁अचूक	-7395
▁बाधित	-7396
▁धोरणात	-7397
चिन्ह	-7398
गढ	-7399
चार्ज	-7400
▁संच	-7401
▁एवढी	-7402
ांबाबत	-7403
▁सुरळीत	-7404
▁कुलकर्णी	-7405
▁कौटुंबिक	-7406
▁हरया	-7407
▁साकारत	-7408
विण्याचा	-7409
▁याचं	-7410
▁शकली	-7411
लायन्स	-7412
▁अन्या	-7413
आयएम	-7414
ॉम	-7415
▁पडता	-7416
▁असंख्य	-7417
▁बातम्या	-7418
▁सांगतात	-7419
▁प्रधानमंत्री	-7420
चंद	-7421
▁भयंकर	-7422
▁झाडे	-7423
आमच्या	-7424
केंद्रीय	-7425
▁मतदारसंघा	-7426
▁दृष्टीको	-7427
▁मुलाखतीत	-7428
ुण	-7429
ार्ड	-7430
▁बारीक	-7431
▁बाबासाहेब	-7432
▁वृत्तसंस्था	-7433
जर्स	-7434
न्से	-7435
शाचा	-7436
▁अभिषिक्‍त	-7437
ंचं	-7438
जन्य	-7439
ित्रा	-7440
टीच्या	-7441
▁निराश	-7442
▁दुर्दै	-7443
▁पोहोचली	-7444
▁संदेष्ट	-7445
▁मार्गदर्शनाखाली	-7446
ळम	-7447
ेकर	-7448
ज्ञा	-7449
▁वर्षांची	-7450
▁भारताकडून	-7451
फिक	-7452
न्सा	-7453
▁अडथळा	-7454
▁पहाटे	-7455
▁जाण्याचा	-7456
',	-7457
बिनेट	-7458
समवेत	-7459
▁अभिव	-7460
स्पर्	-7461
▁उघ	-7462
कांचा	-7463
▁विश्ले	-7464
▁परिवर्तन	-7465
श्वत	-7466
▁तीच	-7467
यांचे	-7468
▁माया	-7469
▁पूर्वे	-7470
▁प्रलंबित	-7471
िवार	-7472
▁ऑफिसवर	-7473
▁कतर	-7474
रीत्या	-7475
हरी	-7476
न्सी	-7477
▁लेखन	-7478
▁इंस्ट	-7479
▁उर्जा	-7480
▁निवडा	-7481
▁दुर्घटना	-7482
▁मदतीसाठी	-7483
et	-7484
▁जवा	-7485
▁शमी	-7486
▁बाजी	-7487
▁केलंय	-7488
▁महत्वाच्या	-7489
पादन	-7490
▁फर्	-7491
ांहून	-7492
▁हिवा	-7493
▁कारकी	-7494
▁ग्रंथ	-7495
▁मांडले	-7496
▁कुटुंबात	-7497
▁दीड	-7498
▁कंटा	-7499
▁आपणास	-7500
▁शास्त्रज्ञ	-7501
▁थां	-7502
▁बाबत	-7503
▁इराणी	-7504
▁ऑपरेशन	-7505
कार्	-7506
▁आणून	-7507
▁ज्यो	-7508
▁असोसि	-7509
▁सैतान	-7510
▁कोठडीत	-7511
▁लक्षणीय	-7512
▁विषयांवर	-7513
स्सा	-7514
मार्ग	-7515
लेल	-7516
ल्लक	-7517
दर्शन	-7518
सिद्ध	-7519
▁बंगालमध्ये	-7520
▁सास	-7521
▁अपमान	-7522
▁दृश्य	-7523
▁बॅटरी	-7524
▁हल्लेखोर	-7525
▁केंद्रशासित	-7526
नेल	-7527
रीस	-7528
जाती	-7529
त्वन	-7530
▁बोलणे	-7531
▁विशेषत	-7532
▁हिमाचल	-7533
▁ओडि	-7534
▁गंगा	-7535
▁मालक	-7536
▁भरती	-7537
▁विश्वचष	-7538
▁गत	-7539
▁तल	-7540
▁परीक्षे	-7541
▁आत्तापर्यंत	-7542
संघ	-7543
▁थे	-7544
▁दलित	-7545
▁वारसा	-7546
▁त्याप्रमाणे	-7547
▁महाराष्ट्राच्या	-7548
▁पंत	-7549
स्पती	-7550
▁दुहेरी	-7551
▁कर्मचाऱ्यांना	-7552
▁दिल	-7553
▁आसपास	-7554
▁महिलेला	-7555
ट्र	-7556
▁आराम	-7557
▁स्तर	-7558
▁फारसा	-7559
३०	-7560
सला	-7561
▁तितके	-7562
▁न्यूज	-7563
▁राहणे	-7564
नाग	-7565
▁सक	-7566
▁सॅ	-7567
च्चार	-7568
▁बनवले	-7569
▁स्पर्धेच्या	-7570
धारक	-7571
▁होणारी	-7572
▁व्हे	-7573
▁संसदीय	-7574
▁कुठलाही	-7575
तुल	-7576
वेन	-7577
▁काळी	-7578
ऱ्यावर	-7579
▁इथल्या	-7580
प्रत्येक	-7581
▁यांनाही	-7582
▁न्यायालय	-7583
▁कारकिर्दी	-7584
▁जाणे	-7585
▁बदलत	-7586
▁देशासाठी	-7587
▁E	-7588
याच	-7589
यातील	-7590
▁आराख	-7591
▁मुळी	-7592
▁सेवेत	-7593
▁चौकशीचे	-7594
▁रहिवासी	-7595
▁अपघातानंतर	-7596
▁मुख्यमंत्रि	-7597
▁रित	-7598
▁षटकार	-7599
▁यांसारख्या	-7600
ूड	-7601
▁कन्न	-7602
ह्	-7603
्यास	-7604
मागील	-7605
▁भाजपाने	-7606
▁महिलेचा	-7607
▁सीआरपीएफ	-7608
▁सांगितल्या	-7609
ँच	-7610
ारीत	-7611
▁ट्रॅ	-7612
▁भुजबळ	-7613
▁पाहण्यासाठी	-7614
▁दलाने	-7615
▁वाटलं	-7616
▁आवृत्ती	-7617
▁सांत्वन	-7618
क्रो	-7619
▁जेणेकरून	-7620
▁राहात	-7621
▁बऱ्‍याच	-7622
बाजू	-7623
ेपणा	-7624
▁खोल	-7625
▁आईवडिला	-7626
▁न्यूयॉर्क	-7627
णामध्ये	-7628
ांबरोबर	-7629
जोरा	-7630
▁श्रेणी	-7631
▁सरन्यायाधीश	-7632
ंबद्दल	-7633
▁बेरोज	-7634
▁इच्छितो	-7635
▁प्रतिनिधित	-7636
PL	-7637
ांस	-7638
▁माफ	-7639
▁आदमी	-7640
▁किमती	-7641
▁शब्दा	-7642
▁कांस्य	-7643
▁चहा	-7644
▁वृक्ष	-7645
▁तत्कालीन	-7646
▁औषधे	-7647
▁इब्री	-7648
▁नृत्य	-7649
▁भरपाई	-7650
पदाच्या	-7651
▁आलंय	-7652
▁गुलाम	-7653
▁स्वर्	-7654
वनेश्वर	-7655
▁दुजोरा	-7656
▁खेळत	-7657
▁२०१९	-7658
▁ग्रुप	-7659
▁दाखवला	-7660
▁नागरिकांच्या	-7661
गोल	-7662
▁देण	-7663
▁काश्	-7664
ित्व	-7665
▁अंत्य	-7666
▁विद्युत	-7667
▁कर्जमाफी	-7668
खं	-7669
उत्तर	-7670
▁कमाली	-7671
पै	-7672
▁c	-7673
▁अस्थ	-7674
▁वृत्	-7675
▁साजरी	-7676
▁स्वरू	-7677
▁यावर्षी	-7678
▁सुनावली	-7679
▁राजकुमार	-7680
”,	-7681
▁ठरू	-7682
िमंडळ	-7683
▁मूल्या	-7684
▁समारंभ	-7685
सच	-7686
▁किशोर	-7687
▁वंचित	-7688
▁त्याच्याशी	-7689
99	-7690
▁पीक	-7691
▁कमतर	-7692
▁मिनिट	-7693
▁दुप्पट	-7694
▁चमत्कार	-7695
▁सोलापूर	-7696
एमसी	-7697
▁आणी	-7698
▁सान	-7699
▁जनतेने	-7700
राय	-7701
▁विप	-7702
▁दोघांनाही	-7703
▁इंडियाच्या	-7704
▁कार्यक्रमाचे	-7705
▁समजत	-7706
▁पुढीलप्रमाणे	-7707
▁ऑस्ट्रेलियाचा	-7708
▁इन्स्टाग्रामवर	-7709
स्‍	-7710
अनेक	-7711
▁लाज	-7712
▁मराठा	-7713
▁सगळेच	-7714
▁गावातील	-7715
▁भाजपाला	-7716
डले	-7717
▁लाठी	-7718
▁दाखवा	-7719
▁सतर्क	-7720
वेदनशील	-7721
▁याप्रकर	-7722
▁कॉल	-7723
▁कधीकधी	-7724
▁मिश्रण	-7725
▁दुष्काळ	-7726
▁जनतेच्या	-7727
▁कागदपत्रे	-7728
सक	-7729
▁३३	-7730
▁मेगाप	-7731
▁परीक्षण	-7732
▁फेटाळला	-7733
▁प्रजासत्ताक	-7734
▁जळ	-7735
▁इति	-7736
▁गौर	-7737
▁हाऊस	-7738
▁समाजात	-7739
▁गुणवत्ता	-7740
▁निमंत्रण	-7741
शात	-7742
▁टॉमला	-7743
▁सर्वसाधारण	-7744
निधी	-7745
▁सिटी	-7746
स्थितीत	-7747
▁कॅबिनेट	-7748
il	-7749
▁अश्र	-7750
▁टीके	-7751
▁नक्ष	-7752
▁घडल्या	-7753
▁वनस्पती	-7754
चेल	-7755
▁सई	-7756
ट्या	-7757
▁मुळे	-7758
▁घातले	-7759
▁माघार	-7760
▁निर्दोष	-7761
▁एज	-7762
▁पौल	-7763
▁झालेत	-7764
▁असणारे	-7765
▁रेल्वेच्या	-7766
▁राज्यांच्या	-7767
परिष	-7768
ुल्ला	-7769
▁अंगा	-7770
▁पडेल	-7771
▁लागण	-7772
▁पारितोष	-7773
स्वर	-7774
▁सवय	-7775
▁इटली	-7776
▁संगी	-7777
▁सोनम	-7778
त्याचा	-7779
▁मत्तय	-7780
▁लागून	-7781
पीए	-7782
▁32	-7783
वर्ड	-7784
▁जगाला	-7785
▁पाहिला	-7786
थि	-7787
ब्लिक	-7788
▁निरो	-7789
▁परीक्ष	-7790
▁यांच्याकडून	-7791
्रीन	-7792
▁पदाचा	-7793
▁बिहारचे	-7794
येशू	-7795
▁ज्याला	-7796
▁वर्तमान	-7797
ुड	-7798
ैव	-7799
▁रजनीकांत	-7800
▁अध्यक्षपदी	-7801
जमान	-7802
▁झाडा	-7803
▁अनुया	-7804
▁कृपया	-7805
▁स्थायी	-7806
▁वृत्ती	-7807
▁मुलांचा	-7808
▁सिनेमाची	-7809
▁प्राध्यापक	-7810
दिन	-7811
▁हसन	-7812
देशातील	-7813
▁चांगलं	-7814
▁शक्‍ती	-7815
▁डेव्हिड	-7816
▁स्टार्ट	-7817
▁इन्स्टिट	-7818
हाना	-7819
स्तरीय	-7820
ामध्ये	-7821
▁मधुमे	-7822
▁बजावली	-7823
▁स्वतःचे	-7824
▁उमेदवारांची	-7825
▁खालीलप्रमाणे	-7826
वाहि	-7827
▁सवल	-7828
▁उशिरापर्यंत	-7829
स्टे	-7830
ाराम	-7831
▁तालुका	-7832
▁सर्वकाही	-7833
▁डिझेलच्या	-7834
▁धड	-7835
▁माध	-7836
▁अर्धशत	-7837
▁असायला	-7838
▁इंडियन्स	-7839
▁करण्याबाबत	-7840
ळण	-7841
वश्यक	-7842
▁गुरू	-7843
▁जगाच्या	-7844
▁यरुशलेम	-7845
▁प्रसारमाध्यम	-7846
▁कैफ	-7847
▁येण्या	-7848
▁पोहोचला	-7849
ॉजी	-7850
▁कृष्	-7851
▁भौतिक	-7852
विरूद्ध	-7853
.0	-7854
▁पॅन	-7855
▁चिनी	-7856
▁२०१६	-7857
भरा	-7858
श्या	-7859
▁खड्	-7860
▁चळव	-7861
▁लक्ष्मी	-7862
▁इर	-7863
शाची	-7864
▁साम्रा	-7865
▁प्रतिनिधित्व	-7866
शाळ	-7867
▁फायन	-7868
▁तृणमूल	-7869
▁मनुष्यबळ	-7870
▁सिंगापूर	-7871
▁दिवसांच्या	-7872
▁दिनानिमित्त	-7873
▁दुब	-7874
▁काढली	-7875
▁कार्त	-7876
▁दिवसांपूर्वीच	-7877
▁सनी	-7878
▁खानने	-7879
▁गी	-7880
▁फौज	-7881
▁नकारात्मक	-7882
▁गीत	-7883
ांवरून	-7884
▁दिसतात	-7885
▁संस्थापक	-7886
▁पृथ्वीवरील	-7887
?”	-7888
▁बिल	-7889
कांचे	-7890
विचार	-7891
▁आईला	-7892
▁वाटू	-7893
▁घेतील	-7894
▁वनडे	-7895
▁वरुण	-7896
▁शब्दात	-7897
▁केल्यावर	-7898
▁दहशतवाद्यांना	-7899
हाचे	-7900
▁सुरक्ष	-7901
पल	-7902
रिस	-7903
िंथ	-7904
▁७०	-7905
वण्या	-7906
▁रोजग	-7907
▁टाकला	-7908
▁दिसले	-7909
▁मुळात	-7910
▁घु	-7911
▁वायु	-7912
▁चौकशीसाठी	-7913
यता	-7914
▁चव	-7915
▁ऐश्वर	-7916
▁कारणा	-7917
▁केल्याबद्दल	-7918
झो	-7919
▁कोणीच	-7920
▁शेजारी	-7921
दुस	-7922
▁आजी	-7923
▁शां	-7924
रुध्द	-7925
▁वाढू	-7926
▁दुखापती	-7927
▁प्रादुर्	-7928
▁भाषांमध्ये	-7929
▁व्यतिरिक्त	-7930
▁परमेश्वराच्या	-7931
▁नेटवर्क	-7932
▁असोसिएशन	-7933
ोटी	-7934
▁कारखान	-7935
▁संदर्भ	-7936
▁निर्माता	-7937
▁चलन	-7938
▁कबूल	-7939
▁सीमेवर	-7940
पळ	-7941
ुद्ध	-7942
▁उभी	-7943
▁चित्रीकरण	-7944
ंबीर	-7945
▁लाँच	-7946
केंद्र	-7947
▁आरोपींचा	-7948
▁75	-7949
▁तिघे	-7950
▁भव्य	-7951
▁भूषण	-7952
▁मिलि	-7953
▁लगेचच	-7954
▁शाश्वत	-7955
▁अंतरावर	-7956
▁याचिकेवर	-7957
▁प्रदेशच्या	-7958
▁वाटप	-7959
▁विदेशी	-7960
ईस	-7961
▁जाणारे	-7962
▁भूकं	-7963
▁थोरात	-7964
▁माणसाला	-7965
िसू	-7966
रेकर	-7967
▁उघडकीस	-7968
▁तिघांना	-7969
▁चिंताजनक	-7970
▁भागांमध्ये	-7971
▁U	-7972
न्यू	-7973
लाने	-7974
रक्षण	-7975
▁2022	-7976
▁साखळी	-7977
▁सेलिब	-7978
▁खोट्या	-7979
▁आणण्यात	-7980
▁विभागीय	-7981
▁योजनेअंतर्गत	-7982
id	-7983
अस	-7984
िमे	-7985
▁रेड	-7986
▁हर्षवर्धन	-7987
चून	-7988
▁स्रोत	-7989
▁दिवंगत	-7990
▁अधिकार्‍या	-7991
एनयू	-7992
ाराचे	-7993
▁डिस्	-7994
▁पायलट	-7995
▁कराराला	-7996
▁घेतल्यानंतर	-7997
▁मंत्रिमंडळाच्या	-7998
▁आणला	-7999
▁बसून	-8000
▁करिंथ	-8001
▁प्रशांत	-8002
▁वेगवेगळे	-8003
▁मार्गावरील	-8004
दात	-8005
▁इथं	-8006
सलमान	-8007
▁मॉडेल	-8008
▁घालावे	-8009
▁शर्माने	-8010
वडी	-8011
▁निया	-8012
▁ओलांड	-8013
▁यात्रे	-8014
ळली	-8015
टाला	-8016
▁अपहरण	-8017
▁यजमान	-8018
▁मागच्या	-8019
डेजा	-8020
▁रान	-8021
▁रोशन	-8022
▁भारतामध्ये	-8023
▁फै	-8024
ब्ल्यू	-8025
▁चौकार	-8026
वामुळे	-8027
▁आमंत्रण	-8028
▁स्वतःची	-8029
▁राहण्यास	-8030
▁घटनास्थळा	-8031
वयास	-8032
▁तमिळ	-8033
▁हिता	-8034
▁जवानांना	-8035
▁प्रवृत्त	-8036
▁300	-8037
▁उशीर	-8038
▁रत्ना	-8039
▁गुंतवणूकदार	-8040
▁150	-8041
▁२०१७	-8042
▁त्यापेक्षा	-8043
यचो	-8044
ियल	-8045
्युनि	-8046
▁कसोटीत	-8047
▁परिवहन	-8048
▁सामन्यांच्या	-8049
र्लंड	-8050
▁मागा	-8051
ोनेशिया	-8052
▁भाजपवर	-8053
▁रस्त्या	-8054
▁झपाट्याने	-8055
▁बायबलमधील	-8056
▁वेळापत्रक	-8057
टावर	-8058
▁पेर	-8059
क्षता	-8060
▁मोटार	-8061
▁सारखे	-8062
▁सुधारित	-8063
▁याबाबतचा	-8064
्हे	-8065
▁घन	-8066
▁सव	-8067
▁बघित	-8068
▁वाढतच	-8069
▁स्वरु	-8070
▁जोरावर	-8071
▁मुस्लीम	-8072
▁पाण्याने	-8073
▁भुवनेश्वर	-8074
तीश	-8075
पंच	-8076
ठ्या	-8077
▁बोर्ड	-8078
▁विशाल	-8079
▁सागरी	-8080
▁भाषांतर	-8081
▁सर्वांनाच	-8082
▁संरक्षणमंत्री	-8083
▁K	-8084
▁परता	-8085
▁सुशील	-8086
▁बुद्धि	-8087
▁मेडिकल	-8088
▁खानच्या	-8089
▁जितेंद्र	-8090
ॉफ	-8091
शार	-8092
माची	-8093
▁क्रिया	-8094
▁महिलांचा	-8095
डीएस	-8096
▁फळे	-8097
▁पाठवला	-8098
▁आयोगाच्या	-8099
▁४५	-8100
▁शिकायला	-8101
▁उत्पत्ति	-8102
▁चाहत्यांना	-8103
▁गोळ्या	-8104
▁देवदूत	-8105
ाती	-8106
▁राणा	-8107
▁लडाख	-8108
▁पाहतो	-8109
परमेश्वर	-8110
▁एकनिष्ठ	-8111
▁स्थानकात	-8112
▁सत्ताधारी	-8113
▁रक	-8114
▁वळण	-8115
कर्णधार	-8116
▁परिश्र	-8117
्यांमुळे	-8118
▁नियुक्त	-8119
▁त्यांनाही	-8120
▁मध्यप्रदेश	-8121
.7	-8122
सिड	-8123
▁तह	-8124
▁मोठं	-8125
▁त्याग	-8126
▁उभारणी	-8127
▁घरच्या	-8128
▁महामारी	-8129
▁सरकारकडे	-8130
णाचल	-8131
▁पगार	-8132
▁मूर्ख	-8133
▁मांडली	-8134
▁संबंधी	-8135
▁मिळालेला	-8136
ोळ	-8137
जेट	-8138
▁ट्	-8139
▁सेन	-8140
▁ग्रह	-8141
▁तेलु	-8142
▁पिढी	-8143
▁पसरव	-8144
▁मधून	-8145
▁स्मरण	-8146
▁ईशान्य	-8147
▁घटनेने	-8148
▁देणारा	-8149
▁दक्षिणे	-8150
▁वॉर	-8151
मूल्य	-8152
▁अपरि	-8153
▁आयटी	-8154
्यांसह	-8155
▁अपघाताची	-8156
▁होण्याचे	-8157
▁हल्ल्याचा	-8158
▁ठरते	-8159
▁मोदींची	-8160
▁भाजपाच्या	-8161
▁कार्यकर्त्यांनी	-8162
कडी	-8163
सीए	-8164
▁ईडी	-8165
नॅशनल	-8166
▁जोडले	-8167
आम्हाला	-8168
▁प्रदूषण	-8169
▁काढण्यासाठी	-8170
टेक	-8171
▁मद्य	-8172
न्सिंग	-8173
ोक्यात	-8174
▁पंडित	-8175
▁त्याच्यासोबत	-8176
रस	-8177
▁कॅनडा	-8178
▁देतील	-8179
▁अनुराग	-8180
▁खात्मा	-8181
ंविरोधात	-8182
▁कुणालाही	-8183
▁टाकण्यात	-8184
लँड	-8185
▁आशि	-8186
▁पशु	-8187
▁महिना	-8188
▁वकि	-8189
▁याकोब	-8190
▁घेण्याचे	-8191
▁करणार्‍या	-8192
▁काश्मीरमधील	-8193
आयडी	-8194
▁भिं	-8195
▁चाहते	-8196
▁घेतलेला	-8197
▁ब्राझील	-8198
▁व्याख्या	-8199
▁भ्रष्टाचारा	-8200
▁केल्याप्रकरणी	-8201
▁लीला	-8202
▁सायबर	-8203
▁स्क्र	-8204
▁इस्राएली	-8205
ितो	-8206
ंतून	-8207
▁तला	-8208
▁२०१८	-8209
▁क्षेपणा	-8210
▁निर्माते	-8211
ईओ	-8212
▁ठरत	-8213
▁पिढ	-8214
स्पष्ट	-8215
▁फारशी	-8216
▁निरोगी	-8217
▁चांगलेच	-8218
▁पात्रता	-8219
▁वाढण्याची	-8220
गाळ	-8221
ंचाई	-8222
▁सदस्यांनी	-8223
as	-8224
चला	-8225
▁आपणही	-8226
▁करारावर	-8227
▁घोटाळ्या	-8228
▁विद्यापीठात	-8229
▁शंभ	-8230
▁मलेशिया	-8231
▁करण्याकरता	-8232
▁रिझर्व्ह	-8233
▁निवासस्थानी	-8234
ग्रा	-8235
ट्टर	-8236
राजे	-8237
ंपरिक	-8238
विल्या	-8239
▁पाहिलं	-8240
्यांपैकी	-8241
▁अधिकाधिक	-8242
गाई	-8243
▁आक	-8244
▁तथ्य	-8245
▁तुफान	-8246
▁पुरस्काराने	-8247
अर्स	-8248
जोगी	-8249
▁बॉस	-8250
▁धरून	-8251
▁नैतिक	-8252
▁आरबीआय	-8253
▁पारदर्शक	-8254
महि	-8255
प्टन	-8256
▁तीम	-8257
राहुल	-8258
स्ट्र	-8259
▁जवाहर	-8260
▁कार्तिक	-8261
▁रिलायन्स	-8262
▁शिवसेनेच्या	-8263
ऊट	-8264
र्डा	-8265
▁कडा	-8266
▁रंजन	-8267
पीय	-8268
बायबल	-8269
▁अनुवाद	-8270
▁समुद्रा	-8271
▁हिंसाचारा	-8272
वळी	-8273
पाटील	-8274
▁युनि	-8275
य्याने	-8276
▁अकाउंट	-8277
▁कतरिना	-8278
▁समृद्ध	-8279
▁राष्ट्रवादीच्या	-8280
ईम	-8281
▁३४	-8282
मध्य	-8283
ूहिक	-8284
क्रमे	-8285
▁सामूहिक	-8286
▁दड	-8287
▁वास	-8288
▁अधिसू	-8289
▁देणारी	-8290
कळ	-8291
▁V	-8292
हवा	-8293
▁बघा	-8294
प्रसाद	-8295
▁गिरीश	-8296
▁ग्रीक	-8297
▁पटकावले	-8298
▁सिनेमाचा	-8299
फल	-8300
▁अनो	-8301
▁युग	-8302
लयाने	-8303
जान	-8304
▁गुगल	-8305
▁एनडीए	-8306
▁अधिवेश	-8307
▁वातावरणात	-8308
ृता	-8309
▁उभय	-8310
▁आईने	-8311
▁मिळवली	-8312
▁सुपरस्टार	-8313
▁राहण्यासाठी	-8314
ol	-8315
षभ	-8316
लेस	-8317
वडा	-8318
पीसी	-8319
▁जमात	-8320
▁रहिवाश	-8321
▁चतु	-8322
▁गर्ल	-8323
▁तोंडा	-8324
▁मासिक	-8325
▁बुमराह	-8326
ेशा	-8327
हरूख	-8328
ुमार	-8329
▁आणखीन	-8330
▁यिर्म	-8331
▁नसलेल्या	-8332
▁रुग्णांना	-8333
▁सर्वांच्या	-8334
▁पत्रकारांशी	-8335
नर	-8336
दूर	-8337
वीण	-8338
▁एटी	-8339
▁बसत	-8340
▁जहाज	-8341
▁वाया	-8342
▁मंत्रि	-8343
▁परदेशात	-8344
्हवी	-8345
▁जाता	-8346
▁नेमणूक	-8347
▁स्थानक	-8348
▁०	-8349
▁एवढा	-8350
▁तिथून	-8351
▁नदीच्या	-8352
▁नोंदवण्यात	-8353
यश	-8354
▁फारसे	-8355
▁गुन्हेगारी	-8356
उप	-8357
चाच	-8358
ातही	-8359
्लिश	-8360
▁उत्पादने	-8361
▁अब्दुल्ला	-8362
त्स	-8363
सिटी	-8364
▁अमेरिकी	-8365
▁लोकांवर	-8366
▁वाहनांची	-8367
▁त्याविषयी	-8368
मंत्र्यांनी	-8369
▁सौरव	-8370
▁क्रांती	-8371
▁शेतकऱ्यांनी	-8372
▁ओपन	-8373
▁जलसं	-8374
▁रिका	-8375
्यांचं	-8376
▁कारणी	-8377
▁फिरकी	-8378
"""".""	-8379
▁जाण्या	-8380
▁रामदास	-8381
▁चित्रपटांमध्ये	-8382
▁(_	-8383
▁बरोबरी	-8384
▁उद्योजक	-8385
▁बॉलिवूडमधील	-8386
▁चित्रपटासाठी	-8387
▁सेक	-8388
▁डिझा	-8389
▁योगा	-8390
▁शिक्	-8391
▁अडवाणी	-8392
▁वास्तव	-8393
▁सभागृह	-8394
माचा	-8395
▁टॉमने	-8396
▁व्हावा	-8397
▁आघाडीचे	-8398
▁हालचाली	-8399
▁हल्ल्याची	-8400
णीवर	-8401
▁झटका	-8402
▁बदलले	-8403
▁सरकारमध्ये	-8404
वलेले	-8405
▁कोकण	-8406
त्याची	-8407
▁आवडेल	-8408
▁कृतज्ञ	-8409
▁याठिकाणी	-8410
▁मंत्रालयाचे	-8411
.’	-8412
िलेश	-8413
्रिकर	-8414
▁कुठून	-8415
▁अग्रवाल	-8416
▁अनुक्रमे	-8417
▁महत्त्वाचं	-8418
िको	-8419
निरा	-8420
फोटा	-8421
्रास	-8422
▁शतकात	-8423
▁H	-8424
▁L	-8425
बांध	-8426
▁ऋषी	-8427
▁अष्ट	-8428
▁एकता	-8429
▁कन्नड	-8430
▁तुकडे	-8431
▁बँकेचे	-8432
▁भाषणात	-8433
▁विकासाच्या	-8434
लिटी	-8435
▁आरक्ष	-8436
▁सीरिज	-8437
▁कंपनीच्या	-8438
▁नेत्यांना	-8439
चीत	-8440
वानं	-8441
▁कटिब	-8442
▁ताबा	-8443
अमेरिक	-8444
▁पत्ता	-8445
▁हिच्या	-8446
पट्ट	-8447
ल्ले	-8448
▁गडी	-8449
▁फिलि	-8450
▁कविता	-8451
▁पदावर	-8452
▁विधानसभेचे	-8453
▁काँग्रेसमध्ये	-8454
नेने	-8455
▁गुर	-8456
▁हुक	-8457
च्‍या	-8458
लीकडे	-8459
▁पावला	-8460
ing	-8461
तसंच	-8462
वायचा	-8463
▁गैरव	-8464
▁लेवी	-8465
▁जान्हवी	-8466
्ही	-8467
▁विषयक	-8468
▁हद्दी	-8469
▁संघटनेचे	-8470
उलट	-8471
▁प्रौ	-8472
▁पूर्त	-8473
▁अनुचित	-8474
▁शकलेले	-8475
▁आटोक्यात	-8476
▁मेगापिक्स	-8477
▁व्यक्‍तीला	-8478
▁चीनने	-8479
▁वगळता	-8480
▁प्रतिकार	-8481
▁निर्णयावर	-8482
ंजा	-8483
केज	-8484
▁गुड	-8485
▁जमिनीवर	-8486
▁खेळाडूंना	-8487
▁स्वीकारली	-8488
प्शन	-8489
▁नवाब	-8490
▁मच्छ	-8491
▁कोळसा	-8492
▁जॉर्ज	-8493
▁जिंकला	-8494
▁संतप्त	-8495
ट्स	-8496
▁जड	-8497
▁नॉ	-8498
बंधू	-8499
▁लुट	-8500
▁करावं	-8501
▁भागांत	-8502
▁गांधीजी	-8503
▁दृष्टीकोन	-8504
▁प्रस्थापित	-8505
’.	-8506
▁सत्तेवर	-8507
▁चित्रीकर	-8508
▁चुकीच्या	-8509
▁उल्लेखनीय	-8510
▁संघटनेच्या	-8511
▁घेताना	-8512
▁लिहिली	-8513
▁ओर	-8514
▁मणि	-8515
▁मशि	-8516
▁टर्म	-8517
▁मिनि	-8518
▁अलीकडेच	-8519
▁घोषणाबाजी	-8520
▁स्वाक्षरी	-8521
मह	-8522
▁मावळ	-8523
▁वर्च	-8524
▁मांडला	-8525
▁संभाव्य	-8526
▁व्यवसायात	-8527
▁शहरांमध्ये	-8528
.6	-8529
शर	-8530
मानी	-8531
▁लाखा	-8532
▁इतिहा	-8533
वणाऱ्या	-8534
▁सरकारनं	-8535
▁मंदिराच्या	-8536
▁पंतप्रधानांचे	-8537
ईड	-8538
राण	-8539
लेही	-8540
▁ठोठ	-8541
▁समू	-8542
▁तज्ञ	-8543
तीला	-8544
▁दाब	-8545
▁पिय	-8546
▁साद	-8547
▁समूह	-8548
▁सागर	-8549
ताच्या	-8550
▁नियामक	-8551
▁पूर्वज	-8552
▁वैशिष्ट्य	-8553
शू	-8554
▁३६	-8555
▁दुर्दैवी	-8556
▁गुन्हेगार	-8557
▁इंडोनेशिया	-8558
▁वध	-8559
▁कडे	-8560
▁परवड	-8561
▁विचित्र	-8562
▁जाम	-8563
जिल्हा	-8564
▁कोट्य	-8565
▁जायला	-8566
▁भिन्न	-8567
▁अब्दुल	-8568
▁कमतरता	-8569
▁कोणाची	-8570
▁पर्रिकर	-8571
मोज	-8572
ल्हे	-8573
▁दहशतवाद्यांनी	-8574
रेन	-8575
▁भाजी	-8576
▁बदलून	-8577
▁अनुकूल	-8578
▁उपग्रह	-8579
▁लढवणार	-8580
▁संघाची	-8581
▁आमच्यासाठी	-8582
वृ	-8583
बाल	-8584
▁एकर	-8585
▁पंचनामा	-8586
▁तथा	-8587
▁भोसले	-8588
▁धोक्यात	-8589
▁हृदयविक	-8590
▁कारणीभूत	-8591
▁क्लब	-8592
▁चुका	-8593
पदार्थ	-8594
▁दिसेल	-8595
▁इंडियाने	-8596
▁गव्हर्नर	-8597
▁झाल्याचा	-8598
▁वर्गा	-8599
▁कुस्ती	-8600
त्याचे	-8601
▁90	-8602
▁८०	-8603
▁उडी	-8604
▁शान	-8605
वतीने	-8606
▁तर्क	-8607
▁सगळा	-8608
▁कोटींचा	-8609
▁विवाहित	-8610
▁स्वीकारला	-8611
डॉ	-8612
▁लाई	-8613
▁अवकाश	-8614
▁वर्तु	-8615
▁निदर्शने	-8616
▁राहणाऱ्या	-8617
▁तशीच	-8618
▁आफ्रिक	-8619
▁बंगळुरू	-8620
▁सुप्रिया	-8621
▁शस्त्रक्रिया	-8622
ूष	-8623
हाचा	-8624
▁गुल	-8625
▁करतोय	-8626
▁दिसली	-8627
▁लिहित	-8628
नाबद्दल	-8629
▁प्रक्षे	-8630
अभि	-8631
एसएम	-8632
तावर	-8633
▁आराखडा	-8634
▁नियमांचे	-8635
▁शास्त्रवचन	-8636
माचे	-8637
▁वाक	-8638
भोवती	-8639
▁जातं	-8640
ांचाही	-8641
▁अपक्ष	-8642
▁आभारी	-8643
▁हाताळ	-8644
▁आमदारांनी	-8645
वासाठी	-8646
▁स्वरूपात	-8647
▁सोपवण्यात	-8648
▁v	-8649
साह	-8650
पद्ध	-8651
▁दुसऱया	-8652
▁आरोपपत्र	-8653
▁कोणाच्या	-8654
▁तरुणांना	-8655
▁हल्लाबोल	-8656
▁पांग	-8657
भारतात	-8658
▁शोधून	-8659
▁संचाल	-8660
▁निलंबित	-8661
▁समुद्रात	-8662
▁लोकांसाठी	-8663
30	-8664
डिट	-8665
मेट	-8666
ैरे	-8667
▁ऑफर	-8668
▁पटक	-8669
▁तिनं	-8670
▁दिवसभर	-8671
▁पुनराव	-8672
ल्याच्या	-8673
▁राज्याची	-8674
▁राजीनाम्या	-8675
▁विद्यार्थिनी	-8676
किट	-8677
बर्ग	-8678
शैली	-8679
▁मानला	-8680
▁अखिलेश	-8681
निर्मिती	-8682
▁सूक्ष्म	-8683
▁दोघांच्या	-8684
▁t	-8685
▁इंजिन	-8686
▁तिथेच	-8687
▁बदलली	-8688
▁उपक्रमा	-8689
एफसी	-8690
▁नवन	-8691
▁फॉर	-8692
▁त्‍या	-8693
▁लागलं	-8694
▁शाहरूख	-8695
▁हलवण्यात	-8696
दाय	-8697
बोध	-8698
▁दिनेश	-8699
▁जाणारी	-8700
▁बर्‍या	-8701
▁कशासाठी	-8702
▁मुलांची	-8703
▁व्हॉट्सअ	-8704
▁टाइ	-8705
▁नौदल	-8706
▁मुळीच	-8707
कोणत्या	-8708
▁कोट्यवधी	-8709
▁प्रस्तावाला	-8710
▁खंडणी	-8711
▁हल्ले	-8712
▁कोणतीच	-8713
▁शिक्का	-8714
▁संवेदनशील	-8715
लील	-8716
वावी	-8717
▁विषयी	-8718
ांनुसार	-8719
▁वास्तविक	-8720
▁कायद्याच्या	-8721
▁ख्रिस्ताच्या	-8722
▁अमर	-8723
▁सांगितला	-8724
▁प्रश्नाचे	-8725
स्वत	-8726
▁कळा	-8727
▁बहा	-8728
▁गौरी	-8729
▁लिटर	-8730
▁सेवन	-8731
▁अमृता	-8732
▁त्वचा	-8733
▁इंडस्ट्री	-8734
▁डोके	-8735
▁बसले	-8736
▁बोलून	-8737
▁स्कूल	-8738
▁आवडतात	-8739
▁राहायला	-8740
निय	-8741
▁बेट	-8742
रोन	-8743
सेव	-8744
लियम	-8745
▁एकाचा	-8746
▁अश्विन	-8747
▁कॅप्टन	-8748
▁उपायुक्त	-8749
टीचे	-8750
▁लोकं	-8751
वण्यास	-8752
▁सावरकर	-8753
▁तंत्रज्ञानाचा	-8754
दाब	-8755
हाय	-8756
▁जामि	-8757
▁माने	-8758
▁कश्मीर	-8759
▁स्ट्रा	-8760
▁गोर	-8761
पुरात	-8762
▁एकमत	-8763
▁अन्याय	-8764
▁कृष्णा	-8765
▁निघाला	-8766
▁विचारणा	-8767
▁मल्या	-8768
▁मायावती	-8769
▁यहोवाचा	-8770
▁हिंदुस्थानी	-8771
ज्योत	-8772
ॅश	-8773
लाद	-8774
▁शेल	-8775
▁सूट	-8776
पणाने	-8777
▁नयेत	-8778
▁वागण	-8779
मंत्रा	-8780
▁राकेश	-8781
▁भाज्या	-8782
▁जीवनाचा	-8783
▁भागीदार	-8784
▁संसदेच्या	-8785
एसएस	-8786
▁युन	-8787
▁अखिल	-8788
▁काळे	-8789
▁ठोठाव	-8790
▁रिक्ष	-8791
▁महाविकास	-8792
▁उत्तरप्रदेश	-8793
गट	-8794
डका	-8795
सेन	-8796
लेशन	-8797
▁परंतू	-8798
▁दरवाजा	-8799
▁शेतकऱ्या	-8800
▁राज्यांना	-8801
▁पाणीपुरवठा	-8802
▁विद्यापीठाच्या	-8803
▁भन्सा	-8804
▁उपकरणे	-8805
▁सक्रीय	-8806
▁परमेश्‍व	-8807
▁असल्याच्या	-8808
आरएफ	-8809
घटने	-8810
▁उजव्या	-8811
▁प्रवीण	-8812
▁खोली	-8813
प्रकाश	-8814
वासिया	-8815
▁दत्ता	-8816
▁हिंसक	-8817
आघाडी	-8818
▁माता	-8819
▁सुळे	-8820
त्यावर	-8821
▁उतरले	-8822
▁सहमती	-8823
▁जणांची	-8824
च्चा	-8825
▁उसळ	-8826
▁नड्डा	-8827
▁पालघर	-8828
▁मिळाल्यानंतर	-8829
ov	-8830
डेट	-8831
▁1,	-8832
▁कने	-8833
▁बघत	-8834
▁ठेवत	-8835
▁इरफान	-8836
▁परतले	-8837
▁चकमक	-8838
▁टेक्	-8839
▁काहीजण	-8840
▁ट्रस्ट	-8841
▁नम	-8842
▁अटके	-8843
▁सीईओ	-8844
▁स्टा	-8845
▁प्रौढ	-8846
▁चुकीचा	-8847
▁आदरांजली	-8848
▁काद	-8849
▁जयपूर	-8850
▁निवेद	-8851
▁वाचून	-8852
▁कोणाचा	-8853
▁मानांक	-8854
▁प्रभारी	-8855
▁ऐश्वर्या	-8856
▁शहराच्या	-8857
▁न्यायालयाचा	-8858
लने	-8859
▁नजी	-8860
▁मधे	-8861
▁उत्तेजन	-8862
झाद	-8863
बली	-8864
▁बोट	-8865
क्‍ती	-8866
१०	-8867
खात	-8868
डिझेल	-8869
▁आगीवर	-8870
▁वेळीच	-8871
▁पुत्रा	-8872
▁एक्सप्रेस	-8873
▁सोहळ्याला	-8874
▁कं	-8875
शेखर	-8876
ार्ह	-8877
सारखं	-8878
▁थंडी	-8879
ंकय्या	-8880
▁बाबेल	-8881
चित्रपट	-8882
▁पत्रात	-8883
▁सोनाक्षी	-8884
न्म	-8885
▁९०	-8886
नियम	-8887
प्टर	-8888
▁क्व	-8889
▁रिस	-8890
लिकडे	-8891
्रिटी	-8892
▁समाजातील	-8893
▁सर्वांची	-8894
▁वृत्तपत्र	-8895
▁संस्थेच्या	-8896
▁काळजीपूर्वक	-8897
▁आरोग्यमंत्री	-8898
खु	-8899
▁फुल	-8900
याबाबत	-8901
▁अतिरे	-8902
▁एकाही	-8903
▁पुरेशी	-8904
▁प्रकारात	-8905
▁2015	-8906
ईडी	-8907
ईने	-8908
ांद	-8909
▁चमक	-8910
▁पॅकेज	-8911
▁युद्धा	-8912
▁धोरणात्मक	-8913
▁नसल्यामुळे	-8914
मरी	-8915
▁करिना	-8916
▁भगवान	-8917
विण्याची	-8918
▁अरेबिया	-8919
ांविरुद्ध	-8920
hi	-8921
दाम	-8922
▁शिज	-8923
▁चौथा	-8924
▁युरो	-8925
▁मोठया	-8926
▁यहोवावर	-8927
▁करण्यावर	-8928
▁घडलेल्या	-8929
▁श्रीकांत	-8930
▁कुटुंबाला	-8931
▁आझ	-8932
माजी	-8933
▁खाऊ	-8934
▁दवा	-8935
▁खुद्द	-8936
नाश	-8937
दाने	-8938
▁आर्य	-8939
▁प्रेरित	-8940
▁सहाव्या	-8941
▁मिळालेले	-8942
चेही	-8943
क्‍या	-8944
▁उचलली	-8945
▁ओळखला	-8946
▁जागेवर	-8947
▁पिंपरी	-8948
▁गुजरातमधील	-8949
▁भूत	-8950
्यांकडे	-8951
▁उद्देशाने	-8952
▁अरो	-8953
▁साफ	-8954
▁चौहान	-8955
▁त्वचे	-8956
▁खुल्या	-8957
▁दीक्षित	-8958
▁शिवसेनेला	-8959
गुरू	-8960
▁बनली	-8961
▁पहायला	-8962
▁वापरली	-8963
पूस	-8964
▁वाड	-8965
▁वरून	-8966
▁टिकून	-8967
▁योजनेचा	-8968
▁बिहारमध्ये	-8969
▁भविष्यवाणी	-8970
▁नेतृत्वाखालील	-8971
डकी	-8972
▁उज्	-8973
ोवेळी	-8974
▁महागाई	-8975
▁पाठविले	-8976
▁अतिवृष्टी	-8977
▁ठिकठिकाणी	-8978
▁प्रेक्षकांना	-8979
मरा	-8980
▁पैलू	-8981
▁लिंक	-8982
▁नाहीच	-8983
▁वृद्धी	-8984
विण्याचे	-8985
▁आल्याची	-8986
▁कितीतरी	-8987
▁अमेरिकेने	-8988
श्चिम	-8989
▁डाऊन	-8990
▁पायनियर	-8991
▁दिसतो	-8992
▁रूग्ण	-8993
▁राहण्याचा	-8994
▁आपल्यासाठी	-8995
▁विर	-8996
▁वायर	-8997
▁सतीश	-8998
▁अनावर	-8999
▁झालंय	-9000
▁प्रणव	-9001
▁होतोय	-9002
▁अखेरचा	-9003
▁कॅन्सर	-9004
वानी	-9005
▁धर्	-9006
ंवरील	-9007
▁शिल्लक	-9008
ांद्वारे	-9009
▁आल्यावर	-9010
▁खंडपीठाने	-9011
▁देशांतर्गत	-9012
दंड	-9013
▁ब्	-9014
▁कृपा	-9015
▁प्रत	-9016
▁मजकूर	-9017
▁यहुदी	-9018
▁वॉर्नर	-9019
▁पोलीसांनी	-9020
▁गृ	-9021
▁ऐकू	-9022
▁करिअर	-9023
▁पाचार	-9024
▁स्क्रीन	-9025
टू	-9026
तक	-9027
बेर	-9028
▁भट	-9029
मतीत	-9030
इस्रा	-9031
पुत्र	-9032
▁क्रि	-9033
▁नीरव	-9034
▁नेमकं	-9035
▁शिष्ट	-9036
▁सैन्याने	-9037
डतो	-9038
पेट	-9039
मॅट	-9040
▁उध	-9041
▁सीबी	-9042
▁स्टे	-9043
▁नामां	-9044
▁डाव्या	-9045
▁बांधका	-9046
▁पाण्याचे	-9047
ra	-9048
१४	-9049
...]	-9050
▁अना	-9051
▁ऑटो	-9052
▁नार	-9053
▁जनावर	-9054
▁मुलगे	-9055
▁प्रभावित	-9056
▁सर्वांसाठी	-9057
ame	-9058
नाकडे	-9059
▁सोपी	-9060
▁स्थळ	-9061
▁पक्षी	-9062
णार्‍या	-9063
शिंग्टन	-9064
▁वस्त्र	-9065
▁तालुक्यातील	-9066
ूरी	-9067
▁५००	-9068
▁वेबसाईट	-9069
▁चित्रपटाचं	-9070
▁व्यवस्थापकीय	-9071
यास	-9072
▁टोला	-9073
▁धुरा	-9074
▁हवाल	-9075
▁रिक्त	-9076
ंत्रिकी	-9077
▁झाल्याचं	-9078
▁हॉस्पिटल	-9079
▁विश्‍वासा	-9080
▁दहशतवाद्यांचा	-9081
लोत	-9082
ल्‍	-9083
व्हन	-9084
▁शमु	-9085
कासाठी	-9086
▁बक्षी	-9087
▁डोक्याला	-9088
▁प्रवृत्ती	-9089
.8	-9090
he	-9091
ठाण	-9092
मिर	-9093
▁ओम	-9094
पिंग	-9095
▁अतुल	-9096
▁देईन	-9097
▁नियत	-9098
▁अवकाळी	-9099
▁जणांनी	-9100
▁स्मारक	-9101
वण्याच्या	-9102
▁वेळोवेळी	-9103
▁पाण्याच्या	-9104
▁येतं	-9105
▁गांधींच्या	-9106
्णा	-9107
▁छाव	-9108
▁मतमोज	-9109
▁रूपये	-9110
▁बोर्डा	-9111
▁विमाने	-9112
▁जाण्यास	-9113
▁जवाहरलाल	-9114
जाग	-9115
टीआय	-9116
ध्वनी	-9117
▁आरोपा	-9118
▁बहुजन	-9119
▁बोलला	-9120
▁मुलीचा	-9121
वरी	-9122
ल्यवान	-9123
▁अरुणाचल	-9124
▁कायद्यात	-9125
▁नातेवाईक	-9126
कास	-9127
्हास	-9128
▁अला	-9129
▁इजा	-9130
▁अधिकच	-9131
▁काळ्या	-9132
▁स्वयंसेवक	-9133
्यांसोबत	-9134
▁रुग्णालय	-9135
▁गुजरातच्या	-9136
▁परराष्ट्रमंत्री	-9137
▁अद्य	-9138
▁राखीव	-9139
▁पारंपरिक	-9140
▁स्वर्गीय	-9141
▁गू	-9142
वाकां	-9143
▁एचडी	-9144
▁यावा	-9145
पचारिक	-9146
▁ज्ञाना	-9147
▁अत्यावश्यक	-9148
▁महिन्याच्या	-9149
ताची	-9150
▁उदय	-9151
▁संभ	-9152
पुरुष	-9153
▁आठवले	-9154
▁वेळात	-9155
▁विचारसर	-9156
िवार्य	-9157
▁सोडण्यात	-9158
▁पोलिसांवर	-9159
▁36	-9160
▁48	-9161
▁दब	-9162
▁आलीय	-9163
▁नाहीस	-9164
▁सुज्ञ	-9165
▁प्रीती	-9166
▁मध्यस्थ	-9167
▁रूपांतर	-9168
▁मौल्यवान	-9169
▁प्लास्टिक	-9170
▁व्यक्तींना	-9171
un	-9172
मारे	-9173
▁अणु	-9174
▁एम्स	-9175
▁अनिवार्य	-9176
▁इंस्टाग्राम	-9177
▁प्रत्येकाने	-9178
▁ऑस्ट्रेलियाने	-9179
▁आजू	-9180
▁छगन	-9181
▁दगडफेक	-9182
▁अर्थसंक	-9183
▁नेत्यांची	-9184
धीन	-9185
▁घेईल	-9186
▁छोटे	-9187
क्षमता	-9188
▁केदार	-9189
▁स्थित	-9190
▁मागणीही	-9191
▁कामाच्या	-9192
तेवर	-9193
▁बंग	-9194
▁झळका	-9195
▁२०१५	-9196
▁महासं	-9197
▁मोहित	-9198
▁श्रॉफ	-9199
▁मिळण्याची	-9200
आयसी	-9201
पंचा	-9202
पदावर	-9203
▁मल्ह	-9204
▁जसप्रीत	-9205
रूप	-9206
▁धान्य	-9207
▁ठेवावे	-9208
▁पाचारण	-9209
▁पेट्रो	-9210
▁संग्रहा	-9211
▁खत	-9212
▁जाव	-9213
▁प्रेमात	-9214
▁ज्यांच्या	-9215
▁इतरही	-9216
▁खेळला	-9217
▁देशांना	-9218
▁रत्नागिरी	-9219
▁वाढवण्यासाठी	-9220
बर्ट	-9221
▁संता	-9222
▁पंचायत	-9223
▁प्रादुर्भाव	-9224
भंग	-9225
लग्न	-9226
▁जळून	-9227
▁दस्त	-9228
▁मुंबईला	-9229
▁प्रश्नावर	-9230
▁युनिट	-9231
▁शक्ति	-9232
▁पाहिली	-9233
▁आघाडीच्या	-9234
परमेश्व	-9235
▁देखरेख	-9236
▁म्हटलंय	-9237
▁अशाप्रकारे	-9238
▁स्वाक्षऱ्या	-9239
▁वितर	-9240
▁बोलतो	-9241
▁आंदोलनात	-9242
▁s	-9243
भावी	-9244
▁खेड	-9245
▁घाट	-9246
▁दिसला	-9247
▁लढणार	-9248
▁काहींना	-9249
▁द्राक्ष	-9250
▁वाढदिवस	-9251
ॅनि	-9252
पीएस	-9253
हलोत	-9254
▁वेदी	-9255
▁नाट्य	-9256
▁संगणक	-9257
नामध्ये	-9258
▁दोघांचे	-9259
▁था	-9260
▁चिक	-9261
▁जैश	-9262
▁फिट	-9263
▁भंग	-9264
ष्कार	-9265
▁अफवा	-9266
▁निकष	-9267
▁पकडले	-9268
▁ज्याचा	-9269
▁प्रांत	-9270
▁आरोग्यासाठी	-9271
▁p	-9272
राई	-9273
आधीच	-9274
फ्ती	-9275
▁आझाद	-9276
▁रावत	-9277
▁आग्रह	-9278
▁पॉझिट	-9279
▁वाटली	-9280
▁कुमारस्वामी	-9281
▁जॅ	-9282
लीला	-9283
▁सोबतच	-9284
▁जागांसाठी	-9285
▁त्याशिवाय	-9286
शेव	-9287
▁राठ	-9288
▁लोकल	-9289
▁शेजा	-9290
▁अंदाजे	-9291
▁पाटेकर	-9292
▁हत्येचा	-9293
▁चॅम्पियन	-9294
▁नसल्याचं	-9295
▁काळापासून	-9296
▁टाकली	-9297
▁चेंडूत	-9298
▁आरोपींनी	-9299
▁ख्रिश्‍चनांना	-9300
झे	-9301
्यूब	-9302
▁चषक	-9303
▁रोक	-9304
पत्रा	-9305
▁लढाऊ	-9306
▁पूर्तता	-9307
▁केरळमध्ये	-9308
▁कॉन्फरन्स	-9309
▁होण्याच्या	-9310
▁बट	-9311
▁गटा	-9312
▁भगत	-9313
दुर्ग	-9314
▁मेंदू	-9315
▁सौम्य	-9316
▁अधिवेशनात	-9317
▁पुण्यातील	-9318
▁सुनिश्चित	-9319
ल्डर	-9320
▁तिसरी	-9321
▁सक्ती	-9322
▁फाशीची	-9323
▁पवन	-9324
वताना	-9325
▁काढा	-9326
▁रॉयल	-9327
▁धैर्य	-9328
▁यहूदी	-9329
▁कर्करोग	-9330
▁सर्वप्रथम	-9331
१५	-9332
▁पसार	-9333
▁बोलता	-9334
▁सुधारण	-9335
▁त्यातही	-9336
ed	-9337
गुती	-9338
▁सिक	-9339
▁ड्राय	-9340
▁प्रकट	-9341
▁गरजेचं	-9342
▁पुनर्व	-9343
▁मुफ्ती	-9344
१८	-9345
मोह	-9346
वापर	-9347
खालील	-9348
ख्यात	-9349
▁एकदम	-9350
▁खडसे	-9351
▁गणित	-9352
ंदर्भात	-9353
▁पक्षाचा	-9354
▁सातव्या	-9355
▁हस्तांतर	-9356
▁पावसाच्या	-9357
▁परमेश्वराला	-9358
हीन	-9359
प्ले	-9360
सर्वा	-9361
▁साथीदार	-9362
स्ट्रेलियन	-9363
ंगे	-9364
बास	-9365
र्पण	-9366
▁मिट	-9367
▁हास	-9368
▁मुलीने	-9369
▁शरीरात	-9370
▁यापेक्षा	-9371
▁रन	-9372
▁अ‍ॅड	-9373
▁तात्पुर	-9374
▁अखेरच्या	-9375
भौ	-9376
ीची	-9377
जम्मू	-9378
▁सामान	-9379
▁संघातील	-9380
▁सहकार्या	-9381
्रेट	-9382
▁पाण	-9383
▁चळवळी	-9384
▁शेवटचा	-9385
▁काँग्रेसची	-9386
अखे	-9387
क्के	-9388
▁कौर	-9389
ांसमोर	-9390
▁म्यान	-9391
▁आजूबाजू	-9392
▁वडिलांना	-9393
▁>	-9394
▁ऐव	-9395
▁पूल	-9396
▁भडक	-9397
▁तेलगू	-9398
▁मुलीवर	-9399
▁गोव्यात	-9400
▁निरीक्षण	-9401
▁सिनेमाचे	-9402
लिय	-9403
▁बुक	-9404
▁गावा	-9405
▁भूमि	-9406
म्हणजे	-9407
न्सेक्स	-9408
▁अभियंत	-9409
▁ब्रिक्स	-9410
▁टाळण्यासाठी	-9411
ad	-9412
ul	-9413
ंधरा	-9414
▁ओव्हर	-9415
▁विलंब	-9416
विरुध्द	-9417
▁सत्रात	-9418
▁समन्वय	-9419
▁कंपनीचे	-9420
दुखी	-9421
न्शन	-9422
▁सॉफ्ट	-9423
▁अंगावर	-9424
▁कार्यान्	-9425
▁कंपन्यांना	-9426
▁सोन्याच्या	-9427
फोड	-9428
शामक	-9429
ूनंतर	-9430
▁मांस	-9431
▁सदैव	-9432
▁भोपाळ	-9433
▁संरक्ष	-9434
▁कटिबद्ध	-9435
▁लोकांशी	-9436
▁सगळीकडे	-9437
▁उमेश	-9438
▁घरातून	-9439
▁प्रमोद	-9440
तुम्हाला	-9441
मेलन	-9442
रेखा	-9443
▁खनि	-9444
▁लोट	-9445
▁कोसळून	-9446
▁रस्त्यांवर	-9447
एनए	-9448
सेज	-9449
▁घडते	-9450
ांनीही	-9451
▁अग्नी	-9452
▁पसरले	-9453
▁बंधनकारक	-9454
▁वस्तुस्थिती	-9455
201	-9456
मुळेच	-9457
▁आशिष	-9458
युक्‍त	-9459
▁वेळेवर	-9460
▁आनंदाने	-9461
▁यांचीही	-9462
▁सामग्री	-9463
स्था	-9464
▁कळू	-9465
▁जॅक	-9466
▁अधोरे	-9467
▁इच्छे	-9468
▁पॉझिटिव्ह	-9469
▁करण्यापूर्वी	-9470
▁गळा	-9471
वणारा	-9472
वायची	-9473
▁नाहीय	-9474
▁असतानाही	-9475
▁चीनमध्ये	-9476
▁स्वीकारले	-9477
▁विहि	-9478
▁कादंब	-9479
▁पिस्त	-9480
▁साधने	-9481
क्टिव्ह	-9482
▁पाहुणे	-9483
▁स्पर्श	-9484
▁जयंतीनिमित्त	-9485
लिकॉ	-9486
वर्ष	-9487
▁झोड	-9488
▁यास	-9489
▁हिम	-9490
रक्षक	-9491
▁करेन	-9492
▁बदली	-9493
▁जिंकत	-9494
▁नक्षल	-9495
कांकडून	-9496
▁जणांवर	-9497
▁परिश्रम	-9498
▁व्यक्‍ति	-9499
▁उभारण्यात	-9500
स्टन	-9501
▁पालिका	-9502
▁असण्याची	-9503
वस	-9504
ॅड	-9505
▁राठोड	-9506
▁आकर्षक	-9507
▁इस्लाम	-9508
▁सोहळ्यात	-9509
▁यापूर्वीच	-9510
वाण	-9511
िटी	-9512
▁उपकरण	-9513
▁जाणारा	-9514
▁ज्याने	-9515
▁सुवार्ता	-9516
▁अनुसर	-9517
▁घराबाहेर	-9518
चां	-9519
न्च	-9520
लची	-9521
▁र्	-9522
▁होम	-9523
▁गरिब	-9524
▁संजीव	-9525
▁होताच	-9526
तुमच्या	-9527
▁अधिकाऱ्याने	-9528
▁चला	-9529
▁बीएस	-9530
▁मिर्	-9531
▁आनंदाची	-9532
▁वापरण्यात	-9533
▁तुमच्याकडे	-9534
▁सर्वेसर्वा	-9535
▁दिल्लीमध्ये	-9536
कर्ता	-9537
▁खुले	-9538
▁वगैरे	-9539
▁आत्महत्य	-9540
▁कोहलीच्या	-9541
▁महिन्यांपासून	-9542
पला	-9543
▁डोंगर	-9544
ख्रि	-9545
बाला	-9546
हाची	-9547
वणुकी	-9548
▁सद्य	-9549
▁सिक्	-9550
▁मोहिम	-9551
▁समभाग	-9552
▁उद्योगा	-9553
▁तेजस्वी	-9554
▁संघातून	-9555
▁कर्नाटकात	-9556
▁यांच्यामध्ये	-9557
ज्जा	-9558
र्शी	-9559
सूचित	-9560
▁मनीष	-9561
▁भन्साळी	-9562
विनी	-9563
▁चॅले	-9564
▁शंभर	-9565
▁पाकिस्तानची	-9566
▁बाला	-9567
▁भागवत	-9568
▁सोसाय	-9569
▁बलिदान	-9570
▁भगिनींनो	-9571
▁झि	-9572
वंडे	-9573
▁गेलं	-9574
▁मल्हो	-9575
▁यायला	-9576
▁शीर्ष	-9577
▁निरनिरा	-9578
▁नोंदवली	-9579
दीव	-9580
▁पवारांनी	-9581
▁म्यानमार	-9582
▁पाकिस्तानमध्ये	-9583
ताचे	-9584
▁झाक	-9585
ंगाने	-9586
▁आवेश	-9587
▁वंशज	-9588
▁वैभव	-9589
▁सत्कार	-9590
दृष्टीने	-9591
▁दाखवण्यात	-9592
▁त्याच्याकडून	-9593
▁रघु	-9594
▁रेट	-9595
▁हरि	-9596
▁टेलि	-9597
▁शिस्त	-9598
▁हृतिक	-9599
▁रवानगी	-9600
▁सापडली	-9601
▁पडद्यावर	-9602
▁मंडळाच्या	-9603
▁मारण्याची	-9604
५०	-9605
▁जगत	-9606
जिप्त	-9607
▁वर्चस्व	-9608
ल्याबद्दल	-9609
▁स्वर्गात	-9610
▁स्टेशनमध्ये	-9611
▁नाथ	-9612
▁भात	-9613
्रीकर	-9614
▁कळले	-9615
▁पेशी	-9616
▁मंचा	-9617
परिणाम	-9618
▁दैनंद	-9619
▁रक्‍त	-9620
पुरी	-9621
▁अवै	-9622
गीकरण	-9623
▁माधुरी	-9624
▁याबाबतीत	-9625
▁पालकमंत्री	-9626
जून	-9627
मलात	-9628
र्तब	-9629
स्टा	-9630
▁खाक	-9631
श्‍मीर	-9632
▁मुरली	-9633
▁घरगुती	-9634
▁जोडीने	-9635
▁भीतीचे	-9636
▁येणारे	-9637
▁शानदार	-9638
पीड	-9639
वेज	-9640
▁एकी	-9641
▁कदर	-9642
▁घेव	-9643
▁डोळ्या	-9644
▁समृद्धी	-9645
▁फायदेशीर	-9646
▁IPL	-9647
▁घातक	-9648
▁उडाला	-9649
▁खानची	-9650
▁अनेकजण	-9651
▁पुनराग	-9652
▁प्रतीक	-9653
▁एकमेकांशी	-9654
पीएम	-9655
▁मनन	-9656
रामध्ये	-9657
▁तेलुगू	-9658
▁प्रकटी	-9659
▁गोष्टींची	-9660
बेन	-9661
मंद	-9662
▁गल	-9663
तीची	-9664
▁चरबी	-9665
▁संतुल	-9666
राज्यात	-9667
▁निघाले	-9668
▁पालकांना	-9669
▁शिवसेनेत	-9670
टिंग	-9671
णीचा	-9672
पैलू	-9673
▁फंड	-9674
▁आयकर	-9675
▁सोपा	-9676
मोर्तब	-9677
▁अविभाज	-9678
▁उपासने	-9679
▁प्रीति	-9680
▁मदतीची	-9681
▁आव्हाने	-9682
▁प्रकरणे	-9683
▁मालिकेतील	-9684
▁मंत्र्यांनी	-9685
पत्	-9686
लमोन	-9687
▁सोडा	-9688
▁दाखवू	-9689
▁मागास	-9690
▁व्यापा	-9691
▁कारणांमुळे	-9692
▁O	-9693
ग्ध	-9694
▁एन्	-9695
▁सबंध	-9696
नायटेड	-9697
▁बोललो	-9698
▁अद्यया	-9699
▁लगावला	-9700
▁बॉलिवूडचा	-9701
बाग	-9702
▁नील	-9703
▁पेश	-9704
ोग्रा	-9705
स्थापने	-9706
▁प्रताप	-9707
▁मुलांनी	-9708
▁आठवत	-9709
▁कॉफी	-9710
▁मुका	-9711
▁शकतं	-9712
▁तामिळ	-9713
▁विल्य	-9714
चार्‍या	-9715
▁आयआयटी	-9716
▁संकटात	-9717
▁जखमींवर	-9718
▁प्रमोशन	-9719
▁मिळविले	-9720
१७	-9721
▁यासह	-9722
▁ऊर्जे	-9723
▁वेगळं	-9724
▁खेळणार	-9725
▁मृत्यूनंतर	-9726
▁पाकिस्तानकडून	-9727
▁45	-9728
पन्न	-9729
▁जाणवत	-9730
▁हेलिकॉ	-9731
▁आकर्षित	-9732
▁यांच्याही	-9733
वस्त	-9734
▁फ्री	-9735
▁शोधा	-9736
▁साला	-9737
▁नियमन	-9738
▁अनुभवी	-9739
झन	-9740
▁४८	-9741
गाचा	-9742
▁भोग	-9743
▁तसाच	-9744
▁बिकट	-9745
▁सूचन	-9746
▁एकात्	-9747
▁चीनचे	-9748
▁रांगा	-9749
▁ताबडतो	-9750
▁घटस्फोट	-9751
▁महेंद्रसिंग	-9752
चर्स	-9753
▁तनु	-9754
▁शलमोन	-9755
▁चॅलेंज	-9756
▁मित्रा	-9757
▁बांधवांना	-9758
▁वाढवण्यात	-9759
▁सेलिब्रिटी	-9760
▁कुटुंबीयांना	-9761
दमी	-9762
सकर	-9763
बाबा	-9764
लावर	-9765
▁भरा	-9766
▁जेते	-9767
▁लढवत	-9768
ंबरोबर	-9769
▁किनार	-9770
▁वाढणार	-9771
▁आश्‍वास	-9772
▁नव्हत्या	-9773
▁सर्वांचा	-9774
▁प्रदेशमध्ये	-9775
ईला	-9776
▁साळ	-9777
णुकीत	-9778
▁असती	-9779
▁तितका	-9780
▁रहाणे	-9781
▁द्रविड	-9782
▁दर्शवली	-9783
▁अविभाज्य	-9784
▁मेक	-9785
▁शॉर्ट	-9786
▁सुरुच	-9787
▁देवावर	-9788
▁कच्च्या	-9789
प्पर	-9790
▁अहि	-9791
▁गेट	-9792
▁ट्रि	-9793
▁तिथं	-9794
जागृती	-9795
रीच्या	-9796
▁शतकातील	-9797
▁प्रतिष्ठा	-9798
वादन	-9799
्यांग	-9800
▁पडतात	-9801
▁भक्कम	-9802
▁कामाची	-9803
▁अधोरेखित	-9804
▁प्रतिबंधक	-9805
चौ	-9806
आरोग	-9807
ation	-9808
▁मांज	-9809
▁लक्ष्मण	-9810
▁श्रेष्ठ	-9811
▁कामासाठी	-9812
▁मुद्द्या	-9813
▁तपासणीसाठी	-9814
▁पध्द	-9815
▁शिकू	-9816
▁बनावट	-9817
▁विराज	-9818
▁देशांत	-9819
▁वाहनांच्या	-9820
टल	-9821
विशेष	-9822
▁दानी	-9823
▁ब्रेक	-9824
▁जिंकले	-9825
▁नव्हतो	-9826
▁अष्टपैलू	-9827
▁करण्याचं	-9828
▁जीवनशैली	-9829
▁दोघांनीही	-9830
▁प्राधिकरण	-9831
दया	-9832
▁घोड	-9833
▁भुत	-9834
▁लाइ	-9835
ंडेशन	-9836
▁तत्व	-9837
▁शकलो	-9838
▁कारभार	-9839
▁कागदपत्र	-9840
▁नियमशास्त्र	-9841
▁शेतकऱ्यांची	-9842
oo	-9843
▁लव	-9844
वेळे	-9845
▁डेट	-9846
्वस्त	-9847
▁नावं	-9848
▁हरकत	-9849
मानाची	-9850
▁नुसार	-9851
▁बदलला	-9852
▁सभेला	-9853
▁गेलेले	-9854
सीआयसीआय	-9855
▁अयोध्या	-9856
▁ताबडतोब	-9857
▁मुलाखती	-9858
आयपी	-9859
गोवा	-9860
▁ईयोब	-9861
▁पीएम	-9862
▁मार्केट	-9863
अन	-9864
शः	-9865
तूर	-9866
▁आळा	-9867
▁दंग	-9868
▁अंधार	-9869
▁कृत्य	-9870
त्यांचे	-9871
▁प्रदीप	-9872
▁भाजपात	-9873
कालपट्टी	-9874
▁अहमदनगर	-9875
el	-9876
जोड	-9877
▁डब	-9878
संधी	-9879
दक्षि	-9880
पांडे	-9881
ोत्तर	-9882
▁पॉवर	-9883
▁रकमे	-9884
फ्रेंड	-9885
▁पत्रा	-9886
▁योसेफ	-9887
▁नामांक	-9888
▁वाहिनी	-9889
▁पर्यायी	-9890
▁चक्रवर्ती	-9891
▁तुमच्यासाठी	-9892
▁शिक्कामोर्तब	-9893
▁पठाण	-9894
णावरून	-9895
▁गोळीब	-9896
▁प्लॅट	-9897
▁लिहिलेल्या	-9898
िद्र	-9899
▁दाट	-9900
▁माणसा	-9901
▁पादुकोण	-9902
▁बायबलचा	-9903
▁विचारण्यात	-9904
▁नोंदविण्यात	-9905
डीच	-9906
▁भूकंप	-9907
▁दिल्याने	-9908
▁अशाप्रकार	-9909
▁डॉक्टरांचा	-9910
सूद	-9911
नामी	-9912
▁ओबा	-9913
▁सॅम	-9914
▁अंतः	-9915
▁कुशल	-9916
▁फेडर	-9917
▁इस्रो	-9918
▁रक्ता	-9919
▁जेएनयू	-9920
▁पक्षाची	-9921
▁नियमितपणे	-9922
▁इस्राएलच्या	-9923
▁टँ	-9924
पाशी	-9925
लिता	-9926
▁सूची	-9927
▁बँकेने	-9928
▁मंडळाचे	-9929
▁रेल्वेने	-9930
▁लष्कराच्या	-9931
▁शवविच्छेदन	-9932
▁इन्स्टिट्यूट	-9933
▁उपांत्यपूर्व	-9934
▁वसु	-9935
▁जोडप	-9936
▁नोबेल	-9937
▁पुरेसा	-9938
▁संस्थेने	-9939
▁अभियांत्रिकी	-9940
फास	-9941
▁झट	-9942
▁टोक	-9943
▁भिंती	-9944
▁जबाबदा	-9945
▁यंत्रण	-9946
▁किंमतीत	-9947
▁हकालपट्टी	-9948
▁एकमेकांच्या	-9949
शोध	-9950
जिकच	-9951
वेतन	-9952
▁तरच	-9953
पब्लिक	-9954
▁तावडे	-9955
▁दलाला	-9956
▁शुभार	-9957
१६	-9958
▁हिट	-9959
णातील	-9960
▁पंकजा	-9961
▁कमांडर	-9962
▁बंगाली	-9963
▁दैनंदिन	-9964
▁वर्तवण्यात	-9965
▁ऑस्ट्रेलियन	-9966
▁३८	-9967
ल्लो	-9968
ंव्हा	-9969
ोरेशन	-9970
▁संसा	-9971
समध्ये	-9972
▁अमराव	-9973
▁गुंता	-9974
▁मलाही	-9975
▁चुकीची	-9976
▁नागरिका	-9977
▁विकेट्स	-9978
फिस	-9979
▁आणा	-9980
▁घालत	-9981
▁सहमत	-9982
▁वेळेस	-9983
▁टर्मिन	-9984
▁तेलंगणा	-9985
is	-9986
लीच	-9987
▁ऑल	-9988
▁देखभा	-9989
▁देशभर	-9990
▁टिकवून	-9991
सने	-9992
▁अय्य	-9993
▁सहका	-9994
रावरील	-9995
▁बसणार	-9996
▁रशियन	-9997
▁कामाचा	-9998
▁महामंड	-9999
बीसीसीआय	-10000
▁देशांमधील	-10001
▁प्रतीक्षा	-10002
▁मुद्द्यावर	-10003
▁स्थलांतरित	-10004
▁प्रयत्नांना	-10005
मने	-10006
आयला	-10007
▁हेर	-10008
▁जागर	-10009
▁त्रस्त	-10010
▁मुलाखत	-10011
▁युवराज	-10012
▁राहिलो	-10013
▁विजेत्या	-10014
▁योजनेच्या	-10015
हक	-10016
धुनिक	-10017
▁अभाव	-10018
▁उपवि	-10019
▁२०१३	-10020
लयाच्या	-10021
▁अकादमी	-10022
▁निसर्ग	-10023
▁पार्टीचे	-10024
▁पारितोषिक	-10025
▁प्रस्तावित	-10026
▁यासंदर्भातील	-10027
▁कार्यकर्त्यांना	-10028
▁॥	-10029
गां	-10030
▁अपर	-10031
ल्‍या	-10032
▁दादा	-10033
▁पुरी	-10034
▁बंदर	-10035
पश्चिम	-10036
्रीवाद	-10037
▁एवढेच	-10038
▁मुलाचा	-10039
साठा	-10040
▁बटा	-10041
▁नोकर	-10042
▁[...]	-10043
▁खोलीत	-10044
▁व्हिसा	-10045
▁उत्साहात	-10046
र्तु	-10047
विना	-10048
▁थाय	-10049
▁पीठ	-10050
▁काढू	-10051
▁धारण	-10052
▁पाळा	-10053
▁संपादन	-10054
us	-10055
ौत	-10056
▁बड	-10057
▁झालीय	-10058
▁संशया	-10059
िण	-10060
ड्र	-10061
ंबंधी	-10062
▁हिस्सा	-10063
▁माध्यमिक	-10064
▁निर्णयामुळे	-10065
ac	-10066
ताचा	-10067
विजय	-10068
▁किना	-10069
▁गप्प	-10070
▁कारवा	-10071
▁निर्भ	-10072
▁फर्स्ट	-10073
▁पक्षांच्या	-10074
▁वृत्तसंस्थ	-10075
▁परमेश्वराचा	-10076
▁अर्थसंकल्पात	-10077
इतर	-10078
▁नुस	-10079
▁अवैध	-10080
▁रितेश	-10081
▁पडल्या	-10082
▁कवी	-10083
▁लाय	-10084
▁१९३	-10085
▁घडून	-10086
्लादेश	-10087
▁असणारी	-10088
▁धावांवर	-10089
▁महोत्सव	-10090
▁काँग्रेसकडून	-10091
ोरा	-10092
निवास	-10093
▁हेल्	-10094
ंपासून	-10095
▁रीतीने	-10096
▁यांचाही	-10097
▁मध्यवर्ती	-10098
▁बेकायदेशीर	-10099
▁जाल	-10100
▁पसंत	-10101
▁सर्वाना	-10102
▁कार्यभार	-10103
▁विजेतेपद	-10104
▁गृहनिर्माण	-10105
▁करण्याद्वारे	-10106
▁रुपयांपर्यंत	-10107
▁चै	-10108
▁नज	-10109
गाचे	-10110
डच्या	-10111
▁इंग्लंडचा	-10112
▁बांधण्यात	-10113
▁काँग्रेसचा	-10114
ंबाबत	-10115
▁मजुर	-10116
▁मिडी	-10117
▁पाहात	-10118
▁एनआरसी	-10119
▁बघायला	-10120
▁संमेलन	-10121
▁चंद्रशेखर	-10122
▁प्रक्रियेत	-10123
लिनी	-10124
▁जयल	-10125
▁मेल	-10126
▁यहोश	-10127
ंपेक्षा	-10128
▁संपादक	-10129
▁संलग्न	-10130
▁निराकरण	-10131
▁नसल्याची	-10132
▁कंपन्यांनी	-10133
ay	-10134
▁खाण	-10135
▁दात	-10136
▁बहिण	-10137
आरोग्य	-10138
▁देवाण	-10139
▁माघारी	-10140
नाचं	-10141
▁बेन	-10142
▁अडथळे	-10143
▁गळफास	-10144
▁म्हणे	-10145
▁प्रश्‍	-10146
▁मराठवाड	-10147
▁निश्चितच	-10148
▁ट्विटमध्ये	-10149
▁न्यायालयानं	-10150
▁ढग	-10151
▁मीच	-10152
▁सल्	-10153
▁अनुष	-10154
▁करणा	-10155
▁धरला	-10156
▁कामावर	-10157
▁जाताना	-10158
▁स्फोटात	-10159
▁फिर्यादी	-10160
▁विराजमान	-10161
▁शासनाच्या	-10162
▁काश्मीरच्या	-10163
▁तारा	-10164
▁लॉन्च	-10165
▁मधल्या	-10166
▁अभिवादन	-10167
▁रुपांतर	-10168
▁m	-10169
▁घाई	-10170
▁चुर	-10171
▁दिसू	-10172
▁पटली	-10173
▁निष्ठ	-10174
▁सायना	-10175
▁सेल्फी	-10176
▁खात्याने	-10177
▁प्रक्षेपण	-10178
▁कर्मचार्‍या	-10179
▁ऑस्ट्रेलियाच्या	-10180
वो	-10181
भाऊ	-10182
▁खूश	-10183
▁जिओ	-10184
ंटीवार	-10185
मध्येच	-10186
▁खऱ्या	-10187
▁पाठीशी	-10188
▁मणिपूर	-10189
▁मोदींचा	-10190
▁महिलांनी	-10191
▁लष्कराने	-10192
”.	-10193
ट्टा	-10194
▁तांब	-10195
▁लागलो	-10196
▁झालेलं	-10197
▁मतमोजणी	-10198
▁समाधानी	-10199
श्मी	-10200
▁अरब	-10201
▁धुमा	-10202
▁शिकत	-10203
▁मनावर	-10204
▁निवडले	-10205
▁राजदूत	-10206
▁वापरून	-10207
▁प्रवासा	-10208
▁गुजरातचे	-10209
▁तुमच्यावर	-10210
▁मुलांसाठी	-10211
ent	-10212
यंत्र	-10213
▁दाखवत	-10214
▁पाटणा	-10215
▁केंद्रे	-10216
▁घेतलेली	-10217
▁तनुश्री	-10218
▁द्यायचे	-10219
प्रत्यक्ष	-10220
▁जनजागृती	-10221
▁परिषदेला	-10222
▁बचावकार्य	-10223
गृ	-10224
द्री	-10225
▁नंद	-10226
▁बाप	-10227
▁भान	-10228
▁आयसी	-10229
▁कक्ष	-10230
▁शिफारशी	-10231
▁अकाऊंटवर	-10232
▁वेगवेगळी	-10233
▁कारणामुळे	-10234
ंटि	-10235
▁''	-10236
ंपार	-10237
प्लिक	-10238
▁कॉर्	-10239
▁विभा	-10240
▁शंकर	-10241
▁एकाला	-10242
▁जर्मन	-10243
▁मिडिया	-10244
▁हाताने	-10245
▁समाजाच्या	-10246
▁गटने	-10247
▁कारणं	-10248
▁विस्तृत	-10249
▁मतदानाचा	-10250
▁हलविण्यात	-10251
बीसी	-10252
▁भवित	-10253
▁समारंभा	-10254
▁बेरोजगारी	-10255
▁आयपीएलमध्ये	-10256
एखा	-10257
▁ट्रा	-10258
▁२०१२	-10259
प्रतिक	-10260
▁पुरात	-10261
▁पोर्टल	-10262
▁बंडखोर	-10263
▁युजर्स	-10264
▁स्थापित	-10265
▁त्याचवेळी	-10266
▁दुसऱ्यांदा	-10267
बस	-10268
चालन	-10269
ार्द	-10270
▁शिकवणी	-10271
▁वचनबद्ध	-10272
▁दिनाच्या	-10273
तोपरी	-10274
▁अ‍ॅप	-10275
▁मुनग	-10276
▁साठा	-10277
ळीच्या	-10278
▁अन्‍न	-10279
▁मृत्यूचे	-10280
▁लागल्याने	-10281
▁हायकोर्टाने	-10282
समु	-10283
▁In	-10284
▁चहल	-10285
▁झेप	-10286
▁तुमचं	-10287
▁देणगी	-10288
▁विकासाला	-10289
▁प्रत्येकजण	-10290
▁अद	-10291
ब्रा	-10292
कार्ड	-10293
रच्या	-10294
▁तिकडे	-10295
▁सर्वश	-10296
▁युद्धात	-10297
▁प्रयत्नशील	-10298
▁त्यांच्याबरोबर	-10299
वटी	-10300
टींग	-10301
▁कहा	-10302
▁कोड	-10303
▁कौल	-10304
▁बेत	-10305
▁भंड	-10306
▁काढत	-10307
▁दुसर	-10308
▁पोलि	-10309
▁बँका	-10310
रात्री	-10311
▁अमेरिके	-10312
▁तोंडावर	-10313
▁आरोपींची	-10314
▁दिवसांची	-10315
वृत्तसंस्था	-10316
▁निर्देशांक	-10317
▁पेट्रोलियम	-10318
▁मृत्युमुखी	-10319
▁परिस्थितीचा	-10320
▁ढि	-10321
▁पोषक	-10322
▁कॉर्प	-10323
▁बर्‍याच	-10324
▁महिलांची	-10325
▁कारणास्तव	-10326
▁महाविद्यालय	-10327
नने	-10328
पात्र	-10329
▁मजूर	-10330
▁अश्रू	-10331
▁नमुने	-10332
▁नियोज	-10333
▁निरोप	-10334
▁तपासात	-10335
▁राजाने	-10336
▁वापरला	-10337
▁विचारत	-10338
▁ट्रान्स	-10339
▁दिल्लीला	-10340
▁संदर्भातील	-10341
इक	-10342
तत्	-10343
▁मल्	-10344
रीकरण	-10345
▁आपणा	-10346
▁अमेठी	-10347
▁मारून	-10348
▁रायगड	-10349
▁वाढतो	-10350
▁अनुसूचित	-10351
▁मालमत्ते	-10352
▁क्षेत्राला	-10353
▁राष्ट्रांच्या	-10354
पूजन	-10355
ार्स	-10356
▁साई	-10357
महिला	-10358
▁परकीय	-10359
▁शेलार	-10360
▁कालांतर	-10361
▁शोमध्ये	-10362
▁पक्षातील	-10363
▁संस्थेचे	-10364
▁पोलिसांचे	-10365
▁व्यासपीठा	-10366
▁कुटुंबीयांनी	-10367
▁कार्यक्रमाच्या	-10368
ृष्ण	-10369
▁बोर	-10370
▁भूष	-10371
पणाचा	-10372
वाहिक	-10373
▁काना	-10374
▁शर्यतीत	-10375
ओल	-10376
▁ऐकत	-10377
▁वाव	-10378
तरत्न	-10379
ध्येत	-10380
सायकल	-10381
▁सुखी	-10382
वाहिनी	-10383
▁प्रथा	-10384
▁बोलणार	-10385
▁समितीची	-10386
▁चक्रीवाद	-10387
ैर	-10388
ंडीज	-10389
ोरेज	-10390
्राट	-10391
्रीत	-10392
▁आणू	-10393
निर्भ	-10394
▁घट्ट	-10395
▁पट्ट	-10396
▁पथके	-10397
▁लिखा	-10398
▁अरोरा	-10399
▁बाळगा	-10400
नॉल	-10401
एनएस	-10402
खाना	-10403
शाळे	-10404
▁दळण	-10405
न्सिल	-10406
▁उचित	-10407
▁कडून	-10408
▁आवडतं	-10409
▁थांबा	-10410
▁भाग्य	-10411
▁मिळवत	-10412
पहिल्या	-10413
▁दाविदा	-10414
▁मालदीव	-10415
▁काहींनी	-10416
▁तीव्रता	-10417
▁वॉशिंग्टन	-10418
▁मुनगंटीवार	-10419
१२	-10420
ळले	-10421
▁vs	-10422
लाला	-10423
▁रोल	-10424
▁सोम	-10425
स्थित	-10426
▁इंजि	-10427
▁तातडी	-10428
▁तारखे	-10429
▁बाळगू	-10430
▁अस्पष्ट	-10431
▁मुलांचे	-10432
▁म्हणालो	-10433
▁कारागृहात	-10434
हवाग	-10435
्येत	-10436
▁जडेजा	-10437
▁ड्रग्	-10438
▁बोलायला	-10439
▁स्वतःचा	-10440
▁उपाययोजन	-10441
▁पुनरागमन	-10442
▁आयसीआयसीआय	-10443
▁प्रतिस्पर्	-10444
ir	-10445
र्डर	-10446
▁वान	-10447
▁आलेलं	-10448
▁जेम्स	-10449
▁मानली	-10450
▁शुभारंभ	-10451
▁उत्पन्‍न	-10452
▁मल्होत्रा	-10453
▁पुनरुत्थान	-10454
ठ्ठ	-10455
तर्	-10456
ष्प	-10457
▁तडा	-10458
▁बिब	-10459
धिकार	-10460
▁ग्लो	-10461
▁बिया	-10462
▁जावेद	-10463
पद्	-10464
सहा	-10465
▁अंज	-10466
▁अखंड	-10467
▁सवयी	-10468
▁नियमा	-10469
▁मिळवता	-10470
▁सोनाली	-10471
▁कारकीर्दी	-10472
▁निवडणुकांमध्ये	-10473
एनआय	-10474
वाहत	-10475
▁अलि	-10476
▁पेड	-10477
▁मंच	-10478
▁जपानी	-10479
▁ठेवतो	-10480
▁यावरुन	-10481
▁सृष्टी	-10482
▁अभ्यासा	-10483
▁इंडियाचे	-10484
▁अल्पसंख्या	-10485
▁रेल्वेमंत्री	-10486
▁४२	-10487
▁बुडा	-10488
▁हिरव	-10489
द्रयान	-10490
मत्त्व	-10491
▁आश्‍च	-10492
▁भांडण	-10493
▁आधीच्या	-10494
▁जिंकल्या	-10495
▁रस्त्याच्या	-10496
.9	-10497
गडे	-10498
डिय	-10499
व्‍	-10500
चलित	-10501
▁खाला	-10502
▁दावे	-10503
▁दुपार	-10504
▁पाडले	-10505
▁पियुष	-10506
▁उपयोगी	-10507
▁गुणधर्म	-10508
▁जीवनातील	-10509
▁कळते	-10510
▁आवर्ज	-10511
▁परवाना	-10512
▁योगदाना	-10513
▁स्टोरेज	-10514
▁स्विकार	-10515
▁कुटुंबीय	-10516
▁जाहिराती	-10517
▁बनवण्यासाठी	-10518
अम	-10519
▁रखड	-10520
▁लढती	-10521
▁क्षणी	-10522
▁गतीने	-10523
▁दूरसं	-10524
▁युनायटेड	-10525
काश्मीरमध्ये	-10526
▁महाविद्यालयात	-10527
देन	-10528
वळा	-10529
ांगी	-10530
▁खन्ना	-10531
▁येशूचे	-10532
▁रीत्या	-10533
▁देशपांडे	-10534
▁पहात	-10535
▁आढळतात	-10536
▁कुलभूषण	-10537
वल्यानंतर	-10538
▁म्हणूनही	-10539
▁पार्श्वभूमी	-10540
▁मतदारसंघातील	-10541
▁तस	-10542
▁आमचं	-10543
▁धरले	-10544
ंबळे	-10545
▁कॅप	-10546
▁टेक	-10547
▁चमचा	-10548
येशूने	-10549
▁तिथल्या	-10550
▁मल्याळम	-10551
▁मोदींचे	-10552
▁संस्कृत	-10553
▁अत्याचारा	-10554
▁इतिहासातील	-10555
▁कोच	-10556
▁मॅने	-10557
चित्रे	-10558
▁कम्युनि	-10559
▁विचारलं	-10560
▁गांधींना	-10561
▁व्यंकय्या	-10562
▁प्रशासनाकडून	-10563
▁नागरिकांमध्ये	-10564
उतार	-10565
पत्नी	-10566
▁शहरे	-10567
▁लढवली	-10568
▁हाणाम	-10569
▁उद्ध्वस्त	-10570
▁शास्त्रीय	-10571
▁नितीशकुमार	-10572
▁नद	-10573
▁जैव	-10574
▁नावि	-10575
▁ऑक्सि	-10576
▁इच्छुक	-10577
▁मंडळीतील	-10578
▁मांजरेकर	-10579
▁चौकट	-10580
▁तलाव	-10581
ंविषयी	-10582
▁सिद्धू	-10583
▁वर्तुळात	-10584
▁बायबलच्या	-10585
▁महोत्सवात	-10586
▁एकत्रितपणे	-10587
up	-10588
ंकन	-10589
वर्ध	-10590
हाला	-10591
▁मिस	-10592
▁विसरू	-10593
▁शोधमो	-10594
▁कोसळले	-10595
▁मंजूरी	-10596
▁संचालना	-10597
▁दूरध्वनी	-10598
▁कार्यक्रमाची	-10599
▁टाकत	-10600
▁शौचा	-10601
▁२०२०	-10602
▁उपदेश	-10603
▁तयारीत	-10604
▁भेदभाव	-10605
▁तेव्हाच	-10606
▁व्हायचे	-10607
▁स्वयंपाक	-10608
▁प्रयत्नात	-10609
▁विद्यार्थ्यांची	-10610
पुढील	-10611
ष्टीत	-10612
▁मेसेज	-10613
▁रिसर्च	-10614
▁नातवंडे	-10615
▁विधानपरिष	-10616
▁३९	-10617
देवा	-10618
▁अद्ययावत	-10619
▁राजपूतच्या	-10620
▁गं	-10621
▁४४	-10622
ल्डक	-10623
विवाद	-10624
ष्मान	-10625
▁तरूण	-10626
▁वसाह	-10627
▁२०११	-10628
▁फरहान	-10629
▁वर्तन	-10630
▁संकटा	-10631
विण्यास	-10632
▁सेल्सि	-10633
▁महिलेच्या	-10634
▁बीसीसीआयने	-10635
▁समाधानकारक	-10636
▁टू	-10637
द्रो	-10638
▁जतन	-10639
▁हिला	-10640
▁मिळवू	-10641
▁सायकल	-10642
▁बोलतात	-10643
▁गर्भवती	-10644
▁पश्चिमे	-10645
▁भेटायला	-10646
▁शेतकर्‍यांना	-10647
मोक	-10648
्‍य	-10649
▁34	-10650
▁हज	-10651
▁इफ्	-10652
▁खानचा	-10653
▁कंत्रा	-10654
▁सेहवाग	-10655
▁महिन्यांत	-10656
निर	-10657
▁(1	-10658
ंट्स	-10659
▁तशा	-10660
▁बीड	-10661
विणार	-10662
ऱ्याला	-10663
▁आवडला	-10664
▁अनैतिक	-10665
▁किंग्ज	-10666
▁कोणाचे	-10667
▁विरोधक	-10668
▁बॉम्बस्फोट	-10669
त्रे	-10670
▁स्पध	-10671
त्रिणी	-10672
▁पडसाद	-10673
▁परदेश	-10674
▁पोर्तु	-10675
▁निर्णयाचे	-10676
▁हेलिकॉप्टर	-10677
▁जिल्ह्यांमध्ये	-10678
२१	-10679
देड	-10680
वळून	-10681
▁काढता	-10682
▁बेंगळ	-10683
▁भूतान	-10684
▁मिळणे	-10685
▁सीतार	-10686
▁पत्नीला	-10687
▁पासवर्ड	-10688
▁मनोरंजन	-10689
▁देशवासिया	-10690
गोई	-10691
बाबू	-10692
र्ला	-10693
▁मातो	-10694
▁अग्निशामक	-10695
▁कालांतराने	-10696
▁मंत्रिमंडळात	-10697
णून	-10698
▁शार	-10699
विष्ट	-10700
दाच्या	-10701
▁दस्तऐव	-10702
त्यासाठी	-10703
▁मुलाच्या	-10704
▁नागरिकांची	-10705
यानक	-10706
▁199	-10707
जेक्ट	-10708
▁लातूर	-10709
▁असणारा	-10710
▁उत्तरं	-10711
▁तब्येत	-10712
▁बांधून	-10713
▁कायमस्वर	-10714
▁रिपब्लिक	-10715
▁सर्वसामान	-10716
▁आंदोलकांनी	-10717
गेट	-10718
नंट	-10719
तीचा	-10720
भक्त	-10721
▁अॅड	-10722
लांनी	-10723
▁वयोग	-10724
▁जोरात	-10725
▁तिसरे	-10726
▁खोल्या	-10727
▁त्याआधी	-10728
▁स्त्रोत	-10729
प्रतिनिधी	-10730
,’’	-10731
-18	-10732
षार	-10733
िमा	-10734
▁चल	-10735
▁खुश	-10736
▁आजचा	-10737
▁ट्रॉ	-10738
लीच्या	-10739
▁दानवे	-10740
संस्कार	-10741
▁कुंबळे	-10742
▁दवाखान	-10743
▁प्रश्नच	-10744
▁अनुषंगाने	-10745
▁उदाहरणार्थ	-10746
▁सुनावण्यात	-10747
११	-10748
डीए	-10749
लेन	-10750
▁मरी	-10751
▁गोगोई	-10752
▁चार्ज	-10753
▁तणावाचे	-10754
▁बंधुभगिनी	-10755
▁कॉन्फरन्सिंग	-10756
थर	-10757
रोड	-10758
एमएस	-10759
डक्यात	-10760
द्याला	-10761
▁तेवढे	-10762
▁नाहीतर	-10763
▁भावनिक	-10764
ur	-10765
्रल	-10766
▁33	-10767
मधले	-10768
▁400	-10769
▁बेड	-10770
्युअल	-10771
▁मुलीची	-10772
▁हेक्टर	-10773
▁वाढल्या	-10774
▁महिंद्रा	-10775
▁महामार्गावरील	-10776
ॅग	-10777
▁अभूत	-10778
▁तोडफोड	-10779
▁बक्षीस	-10780
▁चर्चेला	-10781
▁मंडळाने	-10782
ण्यासारखे	-10783
▁इंग्लंडने	-10784
वीस	-10785
▁in	-10786
ल्डकप	-10787
▁चक्क	-10788
▁बजेट	-10789
▁बॅंक	-10790
▁सामु	-10791
जागतिक	-10792
पाठोपाठ	-10793
▁शिष्यांना	-10794
ऑस्ट्रेलिया	-10795
▁बांग्लादेश	-10796
फेअर	-10797
माझे	-10798
▁छेड	-10799
▁जिन	-10800
▁मेन	-10801
▁अपडेट	-10802
▁अय्यर	-10803
▁आढळला	-10804
इंग्रजी	-10805
मित्रहो	-10806
▁मनोरंज	-10807
ऱ्याच्या	-10808
▁विक्रमी	-10809
▁तेलाच्या	-10810
▁नेमण्यात	-10811
करणीय	-10812
ेशन्स	-10813
▁असाही	-10814
▁हातून	-10815
▁मिलिंद	-10816
▁नोटाबंदी	-10817
▁o	-10818
ारक	-10819
पाठी	-10820
▁धाक	-10821
▁चालते	-10822
▁गमवावा	-10823
▁दौऱ्यात	-10824
य्यद	-10825
▁तुर	-10826
▁मसा	-10827
ितीने	-10828
▁तोही	-10829
▁आढळली	-10830
▁इतकेच	-10831
▁गाठली	-10832
▁प्रोट	-10833
▁वादळी	-10834
▁चित्रे	-10835
▁विदर्भ	-10836
ag	-10837
हम	-10838
गुरु	-10839
मिता	-10840
ह्या	-10841
ियान	-10842
िंचवड	-10843
क्‍तिक	-10844
▁दळणवळ	-10845
▁लिहिलं	-10846
▁करिंथकर	-10847
▁नियंत्रित	-10848
▁कोरोनाबाधित	-10849
▁राष्ट्रपतींनी	-10850
ww	-10851
पीआय	-10852
यकुमार	-10853
▁अब्बास	-10854
▁मृतांची	-10855
▁हेदेखील	-10856
▁युरोपियन	-10857
▁पाकिस्तानातील	-10858
▁"–	-10859
गाची	-10860
▁दणद	-10861
▁नसे	-10862
ळामुळे	-10863
▁करीना	-10864
▁पाहणे	-10865
▁सापळा	-10866
.""""""	-10867
मोहम्मद	-10868
करणाच्या	-10869
▁सेवाकार	-10870
▁अध्यक्षतेखालील	-10871
झॉन	-10872
▁खेर	-10873
▁पंकज	-10874
समावेश	-10875
▁पुरूष	-10876
▁मनाला	-10877
▁राजवट	-10878
▁राष्ट	-10879
▁रिमेक	-10880
▁राज्यांनी	-10881
▁दुर्दैवाने	-10882
▁गोप	-10883
▁रसिक	-10884
▁खंडित	-10885
आपल्याला	-10886
▁आयोगाचे	-10887
▁मराठवाडा	-10888
▁सॉफ्टवेअर	-10889
▁वैध	-10890
गृहात	-10891
▁महाड	-10892
▁मिरव	-10893
पुरावा	-10894
▁निवार	-10895
▁भयानक	-10896
▁गोविंद	-10897
▁निवासी	-10898
▁अमरावती	-10899
भारताच्या	-10900
▁निर्धारित	-10901
▁श्रीनिवास	-10902
साठ	-10903
▁गोल्ड	-10904
▁डान्स	-10905
▁प्रवाह	-10906
▁लहानपणा	-10907
▁क्रिकेटर	-10908
▁वाहनचालक	-10909
▁ट्विटरवरून	-10910
▁हायकोर्टात	-10911
पीत	-10912
▁अवय	-10913
▁आचार	-10914
▁व्हॅ	-10915
▁सर्ज	-10916
▁सार्वभौ	-10917
▁ज्याच्या	-10918
▁अजिंक्यपद	-10919
▁इंटरनॅशनल	-10920
▁वर्षांनंतर	-10921
▁सप	-10922
▁हादर	-10923
मेंद्र	-10924
▁घेवून	-10925
▁नवनवीन	-10926
▁कोरोनाचा	-10927
▁राज्याला	-10928
▁रुग्णांचा	-10929
▁निवडणुकीची	-10930
▁विद्यार्थ्यांचा	-10931
ोली	-10932
▁ठरा	-10933
वहारा	-10934
▁इस्प	-10935
▁घेते	-10936
▁पाठवून	-10937
▁अभूतपूर्व	-10938
▁समाविष्टीत	-10939
▁महाविद्यालये	-10940
▁कोट	-10941
▁होर	-10942
वणारे	-10943
▁घेणं	-10944
▁आयुर्	-10945
▁सुब्र	-10946
▁खुनाचा	-10947
▁वर्तवली	-10948
पाय	-10949
▁गाढ	-10950
हाबाद	-10951
▁जुना	-10952
▁लिहा	-10953
बाच्या	-10954
▁कार्बन	-10955
▁धोनीने	-10956
▁डोक्यावर	-10957
▁दिव्यांग	-10958
इम	-10959
षि	-10960
लचे	-10961
एमआर	-10962
फ्टी	-10963
▁फॅशन	-10964
▁नाबाद	-10965
▁दणदणीत	-10966
▁मास्टर	-10967
▁भारतानं	-10968
▁साम्राज	-10969
▁प्रयोगशाळा	-10970
वये	-10971
▁पन	-10972
कीचा	-10973
रेगाव	-10974
▁सेमी	-10975
▁तितकी	-10976
▁निश्च	-10977
▁मेक्स	-10978
▁जन्मठे	-10979
▁प्रदूष	-10980
▁येणारा	-10981
▁आरोग्या	-10982
▁अस्तित्व	-10983
▁रुग्णांच्या	-10984
भु	-10985
तास	-10986
ारस	-10987
▁आळ	-10988
पणाचे	-10989
▁पोषण	-10990
▁विद्	-10991
▁संपत	-10992
▁हिंग	-10993
▁प्रभास	-10994
▁आमंत्रित	-10995
▁नागरिकांचा	-10996
um	-10997
ut	-10998
▁मसु	-10999
दर्शी	-11000
पोरेट	-11001
▁तरुणाला	-11002
▁त्यालाही	-11003
▁राज्यभरात	-11004
▁कॉंग्रेसच्या	-11005
CC	-11006
ेतर	-11007
ेशल	-11008
र्डी	-11009
▁मनः	-11010
वलेली	-11011
कश्मीर	-11012
▁तुषार	-11013
▁रेडिओ	-11014
▁नोकरीत	-11015
▁चर्चेचा	-11016
▁समाजाला	-11017
त्यामध्ये	-11018
▁रम	-11019
▁गिर	-11020
क्रमण	-11021
▁कथित	-11022
▁धुवा	-11023
▁नाकारली	-11024
▁अयोध्येत	-11025
▁येणाऱ्‍या	-11026
▁सहकार्याने	-11027
▁इलेक्ट्रॉनिक	-11028
कप	-11029
घाड	-11030
▁आशे	-11031
स्थळी	-11032
▁घडलं	-11033
▁मोरे	-11034
▁राजू	-11035
▁लढाईत	-11036
▁मुसलमान	-11037
▁गोष्टीचा	-11038
▁म्हणायचे	-11039
▁निर्णयाचा	-11040
▁प्रतिपादन	-11041
▁टक्क्यांपर्यंत	-11042
जेल	-11043
▁दोघा	-11044
▁प्रि	-11045
▁लागा	-11046
▁वाणी	-11047
▁एनडीआरएफ	-11048
▁पाठपुरावा	-11049
धाव	-11050
मुला	-11051
▁ओदि	-11052
▁भाई	-11053
▁शशी	-11054
▁हनु	-11055
▁अडीच	-11056
▁अमृत	-11057
▁गदार	-11058
▁गाणं	-11059
▁ओबामा	-11060
▁धडकेत	-11061
▁बाह्य	-11062
▁सिंधु	-11063
▁अखेरीस	-11064
▁सातत्य	-11065
▁2018-19	-11066
▁वैयक्‍तिक	-11067
▁व्यक्तीचा	-11068
▁किनारपट्टी	-11069
▁पुनरावृत्ती	-11070
▁विद्यापीठातील	-11071
▁इतक	-11072
▁अपील	-11073
▁तुकड	-11074
▁राहिल	-11075
शिवसेने	-11076
▁श्रीराम	-11077
▁प्रसारित	-11078
▁राज्यांत	-11079
▁महापालिकेच्या	-11080
ण्य	-11081
▁लाद	-11082
यांवर	-11083
▁पडते	-11084
▁आम्हा	-11085
▁टायगर	-11086
▁फायद्या	-11087
▁मानवजात	-11088
ऱ्यांच्या	-11089
▁युवकांना	-11090
थन	-11091
मिन	-11092
▁’’	-11093
▁अजुन	-11094
▁आर्ट	-11095
▁उभ्या	-11096
▁अयोग्य	-11097
▁हातभार	-11098
ळवळ	-11099
ळीस	-11100
▁उग	-11101
काळा	-11102
मधला	-11103
▁सोब	-11104
▁उद्भ	-11105
▁कळेल	-11106
▁फुले	-11107
▁आगीचे	-11108
▁जवळचे	-11109
▁संचार	-11110
▁वागणूक	-11111
▁हद्दीत	-11112
▁गोव्याचे	-11113
नीत	-11114
खाने	-11115
▁बेल	-11116
▁रणदीप	-11117
▁अन्यथा	-11118
▁जनतेचे	-11119
▁आजपासून	-11120
▁पक्षांचे	-11121
▁सेल्सिअस	-11122
▁विभागातील	-11123
▁"1	-11124
मागचे	-11125
▁सौंद	-11126
विण्या	-11127
▁कोणतं	-11128
▁निसर्	-11129
▁मंगेश	-11130
▁इस्पित	-11131
▁पोहचले	-11132
▁मिळावी	-11133
▁उत्तरात	-11134
विरोधातील	-11135
▁सांगायचे	-11136
▁ठेवण्याची	-11137
फाई	-11138
▁४९	-11139
▁गेम	-11140
▁पिव	-11141
▁जीवा	-11142
▁पुला	-11143
▁रूपात	-11144
▁वाचले	-11145
▁आरोग्यावर	-11146
▁सार्वकालिक	-11147
▁परिस्थितीवर	-11148
धाण	-11149
हशा	-11150
क्चर	-11151
णेकर	-11152
गुजरात	-11153
▁परिक्ष	-11154
▁येण्यास	-11155
▁राजकारणी	-11156
▁गोष्टींवर	-11157
▁रोजगाराच्या	-11158
▁पुरस्कारासाठी	-11159
बुल	-11160
▁प्रॉ	-11161
▁लिंग	-11162
▁ओडिशा	-11163
▁पदाची	-11164
समावेशक	-11165
▁घटनेचे	-11166
▁निर्या	-11167
▁सानिया	-11168
▁परमेश्‍वर	-11169
्यांविरोधात	-11170
▁पंतप्रधानांना	-11171
्षक	-11172
▁थि	-11173
▁काज	-11174
▁यशा	-11175
▁लाच	-11176
▁अर्धा	-11177
▁तीनही	-11178
▁तेथेच	-11179
▁यशवंत	-11180
▁करावेत	-11181
▁लोकांस	-11182
▁गुंतागु	-11183
▁सालच्या	-11184
▁आश्‍वासन	-11185
▁मार्गांनी	-11186
▁कॉर्पोरेशन	-11187
▁कुटुंबियांना	-11188
ासी	-11189
स्पे	-11190
▁बेथे	-11191
▁वागा	-11192
▁प्लॅन	-11193
▁वयोगट	-11194
▁शेजार	-11195
▁स्टील	-11196
पेक्षाही	-11197
▁सुरुवाती	-11198
▁आक्षेपार्ह	-11199
▁प्रदेशमधील	-11200
सरा	-11201
▁सईद	-11202
▁टीझर	-11203
▁नगरा	-11204
▁सवलत	-11205
▁साधी	-11206
▁आईवडील	-11207
▁नेहवाल	-11208
▁वर्ल्डकप	-11209
▁नागरिकांचे	-11210
▁मुंबईमध्ये	-11211
आई	-11212
▁गिल	-11213
▁नवर	-11214
▁तिमा	-11215
▁भिती	-11216
▁विदेश	-11217
▁नाविन्य	-11218
▁तिच्यासोबत	-11219
▁साक्षीदारांच्या	-11220
▁मेघ	-11221
▁वेश	-11222
प्रश्	-11223
शाळेत	-11224
▁फिरव	-11225
▁म्हणावे	-11226
▁युनिव्ह	-11227
▁वैवाहिक	-11228
▁गोष्टीची	-11229
▁संगीतकार	-11230
पृ	-11231
म्बा	-11232
▁चवी	-11233
▁डेब	-11234
▁कामं	-11235
▁बदलू	-11236
▁भक्त	-11237
यानंतर	-11238
▁टॅक्स	-11239
▁प्रत्या	-11240
▁विश्वनाथ	-11241
▁कामगारांना	-11242
▁भविष्यातील	-11243
खू	-11244
िद	-11245
▁42	-11246
वेसी	-11247
▁बाई	-11248
वीकडे	-11249
▁पेपर	-11250
▁मानस	-11251
▁शकाल	-11252
पद्धती	-11253
▁आठवडा	-11254
▁क्रूर	-11255
▁गटनेते	-11256
▁संपन्न	-11257
▁मृतांच्या	-11258
▁आपो	-11259
▁फॉलो	-11260
▁एटीएम	-11261
▁शेतात	-11262
इस्राएल	-11263
▁राज्यसभा	-11264
▁सेन्सेक्स	-11265
▁परिणामकारक	-11266
▁दिवसांमध्ये	-11267
▁परमेश्वराची	-11268
ोले	-11269
हळणी	-11270
▁झटक	-11271
▁सरी	-11272
▁असंच	-11273
▁चाला	-11274
▁वन्य	-11275
▁ऑलिंप	-11276
▁गैरसो	-11277
▁वर्गात	-11278
नॅ	-11279
पाच	-11280
डीवर	-11281
हुना	-11282
एसएमई	-11283
माबाद	-11284
▁उपनग	-11285
▁गावक	-11286
▁जगाचा	-11287
▁ज्योति	-11288
▁ठरविले	-11289
करणासाठी	-11290
▁बना	-11291
▁वळून	-11292
▁वाळव	-11293
▁गुंडा	-11294
देवाच्या	-11295
▁फेटाळले	-11296
▁सुव्यवस्था	-11297
मीत	-11298
मिरी	-11299
▁सीए	-11300
▁असलं	-11301
▁दागि	-11302
▁नवरा	-11303
▁नैरा	-11304
▁लक्षण	-11305
▁संमेल	-11306
▁सोडली	-11307
विज्ञान	-11308
▁उत्पन्	-11309
▁कोणताच	-11310
▁हरयाणा	-11311
▁हॉलिवूड	-11312
▁राहण्याचे	-11313
▁आया	-11314
▁स्मर	-11315
बिहारी	-11316
▁आपोआप	-11317
▁बेस्ट	-11318
▁मिरची	-11319
▁स्फोटा	-11320
▁जयललिता	-11321
▁हंगामात	-11322
▁उपजिल्हा	-11323
▁कार्यकार	-11324
▁शरीरातील	-11325
▁ठेवण्याचा	-11326
▁प्रकरणावर	-11327
▁स्थानिकांनी	-11328
▁मत्	-11329
रोहित	-11330
▁टँकर	-11331
वेन्टी	-11332
▁आणीबा	-11333
कामध्ये	-11334
▁भारतावर	-11335
▁प्लॅटफॉर्म	-11336
भी	-11337
मंत्रि	-11338
▁हुशार	-11339
▁पर्यवे	-11340
▁येणारी	-11341
▁शोधण्यासाठी	-11342
डला	-11343
▁कन	-11344
्सून	-11345
▁अंडी	-11346
▁सुरे	-11347
स्वच्छ	-11348
▁अर्जा	-11349
▁युक्ति	-11350
▁विंडीज	-11351
▁शक्‍यता	-11352
▁यानिमित्त	-11353
अह	-11354
शीलता	-11355
▁इंडी	-11356
▁नीती	-11357
▁शुक्	-11358
तेमुळे	-11359
▁मधुमेह	-11360
▁कारवाईत	-11361
▁आठवडय़ात	-11362
▁पराभवाचा	-11363
▁सर्वतोपरी	-11364
▁अर्थव्यवस्थेला	-11365
यती	-11366
स्मात	-11367
▁बोली	-11368
ंबहुना	-11369
स्त्रे	-11370
▁ओळखली	-11371
▁तमिळनाडू	-11372
▁क्षेपणास्त्र	-11373
▁घटनास्थळावरून	-11374
न्यु	-11375
त्रिम	-11376
▁जुनी	-11377
▁लखनौ	-11378
निर्भर	-11379
▁ऑस्कर	-11380
▁आरोपीने	-11381
▁समजावून	-11382
▁जीवनाच्या	-11383
२२	-11384
▁गंग	-11385
▁दुध	-11386
▁नांदेड	-11387
▁शमुवेल	-11388
▁स्टीव्ह	-11389
▁राखण्यासाठी	-11390
▁लष्करप्रमुख	-11391
सुर	-11392
▁७५	-11393
पदाचे	-11394
वणारी	-11395
त्वाचा	-11396
▁उमेदव	-11397
▁तलवार	-11398
▁रसायन	-11399
▁जनतेची	-11400
्न	-11401
तही	-11402
मकु	-11403
दिया	-11404
▁कॅथ	-11405
▁दुबई	-11406
▁पर्रीकर	-11407
▁लाभार्थ	-11408
▁हिरव्या	-11409
▁आश्‍चर्य	-11410
▁भारताकडे	-11411
▁शिष्टमंड	-11412
▁संध्याकाळ	-11413
कूळ	-11414
भूल	-11415
ापन	-11416
▁आगमन	-11417
▁माणसं	-11418
▁मंदिरा	-11419
▁व्यर्थ	-11420
▁विश्लेषण	-11421
पॅ	-11422
गडी	-11423
मेन	-11424
यशस्वी	-11425
्यामुळे	-11426
▁पेमेंट	-11427
▁मुक्तता	-11428
▁घटनेच्या	-11429
▁जामिनावर	-11430
▁सर्वेक्ष	-11431
▁उद्योगपती	-11432
एसई	-11433
खाल	-11434
मोन	-11435
माझी	-11436
▁श्रम	-11437
माहिती	-11438
लकृष्ण	-11439
स्त्री	-11440
▁निलंब	-11441
▁साधून	-11442
▁मार्गी	-11443
▁वर्षाव	-11444
▁शिकवले	-11445
▁जलसंपदा	-11446
▁रक्तदाब	-11447
▁एकमेकांवर	-11448
▁कार्यक्षम	-11449
▁व्हॉट्सअॅप	-11450
▁क्षेत्रातल्या	-11451
▁सुधारण्यासाठी	-11452
ox	-11453
टि	-11454
भूती	-11455
▁आकां	-11456
▁कांब	-11457
▁गप्पा	-11458
▁वापरत	-11459
व्याप्त	-11460
▁अनावरण	-11461
▁बाळाला	-11462
▁स्वभाव	-11463
▁ठेवण्यास	-11464
▁लागलेल्या	-11465
▁शाळांमध्ये	-11466
▁कायद्यानुसार	-11467
कीम	-11468
कोल	-11469
सोह	-11470
▁छोटी	-11471
▁पतीला	-11472
▁बायोप	-11473
▁किल्ला	-11474
▁थायलंड	-11475
▁सिद्दी	-11476
▁नोंदविला	-11477
▁व्यक्तीच्या	-11478
▁प्रत्येकाच्या	-11479
ूच	-11480
ंजी	-11481
स्म	-11482
होर	-11483
▁पून	-11484
संरक्षण	-11485
▁जनतेचा	-11486
▁आवर्जून	-11487
▁विमानतळा	-11488
▁नियतकालिक	-11489
सका	-11490
्रॉ	-11491
▁--	-11492
▁38	-11493
▁44	-11494
▁रथ	-11495
नाशी	-11496
▁अम्	-11497
▁बोध	-11498
ंमधील	-11499
▁लसूण	-11500
▁लावत	-11501
शिक्षण	-11502
▁आवडतो	-11503
▁भाकीत	-11504
▁समजूत	-11505
▁जागरूक	-11506
▁विभाजन	-11507
▁गुजराती	-11508
ांदरम्यान	-11509
▁लाखांहून	-11510
▁विचारसरणी	-11511
र्मि	-11512
▁ताफ	-11513
▁भूप	-11514
▁लोह	-11515
सायला	-11516
▁अधीन	-11517
▁उधाण	-11518
▁वैमान	-11519
▁शिकलो	-11520
▁अलिकडे	-11521
▁कंपनीत	-11522
▁गमावले	-11523
▁गेलेली	-11524
▁संस्कार	-11525
▁जगातल्या	-11526
▁सीबीआयकडे	-11527
माझा	-11528
कृतीत	-11529
▁आमीर	-11530
▁ग्रो	-11531
▁सक्ष	-11532
▁उच्चा	-11533
▁जायचं	-11534
▁टंचाई	-11535
▁पर्यट	-11536
▁भूमिक	-11537
▁वस्ती	-11538
▁देशांचे	-11539
वाकांक्षी	-11540
▁मांडण्यात	-11541
▁कलाकारांनी	-11542
▁कर्नाटकातील	-11543
,5	-11544
हिता	-11545
▁आपत्	-11546
▁खाणे	-11547
▁ज्यु	-11548
▁देओल	-11549
वर्गीय	-11550
▁तडजोड	-11551
▁नगरसेव	-11552
▁वरच्या	-11553
▁क्रेडिट	-11554
▁पडताळणी	-11555
▁मुंबईचे	-11556
ांप्रमाणे	-11557
▁फोनमध्ये	-11558
▁आयपीएलच्या	-11559
यिक	-11560
▁उस्	-11561
पेक्ष	-11562
▁कोलकात	-11563
▁बांधले	-11564
▁सुरक्षितता	-11565
एत	-11566
हिक	-11567
▁इमर	-11568
▁भरत	-11569
▁बुरू	-11570
▁पुर्ण	-11571
▁लेफ्ट	-11572
▁कांद्या	-11573
▁बायोपिक	-11574
▁जिल्हाध्यक्ष	-11575
कले	-11576
कॉन	-11577
▁४३	-11578
इतके	-11579
मण्य	-11580
▁एकटे	-11581
▁टेबल	-11582
▁पार्ट	-11583
▁निदर्शनास	-11584
▁आयुष्यातील	-11585
▁वर्षांमध्ये	-11586
de	-11587
ग्राम	-11588
धारित	-11589
▁मीरा	-11590
▁अश्या	-11591
▁उद्भव	-11592
▁कुणीच	-11593
▁ठरवलं	-11594
▁सोडला	-11595
▁हिरवा	-11596
▁गाण्या	-11597
▁मद्रास	-11598
ण्यापूर्वी	-11599
▁`	-11600
नचा	-11601
▁पुज	-11602
गोपाल	-11603
▁औषधी	-11604
▁स्वि	-11605
▁सय्यद	-11606
▁सरपंच	-11607
▁गेहलोत	-11608
▁खेळताना	-11609
▁अध्यादेश	-11610
▁नजीकच्या	-11611
▁संतापाची	-11612
तेय	-11613
लाइ	-11614
िकास	-11615
▁तारण	-11616
▁निम्	-11617
तेश्वर	-11618
▁ठेवता	-11619
▁वाटला	-11620
त्यांची	-11621
▁कोसळली	-11622
▁निविदा	-11623
▁शेवटची	-11624
्यांमधील	-11625
▁खासकरून	-11626
▁घ्यायचा	-11627
वाशी	-11628
हुबली	-11629
▁जखमा	-11630
▁साधे	-11631
▁परतला	-11632
▁स्थगित	-11633
▁आरोपीचा	-11634
▁इस्रायल	-11635
▁राज्यघटने	-11636
▁वाढदिवसाच्या	-11637
ियस	-11638
धारा	-11639
ून्य	-11640
▁आवर	-11641
▁झेल	-11642
सायनिक	-11643
▁व्हाल	-11644
प्राप्त	-11645
▁तत्त्वे	-11646
▁लॉकडाउन	-11647
ID	-11648
दह	-11649
▁पोल	-11650
▁बघू	-11651
▁वाळ	-11652
पोलीस	-11653
भाविक	-11654
▁निव्	-11655
▁यज्ञ	-11656
▁तीमथ्य	-11657
▁तिघांचा	-11658
▁पुतळ्या	-11659
▁सशस्त्र	-11660
▁ट्वेन्टी	-11661
पीजी	-11662
केदार	-11663
▁मसूद	-11664
▁माती	-11665
रेल्वे	-11666
▁चिमुक	-11667
▁अशुद्ध	-11668
▁कोणावर	-11669
▁विजेता	-11670
▁मृतांचा	-11671
▁स्पर्धेसाठी	-11672
▁टॉप	-11673
▁बुल	-11674
कोविड	-11675
▁तिकिट	-11676
▁तोडून	-11677
▁निवडक	-11678
▁पार्किंग	-11679
▁अत्याधुनिक	-11680
यका	-11681
ोषण	-11682
एनजी	-11683
▁आसा	-11684
▁टेल	-11685
▁हरी	-11686
▁ओळखी	-11687
ंपारिक	-11688
▁आवडली	-11689
▁एनआयए	-11690
▁बैठका	-11691
▁राजाला	-11692
▁गुप्तचर	-11693
ch	-11694
▁ऊस	-11695
▁मजल	-11696
▁कश्य	-11697
▁पत्क	-11698
▁ट्रोल	-11699
▁विकार	-11700
▁सिंचन	-11701
▁स्तंभ	-11702
परमेश्वरा	-11703
▁आमदारांना	-11704
▁गौरवण्यात	-11705
▁दुष्परिणाम	-11706
▁इंग्लंडच्या	-11707
▁*	-11708
अनु	-11709
्रु	-11710
नीती	-11711
▁बॉय	-11712
▁मोब	-11713
▁सपा	-11714
▁दैवत	-11715
▁साधा	-11716
आर्थिक	-11717
▁फॅन्स	-11718
▁निश्‍चितच	-11719
लॉ	-11720
▁रै	-11721
पातळी	-11722
▁सांड	-11723
ुरप्पा	-11724
▁शत्रु	-11725
नावश्यक	-11726
▁पुष्टी	-11727
▁पिकांचे	-11728
▁कॅमेऱ्यात	-11729
लॅ	-11730
चिक	-11731
वडर	-11732
▁साधत	-11733
▁आश्रय	-11734
▁चिन्हे	-11735
▁मिर्झा	-11736
▁त्रिपाठी	-11737
▁दिल्याचे	-11738
▁आंदोलकांना	-11739
▁लालूप्रसाद	-11740
▁उमेदवारांना	-11741
▁निरनिराळ्या	-11742
▁पक्षाध्यक्ष	-11743
▁अंत्यसंस्कार	-11744
खट	-11745
ेस	-11746
खास	-11747
▁एड	-11748
▁६५	-11749
▁बोग	-11750
मार्ट	-11751
▁अवयव	-11752
▁भावी	-11753
▁रचला	-11754
▁संपली	-11755
▁साखरे	-11756
▁बँकिंग	-11757
विलेल्या	-11758
▁मान्सून	-11759
▁लाखांची	-11760
▁बहिष्कार	-11761
▁म्हणण्या	-11762
▁संदेष्टा	-11763
▁घटनांमध्ये	-11764
▁पुनरुच्चार	-11765
कम	-11766
डप	-11767
पिता	-11768
▁कले	-11769
अभिने	-11770
वैद्य	-11771
वसाहेब	-11772
▁इशांत	-11773
▁देखभाल	-11774
▁इंग्लिश	-11775
▁कादंबरी	-11776
▁कोणालाच	-11777
▁चौकशीची	-11778
▁यासोबतच	-11779
▁बिहारच्या	-11780
▁केल्याच्या	-11781
▁सुरक्षेसाठी	-11782
टित	-11783
▁ढा	-11784
ऱ्हा	-11785
▁मास	-11786
▁अकरा	-11787
▁रेखा	-11788
▁खायला	-11789
डब्ल्यू	-11790
▁आरोपही	-11791
▁स्पेशल	-11792
▁ऑलिंपिक	-11793
▁दिशाभूल	-11794
▁रविंद्र	-11795
▁दूरसंचार	-11796
▁पिण्याच्या	-11797
▁प्रशासनाला	-11798
▁प्रेषितांची	-11799
▁बलात्काराचा	-11800
किं	-11801
▁चु	-11802
झेशन	-11803
टर्स	-11804
▁झोन	-11805
▁संकु	-11806
▁बुरूज	-11807
▁भांडवल	-11808
▁रॉबर्ट	-11809
▁सक्षमी	-11810
▁वाचायला	-11811
▁अटलबिहारी	-11812
▁बिहारमधील	-11813
▁लोकप्रियता	-11814
▁प्रकरणाच्या	-11815
▁तंत्रज्ञानाच्या	-11816
बड	-11817
कता	-11818
▁धी	-11819
शाने	-11820
ात्य	-11821
▁तुरळक	-11822
▁वादात	-11823
▁दुष्का	-11824
▁हंगामी	-11825
▁विमानात	-11826
▁विधेयकाला	-11827
▁प्रवाशांची	-11828
▁नॅ	-11829
▁केन	-11830
▁रॅम	-11831
▁सदा	-11832
▁छपाई	-11833
▁दुधा	-11834
▁रागा	-11835
▁लखनऊ	-11836
▁ब्लॉक	-11837
▁केरळमधील	-11838
▁त्यानंतरही	-11839
▁पृथ्वीच्या	-11840
▁आत्महत्येचे	-11841
▁सर्वसमावेशक	-11842
▁J	-11843
तंच	-11844
ष्‍	-11845
▁बर्फ	-11846
▁मेघा	-11847
▁इंद्र	-11848
▁काढणे	-11849
▁बक्षि	-11850
▁येडिय	-11851
▁पदवीधर	-11852
▁लोकार्	-11853
▁पुस्तकं	-11854
▁अधिसूचना	-11855
▁माझ्याशी	-11856
▁समारंभात	-11857
त्याचबरोबर	-11858
▁ग्रामपंचा	-11859
▁प्रश्‍नांची	-11860
▁क्षेत्रांमध्ये	-11861
▁बनू	-11862
नीकरण	-11863
▁स्वब	-11864
▁मनाने	-11865
▁तपासून	-11866
▁कुमारने	-11867
▁प्रजाती	-11868
▁मुलींना	-11869
▁संघटनेचा	-11870
▁प्रकटीकरण	-11871
▁शू	-11872
सैनिक	-11873
▁द्वी	-11874
▁समीर	-11875
द्वारा	-11876
▁अस्थिर	-11877
▁सौंदर्य	-11878
▁बुद्धिमान	-11879
काश्मीरमधील	-11880
▁जखम	-11881
▁रिच	-11882
गावकर	-11883
▁आदान	-11884
▁नावा	-11885
▁२०१०	-11886
▁खड्डे	-11887
▁राहता	-11888
▁खेळाडूंनी	-11889
▁याप्रसंगी	-11890
▁युक्तिवाद	-11891
▁सदस्यांना	-11892
मै	-11893
▁टॅब	-11894
▁सिड	-11895
नादेश	-11896
मार्क	-11897
दक्षिण	-11898
▁दर्जे	-11899
▁आधारीत	-11900
▁आल्यास	-11901
▁बांधली	-11902
▁यात्रा	-11903
▁दर्शवला	-11904
▁बंगळुरु	-11905
▁बोलायचे	-11906
बदल	-11907
भाषा	-11908
श्‍य	-11909
▁मनाई	-11910
▁कंटेन	-11911
▁ग्रीन	-11912
▁जागृत	-11913
▁पुतळा	-11914
▁लागवड	-11915
▁षटकात	-11916
▁मिळावा	-11917
▁रंगणार	-11918
▁रावसाहेब	-11919
▁धर्मेंद्र	-11920
▁व्यक्तिगत	-11921
▁सीबीआयच्या	-11922
▁व्यासपीठावर	-11923
टात	-11924
हिणी	-11925
▁बुड	-11926
शेवटी	-11927
▁टपाल	-11928
▁वयात	-11929
▁चोप्र	-11930
▁स्वरुप	-11931
▁अश्विनी	-11932
▁औपचारिक	-11933
▁पदासाठी	-11934
▁संशयितांना	-11935
▁आत्म्याच्या	-11936
ap	-11937
▁b	-11938
दीत	-11939
मत्व	-11940
▁परम	-11941
▁मुळ	-11942
▁लंक	-11943
▁भिंत	-11944
▁काटेक	-11945
▁खेळले	-11946
▁हंगाम	-11947
▁धर्माच्या	-11948
▁लग्नाच्या	-11949
ht	-11950
िनर	-11951
फ्रि	-11952
▁डाग	-11953
बाह्य	-11954
▁गावे	-11955
▁रॅली	-11956
व्हीएम	-11957
सुध्दा	-11958
▁विष्ण	-11959
▁साचले	-11960
▁शकलेली	-11961
▁प्रतिज्ञ	-11962
हिम	-11963
▁अझ	-11964
▁४१	-11965
▁५५	-11966
ठ्ठी	-11967
▁शिं	-11968
▁शिम	-11969
▁इथेच	-11970
डीच्या	-11971
▁अप्पर	-11972
▁उर्जे	-11973
▁डोक्यात	-11974
▁दुरुस्त	-11975
▁विजयासह	-11976
▁आयुष्मान	-11977
▁गुन्ह्याची	-11978
फन	-11979
दूळ	-11980
सले	-11981
▁चाक	-11982
सूत्र	-11983
▁जावई	-11984
▁वादळ	-11985
▁संमती	-11986
▁ऐकायला	-11987
▁अयोध्ये	-11988
▁खोऱ्यात	-11989
▁वेबसाइट	-11990
मंत्रिमंडळ	-11991
▁सत्तास्थापने	-11992
▁सामन्यांमध्ये	-11993
ंदु	-11994
कोप	-11995
तुर	-11996
सीन	-11997
▁उचलून	-11998
▁गोपाळ	-11999
▁अयशस्वी	-12000
▁यांच्याबरोबर	-12001
न्‍	-12002
शाह	-12003
ेरी	-12004
▁49	-12005
▁उशी	-12006
▁खोळ	-12007
▁टोल	-12008
▁चळवळ	-12009
▁डायरे	-12010
▁स्वार	-12011
▁रिक्षा	-12012
▁पत्नीने	-12013
▁खात्याचे	-12014
▁दवाखान्यात	-12015
▁आरोग्याच्या	-12016
▁वारे	-12017
▁२००८	-12018
▁अगदीच	-12019
▁स्वभा	-12020
▁ठेवतात	-12021
▁दक्षता	-12022
▁वापरता	-12023
▁व्यक्तीने	-12024
दुसरी	-12025
▁मुहू	-12026
▁शोधत	-12027
▁पावडर	-12028
▁फ्रंट	-12029
▁रोमकर	-12030
▁गदारोळ	-12031
▁पाठिंब	-12032
▁थोड्याच	-12033
▁विलक्षण	-12034
▁साहजिकच	-12035
▁रासायनिक	-12036
▁तालुक्यात	-12037
▁नेत्यांच्या	-12038
!""	-12039
▁ऐन	-12040
▁टोपे	-12041
▁लावा	-12042
मानाचा	-12043
▁संयोज	-12044
▁आंदोलक	-12045
▁वेळातच	-12046
▁सायन्स	-12047
▁रात्रभर	-12048
▁मुख्यालयात	-12049
▁मृतांमध्ये	-12050
▁त्यादृष्टीने	-12051
वाब	-12052
संत	-12053
हेल	-12054
ेमुळे	-12055
▁कर्ण	-12056
▁पटना	-12057
▁सुधा	-12058
▁ओवेसी	-12059
▁जीवनस	-12060
▁इजिप्त	-12061
▁निर्णा	-12062
▁परिधान	-12063
▁सभांना	-12064
▁लागलेला	-12065
▁सध्याचे	-12066
▁परीक्षेत	-12067
▁अपरिपूर्ण	-12068
▁निधनानंतर	-12069
▁प्रोजेक्ट	-12070
▁बॉलिवूडची	-12071
▁स्पर्धेचे	-12072
▁उच्चस्तरीय	-12073
▁नियमशास्त्रा	-12074
▁निवृत्तीवेतन	-12075
२५	-12076
शीत	-12077
ूला	-12078
▁आच	-12079
▁एर	-12080
▁मनि	-12081
▁बघता	-12082
▁वाढून	-12083
▁बिहारी	-12084
▁मेंढपाळ	-12085
▁थोडक्यात	-12086
▁दिवसांनी	-12087
▁विषाणूचा	-12088
▁बैठकीनंतर	-12089
केव	-12090
चर्	-12091
बरे	-12092
न्सन	-12093
र्की	-12094
▁शीख	-12095
,""""	-12096
▁कसली	-12097
▁छोटा	-12098
▁चढवला	-12099
▁प्रोड	-12100
▁डिग्री	-12101
▁निष्पन्न	-12102
जत	-12103
हळ	-12104
जसे	-12105
रंग	-12106
राजा	-12107
▁असम	-12108
▁पदे	-12109
वस्तू	-12110
ेक्षा	-12111
▁घोडे	-12112
▁घडतात	-12113
▁पाठबळ	-12114
▁विलास	-12115
▁शोधात	-12116
▁शिवराज	-12117
▁सावधान	-12118
▁कृत्रिम	-12119
▁रविशंकर	-12120
▁उत्पादनात	-12121
▁फायनलमध्ये	-12122
राद	-12123
▁तंब	-12124
▁सत्त	-12125
▁उपनगर	-12126
▁कश्यप	-12127
▁लंकेश	-12128
▁करूनही	-12129
▁दिनांक	-12130
▁नसताना	-12131
▁निव्वळ	-12132
▁वाऱ्या	-12133
▁प्रांतात	-12134
▁मेगापिक्सलचा	-12135
▁सुरुवातीच्या	-12136
वेषण	-12137
▁कॉम	-12138
▁कौश	-12139
▁दूत	-12140
▁पडा	-12141
्यानं	-12142
▁आणणे	-12143
▁बापू	-12144
▁दशकात	-12145
▁म्हणणं	-12146
▁घुसखोरी	-12147
▁नीतिमान	-12148
▁हवालदार	-12149
सद	-12150
रीचे	-12151
स्सी	-12152
तीर्ण	-12153
ध्याय	-12154
▁शैली	-12155
▁टक्कर	-12156
▁बर्या	-12157
▁पीडीपी	-12158
▁सेंट्रल	-12159
▁महायुद्ध	-12160
▁सिनेमाचं	-12161
▁विजयासाठी	-12162
▁अप्रत्यक्ष	-12163
▁रस्त्यांची	-12164
▁कार्यक्षमता	-12165
सौ	-12166
गीर	-12167
▁65	-12168
एसआय	-12169
▁जेल	-12170
▁पला	-12171
▁मने	-12172
▁हेत	-12173
र्मिळ	-12174
मोठ्या	-12175
▁चालेल	-12176
▁दस्तऐवज	-12177
▁पश्‍चिम	-12178
▁बनवण्यात	-12179
▁नेतृत्वात	-12180
▁चाहत्यांनी	-12181
क्कर	-12182
▁इक्	-12183
▁श्व	-12184
▁जगभर	-12185
▁वनवि	-12186
प्रमाण	-12187
▁वापरू	-12188
▁काटेकोर	-12189
▁कुटुंबा	-12190
▁गुणांसह	-12191
▁घेतलेले	-12192
▁बोलावले	-12193
▁संवर्धन	-12194
▁आम्हांला	-12195
▁सिद्दीकी	-12196
▁व्यक्तिरेखा	-12197
▁बीसीसीआयच्या	-12198
▁राज्यपालांनी	-12199
▁संकेतस्थळावर	-12200
साग	-12201
▁उकळ	-12202
▁कात	-12203
मकुवत	-12204
▁दणका	-12205
कडच्या	-12206
▁दोनदा	-12207
▁मोकळा	-12208
पणाच्या	-12209
▁दागिने	-12210
▁निरंतर	-12211
▁युनियन	-12212
▁अलाहाबाद	-12213
▁याबाबतचे	-12214
▁वर्षांनी	-12215
▁कार्यक्रमासाठी	-12216
▁खुली	-12217
▁गणना	-12218
▁स्टु	-12219
▁सभागृ	-12220
▁एवढ्या	-12221
▁हस्तगत	-12222
▁मायक्रो	-12223
▁मुख्यालय	-12224
▁लोकार्पण	-12225
▁शिक्षणासाठी	-12226
णकर	-12227
यातून	-12228
▁नावाचे	-12229
▁नियमां	-12230
▁गांधींची	-12231
▁गेल्याने	-12232
▁होणाऱ्‍या	-12233
▁आयसीसीच्या	-12234
▁भारतीयांना	-12235
एआय	-12236
टला	-12237
मीळ	-12238
मुर	-12239
वणं	-12240
▁बेश	-12241
▁रिओ	-12242
▁टोळी	-12243
▁मातृ	-12244
▁खंबीर	-12245
ig	-12246
कॅ	-12247
झर्स	-12248
डीचे	-12249
▁एली	-12250
वासार	-12251
▁पारा	-12252
▁शर्थ	-12253
▁अडकले	-12254
▁करितो	-12255
▁काजोल	-12256
▁चीनला	-12257
प्रणाली	-12258
▁असावेत	-12259
▁पित्या	-12260
▁यामागे	-12261
▁सोडणार	-12262
▁नाकारले	-12263
▁जपानच्या	-12264
▁आंध्रप्रदेश	-12265
▁क्रिकेटमधून	-12266
▁निवडणुकांच्या	-12267
णु	-12268
शहा	-12269
▁ग्ल	-12270
▁बरं	-12271
तल्या	-12272
▁पिका	-12273
▁रामा	-12274
▁क्वार	-12275
▁बँकेत	-12276
▁भेटले	-12277
क्रांती	-12278
▁शिल्पा	-12279
यापूर्वी	-12280
▁दीर्घकालीन	-12281
▁ग्रामस्थांनी	-12282
▁क्षेत्रामध्ये	-12283
ईना	-12284
चिव	-12285
दारा	-12286
रोदर	-12287
सीएस	-12288
▁तंद	-12289
▁रिट	-12290
▁२००९	-12291
▁खट्टर	-12292
▁रहस्य	-12293
▁वाळवंट	-12294
▁कुठलेही	-12295
▁घ्यायचे	-12296
▁दुर्मिळ	-12297
▁भाषेतील	-12298
▁देशांतील	-12299
▁आरोग्याची	-12300
▁सुशीलकुमार	-12301
▁हॉटेलमध्ये	-12302
▁उपचारांसाठी	-12303
डेत	-12304
लाई	-12305
▁तरू	-12306
▁मतं	-12307
गावॅट	-12308
▁तिचं	-12309
▁संयम	-12310
▁मारेक	-12311
▁लोकेश	-12312
▁बांधणी	-12313
▁मोहिते	-12314
▁वाढवून	-12315
▁ऑक्सिजन	-12316
▁डिझेलचे	-12317
▁यिर्मया	-12318
बात	-12319
्रज	-12320
णाशी	-12321
मधली	-12322
▁दिया	-12323
▁नवाझ	-12324
▁मशीन	-12325
▁खरंतर	-12326
▁पॅरिस	-12327
▁रांची	-12328
मानुसार	-12329
▁दुर्बल	-12330
▁मुक्‍त	-12331
▁उत्तीर्ण	-12332
▁राष्ट्रे	-12333
▁लालकृष्ण	-12334
▁कार्यालये	-12335
▁फल	-12336
न्नी	-12337
श्‍व	-12338
ल्याण	-12339
▁जमाव	-12340
▁दूता	-12341
वानंतर	-12342
स्टेबल	-12343
▁भाकरी	-12344
▁साहेब	-12345
ानाच्या	-12346
▁स्वतःच	-12347
▁अन्वेषण	-12348
▁आयर्लंड	-12349
▁चेंडूवर	-12350
▁आमच्यावर	-12351
▁पाहुण्या	-12352
▁प्राधिकर	-12353
▁आल्यामुळे	-12354
▁प्रार्थने	-12355
▁स्त्रियांना	-12356
▁डॉक्टरांच्या	-12357
▁प्रतिस्पर्धी	-12358
ळके	-12359
ांडा	-12360
यहोवा	-12361
▁कबीर	-12362
▁कुंभ	-12363
▁तिरु	-12364
▁कमकुवत	-12365
▁सम्राट	-12366
▁पराक्रम	-12367
▁फसवणुकी	-12368
▁काळासाठी	-12369
▁व्यवस्थापक	-12370
▁स्टेडियमवर	-12371
नाड	-12372
▁51	-12373
▁आश	-12374
▁कित	-12375
▁मोटर	-12376
महापौर	-12377
ांद्रे	-12378
▁मोशेने	-12379
▁एचडीएफसी	-12380
▁लेफ्टनंट	-12381
▁पारंपारिक	-12382
▁लंडनमध्ये	-12383
काश्मीरच्या	-12384
डली	-12385
▁नाक	-12386
▁भोज	-12387
▁मेमरी	-12388
▁2019-20	-12389
▁कोणीतरी	-12390
▁लाभार्थी	-12391
▁इतरांच्या	-12392
▁विद्यार्थ्यांचे	-12393
दिग्	-12394
▁कोप	-12395
▁डिव	-12396
▁फटा	-12397
द्धान	-12398
▁खनिज	-12399
▁बाईक	-12400
▁मोर्	-12401
▁लिही	-12402
▁इमरान	-12403
▁सिस्ट	-12404
▁पडल्याने	-12405
▁इलेक्ट्रिक	-12406
मज	-12407
ोबा	-12408
▁'%	-12409
अखेर	-12410
वाहा	-12411
▁खार	-12412
▁खोक	-12413
▁रक्	-12414
पणाची	-12415
ानाचा	-12416
▁ग्रॅ	-12417
▁धरणे	-12418
▁कळताच	-12419
▁ब्लॅक	-12420
▁ठेवणार	-12421
▁ठाण्याचे	-12422
▁शाळेच्या	-12423
▁शेवटल्या	-12424
▁दुखापतीमुळे	-12425
क्झ	-12426
ष्य	-12427
▁तळा	-12428
दीर्घ	-12429
मावती	-12430
▁काँग	-12431
▁ईडीने	-12432
▁दाम्प	-12433
▁पुढचा	-12434
▁तांदूळ	-12435
▁पंजाबी	-12436
▁पायाभर	-12437
▁पदाधिका	-12438
▁महिलेची	-12439
▁शाळेतील	-12440
▁जोपर्यंत	-12441
▁दिवसांचा	-12442
▁गृहमंत्रा	-12443
ल्याप्रमाणे	-12444
ल्फ	-12445
पीआर	-12446
मॅटो	-12447
▁इंट	-12448
▁दरो	-12449
▁गावी	-12450
▁पॅरा	-12451
▁आर्यन	-12452
▁संसर्	-12453
▁उष्णता	-12454
▁निर्णायक	-12455
▁पासपोर्ट	-12456
▁त्याच्यासाठी	-12457
BI	-12458
नेर	-12459
▁चॅट	-12460
▁बसू	-12461
▁इफिस	-12462
▁तुरू	-12463
र्सिटी	-12464
▁घडीला	-12465
▁रॉयल्स	-12466
▁साध्वी	-12467
▁कंपनीला	-12468
▁घराच्या	-12469
▁घेणाऱ्या	-12470
▁मेळाव्या	-12471
▁ड्रायव्हर	-12472
ab	-12473
▁52	-12474
ान्त	-12475
▁दराने	-12476
▁कपूरने	-12477
▁योजनेत	-12478
त्यावेळी	-12479
▁एमएसएमई	-12480
▁कांस्यपदक	-12481
▁पूर्वीच्या	-12482
▁राष्ट्रकुल	-12483
▁सुरक्षेच्या	-12484
संगत	-12485
▁रजि	-12486
गोलिक	-12487
▁असंत	-12488
▁असुर	-12489
▁फार्	-12490
▁रक्‍	-12491
▁म्हात	-12492
▁अप्रति	-12493
▁हाताला	-12494
▁डाऊनलोड	-12495
▁टक्क्यांवर	-12496
▁यापूर्वीही	-12497
▁सामन्यांची	-12498
▁64	-12499
सचिव	-12500
▁उगा	-12501
▁काड	-12502
▁धात	-12503
▁साब	-12504
क्‍टर	-12505
▁केएल	-12506
▁जर्न	-12507
▁निकट	-12508
▁विंड	-12509
▁विसा	-12510
▁ख्रिस	-12511
▁बारका	-12512
▁रंगली	-12513
▁ग्वाही	-12514
▁चौकशीत	-12515
▁तिच्याशी	-12516
▁आंदोलनाला	-12517
▁त्याच्याबरोबर	-12518
ोर्ट	-12519
▁अमि	-12520
▁तुळ	-12521
व्हाड	-12522
▁जाळे	-12523
▁जीवे	-12524
▁फर्न	-12525
▁भोगा	-12526
▁पांड्या	-12527
▁तिसर्‍या	-12528
▁मध्यरात्री	-12529
ire	-12530
ter	-12531
वरे	-12532
खरूप	-12533
सलेम	-12534
▁250	-12535
▁बिगर	-12536
दीच्या	-12537
सीच्या	-12538
▁येताच	-12539
▁वाटून	-12540
▁सुत्र	-12541
ियाच्या	-12542
▁कितीही	-12543
▁निवडणू	-12544
▁बर्याच	-12545
▁मलायका	-12546
▁मुलायम	-12547
▁करतांना	-12548
▁स्वप्ने	-12549
▁धोनीच्या	-12550
शास्त्रज्ञ	-12551
▁माहितीच्या	-12552
वतील	-12553
▁उमर	-12554
▁फाइ	-12555
कर्ते	-12556
▁घडेल	-12557
▁चमचे	-12558
▁डाळी	-12559
▁लावू	-12560
▁गरोदर	-12561
▁जवळचा	-12562
▁पाडली	-12563
▁प्रवासात	-12564
▁घेण्याच्या	-12565
▁सिंधुदुर्ग	-12566
▁दृष्टिकोनातून	-12567
सिन	-12568
▁-19	-12569
▁आऊट	-12570
फुल्ल	-12571
▁इथून	-12572
▁कहाणी	-12573
▁दुःखा	-12574
▁पतीने	-12575
▁पुकार	-12576
▁मारला	-12577
▁गेलेला	-12578
▁नोंदवून	-12579
▁संघटनांनी	-12580
वॉ	-12581
शो	-12582
▁56	-12583
▁ढो	-12584
बिंब	-12585
ळय़ा	-12586
▁चेक	-12587
ांचीही	-12588
दारांना	-12589
▁गैरव्य	-12590
▁लाठीमार	-12591
▁वडिलांच्या	-12592
▁सैतानाच्या	-12593
▁बोस	-12594
घेवाण	-12595
जवळील	-12596
लेंडर	-12597
▁ऐवजी	-12598
▁झुंज	-12599
▁वडिल	-12600
▁घडणार	-12601
▁गटातील	-12602
▁श्रेयस	-12603
▁दौर्‍या	-12604
▁गौरविण्यात	-12605
iv	-12606
सूर	-12607
▁:-	-12608
▁श्‍	-12609
▁ओळखत	-12610
▁खाती	-12611
▁तोमर	-12612
चंद्रन	-12613
वहारिक	-12614
ोद्योग	-12615
▁तेवढी	-12616
▁सव्वा	-12617
▁सारखी	-12618
▁आनंदात	-12619
▁अशावेळी	-12620
▁मिळविला	-12621
▁मुंबईकर	-12622
▁मानसिकता	-12623
▁मेक्सिको	-12624
▁सुरवातीला	-12625
▁पाण्याखाली	-12626
-3	-12627
▁नफा	-12628
▁शाख	-12629
▁कळलं	-12630
▁कारा	-12631
▁स्टॅ	-12632
ार्जुन	-12633
▁जळगाव	-12634
▁तटकरे	-12635
▁पकडून	-12636
▁बोलाव	-12637
▁कॅमेरे	-12638
▁सुखरूप	-12639
▁देशातून	-12640
▁आणण्याचा	-12641
▁कोरोनाची	-12642
▁जिल्ह्य़	-12643
▁कार्यक्रमांचे	-12644
▁थै	-12645
बांग	-12646
मिंग	-12647
▁गोपी	-12648
▁जरूर	-12649
▁कुत्र	-12650
▁पुष्प	-12651
▁लांबी	-12652
▁पाठवली	-12653
▁रिचर्ड	-12654
▁धुमाकूळ	-12655
▁भारतरत्न	-12656
▁सादरीकरण	-12657
▁मुद्द्यांवर	-12658
▁राजस्थानच्या	-12659
अॅ	-12660
▁मर्	-12661
▁दिशे	-12662
▁प्रथ	-12663
▁बॉक्	-12664
करणाचे	-12665
▁पत्कर	-12666
▁रक्षक	-12667
▁टेहळणी	-12668
▁ठराविक	-12669
▁तितक्या	-12670
▁सांगणार	-12671
▁अध्यक्षपद	-12672
▁शर्माच्या	-12673
▁अनेकांच्या	-12674
▁छायाचित्रे	-12675
लेच	-12676
ोत्सव	-12677
▁म्यु	-12678
▁अतिथी	-12679
▁शिल्प	-12680
▁स्टोरी	-12681
▁ईशान्ये	-12682
▁आत्म्याने	-12683
▁दिवसाच्या	-12684
▁मीडियाच्या	-12685
▁54	-12686
ऊर्जा	-12687
▁अपार	-12688
▁चारा	-12689
▁ग्रॅम	-12690
▁वाचतो	-12691
▁चालकाचा	-12692
▁महासचिव	-12693
▁माणसाने	-12694
▁समीक्षक	-12695
▁पक्षांना	-12696
▁राजाच्या	-12697
▁कायद्याचे	-12698
▁प्रकल्पासाठी	-12699
टीश	-12700
डेकर	-12701
▁शौल	-12702
मण्यम	-12703
▁धावत	-12704
▁माही	-12705
▁मंदाव	-12706
▁संशोधक	-12707
▁सर्किट	-12708
▁करणाऱया	-12709
▁पायाभरणी	-12710
▁वास्तव्य	-12711
▁माणसाच्या	-12712
▁निधनाबद्दल	-12713
▁198	-12714
▁खरच	-12715
▁जोध	-12716
▁पलि	-12717
▁कॅल्	-12718
▁बसली	-12719
▁व्हिट	-12720
▁संकलन	-12721
▁जीडीपी	-12722
▁व्यग्र	-12723
▁हाणामारी	-12724
▁डिस्चार्ज	-12725
▁निवडणुकीचे	-12726
▁यांच्यासाठी	-12727
▁कर्मचाऱ्यांनी	-12728
▁of	-12729
टीची	-12730
मंडळी	-12731
▁छापे	-12732
▁त्रा	-12733
▁शेखर	-12734
▁कुणाल	-12735
ण्याबाबत	-12736
▁ठेवायला	-12737
▁पावसाचे	-12738
▁योजनेची	-12739
▁पडण्याची	-12740
▁बॅडमिंटनपटू	-12741
श्चन	-12742
▁अमा	-12743
▁तोफ	-12744
▁लिओ	-12745
▁क्वि	-12746
▁खोटी	-12747
वाहतूक	-12748
▁गैरसोय	-12749
▁प्रयत्	-12750
▁कॉंग्रेसने	-12751
▁सिनेसृष्टी	-12752
▁दिल्याबद्दल	-12753
ँक	-12754
▁विथ	-12755
▁रहात	-12756
श्यारी	-12757
▁दानीएल	-12758
▁सुध्दा	-12759
▁उपमुख्य	-12760
▁कॉर्पोरेट	-12761
▁मिळविण्यासाठी	-12762
पित	-12763
बिन	-12764
पोटी	-12765
▁साऊ	-12766
▁हिरा	-12767
▁जमावाला	-12768
▁ब्रिटीश	-12769
णाऱ्यांना	-12770
▁चंद्रपूर	-12771
▁त्याचाही	-12772
▁नसल्याचा	-12773
▁महाआघाडी	-12774
▁क्षेत्राच्या	-12775
ंद्	-12776
पथा	-12777
ोडा	-12778
लाईन	-12779
▁चंद	-12780
ग्रहण	-12781
▁इराक	-12782
▁चेअर	-12783
▁टिका	-12784
▁सुखा	-12785
▁स्ना	-12786
▁झेंडा	-12787
दुद्दीन	-12788
पणामुळे	-12789
▁दरवाढी	-12790
▁अलिकडेच	-12791
▁राहणारे	-12792
▁कोश्यारी	-12793
▁राहिल्या	-12794
▁विधिमंडळ	-12795
▁शोधमोहीम	-12796
▁स्वाभाविक	-12797
▁शस्त्रसंधी	-12798
▁55	-12799
▁पेच	-12800
करणात	-12801
▁गोरख	-12802
▁पाळी	-12803
▁स्ने	-12804
दाराला	-12805
▁संपला	-12806
▁कनिष्ठ	-12807
▁गोपनीय	-12808
▁मिळावे	-12809
▁याचाही	-12810
▁सेक्टर	-12811
▁अभियंता	-12812
▁सावधगिरी	-12813
▁स्ट्राईक	-12814
▁केंद्रातील	-12815
▁होण्यापूर्वी	-12816
्ण	-12817
▁"’	-12818
सीआर	-12819
▁पॅट	-12820
▁आकस्	-12821
▁भरले	-12822
▁उशीरा	-12823
▁टाळले	-12824
▁नवाजु	-12825
▁पनवेल	-12826
▁स्पीड	-12827
▁कार्ये	-12828
▁विनायक	-12829
▁तरुणाचा	-12830
▁माणसांना	-12831
▁राहिलेले	-12832
▁कोर्टाच्या	-12833
समज	-12834
सामा	-12835
ांडी	-12836
▁पळा	-12837
अभावी	-12838
▁ज्याची	-12839
▁तुरूंग	-12840
▁विचारू	-12841
▁भौगोलिक	-12842
▁याविरोधात	-12843
▁गावांमध्ये	-12844
तला	-12845
लिप	-12846
साळ	-12847
▁ऑन	-12848
▁पल	-12849
दाखल	-12850
▁इंच	-12851
▁बॉल	-12852
▁भटक	-12853
▁हॉट	-12854
▁गायब	-12855
▁गुंड	-12856
▁तिखट	-12857
▁अडकून	-12858
▁नद्या	-12859
▁पर्वत	-12860
▁लिलाव	-12861
▁सुमित	-12862
▁ट्रॉफी	-12863
▁आंदोलने	-12864
▁दर्जेदार	-12865
▁अडकलेल्या	-12866
गौ	-12867
▁g	-12868
बिग	-12869
▁कढ	-12870
▁आणत	-12871
तंत्र	-12872
▁काशी	-12873
▁सवालही	-12874
▁कुणाच्या	-12875
▁तापमानात	-12876
▁पकडण्यात	-12877
▁स्वरुपात	-12878
▁आपत्कालीन	-12879
▁चांद्रयान	-12880
▁टीकास्त्र	-12881
▁प्रतिबिंब	-12882
▁भूमिकेसाठी	-12883
त्याचप्रमाणे	-12884
▁आव्हानात्मक	-12885
▁हँड	-12886
संवाद	-12887
▁मंगल	-12888
▁वसंत	-12889
देवाने	-12890
▁आईच्या	-12891
▁वाढवली	-12892
▁धावांचा	-12893
▁फेसबुकवर	-12894
▁बहुसंख्य	-12895
▁व्याप्ती	-12896
▁कम्युनिस्ट	-12897
▁पर्यवेक्षक	-12898
▁येण्यासाठी	-12899
▁सुशांतसिंह	-12900
▁41	-12901
पालन	-12902
ेत्रा	-12903
▁कोषा	-12904
▁भोजन	-12905
▁हत्य	-12906
ेटिव्ह	-12907
▁मोकळे	-12908
▁सुनिल	-12909
▁पलीकडे	-12910
▁संभाजी	-12911
▁कमालीची	-12912
▁देशद्रो	-12913
▁मुकाबला	-12914
त्यानुसार	-12915
▁निवेदनात	-12916
▁रेल्वेचे	-12917
नेच	-12918
▁खल	-12919
जावर	-12920
म्बे	-12921
वर्त	-12922
वाढी	-12923
ीतून	-12924
▁बां	-12925
▁मुस	-12926
धारणा	-12927
▁मानत	-12928
▁यहुद	-12929
▁संमत	-12930
▁डॉक्ट	-12931
▁गमावला	-12932
▁निवारण	-12933
▁मल्लिक	-12934
▁मध्यस्थी	-12935
▁व्यावहारिक	-12936
▁कंपन्यांच्या	-12937
ंय	-12938
खीम	-12939
वंशी	-12940
▁नीर	-12941
▁हाक	-12942
▁वल्ल	-12943
▁प्रतिभा	-12944
▁कृतज्ञता	-12945
▁प्रश्नही	-12946
▁महिलांसाठी	-12947
ॉस	-12948
▁ा	-12949
तुला	-12950
र्थी	-12951
ष्मा	-12952
▁अगर	-12953
▁नायक	-12954
बुद्धी	-12955
वास्तव	-12956
▁डिझाइन	-12957
▁पडद्या	-12958
▁बहुमता	-12959
▁भाजपनं	-12960
▁2017-18	-12961
▁राष्ट्राच्या	-12962
:-	-12963
१३	-12964
वुड	-12965
ूपी	-12966
▁४६	-12967
▁नशी	-12968
ंद्रे	-12969
▁वरळी	-12970
▁फरकाने	-12971
▁अकस्मात	-12972
▁कर्करोगा	-12973
▁माहितीही	-12974
▁सिनेमातून	-12975
▁अल्पसंख्याक	-12976
▁नातेवाईकांनी	-12977
फू	-12978
हत	-12979
्मा	-12980
डीचा	-12981
▁खडक	-12982
▁मोल	-12983
▁युक	-12984
▁सरस	-12985
▁पडदा	-12986
▁जगताप	-12987
ऱ्यांची	-12988
▁थांबले	-12989
▁पांढरा	-12990
ष्टीरक्षक	-12991
▁स्वबळावर	-12992
▁आयुष्यावर	-12993
▁कर्नाटकचे	-12994
▁खाद्यपदार्थ	-12995
▁नातेवाईकांना	-12996
▁f	-12997
आपले	-12998
लेखक	-12999
वित्र	-13000
विविध	-13001
▁वर्ध	-13002
▁पंधरा	-13003
▁सुटके	-13004
▁जेतेपद	-13005
▁मोटर्स	-13006
▁पेडणेकर	-13007
▁सामायिक	-13008
▁सिद्धांत	-13009
▁सोन्याचे	-13010
▁कल्याणासाठी	-13011
▁संस्थांच्या	-13012
बै	-13013
dia	-13014
करुन	-13015
▁कंठ	-13016
▁३७०	-13017
▁स्वे	-13018
ात्ताप	-13019
▁आजारा	-13020
▁डिस्क	-13021
▁दुग्ध	-13022
▁आव्हाड	-13023
▁दरवाजे	-13024
▁कोहलीला	-13025
▁घ्यायची	-13026
▁ठरलेल्या	-13027
▁आत्महत्येचा	-13028
आण	-13029
ोद	-13030
बहु	-13031
राळ	-13032
▁डु	-13033
कांड	-13034
▁उजा	-13035
▁फारो	-13036
▁मंदी	-13037
▁मीही	-13038
▁रचून	-13039
▁सौरभ	-13040
▁अशीही	-13041
▁उचलले	-13042
▁कायमच	-13043
▁बुडून	-13044
▁स्पेन	-13045
▁कामाचे	-13046
▁डेव्हल	-13047
यांमध्ये	-13048
▁द्यायची	-13049
▁वांद्रे	-13050
▁ठरवण्यात	-13051
▁व्यवहारा	-13052
▁इस्पितळात	-13053
▁त्यापासून	-13054
▁सार्वत्रिक	-13055
▁सुप्रसिद्ध	-13056
तले	-13057
सरे	-13058
▁केश	-13059
▁नाज	-13060
किंवा	-13061
रिंदर	-13062
▁प्लॅ	-13063
▁आवडले	-13064
▁जल्लो	-13065
▁मानधन	-13066
▁आकर्षण	-13067
▁कोषागार	-13068
खूप	-13069
मास	-13070
lect	-13071
िवली	-13072
▁गरि	-13073
▁बुर	-13074
▁उदार	-13075
▁नसले	-13076
सरकारने	-13077
▁एसबीआय	-13078
▁हेतूने	-13079
▁गेल्यावर	-13080
▁याच्यावर	-13081
▁मुद्यांवर	-13082
▁वर्षीच्या	-13083
▁निर्णयाविरोधात	-13084
'.	-13085
घ्न	-13086
rand	-13087
टरवर	-13088
▁टॉस	-13089
अर्थी	-13090
▁इंडीज	-13091
▁ठरतील	-13092
▁लोखंड	-13093
▁टॅक्सी	-13094
्याबद्दल	-13095
▁सीतारमण	-13096
▁गोष्टींना	-13097
▁साहाय्याने	-13098
os	-13099
टम	-13100
▁जया	-13101
▁टाई	-13102
▁पेय	-13103
▁कॅलि	-13104
▁कॉमे	-13105
परमेश्‍	-13106
▁दाखवतो	-13107
▁सिंधूने	-13108
▁चेतेश्वर	-13109
▁बंगालमधील	-13110
ot	-13111
पॉ	-13112
्रेड	-13113
▁शरण	-13114
▁१५०	-13115
▁धक्क	-13116
▁बघून	-13117
▁आढळते	-13118
▁उज्ज्	-13119
▁मिक्स	-13120
यांसाठी	-13121
्यांतील	-13122
▁अभिव्य	-13123
▁लावतात	-13124
▁कंटाळून	-13125
▁चालकाला	-13126
▁शासनाकडून	-13127
▁पाकिस्तानमधील	-13128
▁अबी	-13129
▁सुझ	-13130
▁कोलम	-13131
▁नायर	-13132
▁उसळली	-13133
▁भावने	-13134
▁आठव्या	-13135
▁तासांत	-13136
▁मारुती	-13137
▁विद्वान	-13138
▁मुद्यावर	-13139
▁यापुढेही	-13140
▁वर्षांचे	-13141
▁संकेतस्थळ	-13142
रम	-13143
ुम	-13144
ारो	-13145
▁ईद	-13146
▁३००	-13147
सार्व	-13148
▁दारु	-13149
ांवरही	-13150
▁अटकेत	-13151
▁अपराध	-13152
नरेंद्र	-13153
▁एजन्सी	-13154
▁शुक्ला	-13155
स्वतंत्र	-13156
▁तुम्हीही	-13157
▁चेहऱ्यावर	-13158
▁उन्हाळ्यात	-13159
▁त्याठिकाणी	-13160
▁राबविण्यात	-13161
▁महानगरपालिक	-13162
▁स्वतंत्रपणे	-13163
-4	-13164
ंडक	-13165
▁वीस	-13166
पर्यत	-13167
▁नराध	-13168
ंबाळकर	-13169
दोन्ही	-13170
पामुळे	-13171
▁अण्णा	-13172
▁ड्रेस	-13173
▁तत्पर	-13174
▁वर्णी	-13175
▁कुरेशी	-13176
▁जयशंकर	-13177
प्लिकेशन	-13178
▁केंद्रीत	-13179
▁ठाकरेंनी	-13180
▁यादीमध्ये	-13181
▁सामन्यांत	-13182
▁राजस्थानमध्ये	-13183
झि	-13184
▁43	-13185
▁उला	-13186
▁ढास	-13187
▁मकर	-13188
▁सद्	-13189
धिकृत	-13190
▁फास्ट	-13191
▁मेंढर	-13192
▁कुणाचा	-13193
▁कुणाची	-13194
▁जनजीवन	-13195
▁दळणवळण	-13196
थु	-13197
जोग	-13198
पले	-13199
फेड	-13200
ोको	-13201
▁इशा	-13202
▁खंत	-13203
▁उचला	-13204
▁सुपू	-13205
▁होरप	-13206
बांधणी	-13207
▁अकाली	-13208
▁तथापि	-13209
▁स्थळी	-13210
▁इंग्रज	-13211
▁जन्माला	-13212
▁वीजपुरवठा	-13213
▁बाजारपेठेत	-13214
▁शेवटपर्यंत	-13215
▁अधिकाऱ्यांच्या	-13216
कंप	-13217
▁सफ	-13218
केवळ	-13219
निका	-13220
▁रेल	-13221
खेरीज	-13222
▁स्क्	-13223
▁मार्ट	-13224
▁सेकंद	-13225
▁राधिका	-13226
▁एकात्मिक	-13227
▁रेल्वेची	-13228
▁निर्णयाची	-13229
▁सरकारविरोधात	-13230
टाळ	-13231
पून	-13232
२००	-13233
▁47	-13234
काशी	-13235
कोला	-13236
दिनी	-13237
▁धूळ	-13238
मराठी	-13239
▁एव्ह	-13240
▁ठरतो	-13241
▁नवाज	-13242
▁शिवी	-13243
जीएसटी	-13244
▁कंटेनर	-13245
▁ताज्या	-13246
▁दिवसीय	-13247
राजस्थान	-13248
▁आठवड्या	-13249
▁पत्नीची	-13250
▁शब्दाचा	-13251
आतापर्यंत	-13252
▁काश्मिरी	-13253
▁काश्‍मीर	-13254
▁चॅलेंजर्स	-13255
चय	-13256
रुर	-13257
निती	-13258
स्वात	-13259
▁उघडा	-13260
▁पिके	-13261
▁मेला	-13262
▁रोमन	-13263
▁स्तन	-13264
कर्नाटक	-13265
▁एअरटेल	-13266
▁कांबळे	-13267
▁जणांचे	-13268
▁वैमानिक	-13269
▁कायद्याची	-13270
▁ठेवण्याचे	-13271
▁स्तरावरील	-13272
▁इस्लामाबाद	-13273
▁प्रकल्पाला	-13274
▁झाल्यापासून	-13275
ंटन	-13276
चीच	-13277
▁जशी	-13278
▁शूर	-13279
▁जेरू	-13280
▁रोकड	-13281
▁सलाम	-13282
▁घसरले	-13283
▁सेल्स	-13284
ंद्वारे	-13285
ण्याजोगी	-13286
▁अपेक्षे	-13287
▁भारतातही	-13288
▁रस्त्यावरील	-13289
▁#	-13290
▁गहू	-13291
▁जसा	-13292
वाहित	-13293
स्वार	-13294
▁ठेवी	-13295
▁गमवावे	-13296
▁सध्याची	-13297
▁ख्रिश्चन	-13298
मुली	-13299
▁नवल	-13300
ग्रही	-13301
▁किया	-13302
▁पेस्ट	-13303
▁भवनात	-13304
पेक्षित	-13305
▁सर्व्हर	-13306
▁सामन्याच्या	-13307
▁यांच्याविरुद्ध	-13308
गोर	-13309
▁हौ	-13310
गणिक	-13311
▁?""	-13312
▁बेळ	-13313
▁खरेच	-13314
▁चार्	-13315
▁ताना	-13316
▁प्लस	-13317
▁मोर्च	-13318
▁लिखाण	-13319
▁मिशनरी	-13320
▁मोशेला	-13321
▁समजताच	-13322
▁त्याहून	-13323
▁विवेकान	-13324
▁संस्थान	-13325
▁नवीकरणीय	-13326
▁विदर्भात	-13327
▁प्रश्नाला	-13328
▁लोकशाहीचा	-13329
▁निवडणुकीचा	-13330
▁कार्यान्वित	-13331
▁शिक्षणमंत्री	-13332
दहशत	-13333
ध्दी	-13334
्रमण	-13335
▁चिड	-13336
▁कारभ	-13337
▁दीपा	-13338
▁पापी	-13339
▁बालन	-13340
▁साईट	-13341
▁रणजित	-13342
▁सत्रा	-13343
▁दोघंही	-13344
▁निफ्टी	-13345
▁यरुशले	-13346
▁साध्या	-13347
▁मुदतवाढ	-13348
▁कोणत्याच	-13349
▁ऑस्ट्रेलियाला	-13350
!”	-13351
,4	-13352
ब्दी	-13353
▁मौन	-13354
▁हलक	-13355
तिमान	-13356
स्करी	-13357
ापत्र	-13358
▁आलोक	-13359
▁जमले	-13360
ांनंतर	-13361
▁उघडले	-13362
▁चीनचा	-13363
▁तालिब	-13364
▁द्रुत	-13365
▁राखले	-13366
▁अंमलात	-13367
▁नियोजित	-13368
▁गांधीनगर	-13369
▁टक्केवारी	-13370
▁नवाजुद्दीन	-13371
▁सगळ्यांनाच	-13372
▁संपल्यानंतर	-13373
-16	-13374
कडं	-13375
कळी	-13376
दाद	-13377
बिल	-13378
▁देह	-13379
▁कॅम्प	-13380
▁दंगली	-13381
▁नसतील	-13382
▁पुण्या	-13383
▁मुलभूत	-13384
▁व्हीडिओ	-13385
▁विकासाचे	-13386
▁संस्थांना	-13387
▁रात्रीच्या	-13388
डु	-13389
माळ	-13390
▁नट	-13391
▁५२	-13392
लवकर	-13393
श्ता	-13394
▁एकट	-13395
▁हळद	-13396
बेरॉय	-13397
▁पीटर	-13398
ंतुष्ट	-13399
▁लाहोर	-13400
▁चर्चास	-13401
▁थांबला	-13402
▁निगडीत	-13403
▁स्नायू	-13404
कांपासून	-13405
▁पंजाबचे	-13406
▁इंग्लंडला	-13407
▁कोटींच्या	-13408
▁सहाय्याने	-13409
▁प्रशिक्षित	-13410
नौ	-13411
असा	-13412
गिल	-13413
▁पलट	-13414
पत्ती	-13415
▁आयडी	-13416
▁वागत	-13417
▁इफ्फी	-13418
▁वल्लभ	-13419
▁सहानु	-13420
▁आक्रमण	-13421
▁स्टोअर	-13422
▁दोषींवर	-13423
▁स्पोर्ट	-13424
▁रुग्णवाह	-13425
▁अमेरिकेला	-13426
झड	-13427
रिड	-13428
▁चढा	-13429
▁शेर	-13430
त्त्व	-13431
सभापती	-13432
▁अपलोड	-13433
▁चालका	-13434
▁पदव्य	-13435
▁सहवास	-13436
▁स्वाभि	-13437
विण्याच्या	-13438
▁कार्यकाळात	-13439
किक	-13440
सीम	-13441
▁दुक	-13442
▁कन्ह	-13443
▁मुकु	-13444
▁शहाण	-13445
▁पटोले	-13446
▁वचनात	-13447
▁हत्ती	-13448
▁एमआयएम	-13449
▁ग्रंथा	-13450
▁हालचाल	-13451
▁आघाडीची	-13452
▁स्पर्धे	-13453
▁पुनर्वसन	-13454
▁फिरकीपटू	-13455
▁रशियाच्या	-13456
▁वर्षासाठी	-13457
▁न्यूझीलंडचा	-13458
▁पुरस्काराचे	-13459
▁इंस्टाग्रामवर	-13460
▁ऑलिम्पिकमध्ये	-13461
नस	-13462
▁▪	-13463
आत्	-13464
दिल	-13465
िंट	-13466
▁39	-13467
अमित	-13468
येथे	-13469
▁किड	-13470
▁मुब	-13471
मेझॉन	-13472
▁फिरत	-13473
▁रावल	-13474
▁शाहीद	-13475
▁स्वाय	-13476
▁पुजारा	-13477
▁मुक्ती	-13478
▁कोणतंही	-13479
▁सल्ल्या	-13480
▁स्टोक्स	-13481
▁आयुर्वेद	-13482
▁नेतृत्त्	-13483
▁जाणाऱ्‍या	-13484
▁वाहतुकीची	-13485
▁प्रकल्पाचे	-13486
खो	-13487
fox	-13488
तोष	-13489
वेता	-13490
▁आतुर	-13491
▁वाजे	-13492
▁बहुधा	-13493
▁संकटे	-13494
▁असमर्थ	-13495
▁परतावा	-13496
▁समर्थक	-13497
पूरमध्ये	-13498
▁जीवनाची	-13499
▁पार्थिव	-13500
▁भांडवली	-13501
▁महासागर	-13502
▁विकासात	-13503
▁संतुलित	-13504
▁असदुद्दीन	-13505
▁शिवसेनेचा	-13506
▁टप्प्यातील	-13507
▁डॉक्टरांना	-13508
▁प्रश्नचिन्ह	-13509
▁वृत्तवाहिनी	-13510
र्र	-13511
पेची	-13512
▁बनत	-13513
ूच्या	-13514
▁खटल्या	-13515
▁ठरल्या	-13516
▁दावीदा	-13517
▁लसीकरण	-13518
▁संभाषण	-13519
▁समुदाय	-13520
▁अर्धशतक	-13521
▁मीडियात	-13522
ांमध्येही	-13523
▁इस्राएला	-13524
▁मॅचमध्ये	-13525
▁सेवकांना	-13526
▁असुरक्षित	-13527
▁शिक्षकांना	-13528
▁राष्ट्रपतींच्या	-13529
अरे	-13530
केट	-13531
आंतर	-13532
▁एकटी	-13533
▁पूनम	-13534
▁साहि	-13535
व्हिजन	-13536
▁ओळखून	-13537
▁ठेवलं	-13538
▁शिकार	-13539
▁शिक्षणा	-13540
▁वापरल्या	-13541
▁विकासाची	-13542
▁विश्वासा	-13543
▁सिनेमाला	-13544
▁तपासासाठी	-13545
▁आत्मनिर्भर	-13546
▁वाचवण्यासाठी	-13547
जोर	-13548
वितो	-13549
▁बसा	-13550
द्वार	-13551
▁खेळू	-13552
▁जावा	-13553
▁दंगल	-13554
▁नागा	-13555
▁सर्च	-13556
वरच्या	-13557
▁रेस्ट	-13558
▁हुसेन	-13559
▁अपघाती	-13560
▁आहारात	-13561
▁जल्लोष	-13562
▁समाप्त	-13563
▁प्रदीर्घ	-13564
▁शिक्षणाचा	-13565
▁इमारतीच्या	-13566
▁खंडपीठासमोर	-13567
ort	-13568
वीय	-13569
▁इय	-13570
▁सरो	-13571
▁हेड	-13572
▁आवडी	-13573
▁उगाच	-13574
▁क्रा	-13575
▁करतेय	-13576
▁कितपत	-13577
▁ठरतात	-13578
▁संसार	-13579
▁हुकूम	-13580
▁घाबरून	-13581
▁ठेवावा	-13582
▁त्वरीत	-13583
▁मत्स्य	-13584
▁अप्रतिम	-13585
▁पूरग्रस्त	-13586
▁कॉन्स्टेबल	-13587
▁मृत्यूच्या	-13588
मानव	-13589
ॅनिश	-13590
▁अमोल	-13591
▁कौतु	-13592
▁जोडा	-13593
▁नातू	-13594
▁पाही	-13595
▁शिबि	-13596
▁कोलंब	-13597
▁चालूच	-13598
▁तितकेच	-13599
▁परंपरे	-13600
▁व्हाईट	-13601
▁बाजूंनी	-13602
▁आयोगाकडे	-13603
▁उद्देशून	-13604
▁आफ्रिकेचा	-13605
▁काढण्याची	-13606
▁लोकप्रतिनिधी	-13607
बध	-13608
कळा	-13609
वळे	-13610
ूनं	-13611
मिशन	-13612
र्जन	-13613
▁इंदूर	-13614
▁उचलला	-13615
▁साजरे	-13616
▁अभिवचन	-13617
▁असंतोष	-13618
▁कोठेही	-13619
▁क्वचित	-13620
▁सहजपणे	-13621
▁नसल्यास	-13622
▁बेकायदा	-13623
▁स्वदेशी	-13624
▁पार्श्‍व	-13625
▁सिनेमातील	-13626
▁अपघातामध्ये	-13627
▁शिष्यवृत्ती	-13628
,3	-13629
रेस	-13630
लाश	-13631
कृषी	-13632
▁उलाढा	-13633
▁पहिलं	-13634
▁मुलांवर	-13635
▁विनयभंग	-13636
▁अनपेक्षित	-13637
▁निगेटिव्ह	-13638
▁चंद्राबाबू	-13639
▁पंतप्रधानांची	-13640
मॅ	-13641
िप	-13642
▁कू	-13643
डर्स	-13644
रोली	-13645
▁ऋषभ	-13646
▁जाय	-13647
▁जिं	-13648
▁भाड	-13649
ंनाही	-13650
वलेला	-13651
वातून	-13652
▁अकबर	-13653
▁कमीत	-13654
▁देणं	-13655
▁बेटा	-13656
▁लोणी	-13657
▁विकी	-13658
सोबतचा	-13659
▁एखादे	-13660
▁याचाच	-13661
▁आजाराने	-13662
▁गांधींचा	-13663
▁दिग्विजय	-13664
▁सगळ्यांनी	-13665
▁संयुक्तपणे	-13666
,1	-13667
,6	-13668
ri	-13669
लु	-13670
फुल	-13671
कीला	-13672
स्नान	-13673
▁एकटा	-13674
▁काका	-13675
▁आचारसं	-13676
▁हिवाळी	-13677
▁देशभरातून	-13678
▁विवेकानंद	-13679
▁समस्यांना	-13680
▁राहिलेल्या	-13681
तया	-13682
फाट	-13683
▁मय	-13684
बाची	-13685
मत्त्	-13686
ानाची	-13687
▁दोनच	-13688
ांकरता	-13689
▁अनुपम	-13690
▁वाचना	-13691
अमेरिका	-13692
▁ठाण्या	-13693
▁मुलाने	-13694
बाबतच्या	-13695
▁जिनपिंग	-13696
▁यामुळेच	-13697
▁भारतातून	-13698
▁तक्रारीवरून	-13699
▁वृत्तानुसार	-13700
▁X	-13701
ंकी	-13702
टणी	-13703
▁४७	-13704
घाती	-13705
भरून	-13706
▁खर्	-13707
ल्पीय	-13708
▁आणणार	-13709
▁किसान	-13710
▁चालवत	-13711
▁हिंमत	-13712
▁अनुमती	-13713
▁घेतल्याने	-13714
्युर	-13715
▁घरीच	-13716
▁श्या	-13717
irefox	-13718
झर्लंड	-13719
▁अवमान	-13720
▁करदात	-13721
▁पोलाद	-13722
▁देशाने	-13723
▁मुलाची	-13724
ण्याऐवजी	-13725
▁मालिकेसाठी	-13726
▁प्रकरणांमध्ये	-13727
पली	-13728
ल्ज	-13729
सचे	-13730
▁46	-13731
▁पॉल	-13732
बिहार	-13733
ऱ्याचा	-13734
▁माजली	-13735
▁अध्याय	-13736
▁खर्चात	-13737
▁पाहणार	-13738
▁कंत्राट	-13739
▁दारिद्र	-13740
▁देशांचा	-13741
▁परिवर्त	-13742
▁फिलिप्प	-13743
स्वातंत्र	-13744
▁उपलब्धता	-13745
▁नक्षलवाद	-13746
▁सांगायला	-13747
▁पाहण्याची	-13748
▁बीसीसीआयचे	-13749
▁भाजपाध्यक्ष	-13750
▁प्रकल्पाच्या	-13751
▁रुग्णालयातील	-13752
em	-13753
एट	-13754
उत्	-13755
झ्या	-13756
नवीन	-13757
हेरीत	-13758
णार्थी	-13759
▁अलर्ट	-13760
▁भरधाव	-13761
तरित्या	-13762
ारासाठी	-13763
▁आनंदित	-13764
▁कोसळला	-13765
▁बजावला	-13766
▁शिवसेनेची	-13767
▁विद्यापीठातून	-13768
▁पंतप्रधानांकडून	-13769
ब्रि	-13770
▁तीस	-13771
▁वैवि	-13772
▁हिज्	-13773
▁मॅक्स	-13774
▁युक्रे	-13775
▁विश्‍व	-13776
▁आणीबाणी	-13777
▁लग्नाला	-13778
▁रौप्यपदक	-13779
▁सांगताना	-13780
▁करारामुळे	-13781
▁नोकरीच्या	-13782
▁विकेटसाठी	-13783
▁गर्लफ्रेंड	-13784
▁दिल्यामुळे	-13785
oc	-13786
डेन	-13787
▁ऑप	-13788
संघा	-13789
"""",	-13790
▁न्यु	-13791
▁खिडकी	-13792
▁टिप्प	-13793
▁ढवळून	-13794
▁बोलणी	-13795
▁समितीत	-13796
▁गैरवापर	-13797
▁दिवसाची	-13798
▁बसमध्ये	-13799
क्षेत्रात	-13800
▁याचिकाकर्	-13801
▁पीडितेच्या	-13802
-21	-13803
ंता	-13804
वाइ	-13805
▁वज	-13806
▁चुल	-13807
▁निः	-13808
लयाचे	-13809
▁खुर्	-13810
प्रदान	-13811
▁जवाना	-13812
▁द्याल	-13813
▁जेडीएस	-13814
▁शहराला	-13815
▁अक्षरशः	-13816
▁शरीराला	-13817
▁मारहाणीत	-13818
▁चांदीच्या	-13819
▁प्रत्येकाची	-13820
▁इंग्लंडमध्ये	-13821
,2	-13822
जवर	-13823
तोड	-13824
पीट	-13825
जाला	-13826
वाले	-13827
▁भिव	-13828
▁भेड	-13829
▁हॅट	-13830
▁शतकी	-13831
▁क्रोध	-13832
▁भास्कर	-13833
▁मागावी	-13834
▁रिलेशन	-13835
▁संसाधन	-13836
▁कंट्रोल	-13837
▁भाजपकडे	-13838
▁शस्त्रा	-13839
▁तिसऱ्यांदा	-13840
▁पदव्युत्तर	-13841
▁हिंदुस्तान	-13842
मोल	-13843
ंडकर	-13844
स्कृत	-13845
तज्ज्ञ	-13846
व्यापी	-13847
▁हेमंत	-13848
▁कोणाशी	-13849
▁फिटनेस	-13850
▁मतांनी	-13851
▁स्वाधीन	-13852
▁डॉलरच्या	-13853
▁बिनविरोध	-13854
▁पोटनिवडणुकीत	-13855
आड	-13856
थॉन	-13857
लिट	-13858
घरात	-13859
स्थळ	-13860
ानंद	-13861
▁सून	-13862
शुतोष	-13863
▁तेजी	-13864
प्रेमी	-13865
▁अतिरेक	-13866
▁पटलेली	-13867
▁पेन्शन	-13868
▁संवादा	-13869
▁भाजपाचा	-13870
▁मायदेशी	-13871
▁अभ्यासात	-13872
▁करण्याला	-13873
▁स्वायत्त	-13874
▁मनुष्याच्या	-13875
उट	-13876
वाहू	-13877
▁धडे	-13878
▁सुक	-13879
▁अरबी	-13880
▁डाटा	-13881
▁हिरो	-13882
नॉलॉजी	-13883
राजकीय	-13884
▁टोमॅटो	-13885
▁व्याजदर	-13886
▁गुणवत्ते	-13887
▁प्रामाणिकपणे	-13888
पं	-13889
▁बढ	-13890
लेखा	-13891
▁अंड	-13892
▁फेड	-13893
ंटाईन	-13894
भक्ती	-13895
▁कमला	-13896
▁खांब	-13897
▁डाउन	-13898
▁तलाक	-13899
▁नाईट	-13900
▁पुनः	-13901
▁मारत	-13902
▁सीएए	-13903
▁कन्है	-13904
▁जगाचे	-13905
▁पटकथा	-13906
▁पाचही	-13907
▁बळावर	-13908
▁लाभले	-13909
इंग्लंड	-13910
▁केलेलं	-13911
▁बहुमान	-13912
▁भाषांत	-13913
▁डोळ्यात	-13914
▁देखरेखी	-13915
▁पिस्तूल	-13916
्यांबद्दल	-13917
▁पूरस्थिती	-13918
▁ख्रिश्‍चनांनी	-13919
भ्र	-13920
▁आं	-13921
ंजीव	-13922
कारा	-13923
ानेच	-13924
▁कपड	-13925
युद्ध	-13926
▁फीचर	-13927
▁राजद	-13928
▁लिला	-13929
▁वावर	-13930
पुर्वी	-13931
▁लाभला	-13932
▁चेअरमन	-13933
▁धुव्वा	-13934
▁भवितव्य	-13935
▁गोस्वामी	-13936
▁निर्मितीसाठी	-13937
डिस	-13938
घटना	-13939
ळेकर	-13940
▁दीन	-13941
▁फटके	-13942
▁मिली	-13943
मासाठी	-13944
िव्हिल	-13945
▁कमेंट	-13946
▁निंदा	-13947
▁समन्स	-13948
एखाद्या	-13949
▁मदतीला	-13950
▁महादेव	-13951
▁रशियाचे	-13952
▁तुझ्यावर	-13953
▁मानांकित	-13954
▁राजनैतिक	-13955
▁पृष्ठभागा	-13956
▁राष्ट्रवादीने	-13957
,7	-13958
नचे	-13959
हरा	-13960
▁59	-13961
▁५१	-13962
▁उरी	-13963
▁जाब	-13964
▁निख	-13965
▁इकडे	-13966
▁वधार	-13967
▁वर्क	-13968
आयसीसी	-13969
▁करूया	-13970
▁तृतीय	-13971
▁मिळतं	-13972
▁शौर्य	-13973
▁गायिका	-13974
▁जिल्हे	-13975
▁दुहेरीत	-13976
▁वंशाच्या	-13977
▁विरोधीपक्ष	-13978
▁प्रकल्पांचे	-13979
▁क्षेत्रासाठी	-13980
घाट	-13981
दानी	-13982
स्सर	-13983
▁विस	-13984
▁बिबट	-13985
▁यातच	-13986
▁भेडसा	-13987
▁विपुल	-13988
▁प्रभाग	-13989
▁रंगाचा	-13990
▁महामंडळ	-13991
▁शर्थीचे	-13992
▁सोसायटी	-13993
्यांपासून	-13994
▁त्यामागे	-13995
▁दीर्घकाळ	-13996
▁नियमावली	-13997
▁सुवर्णपद	-13998
▁अमेरिकेचा	-13999
▁कायद्याला	-14000
▁व्यक्तीची	-14001
▁कुटुंबांना	-14002
▁खासदारांनी	-14003
▁निवडणुकीनंतर	-14004
▁कायद्याविरोधात	-14005
वाच	-14006
▁झलक	-14007
▁अमान	-14008
▁अवधी	-14009
▁टाकू	-14010
▁दयाळ	-14011
▁बराक	-14012
जाच्या	-14013
▁थैमान	-14014
▁तंदुरु	-14015
▁कार्यकाळ	-14016
▁त्यातूनच	-14017
▁हिंदुत्व	-14018
▁राज्यांचे	-14019
▁माहितीसाठी	-14020
▁निवडणुकीतील	-14021
▁त्यांच्याबद्दल	-14022
धात	-14023
बेट	-14024
बरीत	-14025
ब्बर	-14026
▁मता	-14027
▁कुटू	-14028
▁नसली	-14029
▁पातळ	-14030
पृथ्वी	-14031
▁आठवते	-14032
▁गोपाल	-14033
▁सुरेख	-14034
संपूर्ण	-14035
▁आचार्य	-14036
▁एसआयटी	-14037
▁कमलनाथ	-14038
▁ठिकाणे	-14039
▁रघुराम	-14040
▁सत्यात	-14041
▁चिरंजीव	-14042
▁निर्देशां	-14043
▁राष्ट्राला	-14044
▁अध्यक्षपदाचा	-14045
झम	-14046
ळेना	-14047
▁एल्	-14048
▁निस	-14049
विष्ठ	-14050
▁मोसम	-14051
▁प्रथि	-14052
▁उंचीवर	-14053
▁गैरसमज	-14054
▁वाढवणे	-14055
▁नोकऱ्या	-14056
▁वर्षातील	-14057
▁विनामूल्य	-14058
▁संशयास्पद	-14059
▁गुंतागुंती	-14060
▁राहणाऱ्‍या	-14061
▁न्यूझीलंडने	-14062
▁महाराष्ट्राला	-14063
किन	-14064
शेतक	-14065
श्मा	-14066
▁दिनी	-14067
▁सोनी	-14068
▁कर्नल	-14069
▁दहशतवा	-14070
▁इमारतीत	-14071
▁नवज्योत	-14072
▁करतेवेळी	-14073
▁कारकीर्द	-14074
▁उद्योगांना	-14075
▁चॅम्पियन्स	-14076
जक	-14077
ंटल	-14078
तोल	-14079
तीवर	-14080
▁अदा	-14081
▁खुर	-14082
दिवशी	-14083
▁मेजर	-14084
नागरिक	-14085
साधारण	-14086
▁आयफोन	-14087
▁दौऱया	-14088
▁प्रीम	-14089
▁मच्छि	-14090
▁मुद्या	-14091
▁खालच्या	-14092
▁किल्ल्या	-14093
▁संकल्पने	-14094
▁आपल्यापैकी	-14095
▁क्रिकेटच्या	-14096
गुण	-14097
चेच	-14098
ूपणे	-14099
▁काठ	-14100
▁हिल	-14101
▁कोचर	-14102
▁खोटा	-14103
▁वचने	-14104
▁दहावी	-14105
▁ड्रग्ज	-14106
▁तलवारी	-14107
▁बेड्या	-14108
▁ट्रॅक्टर	-14109
▁त्रिपुरा	-14110
▁पत्करावा	-14111
▁काढण्याचा	-14112
▁वापरकर्ता	-14113
▁विद्यापीठाचे	-14114
गळ	-14115
-17	-14116
भवन	-14117
िंगत	-14118
▁तान	-14119
नुष्य	-14120
▁जॅकी	-14121
▁दिवे	-14122
▁द्रव	-14123
▁फुला	-14124
▁नाजूक	-14125
पदावरून	-14126
▁घेणारा	-14127
▁विशाखा	-14128
▁आपल्याच	-14129
▁इलेव्हन	-14130
▁द्यायचा	-14131
▁आयुष्यभर	-14132
▁उपविभागीय	-14133
▁हत्येप्रकरणी	-14134
▁{	-14135
पल्स	-14136
▁वयो	-14137
▁स्‍	-14138
ष्टिक	-14139
▁जमाती	-14140
▁वॉरंट	-14141
क्तिमान	-14142
▁टाइम्स	-14143
▁पहिलेच	-14144
▁मांडणी	-14145
▁दर्जाचे	-14146
▁वर्तवला	-14147
▁उपमहापौर	-14148
▁ज्यावेळी	-14149
▁बाबतीतही	-14150
▁गुन्ह्यात	-14151
▁रोगप्रतिक	-14152
▁पुण्याच्या	-14153
▁माध्यमांशी	-14154
रीव	-14155
ग्ने	-14156
▁अपु	-14157
▁खोड	-14158
फोर्न	-14159
▁गर्व	-14160
▁झालीच	-14161
▁तेवढा	-14162
ण्याआधी	-14163
▁यांनीच	-14164
▁शिवीगाळ	-14165
▁अटकपूर्व	-14166
▁प्रचारात	-14167
▁प्रविष्ट	-14168
ld	-14169
जरा	-14170
विजे	-14171
▁दशक	-14172
▁एकजण	-14173
▁खड्ड	-14174
▁डेंग	-14175
▁पाने	-14176
▁बायो	-14177
▁माधव	-14178
▁सिंघ	-14179
इंडियन	-14180
र्मिला	-14181
▁इब्रा	-14182
▁ट्रॅक	-14183
▁बॅंके	-14184
वासार्ह	-14185
▁काळाची	-14186
▁पासवान	-14187
▁शिफारसी	-14188
▁द्रुतगती	-14189
▁तणावपूर्ण	-14190
▁तिच्याकडे	-14191
AA	-14192
ओर	-14193
दळ	-14194
झाय	-14195
सां	-14196
सुल	-14197
िकर	-14198
▁1-0	-14199
▁चिघ	-14200
रायला	-14201
▁अरूण	-14202
▁टक्‍	-14203
▁शोषण	-14204
▁२०००	-14205
▁जातोय	-14206
▁तारखा	-14207
▁द्वार	-14208
▁प्रगत	-14209
▁बोलली	-14210
▁बरोबरीत	-14211
ण्याकरिता	-14212
▁उपसभापती	-14213
▁कंठस्नान	-14214
▁जगण्याची	-14215
▁सेवेसाठी	-14216
▁खेळवण्यात	-14217
▁विश्वचषकात	-14218
▁महेंद्रसिंह	-14219
ुलर	-14220
लाइट	-14221
▁तहस	-14222
▁रोष	-14223
लिस्ट	-14224
व्हेट	-14225
▁हद्द	-14226
▁पडलेला	-14227
▁सूत्रे	-14228
भारतातील	-14229
▁युरोपीय	-14230
▁सदस्यीय	-14231
▁सुधारणे	-14232
▁चर्चांना	-14233
▁आपल्याजवळ	-14234
▁ग्रामविकास	-14235
▁सुशांतच्या	-14236
डत	-14237
अशी	-14238
ानि	-14239
िव्ही	-14240
▁जावी	-14241
▁पाडा	-14242
▁बाबू	-14243
▁रोहन	-14244
▁खानला	-14245
▁मुलीचे	-14246
▁आकस्मिक	-14247
▁केरळच्या	-14248
▁शतकाच्या	-14249
▁तत्पूर्वी	-14250
▁देणाऱ्‍या	-14251
▁कोरोनामुळे	-14252
▁मुंबईतल्या	-14253
▁सैन्याच्या	-14254
महाराष्ट्रात	-14255
▁अहवालानुसार	-14256
▁पाकिस्तानवर	-14257
आंतरराष्ट्रीय	-14258
▁युनिव्हर्सिटी	-14259
कीद	-14260
शूर	-14261
करणा	-14262
▁सायन	-14263
▁सोपं	-14264
जेवाला	-14265
प्रयोग	-14266
म्रपान	-14267
▁निरुप	-14268
▁फायबर	-14269
▁बुलेट	-14270
▁मच्छी	-14271
▁कडाडून	-14272
▁ईव्हीएम	-14273
▁पटकावला	-14274
▁बोलावून	-14275
याप्रकरणी	-14276
▁दिवसभरात	-14277
▁विकासाचा	-14278
ण्याद्वारे	-14279
राज्यमंत्री	-14280
▁गेल्यानंतर	-14281
▁स्थानकांवर	-14282
▁केंद्राच्या	-14283
▁माझ्याबरोबर	-14284
▁विधानपरिषदे	-14285
▁महाराष्ट्राची	-14286
लीट	-14287
▁आल	-14288
प्पी	-14289
▁कोथ	-14290
▁नर्	-14291
▁सखल	-14292
ंबाखू	-14293
▁खोटं	-14294
▁जोखीम	-14295
▁आणखीनच	-14296
▁वितरित	-14297
▁षटकांत	-14298
वारपासून	-14299
▁चालकाने	-14300
▁अनेकवेळा	-14301
▁त्यावरुन	-14302
▁लष्कराचे	-14303
▁लाठीचार्ज	-14304
▁त्याच्याजवळ	-14305
▁विजेत्यांना	-14306
कुर	-14307
शेल	-14308
▁गज	-14309
चंही	-14310
ॉफ्ट	-14311
▁उन्	-14312
▁फिन	-14313
▁रतन	-14314
याआधी	-14315
रूध्द	-14316
सीबीआय	-14317
▁कट्टर	-14318
▁जवळून	-14319
▁असायची	-14320
▁बहुचर्	-14321
▁वापरतात	-14322
▁निवडणूकी	-14323
▁सुव्यवस्थ	-14324
शांक	-14325
▁नूत	-14326
▁बास	-14327
▁लुक	-14328
▁आलेत	-14329
▁नंदन	-14330
▁लपून	-14331
▁अभिनव	-14332
▁कॉरिड	-14333
▁घोषणे	-14334
▁जायची	-14335
▁जाळून	-14336
▁एकीकडे	-14337
▁फोल्डर	-14338
▁तेंव्हा	-14339
▁पाठोपाठ	-14340
▁पैशांची	-14341
▁संख्याबळ	-14342
▁कुटुंबाची	-14343
▁मित्रपक्ष	-14344
▁दिवाळीच्या	-14345
▁करण्यापासून	-14346
▁त्यांच्यापैकी	-14347
▁त्याच्याविरोधात	-14348
अली	-14349
खले	-14350
▁600	-14351
▁दाऊ	-14352
केबाज	-14353
▁जिवे	-14354
▁नगरव	-14355
▁नेदर	-14356
▁बेदी	-14357
▁हळहळ	-14358
▁हाहा	-14359
▁ग्रहण	-14360
▁घाबरत	-14361
▁बनवला	-14362
▁ज्याचे	-14363
▁ठिकाणा	-14364
▁वाटतंय	-14365
▁अब्राहाम	-14366
▁जणांच्या	-14367
▁ट्विटरच्या	-14368
▁मोटारसायकल	-14369
▁कार्यक्रमाचा	-14370
▁तामिळनाडूच्या	-14371
▁वाढविण्यासाठी	-14372
सिम	-14373
▁आॅ	-14374
▁"‘‘	-14375
▁दही	-14376
▁लिह	-14377
▁"201	-14378
▁कृषि	-14379
▁धुळे	-14380
▁रक्ष	-14381
▁सोसा	-14382
▁स्मृ	-14383
▁कोटीं	-14384
▁कोठून	-14385
▁हुतात	-14386
▁प्रफुल्ल	-14387
▁इस्राएलचा	-14388
▁बदलण्याची	-14389
▁व्हायरसचा	-14390
▁आरोपींच्या	-14391
▁पराभवानंतर	-14392
▁पारदर्शकता	-14393
▁राज्यांतील	-14394
बाचा	-14395
▁कुं	-14396
▁खेल	-14397
▁पशू	-14398
कांशी	-14399
▁गोदा	-14400
▁तीही	-14401
▁राखा	-14402
▁अवश्य	-14403
▁थांबत	-14404
▁फोर्स	-14405
▁सशक्त	-14406
▁कौन्सिल	-14407
▁बारामती	-14408
▁मल्ल्या	-14409
▁क्रमांकाचा	-14410
▁अधिकाऱ्यांची	-14411
):	-14412
est	-14413
कीर	-14414
क्कल	-14415
ॅमिन	-14416
्‍ये	-14417
▁रडत	-14418
▁हरभ	-14419
▁करोड	-14420
▁नसता	-14421
▁गरिबी	-14422
▁फेस्ट	-14423
▁यूपीए	-14424
▁रुपात	-14425
▁सरकारे	-14426
▁चित्रित	-14427
▁तरुणीने	-14428
▁भाजपाची	-14429
▁आधीपासूनच	-14430
▁दिवसागणिक	-14431
▁लग्नानंतर	-14432
▁साधारणपणे	-14433
▁कोरोनाच्या	-14434
▁मल्लिकार्जुन	-14435
av	-14436
▁डाळ	-14437
वितीय	-14438
▁देशी	-14439
▁वाळू	-14440
▁हरित	-14441
ांचेही	-14442
▁कळवले	-14443
▁डेमोक	-14444
▁दिलीय	-14445
▁बसलेल्या	-14446
▁आरोपाखाली	-14447
▁डिसेंबरला	-14448
▁तक्रारदार	-14449
▁फलंदाजीचा	-14450
▁घालण्यासाठी	-14451
▁जबाबदाऱ्‍या	-14452
दौ	-14453
जमा	-14454
ंडीत	-14455
▁घणा	-14456
▁वात	-14457
▁घ्याल	-14458
▁ब्रॉड	-14459
▁हार्ड	-14460
▁अपूर्ण	-14461
▁पत्नीचा	-14462
▁राहत्या	-14463
▁वर्षाचा	-14464
▁संदेशात	-14465
ण्यापासून	-14466
▁मंडळीच्या	-14467
▁जिल्ह्याचे	-14468
▁गेल्यावर्षी	-14469
▁तक्रारीनंतर	-14470
▁परमेश्वराचे	-14471
▁पुरुषांच्या	-14472
▁प्रशासनाच्या	-14473
▁व्यक्तींच्या	-14474
▁विद्यार्थ्यांवर	-14475
असं	-14476
कथा	-14477
मली	-14478
▁नृ	-14479
▁सज	-14480
लाइन	-14481
▁उपन	-14482
▁भीम	-14483
▁मोर	-14484
भाजपा	-14485
▁गळती	-14486
▁पाळत	-14487
▁याही	-14488
▁कक्षा	-14489
▁घडलेला	-14490
▁तानाजी	-14491
▁अमरिंदर	-14492
▁प्रज्ञा	-14493
▁म्हणतील	-14494
▁यांपैकी	-14495
▁शरीरावर	-14496
▁ढकलण्यात	-14497
,8	-14498
खरं	-14499
गोदर	-14500
ळीचा	-14501
▁नवो	-14502
▁काठी	-14503
▁पदके	-14504
▁पीयू	-14505
▁२००७	-14506
विलेले	-14507
▁डिस्ट	-14508
▁ध्यान	-14509
▁पाणबु	-14510
▁मिचेल	-14511
▁शिकले	-14512
▁स्टाफ	-14513
▁वेगळीच	-14514
ळ्याच्या	-14515
▁पश्‍चात	-14516
▁आणण्याची	-14517
▁लोकसभेची	-14518
▁यादरम्यान	-14519
▁आश्चर्यकारक	-14520
४०	-14521
पूड	-14522
शंक	-14523
ूची	-14524
वतार	-14525
▁130	-14526
▁जैन	-14527
▁हाफ	-14528
णात्य	-14529
▁आझमी	-14530
▁बनवू	-14531
▁वजनी	-14532
डमध्ये	-14533
▁कराची	-14534
▁निधीची	-14535
▁समारोप	-14536
▁कुणालाच	-14537
▁शांततेत	-14538
▁किंबहुना	-14539
▁घटनेबाबत	-14540
▁विभागाला	-14541
▁रुग्णांवर	-14542
▁राज्यातल्या	-14543
▁ऑस्ट्रेलियात	-14544
फायन	-14545
▁परभ	-14546
वेदना	-14547
▁होतेय	-14548
▁कानपूर	-14549
▁खात्या	-14550
ंविरुद्ध	-14551
▁चौघांना	-14552
▁ठेवल्या	-14553
▁देशवासी	-14554
▁रेस्टॉर	-14555
▁लग्नाची	-14556
▁आशियातील	-14557
▁उपाध्याय	-14558
▁जाण्याचे	-14559
▁पद्मश्री	-14560
▁परतीच्या	-14561
▁उत्साहाने	-14562
▁केंद्राने	-14563
▁संस्थांनी	-14564
▁पावसाळ्यात	-14565
▁चॅम्पियनशिप	-14566
▁शिवसेनेकडून	-14567
लस	-14568
ृण	-14569
खबर	-14570
▁झी	-14571
जाने	-14572
▁यवत	-14573
▁सडक	-14574
▁दादर	-14575
▁दावि	-14576
▁दुरू	-14577
▁नसतं	-14578
▁जवळील	-14579
▁दरवाढ	-14580
▁सारखा	-14581
▁सुटला	-14582
▁हैराण	-14583
त्यांचा	-14584
▁किमतीत	-14585
▁मोर्चे	-14586
▁श्वेता	-14587
▁वैविध्य	-14588
▁सगळ्याच	-14589
▁अनिश्चित	-14590
▁गोष्टीला	-14591
▁त्याऐवजी	-14592
▁सोयीस्कर	-14593
▁अमेरिकेची	-14594
▁वयोगटातील	-14595
▁तुम्हालाही	-14596
▁पत्रकारांना	-14597
▁योजनेंतर्गत	-14598
सत	-14599
▁वु	-14600
दस्त	-14601
▁फाऊ	-14602
मरणीय	-14603
मिश्र	-14604
▁भागि	-14605
▁श्रा	-14606
▁पदभार	-14607
▁बळकटी	-14608
्यानंतर	-14609
▁चिंतेत	-14610
▁याचीही	-14611
▁विपरीत	-14612
▁सपोर्ट	-14613
सोबतच्या	-14614
▁निधनाने	-14615
▁सर्व्हे	-14616
▁सिव्हिल	-14617
विषयीच्या	-14618
▁देवाकडून	-14619
▁पांगवण्यासाठी	-14620
उस	-14621
▁105	-14622
▁गंध	-14623
▁रेषे	-14624
▁विपर	-14625
▁नमुना	-14626
▁प्रॉड	-14627
▁वाक्य	-14628
▁आशुतोष	-14629
▁कियारा	-14630
▁निघाली	-14631
▁पेत्रा	-14632
▁बदनामी	-14633
▁साऱ्या	-14634
▁स्वित्	-14635
▁निर्मित	-14636
▁बलिदाना	-14637
▁पेत्राने	-14638
▁अर्थसंकल्पीय	-14639
संख	-14640
ारू	-14641
▁अा	-14642
▁ऍप	-14643
▁खप	-14644
पाती	-14645
फ्रा	-14646
शियम	-14647
▁एबी	-14648
▁कुप	-14649
▁सील	-14650
ंदिया	-14651
पथावर	-14652
▁गीता	-14653
▁भीमा	-14654
ासारखे	-14655
▁आफ्रि	-14656
▁सेक्स	-14657
▁प्राप्	-14658
▁मानतात	-14659
▁समाजाचे	-14660
▁दावीदाने	-14661
▁त्यांच्याच	-14662
▁पोटनिवडणूक	-14663
▁कायमस्वरूपी	-14664
▁येडियुरप्पा	-14665
बंग	-14666
मते	-14667
▁आरडा	-14668
▁ललित	-14669
▁शशिक	-14670
▁साइट	-14671
▁कुठेच	-14672
▁ताकीद	-14673
▁दयाळू	-14674
▁पाचशे	-14675
▁युवती	-14676
▁रोखले	-14677
पातळीवर	-14678
पेट्रोल	-14679
▁अंतरिम	-14680
▁ग्लोबल	-14681
▁मंचावर	-14682
▁पदावरून	-14683
▁मिळायला	-14684
▁डोकेदुखी	-14685
▁वीरेंद्र	-14686
▁पाकव्याप्त	-14687
▁हिंदुस्थानच्या	-14688
चूर	-14689
ह्म	-14690
▁५६	-14691
ानिव	-14692
▁ओमर	-14693
▁रेपो	-14694
▁आगीची	-14695
▁नगरात	-14696
▁वेधले	-14697
रुद्दीन	-14698
संबंधित	-14699
▁कक्षेत	-14700
▁विशेषा	-14701
▁विषारी	-14702
▁संस्थे	-14703
▁योजनेला	-14704
▁काळानंतर	-14705
▁पिण्याचे	-14706
▁मिडीयावर	-14707
▁याच्याशी	-14708
▁याद्वारे	-14709
▁विचारपूस	-14710
▁प्राणज्योत	-14711
▁मुख्याध्या	-14712
▁स्पर्धात्मक	-14713
▁त्यासंदर्भात	-14714
▁प्रतिज्ञापत्र	-14715
▁महिन्यांपूर्वी	-14716
थित	-14717
मावत	-14718
▁नरेश	-14719
▁बसेस	-14720
▁मशीद	-14721
▁वळसे	-14722
▁होणं	-14723
्रेष्ठ	-14724
▁ठरवून	-14725
▁नजरेत	-14726
▁शून्य	-14727
▁स्ट्र	-14728
▁उच्चार	-14729
▁तिसऱया	-14730
▁आमच्यात	-14731
▁उत्साही	-14732
▁फिल्म्स	-14733
▁याआधीही	-14734
▁नगरविकास	-14735
▁आफ्रिकेच्या	-14736
▁शेतकऱ्यांचा	-14737
▁यांच्यातल्या	-14738
▁+	-14739
टीन	-14740
हाद	-14741
▁खच	-14742
बाकी	-14743
▁दहश	-14744
▁पिश	-14745
▁बीज	-14746
▁लता	-14747
▁अतिक	-14748
▁आरंभ	-14749
▁एसटी	-14750
▁नेऊन	-14751
▁वसूल	-14752
▁स्वय	-14753
▁घेऊया	-14754
▁ब्राउ	-14755
▁येथेच	-14756
▁योगेश	-14757
▁विकसन	-14758
▁अगोदरच	-14759
▁जोधपूर	-14760
▁डिव्हा	-14761
▁लहानपणी	-14762
▁सुरेंद्र	-14763
▁आंदोलनकर्	-14764
▁धावसंख्या	-14765
▁मिळाल्याने	-14766
▁सदस्यांच्या	-14767
▁रुग्णालयातून	-14768
ow	-14769
ियत	-14770
सेवी	-14771
▁मेज	-14772
▁वक्	-14773
र्तास	-14774
्युटी	-14775
▁माले	-14776
मेश्वर	-14777
▁आवडता	-14778
▁आहारा	-14779
▁जिवीत	-14780
▁तब्ये	-14781
▁पर्वा	-14782
▁पसरला	-14783
▁समजेल	-14784
▁वेळाने	-14785
▁हलक्या	-14786
▁पोर्तुगा	-14787
▁मिडियावर	-14788
▁मेळाव्यात	-14789
▁पुस्तकातील	-14790
▁हिंसाचारात	-14791
िओ	-14792
नुक	-14793
वरण	-14794
आधार	-14795
राणा	-14796
▁मीखा	-14797
▁सीएस	-14798
▁२००४	-14799
आयडीसी	-14800
▁कागदा	-14801
▁कारचा	-14802
▁जंगलात	-14803
▁व्यत्य	-14804
▁गोरखपूर	-14805
▁प्रथिने	-14806
▁व्यासपीठ	-14807
▁बहुचर्चित	-14808
▁टेलिव्हिजन	-14809
▁कार्यक्रमास	-14810
टको	-14811
मका	-14812
शहर	-14813
▁67	-14814
orld	-14815
ंदना	-14816
पावर	-14817
▁1.5	-14818
▁बडो	-14819
अगोदर	-14820
काळजी	-14821
▁व्यभि	-14822
ऱ्यातील	-14823
▁टाळावे	-14824
▁विल्यम	-14825
धारकांना	-14826
▁अनुयायी	-14827
▁पुरेपूर	-14828
▁विविधता	-14829
▁वगळण्यात	-14830
▁वादविवाद	-14831
▁वापरासाठी	-14832
▁कोणकोणत्या	-14833
▁विभागाकडून	-14834
रक्ष	-14835
राजवळ	-14836
▁आवार	-14837
▁क्ला	-14838
▁टाळता	-14839
▁बेल्ज	-14840
▁रोमां	-14841
▁वेगळेच	-14842
▁चर्चाही	-14843
▁योजनेचे	-14844
▁आश्वासने	-14845
▁दूरचित्र	-14846
▁त्यासोबतच	-14847
▁भारतातल्या	-14848
▁शहराध्यक्ष	-14849
In	-14850
िस्ट	-14851
▁रिम	-14852
लिकेत	-14853
ोपचार	-14854
▁आदाम	-14855
▁गरजू	-14856
▁प्रग	-14857
▁भरली	-14858
▁लव्ह	-14859
▁वेगळ	-14860
▁सुजय	-14861
मीच्या	-14862
▁आढळतो	-14863
▁उमटले	-14864
▁मुबलक	-14865
▁चुकीचं	-14866
▁तिहेरी	-14867
▁फोटोही	-14868
▁संग्रह	-14869
▁समर्पण	-14870
्यांवरील	-14871
▁मंगेशकर	-14872
▁मिळणारे	-14873
▁होरपळून	-14874
▁कारवाईची	-14875
▁रामचंद्र	-14876
▁राहिलेला	-14877
▁देशामध्ये	-14878
▁महिन्यांच्या	-14879
▁सोडवण्यासाठी	-14880
जड	-14881
मेर	-14882
सर्वो	-14883
▁हिरे	-14884
▁सेनेचे	-14885
▁विमानाने	-14886
▁घेतल्याचे	-14887
▁यशस्वीपणे	-14888
▁वाढविण्यात	-14889
▁वस्त्रोद्योग	-14890
ंमद	-14891
ल्ट	-14892
▁नु	-14893
शावर	-14894
▁बेथ	-14895
▁४००	-14896
▁वाकड	-14897
▁गाडीत	-14898
▁लावणे	-14899
▁हक्का	-14900
▁ओबेरॉय	-14901
▁कालखंड	-14902
▁महासंघ	-14903
▁सहभागा	-14904
▁आकांक्षा	-14905
▁मैत्रिणी	-14906
▁त्यातल्या	-14907
▁भागामध्ये	-14908
▁सुरजेवाला	-14909
▁दिवसापासून	-14910
▁प्रतिष्ठित	-14911
▁उपमुख्यमंत्रि	-14912
▁त्याच्याविरुद्ध	-14913
▁शल	-14914
▁६४	-14915
डाचे	-14916
फर्ड	-14917
राणी	-14918
िकरण	-14919
▁पन्	-14920
भावना	-14921
लवकरच	-14922
▁मिता	-14923
▁होवू	-14924
ऱ्याने	-14925
▁ओळखतो	-14926
▁तिहार	-14927
▁दिलाय	-14928
▁पडलेले	-14929
▁मालिके	-14930
▁व्हिएत	-14931
▁कराव्या	-14932
▁मोर्चात	-14933
▁नागपुरात	-14934
▁मानवांना	-14935
▁वर्षांसाठी	-14936
लंक	-14937
Name	-14938
अधिक	-14939
आयएस	-14940
म्पो	-14941
वेदी	-14942
▁अती	-14943
▁गेल	-14944
पट्टण	-14945
▁कोंब	-14946
▁कोले	-14947
▁घालू	-14948
▁नशीब	-14949
▁पाडला	-14950
▁म्होर	-14951
▁साजिद	-14952
▁सिध्द	-14953
▁सुबोध	-14954
▁घालावी	-14955
▁तेलंगण	-14956
▁येताना	-14957
▁लेखिका	-14958
▁सांगणे	-14959
▁आवाहनही	-14960
▁पुनरुज्	-14961
▁अन्नधान्य	-14962
▁आसपासच्या	-14963
▁शक्तिशाली	-14964
▁प्रश्नांना	-14965
▁अभ्यासक्रमा	-14966
ँट	-14967
टु	-14968
२४	-14969
ोटे	-14970
▁91	-14971
सादा	-14972
▁द्व	-14973
▁विट	-14974
प्रेर	-14975
▁भाडे	-14976
▁भारी	-14977
▁माला	-14978
तिच्या	-14979
▁कापून	-14980
▁घालणे	-14981
▁पीयूष	-14982
▁फोटोत	-14983
▁युध्द	-14984
▁शशांक	-14985
▁चित्रा	-14986
▁कंपनीची	-14987
▁बालाकोट	-14988
▁लग्नाचे	-14989
▁विरूद्ध	-14990
▁असामान्य	-14991
▁इस्लामिक	-14992
▁पुस्तकाचे	-14993
▁योजनेसाठी	-14994
▁सुरक्षेचा	-14995
▁ख्रिस्ताचे	-14996
▁कुटुंबाच्या	-14997
▁साक्षीदारांनी	-14998
1$	-14999
आपला	-15000
निअर	-15001
सावर	-15002
ॅटिक	-15003
▁अथक	-15004
▁इम्	-15005
▁उपभ	-15006
▁कणक	-15007
▁तरण	-15008
▁शिख	-15009
वृद्ध	-15010
▁आतून	-15011
▁जादू	-15012
▁धोके	-15013
▁सुरत	-15014
▁गांभी	-15015
▁धक्के	-15016
▁शकलेला	-15017
▁उजवीकडे	-15018
▁पाठविला	-15019
▁मेट्रिक	-15020
▁कार्याला	-15021
▁तरीदेखील	-15022
▁स्वराज्य	-15023
▁रुग्णालये	-15024
▁पालिकेच्या	-15025
--	-15026
धि	-15027
्मी	-15028
निकल	-15029
▁तूट	-15030
तर्फी	-15031
श्‍वर	-15032
हिंदी	-15033
▁नातं	-15034
▁वाचू	-15035
▁ट्राय	-15036
▁धोरणे	-15037
▁वर्षं	-15038
▁सप्ता	-15039
▁करावया	-15040
▁दाक्षि	-15041
▁वाटाघा	-15042
▁टप्प्या	-15043
▁सुपुत्र	-15044
▁जवानांच्या	-15045
▁ज्याप्रमाणे	-15046
▁प्रतिबंधात्मक	-15047
▁स्पर्धांमध्ये	-15048
ंश	-15049
ळखी	-15050
▁डॅ	-15051
ग्या	-15052
▁बॅक	-15053
▁शकू	-15054
▁इतकं	-15055
▁नेहा	-15056
कृत्ये	-15057
▁तुर्क	-15058
▁नितेश	-15059
▁राखणे	-15060
▁वर्धन	-15061
▁शरीरा	-15062
▁सुट्ट	-15063
भारताने	-15064
▁अन्वये	-15065
▁आत्मिक	-15066
▁काहीसा	-15067
▁टीकेची	-15068
▁त्यांस	-15069
▁मुक्का	-15070
▁दिल्यास	-15071
▁धर्मनिर	-15072
सार्वजनिक	-15073
▁फाऊंडेशन	-15074
▁बॉलिवूडचे	-15075
▁वाढल्याने	-15076
▁विरोधातील	-15077
▁प्रयत्नांची	-15078
▁महसूलमंत्री	-15079
शह	-15080
परा	-15081
▁53	-15082
▁५३	-15083
्रेक	-15084
▁आझम	-15085
वेस्ट	-15086
हिंदु	-15087
▁नदीत	-15088
▁मानक	-15089
▁सात्	-15090
▁तत्त्	-15091
▁फोनवर	-15092
▁व्यसन	-15093
▁एकदाही	-15094
▁तंबाखू	-15095
▁दलातील	-15096
▁मिनिटे	-15097
▁डॉक्‍टर	-15098
▁तालिबान	-15099
▁भारतातच	-15100
कोणत्याही	-15101
▁कारमध्ये	-15102
▁छत्तीसगढ	-15103
▁परिषदेने	-15104
▁वल्लभभाई	-15105
▁कॅलिफोर्न	-15106
▁अधिकाऱ्‍या	-15107
▁निकालानंतर	-15108
▁खेळाडूंच्या	-15109
▁मतदारसंघाचे	-15110
▁सीसीटीव्हीत	-15111
▁चित्रपटसृष्टीत	-15112
GB	-15113
ps	-15114
▁}	-15115
बीज	-15116
▁५४	-15117
बारा	-15118
▁नाच	-15119
स्वाल	-15120
▁आकडे	-15121
▁इसहा	-15122
▁एकतर	-15123
▁कंबर	-15124
▁झोपड	-15125
▁पिक्	-15126
नाबाबत	-15127
▁अहरोन	-15128
▁घड्या	-15129
▁होकार	-15130
▁जीवाणू	-15131
▁पौलाला	-15132
▁भरभरून	-15133
▁हायड्र	-15134
▁अतिरेकी	-15135
▁प्रचारक	-15136
▁घटनात्मक	-15137
▁मानवजाती	-15138
▁येण्याचे	-15139
▁कायद्याचा	-15140
▁अर्थसंकल्पा	-15141
▁उमेदवारांनी	-15142
▁विधानसभेतील	-15143
▁62	-15144
बुबा	-15145
र्भा	-15146
▁लँड	-15147
ईच्या	-15148
▁नविन	-15149
▁रंगत	-15150
▁सिल्	-15151
पवित्र	-15152
पूर्ती	-15153
▁ग्रँड	-15154
▁रश्मी	-15155
▁मानावे	-15156
▁एकेकाळी	-15157
▁महासंघा	-15158
▁बोलण्यास	-15159
▁केंद्रावर	-15160
▁त्यांपैकी	-15161
▁वृद्धिंगत	-15162
▁थांबवण्यात	-15163
▁मिळवण्याचा	-15164
डाळ	-15165
बीन	-15166
बॅक	-15167
भुत	-15168
कीया	-15169
▁अले	-15170
▁चिम	-15171
▁नाट	-15172
▁पचन	-15173
▁सुग	-15174
▁हडप	-15175
पमेंट	-15176
्ट्री	-15177
▁मुभा	-15178
▁गाठला	-15179
▁जातीय	-15180
▁समानता	-15181
▁सूर्या	-15182
▁आत्मसात	-15183
▁कारवाया	-15184
▁पार्टीत	-15185
▁बाहेरील	-15186
▁सर्जिकल	-15187
▁गांभीर्य	-15188
▁भाजपसोबत	-15189
▁शिकवणुकी	-15190
पर्यंतच्या	-15191
खद	-15192
्वा	-15193
▁उब	-15194
गावर	-15195
जाचा	-15196
तिकर	-15197
पर्य	-15198
▁इस्ट	-15199
▁बनेल	-15200
▁सुटी	-15201
सारखेच	-15202
▁नेमले	-15203
▁स्थाय	-15204
▁डाउनलोड	-15205
▁बँकांना	-15206
▁कपूरच्या	-15207
▁प्राप्ती	-15208
▁बेरोजगार	-15209
▁मनुष्याला	-15210
▁मिळवण्यात	-15211
▁हत्याकांड	-15212
▁टेक्नॉलॉजी	-15213
▁बैठकीमध्ये	-15214
▁विश्वासघात	-15215
अभ	-15216
▁ठण	-15217
▁पठ	-15218
▁आवळ	-15219
▁१९०	-15220
क्यात	-15221
▁पणजी	-15222
▁पूर्	-15223
▁जितके	-15224
▁धुवून	-15225
▁माणिक	-15226
▁याचिक	-15227
▁भ्रष्ट	-15228
▁पराभवाची	-15229
[...]
