▁क 100
▁स 100
▁ह 100
▁म 100
▁प 100
्र 100
▁के 100
ार 100
ें 100
ने 100
▁है 100
या 100
▁ब 100
▁ज 100
▁अ 100
ों 100
▁व 100
▁में 100
▁द 100
▁र 100
▁ल 100
▁की 100
▁न 100
र् 100
▁उ 100
ान 100
▁को 100
▁औ 100
▁और 100
▁कि 100
ता 100
▁कर 100
▁आ 100
▁इ 100
▁ग 100
्य 100
▁त 100
▁भ 100
िक 100
▁से 100
▁का 100
▁प्र 100
ना 100
▁ने 100
▁पर 100
स् 100
▁ए 100
ाल 100
▁श 100
िल 100
क् 100
ित 100
▁य 100
▁च 100
▁इस 100
हा 100
ही 100
▁हैं 100
िए 100
िय 100
न् 100
त्र 100
िया 100
▁हो 100
वा 100
ड़ 100
▁वि 100
ाम 100
▁फ 100
▁थ 100
ति 100
ेश 100
▁जा 100
▁ख 100
▁सं 100
▁स् 100
के 100
ते 100
▁लिए 100
ाज 100
▁एक 100
ती 100
ला 100
से 100
ंग 100
हीं 100
▁भी 100
ले 100
▁( 100
्या 100
री 100
ोग 100
▁सम 100
रा 100
सी 100
▁सा 100
▁किया 100
▁नहीं 100
▁बा 100
त् 100
क्ष 100
िस 100
्ट 100
▁अप 100
नी 100
कार 100
▁मु 100
▁कहा 100
कि 100
गा 100
का 100
▁यह 100
▁नि 100
▁ट 100
ंत्र 100
▁1 100
▁हु 100
▁भार 100
▁हम 100
्व 100
कर 100
ली 100
्री 100
▁2 100
ाय 100
्म 100
▁ड 100
▁दे 100
ुल 100
न्ह 100
ुर 100
▁करने 100
ंद 100
ियों 100
▁उन 100
▁गया 100
ां 100
ाह 100
की 100
▁अध 100
▁कार 100
▁ले 100
▁उन्ह 100
▁राज 100
ारी 100
▁पह 100
▁था 100
▁अन 100
▁रह 100
ास 100
ैं 100
▁जो 100
▁उस 100
▁साथ 100
▁ही 100
दी 100
मा 100
्‍ 100
रे 100
▁सि 100
िन 100
सा 100
ष्ट 100
▁घ 100
दा 100
▁तो 100
ारा 100
देश 100
ंत्री 100
▁या 100
ुम 100
भा 100
▁लोग 100
ल् 100
ंड 100
▁पू 100
ोंने 100
िव 100
▁भारत 100
द् 100
िला 100
▁सु 100
िर 100
ढ़ 100
ओं 100
▁दो 100
स्त 100
्ष 100
्रे 100
तर 100
गी 100
▁सक 100
था 100
गे 100
पी 100
▁दिया 100
▁वाल 100
भी 100
▁सर 100
▁सी 100
▁रा 100
में 100
्त 100
स्ट 100
▁उप 100
वि 100
▁उन्होंने 100
"" 100
▁। 100
ोज 100
च् 100
धान 100
▁20 100
ेल 100
▁अपने 100
टी 100
▁वह 100
▁ध 100
ारे 100
जी 100
▁मह 100
ंच 100
▁बाद 100
रो 100
▁सरकार 100
▁आप 100
▁छ 100
वी 100
▁तक 100
▁रहे 100
▁पा 100
▁अधिक 100
▁ला 100
पा 100
ंध 100
▁बी 100
▁कु 100
नों 100
िश 100
▁दी 100
▁पुल 100
▁हुए 100
▁प्रति 100
ेट 100
▁ऐ 100
ूप 100
जा 100
▁पुलिस 100
▁गई 100
▁थी 100
ार् 100
▁चु 100
▁थे 100
ये 100
ौर 100
▁वे 100
▁मो 100
गर 100
▁माम 100
▁जिस 100
▁मे 100
ीन 100
▁मा 100
▁मौ 100
▁मिल 100
र्व 100
▁लोगों 100
▁चाह 100
मंत्री 100
▁विश 100
▁जी 100
▁निर् 100
▁क्ष 100
▁बना 100
▁देश 100
ूर 100
टर 100
▁द्व 100
▁रहा 100
ानी 100
▁जब 100
ाना 100
खा 100
▁जाए 100
ुप 100
▁राज्य 100
िम 100
तीय 100
▁स्थ 100
▁रूप 100
00 100
ज़ 100
▁कुछ 100
▁‘ 100
बंध 100
क्र 100
▁रही 100
▁इन 100
▁कोई 100
को 100
▁करते 100
द्ध 100
्रीय 100
▁वर् 100
बी 100
▁मैं 100
एस 100
▁कार्य 100
▁बात 100
▁कम 100
▁उत् 100
▁अं 100
▁सब 100
▁फिल 100
ड़ा 100
क्षा 100
▁तर 100
वर 100
स्थ 100
▁गए 100
▁पी 100
कों 100
ंह 100
▁बह 100
वं 100
द्र 100
बर 100
▁तुम 100
▁द्वारा 100
▁3 100
आई 100
मान 100
ाइ 100
▁बढ़ 100
ूल 100
क्त 100
शन 100
▁अनु 100
▁विक 100
▁इसके 100
▁उनके 100
ड़ी 100
र्ट 100
▁भा 100
ेत्र 100
▁भारतीय 100
▁पहले 100
▁हि 100
योग 100
▁सिंह 100
िंग 100
▁मुख 100
र्म 100
िका 100
ंप 100
्स 100
▁बता 100
▁राष्ट 100
▁दिल 100
किन 100
▁क्षेत्र 100
▁श्री 100
▁किसी 100
▁ऑ 100
च्च 100
▁साम 100
चार 100
धार 100
▁अपनी 100
िप 100
ूस 100
डी 100
ोक 100
▁201 100
हां 100
▁अम 100
▁ओ 100
▁लेकिन 100
▁ये 100
▁वाले 100
▁तथा 100
ब् 100
▁रुप 100
ाप 100
ुत 100
▁फिल्म 100
िट 100
▁व्य 100
हर 100
▁बे 100
▁काम 100
▁लगा 100
▁एवं 100
ेंगे 100
▁जान 100
▁' 100
्यों 100
▁होने 100
ार्ट 100
▁कै 100
ोट 100
ोल 100
ोड़ 100
्रेस 100
▁टी 100
एम 100
▁क्या 100
▁कह 100
वे 100
▁सभी 100
▁हाल 100
▁मंत्री 100
्यू 100
▁करना 100
बा 100
द्य 100
▁उन्हें 100
िज 100
ड़े 100
▁प्रधान 100
▁हुई 100
र्थ 100
सर 100
ेर 100
ुन 100
▁खिला 100
▁रख 100
▁मामले 100
्ली 100
▁हुआ 100
▁मुख्य 100
▁सह 100
ष् 100
▁तरह 100
▁अव 100
वाल 100
▁शाम 100
▁सू 100
जे 100
▁जै 100
▁5 100
▁शुर 100
▁सो 100
▁मोदी 100
च्छ 100
म्म 100
र्ज 100
▁अभ 100
▁मै 100
ाई 100
▁"" 100
▁समय 100
▁देख 100
▁बै 100
▁दिन 100
▁4 100
्ल 100
ंट 100
वार 100
▁लिया 100
▁होगा 100
▁दिल्ली 100
ूर् 100
्ञ 100
▁शामिल 100
दान 100
▁स्ट 100
▁हर 100
यर 100
ृत 100
▁कांग 100
▁पहु 100
▁आई 100
लों 100
▁प्रधानमंत्री 100
▁सकता 100
▁दौर 100
गत 100
▁चाहिए 100
श् 100
▁आय 100
▁मान 100
ोजना 100
मी 100
▁कांग्रेस 100
धी 100
▁कई 100
न्न 100
ंस 100
चा 100
▁आरो 100
▁बहुत 100
▁अन्य 100
▁ई 100
ून 100
▁किए 100
▁फिर 100
▁ज़ 100
▁बीच 100
▁बार 100
▁- 100
▁संबंध 100
▁रुपये 100
▁उसके 100
▁केंद 100
ुख 100
▁दोनों 100
▁पि 100
▁हू 100
▁जाता 100
▁ना 100
दि 100
▁बताया 100
ियम 100
▁गु 100
▁दौरान 100
ालय 100
▁पूर्व 100
एं 100
जू 100
▁जन 100
दार 100
▁पास 100
▁वर्ष 100
▁जाने 100
▁क्र 100
▁दूस 100
▁खु 100
▁शिक 100
▁सकते 100
▁करता 100
झे 100
▁मंत्र 100
जन 100
नाव 100
लय 100
ंक 100
▁बारे 100
▁ता 100
▁उनकी 100
स्प 100
▁पहुंच 100
भाव 100
▁कप 100
▁पै 100
स्तान 100
▁प्रदेश 100
दर् 100
▁खिलाफ 100
्‍य 100
▁वा 100
▁क्यों 100
ोर 100
क्ति 100
वन 100
णा 100
्यक्ष 100
▁नाम 100
▁बि 100
▁विकास 100
क्रम 100
▁शुरू 100
▁लग 100
▁न्या 100
▁इं 100
ग्र 100
ोन 100
फी 100
▁राष्ट्र 100
▁सबसे 100
स्‍ 100
ीड 100
▁सुर 100
ज्ञ 100
▁उसे 100
िति 100
▁परिव 100
र्स 100
शी 100
▁दि 100
▁लि 100
पति 100
▁6 100
टना 100
ाने 100
पर 100
▁जारी 100
दे 100
▁ख़ 100
▁करोड़ 100
▁फै 100
हत 100
ताओं 100
▁जु 100
▁लेकर 100
आर 100
म् 100
चित 100
त्व 100
चना 100
▁नी 100
ाजपा 100
▁जर 100
वाद 100
रण 100
▁जि 100
प्र 100
क्स 100
क्ट 100
ूम 100
▁पाकि 100
ेष 100
▁चल 100
▁स्व 100
▁पार्ट 100
कारी 100
▁होता 100
▁गां 100
▁हा 100
▁ठ 100
▁कंप 100
▁टीम 100
▁इंड 100
▁बन 100
ोध 100
▁आज 100
▁कारण 100
▁जांच 100
▁देने 100
▁पु 100
▁परि 100
ानों 100
सार 100
▁दर्ज 100
▁भाजपा 100
ंब 100
वाई 100
▁जाएगा 100
▁करें 100
ुक 100
्ड 100
ेड 100
्रा 100
20 100
▁यु 100
▁चुनाव 100
▁बैं 100
ेज 100
▁झ 100
वास 100
▁“ 100
र्ड 100
ोष 100
▁महिला 100
▁हूं 100
▁सद 100
ोर्ट 100
▁इससे 100
सभा 100
▁वाली 100
▁मंत्रालय 100
▁निक 100
्ह 100
िये 100
स्था 100
▁अधिकार 100
▁पार्टी 100
▁19 100
▁बद 100
▁ग्र 100
▁" 100
▁अब 100
जर 100
नि 100
▁आरोप 100
▁डॉ 100
शत 100
ध्य 100
न्‍ 100
▁तीन 100
ैन 100
ोह 100
▁करे 100
▁बैठ 100
ाली 100
▁ऐसा 100
▁अध्यक्ष 100
ियां 100
▁स्वा 100
▁प्रा 100
▁मुझे 100
▁अच्छ 100
▁ट्र 100
▁साल 100
▁इसमें 100
त्म 100
▁तै 100
माण 100
मत 100
▁विध 100
करण 100
.. 100
ेंद्र 100
▁हमारे 100
▁कॉ 100
▁7 100
ीस 100
▁एस 100
▁अल 100
पूर् 100
▁यू 100
▁वै 100
▁आधार 100
द्योग 100
्यादा 100
ीर 100
▁हों 100
ुक्त 100
मुख 100
▁पाकिस्तान 100
▁बच्च 100
▁10 100
▁बो 100
तिक 100
▁योजना 100
फ़ 100
ेशन 100
▁अपना 100
▁प्रतिशत 100
▁जिन 100
▁मुख्यमंत्री 100
▁लोक 100
▁किस 100
धिक 100
ष्ठ 100
▁सेवा 100
ची 100
ियो 100
िकी 100
▁गिर 100
ुमार 100
ंत 100
▁समझ 100
दन 100
▁विश्व 100
▁विशेष 100
▁ओर 100
भाग 100
▁वित 100
▁ऐसे 100
▁जैसे 100
▁तुम्ह 100
-1 100
पूर्ण 100
▁मन 100
▁8 100
▁गो 100
▁इसे 100
िता 100
▁प्रश 100
पुर 100
ूत 100
▁बु 100
हम 100
▁लाख 100
▁एन 100
दों 100
टा 100
▁पिछ 100
▁यहां 100
▁अमेर 100
▁घटना 100
▁मौत 100
▁इस् 100
▁ऊ 100
▁हमें 100
यी 100
▁आर 100
ाप्त 100
धा 100
▁टे 100
▁ली 100
▁होगी 100
▁मार् 100
एल 100
वल 100
लाह 100
▁अग 100
ीय 100
▁अभी 100
ांकि 100
स्ता 100
▁जबकि 100
▁अंतर 100
▁राष्ट्रीय 100
ुनिया 100
म्मी 100
त्रा 100
▁राह 100
▁सच 100
सं 100
▁” 100
▁हालांकि 100
▁सुरक्षा 100
ैंड 100
▁पं 100
वर् 100
▁सुन 100
▁अला 100
▁राष्ट्रपति 100
▁दा 100
▁आए 100
क़ 100
▁क्योंकि 100
▁उम्मी 100
▁उठ 100
▁विभ 100
▁प्रमुख 100
▁काफी 100
श्य 100
▁अगर 100
▁ऑफ 100
ख्या 100
▁कुमार 100
▁जिसमें 100
▁शिक्ष 100
▁उम्मीद 100
▁अलावा 100
▁मद 100
▁नई 100
▁बैंक 100
ताल 100
एन 100
▁खान 100
यन 100
ियन 100
हार 100
फ्त 100
▁केंद्र 100
▁तैय 100
▁पद 100
▁मौजू 100
लिए 100
), 100
धि 100
▁गांधी 100
▁घर 100
▁ज्यादा 100
क्षण 100
ांच 100
ायर 100
▁: 100
▁ची 100
▁छा 100
न्द 100
▁स्प 100
▁महा 100
श्म 100
▁दु 100
▁कार्यक्रम 100
▁जानकारी 100
▁मांग 100
्यालय 100
▁होती 100
बाज 100
एफ 100
वेश 100
लो 100
▁कृ 100
▁डी 100
▁तहत 100
ेंट 100
▁फैस 100
▁पिछले 100
इन 100
▁ब्र 100
▁सदस 100
▁न्याया 100
क्‍ 100
▁करेंगे 100
▁उसकी 100
▁आगे 100
▁वहीं 100
▁व्या 100
▁उपल 100
▁ख़ु 100
▁नेता 100
िले 100
▁मदद 100
▁बैठक 100
▁प्रदर् 100
▁परिवार 100
▁दर 100
▁डि 100
▁बल् 100
तों 100
▁हिस् 100
▁खा 100
▁पूरी 100
ार्थ 100
िन्न 100
▁स्क 100
▁पुर 100
र्ष 100
▁चे 100
▁कान 100
▁9 100
त्य 100
▁बनाने 100
ंबर 100
▁अनुसार 100
णी 100
ाया 100
▁12 100
पाल 100
▁मूल 100
▁भाग 100
▁खेल 100
▁अस्प 100
▁पर् 100
▁अधिकारी 100
▁सम्म 100
▁इंडिया 100
▁नर 100
बाद 100
▁आयोज 100
त्या 100
▁उत्तर 100
्ला 100
ाला 100
ताब 100
▁इसका 100
ेन 100
▁घोष 100
▁हमने 100
▁विभाग 100
▁कंपनी 100
▁रो 100
▁अस 100
▁निय 100
▁बॉ 100
रि 100
▁भूम 100
तम 100
▁चौ 100
▁इसलिए 100
इट 100
कृत 100
क्टर 100
▁उनका 100
▁तब 100
▁मैच 100
▁एम 100
▁बड़ी 100
तन 100
▁योग 100
▁चार 100
▁परी 100
तार 100
▁सीट 100
▁व्यक्ति 100
लि 100
▁आव 100
▁दूसरे 100
▁अर 100
तु 100
▁सकती 100
▁स्‍ 100
▁शर् 100
ियर 100
▁विचार 100
▁बेह 100
ूट 100
▁प्राप्त 100
▁प्रो 100
।" 100
न्द्र 100
▁शु 100
फल 100
000 100
▁उपलब् 100
▁केंद्रीय 100
▁मिले 100
ेंस 100
▁मत 100
▁तैयार 100
▁कुल 100
यान 100
▁रिप 100
शल 100
प् 100
▁मेरे 100
श्च 100
दारी 100
▁गिरफ्त 100
र्क 100
▁अभि 100
शा 100
▁सूचना 100
▁दिखा 100
▁तौर 100
▁ख़ुदा 100
▁संग 100
▁जीत 100
ामी 100
▁कल 100
▁ढ 100
िकेट 100
▁विदेश 100
▁जहां 100
▁उसने 100
▁करी 100
▁स्थिति 100
ंगे 100
▁अल् 100
श्मीर 100
in 100
▁रेल 100
▁फ़ 100
▁दुनिया 100
टन 100
▁पत्र 100
▁आत 100
▁जीवन 100
▁आने 100
बल 100
यास 100
▁मामला 100
ोवा 100
▁संख्या 100
ूरत 100
जब 100
▁दिए 100
▁उत्पा 100
▁मीड 100
▁याद 100
▁संय 100
मेश 100
▁अस्पताल 100
▁पहली 100
चे 100
▁प्रभाव 100
▁उच्च 100
ज्ञान 100
▁अवसर 100
▁सर्व 100
▁शाह 100
▁राम 100
▁लिये 100
स्थ्य 100
▁शा 100
िश् 100
▁पो 100
▁विभिन्न 100
दम 100
▁अलग 100
▁मीडिया 100
▁नए 100
गार 100
▁शे 100
▁उपयोग 100
▁मौके 100
धन 100
रिक 100
▁प्रदान 100
▁सामने 100
▁लॉ 100
▁आम 100
▁उपलब्ध 100
▁पार 100
▁15 100
▁पढ़ 100
▁पूरा 100
वान 100
▁प्रकार 100
▁बड़ा 100
▁आस 100
ासन 100
▁होंगे 100
▁पेश 100
▁रिपोर्ट 100
▁बंद 100
ंबई 100
▁स्वास्थ्य 100
▁पंजा 100
ायल 100
▁जल 100
▁देशों 100
▁व्यव 100
्वी 100
हाय 100
▁सहयोग 100
▁क़ 100
▁फीस 100
▁इसी 100
▁कीमत 100
▁जाना 100
रल 100
▁वाला 100
ूह 100
श्यक 100
▁आपको 100
मेंट 100
स्थान 100
▁शिक्षा 100
▁इसकी 100
▁महत्व 100
▁जग 100
▁केवल 100
▁प्रदर्शन 100
ेक 100
▁पता 100
ष्ट्र 100
▁निर्माण 100
▁कोर्ट 100
▁पड़ 100
▁करती 100
▁बाज 100
▁लड़ 100
जय 100
▁क्रिकेट 100
▁श्र 100
श्व 100
on 100
▁यहोवा 100
काश 100
▁पांच 100
त्रों 100
▁हे 100
▁शर्मा 100
▁स्थित 100
▁200 100
▁अधिकारियों 100
▁नजर 100
▁नरेंद्र 100
माल 100
▁आवश्यक 100
वाह 100
जेपी 100
▁मौजूद 100
र्फ 100
क्रिया 100
▁जाती 100
▁कभी 100
ायत 100
▁‘‘ 100
ेस 100
▁पंजाब 100
▁यदि 100
▁विधान 100
▁सौ 100
ाइल 100
▁सहाय 100
▁भर 100
▁निर्देश 100
ल्ड 100
▁मुंबई 100
▁बढ़ा 100
▁होते 100
भव 100
▁गै 100
▁शहर 100
टक 100
हाँ 100
जार 100
यू 100
कृ 100
नाथ 100
▁कर्म 100
पित 100
▁स्तर 100
▁आया 100
▁ते 100
त्री 100
▁वो 100
▁अनुम 100
▁’ 100
▁सचिव 100
▁नौ 100
▁समर्थ 100
▁सेना 100
लर 100
▁डे 100
डा 100
▁मिला 100
▁आग 100
▁अंत 100
▁राजनी 100
्यान 100
▁उद् 100
▁व्याप 100
▁लाभ 100
वरी 100
काल 100
▁सके 100
▁बस 100
हन 100
▁अद 100
▁चि 100
ुट 100
▁राहुल 100
षा 100
▁गिरफ्तार 100
▁अमेरिका 100
▁11 100
▁ऐसी 100
▁स्म 100
▁नागर 100
▁कौ 100
▁मुद् 100
▁बड़े 100
कर् 100
▁दक्ष 100
▁बीजेपी 100
ियोजना 100
▁कपूर 100
▁प्रयास 100
षण 100
▁स्थान 100
भार 100
▁जवा 100
ठन 100
▁शी 100
▁अफ 100
▁परियोजना 100
▁दर् 100
बंधन 100
▁हमारी 100
▁न्यायालय 100
ंगा 100
▁दिव 100
षि 100
तंत्र 100
an 100
ष्‍ 100
यों 100
▁जाएगी 100
डे 100
मता 100
ृह 100
▁माल 100
ग्रह 100
▁मही 100
द्धि 100
▁जल् 100
जह 100
▁भे 100
▁मध्य 100
▁बाहर 100
ूरी 100
ायक 100
भग 100
▁न्यू 100
▁पूछ 100
▁मामलों 100
▁बर 100
▁सदस्य 100
हरा 100
▁फोन 100
▁पत् 100
वीर 100
▁. 100
▁छोड़ 100
▁करके 100
▁देते 100
▁प्रक्रिया 100
▁परमेश 100
▁गा 100
▁न्याय 100
्ले 100
,000 100
▁नागरिक 100
लिया 100
ुष 100
ुद 100
▁क्षेत्रों 100
▁वीड 100
इस 100
▁बयान 100
▁उसका 100
ालन 100
ंका 100
▁वृ 100
▁जिसके 100
▁अति 100
ष्ट्रीय 100
▁कैसे 100
▁चला 100
▁करेगा 100
▁चर् 100
▁ताकि 100
नल 100
▁विरो 100
श्चिम 100
▁मैंने 100
ेंद 100
तेमाल 100
▁ध्यान 100
▁गं 100
ुआ 100
▁वजह 100
▁आतंक 100
▁S 100
र्थिक 100
▁तरफ 100
▁जे 100
▁रहने 100
▁संप 100
ात 100
▁राज्यों 100
▁गयी 100
▁पीएम 100
▁करीब 100
▁दक्षि 100
ांत 100
्‍वर 100
▁लगभग 100
ंदी 100
▁चीन 100
▁लेने 100
गू 100
▁फैसला 100
गढ़ 100
er 100
▁जिले 100
्प 100
▁भूमिका 100
▁संबंधित 100
▁वीडियो 100
▁प्रण 100
सम 100
▁स्कूल 100
▁तेल 100
▁कार्र 100
▁उम्मीदवार 100
▁अल्लाह 100
ैल 100
▁विधानसभा 100
▁होना 100
मिक 100
▁फर 100
▁रोक 100
▁धारा 100
▁रे 100
तना 100
िशा 100
▁आयोग 100
▁परीक्षा 100
रात 100
▁दूर 100
▁निवेश 100
▁जगह 100
▁संघ 100
▁मिली 100
▁शेयर 100
बार 100
▁नियम 100
▁स्था 100
िक्ष 100
▁लिख 100
▁कार्रवाई 100
▁आदेश 100
▁सहित 100
व्य 100
▁कोवि 100
ar 100
▁महत्वपूर्ण 100
▁14 100
▁मं 100
▁फीसदी 100
▁पानी 100
▁सीमा 100
▁इस्तेमाल 100
▁आर्थिक 100
ल्प 100
▁दिनों 100
▁रखा 100
▁रक्षा 100
▁आरोपी 100
▁13 100
▁कृषि 100
ुड 100
भीर 100
▁जिसे 100
▁कानून 100
al 100
▁कोश 100
▁मिश 100
▁मृत 100
▁घायल 100
▁पूर् 100
▁सफल 100
म्मू 100
फा 100
▁मजब 100
▁चुके 100
▁इला 100
▁माध्य 100
शु 100
द्यालय 100
चान 100
▁वरि 100
▁आद 100
▁जवाब 100
▁शिव 100
▁महारा 100
▁वित्त 100
▁अर्थ 100
▁I 100
▁रन 100
▁सुवि 100
शि 100
िक्स 100
▁उद्योग 100
ित्र 100
ंदर 100
▁तरी 100
त्‍ 100
▁बाजार 100
▁टेस्ट 100
▁दल 100
▁खे 100
▁अहम 100
▁पश्चिम 100
ताबिक 100
▁18 100
▁रखने 100
▁मुताबिक 100
▁अदाल 100
▁गति 100
▁कर् 100
त्ता 100
▁हाथ 100
▁खुद 100
्टी 100
▁बनाए 100
▁सिर्फ 100
▁हिस्सा 100
▁समूह 100
▁जम्मू 100
▁जनता 100
▁विष 100
▁बनाया 100
▁कश्मीर 100
न्होंने 100
िनियम 100
▁बच्चों 100
▁लगाया 100
▁जिससे 100
र्च 100
▁परमेश्‍वर 100
▁अभिने 100
▁वहां 100
ोस 100
तियों 100
सेना 100
जों 100
▁डाल 100
▁हास 100
▁बेट 100
त्मक 100
▁C 100
▁बोर्ड 100
बीआई 100
क्षित 100
ख़ 100
▁गंभीर 100
▁चाहते 100
ग् 100
▁खरी 100
▁गृह 100
▁रुपए 100
▁आयोजित 100
▁सुधार 100
▁सामान 100
▁एज 100
▁सड़ 100
▁P 100
▁R 100
▁चर्चा 100
▁यात्रा 100
सल 100
▁रोज 100
▁जाते 100
▁चुन 100
▁पूरे 100
at 100
▁जरूरत 100
▁समा 100
▁समिति 100
ॉल 100
हरी 100
▁बिल 100
▁25 100
▁मेरी 100
रों 100
... 100
▁ट्रे 100
स्थित 100
▁सार 100
▁धन 100
▁बंग 100
िस्ट 100
▁अधिनियम 100
▁मार 100
▁संयुक्त 100
िरा 100
▁थीं 100
▁देता 100
▁समर्थन 100
िटी 100
▁गुज 100
हास 100
▁सुविधा 100
▁वरिष्ठ 100
झा 100
▁हासिल 100
ील 100
▁शिकायत 100
▁एयर 100
▁अच्छा 100
ष्‍ट 100
मे 100
▁महाराष्ट्र 100
▁""" 100
स्या 100
▁पक्ष 100
ेट्र 100
▁वाप 100
▁सांस 100
▁A 100
ंभ 100
▁कदम 100
▁दौ 100
▁लिखा 100
हाल 100
▁अदालत 100
▁लागू 100
वरण 100
र्जी 100
▁रस 100
▁दक्षिण 100
▁कहना 100
भर 100
▁स्वी 100
▁वायर 100
वादी 100
▁बल्कि 100
▁संस 100
ानि 100
▁पोस्ट 100
▁डा 100
▁धर्म 100
▁लक्ष 100
प्री 100
▁जल्द 100
िम्म 100
▁तुम्हारे 100
ियान 100
▁जिला 100
उन 100
▁दृ 100
ज़ा 100
▁बज 100
▁१ 100
ियाणा 100
▁दें 100
सत 100
कट 100
▁किसानों 100
ांस 100
्तान 100
▁संभाव 100
-19 100
▁16 100
""" 100
ीक 100
▁फ्र 100
▁लोकसभा 100
धिकार 100
▁घोषणा 100
▁इंटर 100
टे 100
िवार 100
▁नीति 100
ण्ड 100
▁2019 100
▁रण 100
▁कोशिश 100
▁महीने 100
▁सरकारी 100
▁अप्र 100
▁समस्या 100
क्ता 100
▁सहायता 100
▁हत्या 100
तिम 100
▁माध्यम 100
▁2020 100
▁हजार 100
र्गत 100
▁हरियाणा 100
▁प्रकाश 100
ंडी 100
वुड 100
तरी 100
र्जा 100
्क 100
es 100
▁प्रौ 100
ष्टि 100
ॉन 100
▁पिता 100
▁बेहतर 100
▁व्यक्त 100
देशक 100
बू 100
मु 100
तिहास 100
▁सवाल 100
्‍या 100
राज 100
त्ति 100
▁कैम 100
लाई 100
▁बल 100
▁पैदा 100
▁उल् 100
▁अन् 100
बे 100
▁संब 100
स्ताव 100
▁तम 100
ांति 100
▁30 100
वेदन 100
▁बदल 100
▁प्रौद्योग 100
▁यही 100
िश्चित 100
▁बिहार 100
मन 100
▁समाज 100
▁ज़र 100
▁बचा 100
▁तीस 100
▁देखा 100
काब 100
▁भेज 100
▁प्रस्ताव 100
णाम 100
▁गेंद 100
▁दूसरी 100
▁विरोध 100
▁लगे 100
▁गुजरात 100
ेम 100
▁तस् 100
▁पहचान 100
▁आपके 100
▁सें 100
कल 100
र्ग 100
▁चुकी 100
▁बदला 100
ल्स 100
▁कोविड 100
▁निर्ण 100
▁युवा 100
ंद्र 100
▁कहते 100
नीय 100
विद्यालय 100
वीं 100
▁क्षमता 100
▁उठा 100
▁सै 100
कृति 100
अप 100
▁मंद 100
गल 100
एच 100
▁गये 100
लीवुड 100
ंडल 100
ोप 100
▁यून 100
▁सम्मान 100
▁एंड 100
▁गल 100
ांड 100
▁उनसे 100
▁संर 100
▁करो 100
स्ट्रे 100
▁विप 100
विष 100
▁भाई 100
▁मार्ग 100
▁परिणाम 100
▁50 100
▁ट्वी 100
स्तव 100
न्हें 100
ूर्ति 100
▁प्रयोग 100
▁अच्छी 100
िकल 100
स्कार 100
▁सोशल 100
तरा 100
ेशा 100
▁मी 100
▁वृद्धि 100
पन 100
▁ठीक 100
▁कंपन 100
▁पर्या 100
▁पुन 100
▁शुरुआ 100
▁B 100
▁पीछ 100
▁गांव 100
शोध 100
▁सही 100
▁सैन 100
▁अमेरिकी 100
मर 100
चन 100
▁वेब 100
▁भारी 100
ग्री 100
▁24 100
लू 100
▁पे 100
▁0 100
▁देना 100
▁पट 100
▁रै 100
▁वाय 100
ेद 100
▁एक्स 100
▁अतिरिक 100
▁ट्वीट 100
▁मुकाब 100
▁वी 100
▁गुर 100
▁भु 100
▁महिलाओं 100
▁रि 100
ब्द 100
▁बिना 100
तृ 100
ानीय 100
िम्मे 100
▁आदि 100
▁सार्व 100
▁व्यवस्था 100
स्ट्रेलिया 100
▁लगता 100
▁हूँ 100
99 100
or 100
▁पत्नी 100
▁कोरो 100
▁प्रशासन 100
ायी 100
▁हमले 100
▁रिक 100
▁उद 100
सीसी 100
▁मंदिर 100
▁निश 100
▁जय 100
वाले 100
▁— 100
▁वन 100
▁M 100
▁भविष 100
ंसा 100
▁हमेशा 100
▁एल 100
▁17 100
▁खबर 100
शिया 100
▁चुका 100
.5 100
▁बंगाल 100
▁प्रौद्योगिकी 100
नेट 100
▁उससे 100
▁उसी 100
▁लगातार 100
▁2018 100
▁राजनीतिक 100
▁भाषा 100
▁कमी 100
चीत 100
▁चिक 100
ाजिक 100
▁सल 100
▁अर् 100
▁बने 100
en 100
▁पहला 100
▁2017 100
▁सिद्ध 100
सान 100
खंड 100
▁बातचीत 100
▁दिशा 100
शनल 100
एँ 100
▁ईमान 100
▁बिज 100
ंगल 100
▁वाह 100
▁अवधि 100
▁अगले 100
किंग 100
मो 100
▁स्पष्ट 100
▁नियंत्र 100
▁सुनिश्चित 100
चल 100
▁ऊर्जा 100
▁बाइ 100
चिका 100
साह 100
रिया 100
ारोह 100
▁हाई 100
▁संगठन 100
िली 100
▁रेलवे 100
ुओं 100
▁समुद 100
▁प्रत्य 100
▁इनमें 100
▁भाव 100
▁नोट 100
जनिक 100
▁कोह 100
अल 100
▁मॉ 100
▁कोरोना 100
▁विमान 100
▁समारोह 100
▁मजबूत 100
बाजी 100
▁विषय 100
र्ती 100
▁सलाह 100
▁ज्ञ 100
▁किये 100
▁बॉलीवुड 100
▁आधारित 100
▁लाल 100
▁बल्ले 100
▁शि 100
ार्म 100
▁ऋ 100
▁भू 100
▁तेज 100
▁सामाजिक 100
उस 100
▁भविष्य 100
सित 100
लब 100
▁चाल 100
ूब 100
▁बच 100
▁निजी 100
▁विधायक 100
▁सड़क 100
▁चाहता 100
▁डॉलर 100
ार्ड 100
▁छोट 100
तमान 100
ेलन 100
▁वास्तव 100
फोन 100
ेत 100
ेंड 100
न्म 100
लाइन 100
▁अंतिम 100
▁यादव 100
▁स्थानीय 100
▁बाल 100
▁सार्वजनिक 100
▁निर्णय 100
▁क्ल 100
▁उद्देश 100
▁छात्रों 100
▁प्रतिनि 100
▁ती 100
▁खास 100
▁नगर 100
▁हाद 100
▁याचिका 100
▁कराया 100
▁लौ 100
चर 100
मैं 100
क्शन 100
राब 100
▁विस्त 100
रीज 100
▁वालों 100
नर 100
▁अभियान 100
▁शव 100
▁सुप्री 100
▁विद्य 100
▁प्रणाली 100
▁समझौ 100
▁चुनौ 100
▁प्रभावित 100
▁एफ 100
विध 100
घा 100
्ब 100
▁संस् 100
▁तस्वीर 100
निर् 100
▁सामान्य 100
▁भर्ती 100
▁संभावना 100
कृतिक 100
ंख 100
▁व्यापार 100
पू 100
▁विश्वविद्यालय 100
▁समान 100
▁अतिरिक्त 100
▁चिकित 100
पट 100
▁केस 100
▁मना 100
▁हिंद 100
▁गठ 100
▁विरा 100
▁एड 100
▁पीछे 100
ड्ड 100
▁तुल 100
फ् 100
मित 100
▁राजस्थान 100
▁अपरा 100
▁करा 100
▁चा 100
▁जम 100
▁विकेट 100
▁कार्ड 100
▁N 100
वें 100
डल 100
▁(1 100
▁दुर् 100
फर 100
ic 100
ामीण 100
▁मेरा 100
▁चरण 100
▁पस 100
▁वर्तमान 100
▁मिलने 100
▁विज्ञान 100
▁तला 100
शील 100
सि 100
▁प्रशिक्ष 100
▁पुरस्कार 100
▁साह 100
ॉय 100
▁कप्तान 100
दीप 100
ब्ल 100
▁सित 100
▁तेजी 100
सू 100
▁कोहली 100
जल 100
▁मुला 100
▁वर्ग 100
ौल 100
▁100 100
▁रसूल 100
▁स्मार्ट 100
▁नेताओं 100
ाज़ 100
▁फोट 100
▁बच्चे 100
तः 100
▁संबोध 100
▁वापस 100
▁शरी 100
▁, 100
किल 100
▁निभा 100
और 100
▁फिलहाल 100
▁सुप्रीम 100
साइट 100
▁अंग 100
▁ग्रामीण 100
ंज 100
तक 100
▁पर्य 100
▁कौन 100
▁जिसका 100
न्‍ह 100
▁प्रबंधन 100
ोजन 100
▁गण 100
है 100
▁नया 100
▁उनमें 100
▁मानव 100
म्प 100
▁उत्पादन 100
ड़ों 100
▁मोह 100
मार 100
▁धो 100
▁सांसद 100
▁मि 100
ियल 100
सन 100
▁वक्त 100
▁अमित 100
▁परिवर् 100
▁एक्ट 100
ट्ट 100
बह 100
लैंड 100
▁हमला 100
▁संशोध 100
▁नेतृ 100
करी 100
पना 100
▁मर 100
▁देव 100
लेख 100
▁पेट्र 100
▁शै 100
▁आवश्यकता 100
▁इल 100
राष्ट्रीय 100
▁मगर 100
▁मंजू 100
वासी 100
▁बढ़ाने 100
नाटक 100
▁श्रे 100
▁मल 100
.0 100
▁आध 100
▁लॉन् 100
▁बोल 100
▁अप्रैल 100
▁शीर्ष 100
▁वार 100
▁राय 100
▁मार्च 100
▁जून 100
▁प्रत्येक 100
ंगी 100
▁दिवस 100
▁तकनी 100
▁सूची 100
गम 100
▁जमा 100
▁वही 100
▁परिष 100
▁ब्ल 100
र्न 100
यक 100
▁शांति 100
त्त 100
▁गिरा 100
▁अली 100
▁तुलना 100
बद्ध 100
▁कारो 100
▁पाया 100
▁पृ 100
ेंसी 100
▁त्र 100
▁सामना 100
राह 100
▁प्रव 100
यह 100
▁तू 100
िद 100
▁आयोजन 100
▁संस्था 100
ॉप 100
▁देखते 100
▁विश् 100
▁आन 100
न्स 100
▁दावा 100
क्‍त 100
▁रिज 100
▁गुण 100
▁अंक 100
▁विवाद 100
▁एच 100
▁कर्नाटक 100
▁राशि 100
▁मंजूरी 100
▁सात 100
▁21 100
▁दिख 100
▁कंपनियों 100
▁शुरुआत 100
▁विकसित 100
कात 100
▁पड़ा 100
▁करेगी 100
ॉर्ड 100
ंदा 100
▁आरोपियों 100
▁नुक 100
▁विन 100
▁प्रत 100
▁निर्धार 100
र्य 100
ित्य 100
▁शो 100
▁सोच 100
▁आवेदन 100
▁स्वीकार 100
▁जिम्मे 100
▁पेट्रोल 100
यात 100
▁कला 100
▁विश्वास 100
▁शादी 100
▁जुड़े 100
▁संबंधी 100
▁संच 100
▁खरीद 100
▁यी 100
ब्र 100
▁सदस्यों 100
▁नेतृत्व 100
201 100
▁जाएंगे 100
क्षी 100
फ्ट 100
खिल 100
▁तुम्हें 100
▁ड्र 100
वधान 100
▁पक 100
▁बेटे 100
.1 100
ियाँ 100
ोरे 100
▁तय 100
▁जता 100
▁वेबसाइट 100
▁फैसले 100
वाला 100
मारी 100
्यु 100
▁तरीके 100
ंतर 100
▁अध्य 100
▁घोषित 100
▁आतंकवाद 100
▁देखने 100
▁सीटों 100
▁अनुमति 100
▁जरिए 100
▁निदेशक 100
▁छात्र 100
न्तु 100
▁बदलाव 100
वस्था 100
▁बनी 100
▁संसद 100
▁राज्‍य 100
▁सम्मेलन 100
ुस 100
▁यीशु 100
▁तमिल 100
▁आख 100
▁समी 100
▁मां 100
▁फाइ 100
▁लेख 100
▁संसा 100
▁उन्‍ह 100
▁ति 100
▁नंबर 100
▁रहते 100
▁संवि 100
▁खिलाड़ी 100
▁घंट 100
स्ल 100
▁शान 100
▁बारिश 100
▁अने 100
▁समेत 100
▁ऊपर 100
ैक 100
▁लॉन्च 100
▁हमारा 100
▁अपराध 100
तान 100
ित्व 100
ठी 100
▁सीबीआई 100
कर्ता 100
▁आत्म 100
लेज 100
▁स्वतंत्र 100
▁नरे 100
▁यहाँ 100
▁स्थापित 100
▁अच्छे 100
▁छह 100
▁शक्ति 100
▁विदेशी 100
श्विक 100
डु 100
▁लगाने 100
ग़ 100
ion 100
▁नुकसान 100
▁रात 100
धीश 100
▁जन्म 100
▁अनुर 100
▁अथ 100
साथ 100
▁आंक 100
▁निकाल 100
▁लो 100
▁कार्यालय 100
it 100
रीब 100
▁मूल्य 100
▁अंतर्गत 100
▁मुक 100
▁कैमरा 100
▁किलो 100
स्क 100
▁पड़े 100
▁प्राथ 100
ॉक 100
▁रंग 100
▁जिनमें 100
कत 100
संधान 100
रु 100
▁विश्‍ 100
▁फॉ 100
▁ब्रिट 100
फे 100
कर्म 100
▁इंग 100
▁उनको 100
▁जेल 100
ोत् 100
▁सच्च 100
▁वैश्विक 100
▁समुदाय 100
▁पहल 100
▁मसी 100
▁कराने 100
▁चीज़ 100
▁रोह 100
▁लक्ष्य 100
▁रखते 100
▁ट्रंप 100
▁प्रेर 100
▁दोष 100
▁रेड 100
▁मुलाकात 100
▁युद्ध 100
▁अनुसंधान 100
▁केन्द्र 100
▁ऑन 100
ूबर 100
▁भेजा 100
▁अंतर्रा 100
▁अरब 100
▁कोल 100
िमिट 100
▁पाए 100
▁22 100
ॉट 100
वै 100
▁ऑस्ट्रेलिया 100
▁इतिहास 100
▁बेहद 100
▁माना 100
▁पहुंचे 100
▁उपस्थित 100
▁अनेक 100
▁जैसी 100
▁संक्रम 100
▁परिषद 100
वट 100
िकों 100
्‍त 100
▁हादसे 100
ूं 100
▁राष्‍ट 100
▁पूर्ण 100
स्त्र 100
▁जनवरी 100
▁लाने 100
्यता 100
▁दिस 100
ट्र 100
▁नीचे 100
▁बध 100
▁एशिया 100
▁जैसा 100
यं 100
▁भुगत 100
ामा 100
तनी 100
▁संस्थान 100
▁जानते 100
पोर्ट 100
▁नियंत्रण 100
ंघ 100
▁अधीन 100
▁बेटी 100
▁मुद्दे 100
▁केरल 100
न्व 100
ाहरण 100
स्ते 100
▁किताब 100
▁प्रार 100
st 100
▁हार 100
एसटी 100
▁अंतरराष्ट्रीय 100
▁बिजली 100
▁मेगा 100
ूक 100
▁बढ़ावा 100
एक 100
▁उम 100
▁होकर 100
िमिटेड 100
▁रोग 100
▁टै 100
्वर 100
▁क्व 100
▁वर्षों 100
▁मिलेगा 100
▁चलते 100
▁किसान 100
▁प्ल 100
र्श 100
▁साइ 100
▁विराट 100
▁संविधान 100
▁पंच 100
▁संबोधित 100
▁सभा 100
▁मौजूदा 100
▁तारी 100
▁अध्ययन 100
कारा 100
्तीय 100
▁अक्ष 100
▁सोन 100
▁इले 100
ताह 100
▁वायरस 100
▁इंस्ट 100
पक 100
▁– 100
िटल 100
▁बधाई 100
▁कहीं 100
▁हित 100
▁माह 100
▁दूसरा 100
▁पीड़ 100
▁पति 100
कर्ताओं 100
▁योगदान 100
▁रज 100
▁इलाज 100
▁उत्पाद 100
म्मद 100
▁नव 100
▁नम 100
▁ठा 100
.2 100
▁कट 100
व्यवस्था 100
▁प्य 100
पूर्व 100
▁फोटो 100
▁केन्द 100
▁गैर 100
▁वायु 100
बाइल 100
मार् 100
▁T 100
▁न्यायाधीश 100
di 100
▁करवा 100
▁मू 100
▁उद्देश्य 100
▁प्रशिक्षण 100
▁जोर 100
▁सर् 100
▁सफलता 100
▁सलमान 100
▁फाय 100
▁लगी 100
▁मई 100
▁लड़ा 100
▁उदाहरण 100
▁छोटे 100
▁प्रिय 100
.3 100
मीटर 100
▁युव 100
▁प्रवेश 100
जूद 100
▁निकल 100
▁प्रतिक 100
▁सत्र 100
▁बिक 100
ज़र 100
▁तत् 100
▁अभिनेता 100
▁आश 100
▁मिस 100
▁गौर 100
▁वित्तीय 100
▁उसमें 100
▁प्रचार 100
▁केन्द्रीय 100
स्व 100
ष्ण 100
▁इंग्ल 100
.4 100
सों 100
▁2016 100
▁परेश 100
▁अपील 100
▁चयन 100
चारियों 100
▁उत्‍ 100
▁कठ 100
▁रु 100
काम 100
▁अग्र 100
▁फी 100
▁प्रतिनिध 100
िड 100
दू 100
▁डेट 100
▁वोट 100
▁प्रस्त 100
▁भूमि 100
ोद 100
▁परिवर्तन 100
▁भुगतान 100
▁सां 100
GB 100
भाल 100
▁प्रभ 100
▁सुना 100
▁जुलाई 100
▁दू 100
-2 100
ड़ने 100
▁अनुभव 100
फ्र 100
▁पहुंची 100
▁संपर्क 100
▁निर 100
▁साफ 100
▁सीरीज 100
ाइम 100
▁गलत 100
▁संदेश 100
▁पहुँ 100
▁संभव 100
कश्मीर 100
ड़ियों 100
टल 100
▁40 100
म्बर 100
बि 100
▁मिलकर 100
▁जिन्होंने 100
▁23 100
जो 100
▁जरूरी 100
▁सुनवाई 100
▁खुश 100
जरी 100
▁घा 100
बीर 100
नियर 100
▁वस्त 100
गो 100
▁कथ 100
जीत 100
▁बाइबल 100
▁इनकार 100
▁चिं 100
▁भ्र 100
▁लिमिटेड 100
▁31 100
50 100
▁जित 100
▁असम 100
▁रिली 100
▁अफ्री 100
▁अनुमान 100
▁28 100
धिकारिक 100
▁बाव 100
▁निपट 100
▁हवाई 100
▁विजय 100
्याण 100
क्ट्र 100
प्ताह 100
कारों 100
▁इन् 100
▁बांग 100
▁नेट 100
कम 100
▁कर्मचारियों 100
क्षक 100
▁1, 100
साय 100
▁हिस्से 100
▁जस्ट 100
▁डाय 100
▁स्मार्टफोन 100
▁प्रवक्ता 100
▁छो 100
▁राजनीति 100
▁जाये 100
▁उपाय 100
इड 100
▁सत 100
▁पढ़ें 100
▁आधिकारिक 100
▁प्ले 100
▁सुरक्षित 100
स्लिम 100
▁प्रग 100
▁मोबाइल 100
▁G 100
कु 100
▁प्राथमिक 100
▁बजट 100
.7 100
le 100
।""" 100
त्मा 100
▁जिसने 100
यल 100
ंकी 100
केट 100
▁कल्याण 100
▁धर 100
राबाद 100
▁इलाके 100
▁इका 100
िरी 100
▁महान 100
▁परिज 100
तने 100
▁ग़ 100
▁आईपी 100
▁डर 100
▁शुभ 100
▁आठ 100
ँव 100
▁विधे 100
▁मिशन 100
▁अर्थव्यवस्था 100
▁विल 100
▁उल्लेख 100
रेलू 100
▁रोजगार 100
▁बावजूद 100
ोम 100
▁बल्लेबाज 100
▁शानदार 100
▁ट्रेन 100
साद 100
▁सुबह 100
दर्भ 100
▁सीएम 100
▁लागत 100
▁मुकाबले 100
▁पसंद 100
▁विस्तार 100
▁जिन्हें 100
त्रियों 100
ख्त 100
▁लें 100
▁मेड 100
▁रहेगा 100
ांक 100
▁राजा 100
▁प्रेम 100
थम 100
▁परीक्षण 100
▁अथवा 100
▁कारोबार 100
वत 100
▁दिखाई 100
▁परवर 100
▁चुनौती 100
ार्ज 100
▁बजे 100
▁हालत 100
▁जनरल 100
गन 100
▁निर्धारित 100
▁घरेलू 100
्रिय 100
▁चिकित् 100
ियार 100
त्ती 100
▁H 100
▁रू 100
▁इंग्लैंड 100
▁लंब 100
.6 100
सूस 100
▁स्वयं 100
▁हिंसा 100
ियोग 100
▁टा 100
▁बनने 100
▁26 100
▁डॉक्टर 100
ायद 100
उट 100
हान 100
▁संजय 100
▁खो 100
▁उन्‍होंने 100
ख् 100
▁समीक्षा 100
न्ध 100
ॉम 100
पान 100
▁साझा 100
क्षर 100
▁संग्रह 100
▁गैस 100
बित 100
▁पाठ 100
▁सुपर 100
▁हैद 100
दु 100
ro 100
▁भवन 100
▁जस्टिस 100
घाटन 100
खर 100
▁सारे 100
्रिया 100
▁अंतर्राष्ट्रीय 100
▁गठबंधन 100
मैन 100
ग्राम 100
ुल्क 100
▁खर्च 100
▁फरवरी 100
▁संशोधन 100
▁यूरो 100
▁शब्द 100
▁तु 100
रान 100
स्तानी 100
▁गतिविध 100
िको 100
▁ज्ञान 100
▁प्यार 100
▁अश 100
▁विधि 100
▁राहत 100
am 100
▁नदी 100
धे 100
बारी 100
▁आता 100
▁ऑनलाइन 100
▁२ 100
▁पुरुष 100
थि 100
▁मिलेगी 100
▁समाधान 100
▁भावना 100
▁रहेंगे 100
▁दोस्त 100
.8 100
▁मुस्लिम 100
कर्ष 100
▁सप्ताह 100
▁अका 100
▁कानू 100
जु 100
▁खत्म 100
पु 100
ंजी 100
▁हिरा 100
▁आंध 100
▁विधेयक 100
▁रोहित 100
यु 100
दिगार 100
टरी 100
▁मश 100
▁किर 100
▁मौसम 100
प्त 100
▁तलाश 100
▁27 100
▁हिरासत 100
पे 100
उंट 100
▁वैज्ञान 100
▁पटेल 100
▁गिरावट 100
िलों 100
▁/ 100
▁D 100
▁प्रगति 100
िक्सल 100
्लादेश 100
▁टिप 100
▁खूब 100
▁बढ़कर 100
▁पर्यावरण 100
▁परवरदिगार 100
▁चाहे 100
▁सक्रिय 100
िमंडल 100
▁अगस्त 100
राने 100
\\ 100
▁खाद्य 100
▁कब् 100
स्ती 100
▁चुना 100
▁दिसंबर 100
ज् 100
▁अन्त 100
▁नार 100
▁चंद्र 100
वाही 100
्रो 100
ed 100
▁मुद्दों 100
▁माता 100
▁मतलब 100
ापन 100
उंड 100
▁मारे 100
▁पीठ 100
▁परिवहन 100
▁हॉ 100
▁बर् 100
उन्होंने 100
िफ 100
▁कॉलेज 100
▁उद्य 100
▁ज़्यादा 100
▁नेशनल 100
▁प्रसार 100
▁उद्घाटन 100
ेंज 100
मार्ट 100
▁माइ 100
ार्थियों 100
▁किलोमीटर 100
नाडु 100
▁महसूस 100
▁समाप्त 100
▁श्रद्ध 100
▁नवा 100
द्द 100
गु 100
▁करनी 100
▁मतदान 100
ंदगी 100
▁पालन 100
▁व्यापक 100
▁नरेन्द्र 100
्‍म 100
▁अभिनेत्री 100
▁सेवाओं 100
▁संत 100
▁37 100
िंट 100
वंबर 100
▁प्रियंका 100
्रीन 100
▁भरो 100
▁रिकॉर्ड 100
जरीवाल 100
▁सितंबर 100
▁खुला 100
▁चिकित्सा 100
▁फा 100
▁निष् 100
▁डिज 100
▁हट 100
▁निगम 100
▁तुर 100
▁रव 100
ामद 100
▁उम्मीदवारों 100
▁लं 100
▁आपकी 100
▁देंगे 100
▁हैदराबाद 100
▁प्रस्तुत 100
▁लै 100
▁टन 100
▁सुश 100
▁अध्यक्षता 100
▁चोट 100
▁शायद 100
▁इस्ल 100
▁पॉ 100
दर्श 100
▁संसाधन 100
▁अर्ज 100
▁प्रतिबंध 100
▁2014 100
ार्क 100
▁देगा 100
▁इच्छ 100
▁एजेंसी 100
▁बातें 100
▁इंडियन 100
▁जिसकी 100
▁केजरीवाल 100
▁परियोजनाओं 100
▁चिंता 100
▁संदर्भ 100
▁फ्ल 100
▁संरक्षण 100
▁री 100
▁प्रमाण 100
▁तीसरे 100
ोरी 100
▁तमिलनाडु 100
▁टिक 100
▁कैं 100
." 100
▁बांग्लादेश 100
▁खंड 100
▁आदमी 100
स्‍थ 100
▁नवंबर 100
▁दबा 100
▁सजा 100
▁खोज 100
▁भग 100
▁उपकरण 100
▁सूत्रों 100
न्‍न 100
▁परिस 100
▁भागी 100
▁गर् 100
पास 100
अलग 100
▁नो 100
▁s 100
▁गाँव 100
▁आइ 100
▁ऋण 100
पात 100
▁उत्तरा 100
कोर्ट 100
▁कड़ी 100
▁इस्ती 100
▁रहता 100
▁शहरी 100
घटना 100
▁202 100
▁अत्य 100
▁पुस्त 100
▁साबित 100
▁संगठ 100
▁थो 100
▁चले 100
िटर 100
त्साह 100
▁वाहन 100
▁स्थापना 100
ूंगा 100
▁भीतर 100
▁हस्ता 100
ताव 100
▁इंत 100
▁अफ्रीका 100
ारिज 100
▁पर्यटन 100
▁लगाए 100
▁ट्व 100
▁बरा 100
▁मृत्यु 100
विल 100
्रेट 100
पि 100
▁हथ 100
▁जिलों 100
▁शास 100
ब्ल्यू 100
▁उपभ 100
▁'' 100
गाह 100
दारों 100
▁अंदर 100
▁कथित 100
ध्यक्ष 100
▁हेतु 100
फार 100
▁उचित 100
▁लेते 100
चारी 100
▁संवाद 100
▁प्रावधान 100
▁अमरी 100
▁2015 100
▁मज 100
▁प्रोत्साह 100
▁मुश् 100
जाम 100
▁जर्म 100
▁खुशी 100
▁प्रभा 100
▁पृथ 100
ंटी 100
▁शरीर 100
ेप 100
▁राजधान 100
▁सिल 100
ूड 100
▁नागरिकों 100
▁ताप 100
▁तैना 100
▁आंध्र 100
▁परिजनों 100
▁बरामद 100
क्सी 100
च्‍ 100
▁प्री 100
▁प्रबंध 100
▁पुष्टि 100
▁मेडिकल 100
▁दुख 100
▁विकल्प 100
भारत 100
ुनिक 100
▁आवा 100
▁बनाई 100
▁दुर्घटना 100
▁वार् 100
▁इतना 100
▁दश 100
▁उड़ 100
▁उत्प 100
सीआई 100
▁जीबी 100
▁बिक्री 100
▁निर्यात 100
धर 100
▁उपा 100
om 100
▁लौट 100
▁लाइ 100
▁प्रदर्श 100
▁रिलीज 100
▁टिप्प 100
ठा 100
▁प्रथम 100
ाब 100
▁दिला 100
▁हल 100
▁पदक 100
▁क्रम 100
▁डिग्री 100
णिज 100
▁गुप 100
▁झू 100
मीन 100
▁स्वच्छ 100
▁गोली 100
▁नवी 100
▁मस 100
▁घट 100
▁प्रतिक्रिया 100
▁यानी 100
▁F 100
िब 100
▁पारी 100
▁इलेक्ट्र 100
▁बें 100
▁सुल 100
▁राजधानी 100
▁आपूर्ति 100
▁खारिज 100
▁टीवी 100
▁पाकिस्तानी 100
▁कौशल 100
▁असर 100
▁संगी 100
▁उद्यम 100
▁पल 100
▁मैदान 100
▁शिवसेना 100
▁तत्काल 100
मोह 100
▁मोहम्मद 100
शाला 100
▁कोच 100
ैर 100
▁शासन 100
▁मॉडल 100
▁29 100
▁निधन 100
काता 100
▁निर्मा 100
▁शोध 100
ोलन 100
्रेड 100
▁(2 100
िल्म 100
▁गी 100
ांश 100
▁हरा 100
▁सश 100
वर्क 100
▁अरु 100
दर 100
ंखला 100
कू 100
माने 100
▁वकी 100
▁रखी 100
▁अनुप 100
▁निर्वा 100
▁मुश्किल 100
र्ण 100
▁स्वर 100
▁यूपी 100
▁पोर्ट 100
▁निगर 100
द्दी 100
देन 100
▁तुरंत 100
▁संबंधों 100
वालों 100
▁मक 100
्ति 100
▁राज्यपाल 100
▁फिल्मों 100
▁32 100
श्न 100
▁प्रसाद 100
▁सोम 100
▁नै 100
राष्ट्र 100
▁199 100
▁नती 100
च्छेद 100
ंदन 100
▁दम 100
▁मेगाप 100
▁विशेषज्ञ 100
▁सीख 100
▁चालक 100
▁दस 100
ंडा 100
▁मात्रा 100
▁माँ 100
▁जेट 100
▁शुक्र 100
.9 100
▁गुरु 100
▁आते 100
▁पाने 100
▁हटा 100
▁निम् 100
्राम 100
▁गठन 100
▁रहती 100
re 100
▁गुणव 100
▁जानता 100
▁उपचार 100
▁अय 100
▁रूस 100
जिए 100
▁सहायक 100
▁उम्र 100
शिप 100
ज्ञा 100
▁निगरानी 100
▁दर्श 100
▁देकर 100
▁प्रेरित 100
टो 100
▁वाणिज 100
▁ओवर 100
▁रब 100
▁पूछता 100
पत्र 100
्ता 100
▁घंटे 100
▁चंडी 100
▁बुरा 100
ेह 100
श्चित 100
मण 100
▁सुझा 100
लंका 100
▁संके 100
▁भरोसा 100
▁मनो 100
ृंखला 100
▁शुल्क 100
ार्मिक 100
▁स्टेशन 100
▁कोलकाता 100
▁संस्कृति 100
▁स्वागत 100
▁ग्राह 100
▁आयु 100
क्षीय 100
▁बेश 100
▁धार्मिक 100
थी 100
श्‍ 100
▁सिक 100
णे 100
▁हिंदू 100
स्टर 100
▁मुद्र 100
▁चेन्न 100
▁विशि 100
मार्ग 100
▁हालात 100
चु 100
▁चीनी 100
यम 100
▁E 100
▁मैचों 100
▁इलाकों 100
▁अंग्रे 100
▁नाय 100
▁बुनिया 100
▁सेट 100
▁प्रती 100
▁निम्न 100
▁प्रतियोग 100
▁जाय 100
▁देखें 100
फारिश 100
▁बैंकों 100
▁प्राधिक 100
क्षम 100
▁मनुष 100
▁बहु 100
द्व 100
▁c 100
▁तीनों 100
▁राजनाथ 100
▁’’ 100
▁उसको 100
▁दौरे 100
▁तारीख 100
▁कब 100
मार्टम 100
▁हाईकोर्ट 100
िवर्स 100
▁आनंद 100
▁सकें 100
लेट 100
▁गेंदबाज 100
▁मेगापिक्सल 100
्डी 100
▁स्वतंत्रता 100
▁बाकी 100
▁in 100
▁आशा 100
▁आंद 100
▁चीज 100
▁रोकने 100
हरे 100
▁सिफारिश 100
स्टम 100
दाताओं 100
चीन 100
▁अनुरोध 100
▁गतिविधियों 100
▁उपभो 100
▁गौ 100
▁60 100
▁निश्चित 100
▁श्रीलंका 100
▁उल 100
्याज 100
▁हिंदी 100
शाली 100
▁दस्ता 100
▁किरदार 100
▁पहुंचा 100
नगर 100
▁K 100
▁35 100
धारा 100
▁आतंकी 100
ाचार 100
▁मौका 100
सगढ़ 100
▁नियुक्त 100
ंतु 100
▁उठाए 100
▁शहरों 100
▁करार 100
▁सत्ता 100
▁खराब 100
▁समझौता 100
▁पोस्टमार्टम 100
▁चंडीगढ़ 100
सिक 100
▁डिजिटल 100
एसपी 100
▁रखना 100
▁ठहरा 100
▁प्रयासों 100
दिन 100
▁देती 100
▁बातों 100
हो 100
▁समु 100
▁जीव 100
पथ 100
▁In 100
ेगा 100
▁गरीब 100
▁डो 100
▁आसान 100
▁टिकट 100
▁सीटें 100
दाता 100
▁दवा 100
▁औद्योग 100
ोरेज 100
▁स्थानों 100
▁सन् 100
▁संकट 100
▁आवास 100
▁वायरल 100
▁फुट 100
ंकर 100
▁जिम्मेदारी 100
▁पूछताछ 100
त्कार 100
▁क्षेत्रीय 100
्न 100
▁सुझाव 100
▁डेटा 100
▁इज 100
न्‍द्र 100
▁दीप 100
▁जिनके 100
मती 100
▁कहानी 100
▁घाय 100
▁ज़ि 100
▁रॉय 100
▁प्रभावी 100
▁मिलता 100
▁आपका 100
▁झार 100
ct 100
▁सक्षम 100
▁हिमा 100
▁पैसे 100
आईटी 100
▁जीएसटी 100
हित 100
▁इंजी 100
स्थिति 100
▁खोल 100
क्टूबर 100
कारात्मक 100
ra 100
▁शूट 100
वेद 100
स्थानों 100
▁मानना 100
डू 100
▁तकनीकी 100
▁जाति 100
युक्त 100
▁प्रारंभ 100
▁प्राकृतिक 100
वासियों 100
▁कहने 100
वाली 100
▁प्रतिबद्ध 100
ing 100
नतम 100
▁अफग 100
▁लड़ाई 100
▁घायलों 100
▁ऊंच 100
▁फरार 100
▁कार्यों 100
el 100
▁सुनी 100
▁बेशक 100
▁पव 100
▁पूर्वी 100
▁लेना 100
▁पर्याप्त 100
▁दाय 100
▁प्रकाशित 100
▁दायर 100
न्ना 100
▁पाल 100
▁अनिल 100
म्ब 100
▁O 100
िनी 100
▁दौरा 100
▁मुझ 100
▁बराबर 100
▁पीड़ित 100
▁होनी 100
▁इनके 100
▁बुला 100
प्ट 100
श्रे 100
▁अक् 100
लम 100
▁नियमों 100
▁संस्थानों 100
▁नेटवर्क 100
▁स्टोरेज 100
▁श्रेणी 100
▁रणनी 100
▁रहें 100
खित 100
▁अक्षय 100
▁अनुच्छेद 100
कल्प 100
▁चेन्नई 100
▁संगीत 100
सलमान 100
▁दस्तावे 100
प्रदेश 100
▁मंगल 100
▁छत्ती 100
▁मिलियन 100
ोषण 100
▁[ 100
्यूट 100
▁स्टार 100
▁ग्राम 100
ज़ी 100
विंद 100
▁साझे 100
▁राजी 100
स्कृतिक 100
▁वाणिज्य 100
▁बुनियादी 100
▁नये 100
कता 100
बाल 100
्यो 100
▁कॉन् 100
▁ट्विटर 100
▁गुणवत्ता 100
▁L 100
▁व्यक्तियों 100
▁परन्तु 100
लंघ 100
▁अक्टूबर 100
▁औद्योगिक 100
▁फ़िल्म 100
ेड़ 100
▁हथियार 100
▁कुर 100
▁सफ 100
▁लंबे 100
▁विधाय 100
▁मुखर्जी 100
▁इंस 100
▁संक्रमण 100
▁स्टी 100
▁बिग 100
▁खुदा 100
रिए 100
▁अपे 100
▁ब्रिटेन 100
धरी 100
वां 100
▁कर्मचारी 100
नाएं 100
▁जापान 100
िक्र 100
▁सरकारों 100
▁सामग्री 100
तीश 100
▁संगठनों 100
30 100
▁पाई 100
▁फाइनल 100
▁हिमाचल 100
नेस 100
▁रोल 100
▁मिन 100
▁वहाँ 100
कुर 100
▁इंद 100
▁गुना 100
फोट 100
▁विशिष्ट 100
▁समझौते 100
▁खिलाड़ियों 100
ेंशन 100
▁कार्या 100
th 100
▁सैन्य 100
▁सराह 100
▁वास्तविक 100
▁नयी 100
▁पूछा 100
▁परिच 100
▁पंजी 100
▁एक्सप 100
▁सृ 100
रीन 100
▁छत्तीसगढ़ 100
▁कही 100
us 100
▁रोड 100
राष्ट्रपति 100
आईआर 100
▁दाम 100
▁तनाव 100
▁तापमान 100
ज़ाब 100
▁अज 100
▁आती 100
▁फायदा 100
▁टेली 100
सीय 100
▁प्रार्थ 100
▁यात्रियों 100
▁व्‍य 100
मूर्ति 100
लंघन 100
मति 100
▁आतंकवादी 100
▁रैम 100
▁आदित्य 100
कां 100
▁पड़ता 100
▁हस्ताक्षर 100
डीपी 100
▁मंच 100
▁U 100
▁ज़मीन 100
▁सौंप 100
एसएस 100
ol 100
▁दबाव 100
▁चाहती 100
▁भ्रष्ट 100
नाक 100
▁नक 100
सच 100
▁सांस्कृतिक 100
▁छूट 100
्वा 100
▁झारखंड 100
▁V 100
▁रद्द 100
अन 100
▁विजे 100
सव 100
सीपी 100
▁आजा 100
ल्ट 100
न्त 100
▁मुद्रा 100
▁महामारी 100
▁कहता 100
▁क्रिया 100
▁राव 100
▁डायरे 100
▁अध्या 100
▁जाकर 100
तें 100
▁श्रृंखला 100
200 100
तिहासिक 100
▁सिस्टम 100
▁दलों 100
▁भाषण 100
▁शुभकाम 100
▁तैनात 100
रद 100
क्‍ति 100
▁चै 100
▁आंदोलन 100
▁फेस 100
▁सेंसर 100
▁मसीह 100
▁जमीन 100
▁बनाना 100
▁सिर 100
▁वकील 100
▁चुनावों 100
▁महानि 100
संग 100
ंव 100
▁इमर 100
▁प्रार्थना 100
▁सर्वश्रे 100
▁मुकाबला 100
ूँ 100
▁जुड़ी 100
▁व्यवहार 100
▁आगामी 100
▁तुम्हारी 100
▁सहमति 100
▁बीमा 100
▁संचालन 100
ोग्राम 100
▁चैन 100
निस 100
र्प 100
▁फ्रांस 100
▁ग्रह 100
▁W 100
ौन 100
▁आलो 100
दाबाद 100
▁युवाओं 100
un 100
▁वॉ 100
▁रहना 100
▁मित्र 100
कीय 100
राव 100
▁टिप्पणी 100
▁सम्ब 100
▁सर्वे 100
as 100
▁भगवान 100
▁उल्लंघन 100
ंजन 100
▁मध 100
▁योजनाओं 100
मक 100
▁सोमवार 100
्रम 100
▁नही 100
▁70 100
▁प्रेस 100
ent 100
▁लड़की 100
▁शख 100
▁अन्तर्गत 100
भाष 100
▁मंत्रिमंडल 100
▁संघर्ष 100
▁धोनी 100
▁राज्यसभा 100
▁इस्तीफा 100
▁यूनिवर्स 100
▁आउट 100
▁जहाँ 100
▁जाएँ 100
कै 100
▁देर 100
▁समाचार 100
▁डीजल 100
▁मीटर 100
▁स्थिर 100
▁फल 100
▁आग्रह 100
▁दृष्ट 100
▁हस्त 100
्हा 100
▁दोषी 100
▁उच्चतम 100
▁जला 100
सीटी 100
▁198 100
▁मिट 100
▁वार्ता 100
▁तोड़ 100
▁बचाव 100
ीप 100
ूद 100
▁चेयर 100
▁संकेत 100
ानिस्तान 100
▁बच्चन 100
लोड 100
▁पुस्तक 100
▁खुल 100
ाइड 100
▁बहन 100
▁सवार 100
▁जरूर 100
साइ 100
is 100
खी 100
▁चौधरी 100
▁सत्य 100
ैंप 100
िपक्षीय 100
णन 100
▁चढ़ 100
▁शख्स 100
बुक 100
ियत 100
▁फंड 100
लिखित 100
▁वेस्ट 100
▁शपथ 100
▁छोड़कर 100
बत 100
▁निपटने 100
▁सारी 100
▁ऑफिस 100
ot 100
▁सेवाएं 100
नै 100
▁विवाह 100
▁सोनिया 100
धारण 100
▁धरती 100
दूर 100
▁अक 100
प्रिय 100
▁कंट 100
▁विधायकों 100
ड्डा 100
▁गोवा 100
▁निकट 100
▁80 100
िसू 100
रू 100
▁इंजीनियर 100
ब्‍ 100
ंगाना 100
▁कानूनी 100
तरे 100
▁चोप 100
▁ईरान 100
▁लीटर 100
▁सिवा 100
▁वनडे 100
▁लाए 100
▁संपत्ति 100
▁कोरिया 100
▁दाखिल 100
▁लु 100
कोर 100
हाद 100
▁शही 100
▁आएंगे 100
▁प्राप 100
▁भागीदारी 100
▁खाते 100
▁युवक 100
▁बाढ़ 100
▁राष्‍ट्रीय 100
▁आखिर 100
दीय 100
पाद 100
▁तैयारी 100
▁प्रश्न 100
▁नायडू 100
▁ऐतिहासिक 100
▁एक्ट्रेस 100
▁एप 100
गें 100
▁धी 100
ारों 100
▁सर्वश्रेष्ठ 100
▁जवान 100
▁कब्जे 100
्यास 100
वर्ती 100
▁परेशान 100
▁इकाई 100
▁जोड़ 100
▁लॉक 100
▁न्यायमूर्ति 100
▁जानी 100
▁परमाण 100
▁चोपड़ा 100
▁झु 100
▁मस् 100
▁जहा 100
,5 100
▁इच्छा 100
शे 100
▁आकर्ष 100
▁नौसेना 100
सीए 100
दो 100
ाले 100
▁हाउस 100
▁कने 100
▁उठाया 100
▁अजय 100
▁सारा 100
▁आयात 100
▁गोल 100
et 100
ॉस 100
िश्ते 100
▁नियमित 100
▁2013 100
▁लेंगे 100
कूल 100
▁इन्हें 100
▁कराई 100
▁अक्सर 100
▁बलों 100
▁शब् 100
▁सम्मानित 100
▁सका 100
▁आधुनिक 100
▁आसपास 100
बान 100
जीलैंड 100
▁शूटिंग 100
▁रिट 100
ोने 100
घु 100
▁अभिन 100
▁स्टेट 100
श्चा 100
▁वैज्ञानिक 100
ch 100
जीव 100
▁ओड 100
बादी 100
▁पूंजी 100
▁घरों 100
िकोण 100
ोतरी 100
▁भोजन 100
▁चित्र 100
▁चीफ 100
▁रखता 100
मानत 100
▁अखिल 100
▁टूर् 100
सचिव 100
क्रो 100
▁एडम 100
▁ओल 100
▁तेलंगाना 100
▁शुक्रवार 100
नो 100
स्‍ट 100
▁नज़र 100
▁| 100
▁डाला 100
▁इंस्टा 100
▁कीमतों 100
बिनेट 100
▁पृथ्वी 100
▁आरोपों 100
▁लोकतंत्र 100
▁धार 100
▁राजीव 100
्षिक 100
आत 100
फ्रेंस 100
▁रोम 100
▁परमाणु 100
ँच 100
▁इरा 100
▁आखिरी 100
▁सीधे 100
▁प्रतिष्ठ 100
▁मुक्त 100
मोहन 100
▁मिलती 100
कुल 100
खन 100
▁किन 100
▁नेपाल 100
▁खड़े 100
▁बजाय 100
▁मरी 100
रिएंट 100
▁अनिवार 100
ुरु 100
▁जीता 100
नामेंट 100
▁डिजा 100
▁ठाकुर 100
▁सिविल 100
▁अशोक 100
▁द्विपक्षीय 100
▁डिप 100
लान 100
▁सेक्टर 100
बो 100
▁यूनिवर्सिटी 100
▁तुम्हारा 100
▁चर 100
फॉ 100
▁टाटा 100
▁पूजा 100
▁उन् 100
पादन 100
▁रखे 100
▁राजमार्ग 100
चि 100
एसई 100
ार्द 100
▁सुख 100
राज्य 100
▁सोने 100
डाउन 100
▁हवा 100
▁टूर्नामेंट 100
वर्धन 100
▁मिलते 100
▁नोटिस 100
इयों 100
▁सराहना 100
टका 100
▁कार्यक्रमों 100
वह 100
▁विनिर् 100
रुख 100
▁कार्यकर्ताओं 100
्‍ली 100
▁कक्षा 100
▁निर्वाचन 100
▁वितरण 100
▁छोटी 100
▁मनी 100
▁जेटली 100
▁तस्वीरें 100
▁दृष्टि 100
सीसीआई 100
▁अहमद 100
▁समक्ष 100
▁अधिकांश 100
▁बीमारी 100
▁मुसलमान 100
▁नियु 100
जोर 100
क्षेप 100
▁अरविंद 100
▁बेंगल 100
▁विवरण 100
डीए 100
▁वाहनों 100
▁रवि 100
▁दिखाया 100
▁फैला 100
ालित 100
▁दीपिका 100
▁शासित 100
डब्ल्यू 100
पीएफ 100
▁कोय 100
▁इंटरनेट 100
छा 100
▁अधिसू 100
-0 100
▁संसदीय 100
ul 100
डि 100
▁प्रदू 100
▁निशाना 100
क्कर 100
▁प्रतियोगिता 100
▁अंतरिक्ष 100
ंश 100
दृ 100
▁2012 100
▁प्रभु 100
▁रैली 100
▁इंस्टाग्राम 100
▁विश्‍वास 100
निक 100
ठे 100
▁विद्यार्थियों 100
▁दिये 100
श्वर 100
)। 100
▁बढ़ोतरी 100
▁कैबिनेट 100
भू 100
मह 100
▁खुलासा 100
▁पाक 100
टिंग 100
फान 100
▁500 100
▁इमरान 100
▁स्रो 100
खे 100
▁काउ 100
▁अब्द 100
▁योगी 100
▁पश्चिमी 100
▁कमांड 100
▁सौर 100
▁आरंभ 100
▁जागर 100
▁कॉल 100
▁सप 100
▁उत्पन्न 100
▁उठाने 100
ांज 100
▁कारणों 100
▁सेंटर 100
▁प्राधिकरण 100
▁प्रत्या 100
रुद्ध 100
▁निर्भर 100
द्दीन 100
▁इस्लाम 100
थे 100
▁भीड़ 100
▁ग्रुप 100
▁जाह 100
▁रहेगी 100
▁शुभकामनाएं 100
▁पवित्र 100
▁पौ 100
ढ़ी 100
स्म 100
न्‍य 100
टिल 100
▁अज़ाब 100
▁योग्य 100
▁शाहरुख 100
▁महासचिव 100
बारा 100
▁गईं 100
▁2011 100
▁अके 100
▁अनिवार्य 100
ल्ल 100
▁अफगानिस्तान 100
देव 100
▁सेल 100
▁मूसा 100
▁सम् 100
▁चक्र 100
▁वार्षिक 100
▁बुध 100
MP 100
▁स्थल 100
▁पां 100
▁भट्ट 100
▁उत्पादों 100
▁काल 100
▁न्यायिक 100
il 100
▁जर्मनी 100
पूर्वक 100
▁p 100
▁विज्ञ 100
▁सूच 100
▁लाया 100
म्‍ 100
▁जताई 100
▁ताकत 100
श्वास 100
▁राष्‍ट्र 100
न्या 100
स्‍त 100
ay 100
ार्थी 100
▁आकाश 100
▁पदार्थ 100
भाषा 100
▁लाइन 100
▁अधिकतम 100
▁बताते 100
▁J 100
▁निरा 100
,4 100
▁भ्रष्टाचार 100
▁चलता 100
ोत्तर 100
▁लोकप्रिय 100
▁व्यक्तिगत 100
▁मनुष्य 100
▁लीग 100
▁न्यूनतम 100
एमसी 100
दाय 100
▁64 100
▁तत्व 100
▁डिजाइन 100
▁गाय 100
▁न्यूजीलैंड 100
▁सलाहकार 100
फो 100
▁ड्राइ 100
▁बाय 100
▁आईटी 100
▁आह 100
▁उपराष्ट्रपति 100
▁36 100
▁आईपीएल 100
▁पहा 100
▁सिंध 100
्लो 100
▁गर्म 100
▁हिन्द 100
▁48 100
▁जाओ 100
▁मंगलवार 100
▁समृ 100
▁बेहत 100
०० 100
▁होंगी 100
▁जीतने 100
ुरा 100
न्हा 100
▁बढ़ती 100
▁तथ 100
▁धन्य 100
▁जिम्मेदार 100
रत 100
▁रजिस्ट 100
▁पेंशन 100
▁परिवारों 100
▁छुट 100
जर्स 100
▁नौकरी 100
▁पारित 100
▁भंड 100
▁निश्च 100
.201 100
▁आपने 100
▁सीमित 100
▁सिंग 100
▁चेयरमैन 100
▁रखें 100
संख 100
▁आयुक्त 100
▁अंड 100
▁गिरफ्तारी 100
▁गुप्ता 100
▁कार्यकारी 100
न्वयन 100
वानों 100
ov 100
▁अल्प 100
ैट 100
▁फ्रंट 100
▁राजप 100
र्द 100
▁जरिये 100
▁कमा 100
ोसिए 100
▁ब्याज 100
▁विरोधी 100
▁चलने 100
ौती 100
▁मोटर 100
▁थाना 100
▁स्कूलों 100
ांतर 100
▁मैने 100
डर 100
▁दूरी 100
iv 100
xa 100
▁विज 100
,1 100
ाये 100
▁ओडिशा 100
▁प्राचीन 100
▁समस्याओं 100
▁श्रीमती 100
नाम 100
ंपिक 100
▁लॉकडाउन 100
▁सदन 100
▁मेह 100
िताभ 100
▁हफ् 100
▁विपक्ष 100
▁सख्त 100
रीय 100
▁वीर 100
▁निर्माता 100
▁शब्दों 100
▁पर्व 100
▁197 100
दूस 100
▁बीमार 100
विक 100
वाणी 100
▁आबादी 100
▁लिखित 100
नन 100
▁दया 100
▁पकड़ 100
▁इतनी 100
▁अंब 100
▁अर्जुन 100
▁बुधवार 100
▁किंग 100
▁अर्था 100
▁औसत 100
▁अवै 100
ir 100
▁बुरी 100
▁छि 100
▁टाइ 100
▁वर्षीय 100
▁रिल 100
▁१९ 100
▁पश्चा 100
्मा 100
▁प्लान 100
▁जमानत 100
्मी 100
▁बढ़ने 100
सिद्ध 100
▁यात्री 100
ाइन 100
पीसी 100
▁हिस्सों 100
▁विश्‍व 100
▁लंदन 100
सु 100
▁गोयल 100
▁आलोचना 100
▁मंत्रियों 100
तो 100
▁डाउन 100
▁लंबी 100
ur 100
▁शिखर 100
▁विस्तृत 100
▁देवी 100
▁ओपन 100
▁कवि 100
▁नागरिकता 100
▁खतरा 100
▁45 100
▁दृष्टिकोण 100
▁नाग 100
▁सर्वो 100
्कुल 100
क्का 100
▁उद्ध 100
▁रिस 100
▁गंगा 100
▁हिस 100
पीय 100
▁अब्दुल 100
मुझे 100
▁तंत्र 100
▁हफ्ते 100
▁ट्रै 100
▁v 100
▁दुक 100
रक 100
▁यक़ 100
▁जाएं 100
▁पावर 100
भूत 100
गज 100
▁एजेंस 100
ृति 100
िना 100
▁बेच 100
▁निवासी 100
▁अकाउंट 100
मल 100
पो 100
दमा 100
▁विरुद्ध 100
कियों 100
▁बनर्जी 100
▁एचडी 100
▁ज़रूरत 100
▁गहरा 100
▁अमिताभ 100
नाल्ड 100
▁आकार 100
सेज 100
ation 100
वेट 100
’’ 100
▁पुराने 100
▁बहुम 100
,99 100
आप 100
▁इंतजार 100
▁जल्दी 100
▁कमजोर 100
घ्र 100
जनक 100
वायु 100
ड्र 100
▁रिजर्व 100
▁संरचना 100
▁नित 100
तावनी 100
▁प्राथमिकता 100
▁शौ 100
▁मेट्र 100
-20 100
▁वस्तु 100
▁बल्लेबाजी 100
हे 100
▁आपदा 100
ाजन 100
▁कर्ज 100
मर्श 100
▁सिन्हा 100
▁अवैध 100
▁वापसी 100
▁चेतावनी 100
▁जाया 100
▁तट 100
▁फेसबुक 100
ाजी 100
▁निशान 100
निवार 100
▁बढ 100
▁मैन 100
▁फे 100
▁पहुंचने 100
▁उपाध्यक्ष 100
▁हर्ष 100
▁संह 100
▁बोले 100
रप 100
▁मिश्रा 100
▁विस् 100
▁अह 100
▁वेतन 100
▁दास 100
▁महि 100
▁दूसरों 100
▁स्क्रीन 100
▁चौहान 100
ad 100
▁बिल्कुल 100
▁स्वस्थ 100
हैया 100
▁शुरूआत 100
र्पित 100
स्ट्री 100
▁अनुसू 100
▁विशाल 100
ंपरा 100
▁बनाकर 100
▁हल् 100
▁एक्टर 100
▁रिजल्ट 100
▁चेक 100
▁दिल्‍ली 100
▁अरुण 100
▁महत् 100
▁अपेक्षा 100
▁रविवार 100
▁भेजे 100
▁ग्रहण 100
ण्डल 100
▁माहौल 100
▁रचना 100
खिम 100
▁मेल 100
लाइ 100
कंप 100
लीय 100
▁दंड 100
कप 100
▁खेला 100
▁पुनर् 100
▁वें 100
ॉजी 100
▁गड 100
▁नाइ 100
▁शाखा 100
ंद्रा 100
▁तह 100
▁उड़ान 100
▁मान्यता 100
▁सचिन 100
▁संहिता 100
▁ऐलान 100
▁33 100
देह 100
▁वेरिएंट 100
एफसी 100
▁अगली 100
्टर 100
▁संक्रमित 100
▁लगने 100
▁विश्ले 100
▁मिनट 100
▁मुहैया 100
▁सेंट 100
▁शनिवार 100
▁सकेगा 100
एससी 100
▁ब्रिटिश 100
▁मसीही 100
▁संचार 100
▁समुद्र 100
▁निकाय 100
▁वर्ल्ड 100
▁उत्तरी 100
▁सोना 100
▁90 100
▁परिसर 100
▁कहां 100
▁महीनों 100
▁मानते 100
▁मनाया 100
▁"""" 100
▁सुनील 100
▁वचन 100
▁बौ 100
▁अंग्रेजी 100
चर्स 100
्यूटर 100
▁खाने 100
एगा 100
▁लगाई 100
कुमार 100
▁मरीजों 100
▁ऐप 100
▁एसोसिए 100
▁रैं 100
▁मुद्दा 100
▁ममता 100
▁धन्यवाद 100
▁तकनीक 100
▁रूपये 100
▁सैनिकों 100
▁महानिदेशक 100
करे 100
▁मेहन 100
▁ग्रे 100
▁साक्ष 100
▁मुकदमा 100
▁रिश 100
▁स्‍वा 100
▁जोखिम 100
▁t 100
▁सहयोगी 100
ट्स 100
▁प्रभार 100
▁खड़ा 100
▁साझेदारी 100
▁पेट्रोलियम 100
साई 100
▁थाने 100
▁मनमोहन 100
▁सुशांत 100
▁परंपरा 100
▁पदों 100
स्वा 100
थर 100
पिता 100
स्थल 100
▁किन्तु 100
▁2010 100
▁शहीद 100
▁प्रदूषण 100
and 100
▁सौं 100
▁बैटरी 100
▁विस्फोट 100
dia 100
▁आत्मा 100
ww 100
▁समर्पित 100
दर्शन 100
▁) 100
पै 100
▁आसमान 100
▁मालिक 100
id 100
▁दर्द 100
▁पूर्वोत्तर 100
चारिक 100
▁पड़ी 100
▁नियुक्ति 100
▁निश्चय 100
ंती 100
▁राजस्व 100
रोध 100
▁लेन 100
▁फो 100
▁m 100
▁जमकर 100
▁जलवायु 100
विड 100
▁साध 100
ूली 100
▁जायेगा 100
ig 100
▁पटना 100
▁बेहतरीन 100
▁क्लिक 100
▁चारों 100
▁सकारात्मक 100
▁प्रोसे 100
▁मण 100
▁शीघ्र 100
▁निरंतर 100
\"" 100
▁टाइम 100
▁मछ 100
▁मानसिक 100
▁मज़ 100
ंटर 100
▁कहती 100
▁इंजन 100
▁सिटी 100
▁शेष 100
▁बीते 100
न्दी 100
▁विविध 100
▁34 100
कश 100
▁इंसान 100
▁कपिल 100
▁प्लेट 100
▁धम 100
र्धा 100
▁आवं 100
ेटी 100
कारियों 100
क्या 100
▁एक्सप्रेस 100
माही 100
▁उत्तराखंड 100
▁सॉ 100
▁बीसीसीआई 100
ष्का 100
हत्या 100
▁बढ़त 100
▁देखभाल 100
▁होम 100
▁प्रय 100
▁इंच 100
सैन 100
▁सड़कों 100
▁रियर 100
आरसी 100
▁अनुकूल 100
▁जुट 100
स्ट्र 100
▁रेट 100
▁196 100
▁खुले 100
▁ज्यादातर 100
▁विजेता 100
▁डिस्प 100
▁जनजा 100
▁राजपूत 100
▁ढंग 100
धानिक 100
,6 100
वती 100
▁साहित्य 100
▁प्रकट 100
िग 100
▁बदले 100
▁जोड़ी 100
,3 100
▁टीमों 100
▁वास्ते 100
▁दोबारा 100
▁रणवीर 100
▁द्वीप 100
▁अभिय 100
ेक्ट 100
धीन 100
▁पत्रकार 100
▁किश 100
▁कमेटी 100
त्‍व 100
▁खेलों 100
▁गुम 100
▁अतः 100
▁तुमसे 100
▁जागरूक 100
ईओ 100
ग्ध 100
ज्ञात 100
▁पृष्ठ 100
▁कम्प 100
▁पैर 100
▁अना 100
▁स्वर्ण 100
▁बत 100
पत 100
▁स्वामी 100
▁उपबंध 100
▁जुड़ा 100
र्या 100
▁सेक 100
▁अभिष 100
▁प्राइ 100
▁कच्च 100
पीड 100
त्मिक 100
▁सबूत 100
दिष्ट 100
▁पुलिसकर्म 100
ौम 100
▁सुविधाओं 100
▁पुत्र 100
वरूप 100
▁सर्वा 100
▁राजद 100
कॉम 100
▁रोज़ 100
▁करीना 100
▁गेंदबाजी 100
▁खेले 100
▁खेलने 100
▁75 100
ेंडर 100
▁शोक 100
▁ढांच 100
▁हाथों 100
▁छात्रा 100
▁परिस्थित 100
▁रिश्ते 100
▁Re 100
बिल 100
भूम 100
▁आंकड़ों 100
▁ओलंपिक 100
ाँ 100
दूसरे 100
िशन 100
बंदी 100
▁कार्यकर्ता 100
,7 100
ीकरण 100
▁विचारों 100
▁आदर्श 100
कांक 100
▁पोल 100
▁विवे 100
▁समझा 100
▁पहुँच 100
▁आमंत्र 100
▁चार्ज 100
बीन 100
▁महिलाएं 100
▁ट्रक 100
श्‍य 100
ंधन 100
▁कार्यवाही 100
ांजलि 100
▁मशीन 100
लाल 100
▁काबू 100
▁सूचकांक 100
▁स्‍थ 100
▁व्याव 100
▁सिने 100
▁प्रतिभा 100
▁प्रदेशों 100
▁वर्मा 100
▁टैक्स 100
ंडीज 100
▁मालूम 100
▁अस्थ 100
▁पेज 100
▁विद्युत 100
▁श्रम 100
वरों 100
▁बाग 100
▁धवन 100
▁कठिन 100
▁कृष्ण 100
▁प्रोड 100
संख्य 100
▁हड़ 100
▁निदेश 100
दियों 100
फॉर्म 100
▁उत्साह 100
▁पवार 100
▁मेहनत 100
▁सीतार 100
फिर 100
कालीन 100
▁भौ 100
▁रास्ते 100
▁घटनाओं 100
▁डाउनलोड 100
▁क्षति 100
▁प्रतिनिधि 100
▁सर्वेक्षण 100
▁पराम 100
मेर 100
▁आध्या 100
▁पाठ्य 100
▁चैंप 100
▁भंडार 100
कान 100
▁लखन 100
ृत्ति 100
▁लघु 100
▁दोहरा 100
जि 100
क्म 100
▁रेड्डी 100
ायण 100
सब 100
▁नील 100
▁कामया 100
▁घोट 100
▁आसानी 100
▁2009 100
▁कितना 100
वेयर 100
▁अधिकारों 100
टीआई 100
,8 100
▁विपक्षी 100
नेशनल 100
▁अन्‍य 100
▁गवर् 100
▁अनुष्का 100
▁फसल 100
▁जॉन 100
▁जॉ 100
▁अधि 100
ेन्द्र 100
▁निम्नलिखित 100
▁काट 100
▁रुख 100
▁ग्राहकों 100
▁संभाल 100
▁वाई 100
अपने 100
▁चली 100
▁डोनाल्ड 100
▁पशु 100
▁केंद्रित 100
पल 100
▁मोहन 100
▁वैसे 100
▁मनोहर 100
▁पौल 100
▁इनकी 100
▁सन 100
्यूब 100
▁प्ला 100
▁प्रसिद्ध 100
लोक 100
▁निर्देशन 100
▁फार्म 100
▁गू 100
▁व्हा 100
न्‍द 100
▁टेक् 100
▁गठित 100
▁प्रशासनिक 100
▁वस्तुओं 100
▁नेहर 100
ख़िर 100
▁माध 100
▁टक्कर 100
▁पक्षों 100
▁सपा 100
ोरम 100
▁सर्वोच्च 100
▁जिनका 100
▁ढांचे 100
▁जिंदगी 100
▁हिम 100
▁प्रोत्साहित 100
▁आध्यात्मिक 100
▁संकल्प 100
्यूल 100
▁बू 100
▁फैल 100
▁कैंसर 100
▁शिल 100
ुति 100
▁फॉर 100
द्या 100
▁सिखा 100
िन्‍न 100
▁पौलुस 100
▁देखकर 100
ाइयों 100
▁पड़ेगा 100
▁निर्देशक 100
▁नीतीश 100
▁पुणे 100
-3 100
बरा 100
ैंस 100
▁मास 100
▁स्टूड 100
एसआई 100
▁तीसरा 100
▁बैठे 100
,9 100
▁साथी 100
▁प्रदर्शित 100
न्दर 100
▁ट्रांस 100
▁सकेंगे 100
फिक 100
▁बनाम 100
ज़ार 100
फेसर 100
▁पायल 100
▁X 100
▁थोड़ा 100
▁जाम 100
▁सिख 100
राग 100
▁लीड 100
▁o 100
▁दिग् 100
▁समूहों 100
कीन 100
▁अदा 100
ांकन 100
▁मजदूर 100
▁... 100
▁कां 100
▁वादा 100
▁क्रमश 100
धिकारी 100
▁करियर 100
▁तभी 100
▁यूरोप 100
द्दा 100
ॉर्क 100
▁चुनावी 100
▁मेट्रो 100
▁संस्करण 100
मात्र 100
ंकन 100
▁एकता 100
▁छाप 100
▁बीएस 100
तियां 100
ia 100
▁अमरीकी 100
▁2021 100
डम 100
कलन 100
कोट 100
▁अनुरूप 100
पचारिक 100
▁सिद्धांत 100
▁इस्रा 100
एसएम 100
▁चलाने 100
▁परामर्श 100
▁जवानों 100
▁प्राय 100
प्रीत 100
▁दिलच 100
▁आतंकवादियों 100
ंतरिक 100
▁बदलने 100
▁डिस्प्ले 100
▁गुल 100
क्के 100
▁जानें 100
राम 100
स्य 100
▁प्रसारण 100
▁३ 100
▁कायम 100
▁स्थायी 100
मेल 100
▁कौर 100
▁कमल 100
▁फायर 100
▁यौन 100
▁तरीका 100
▁चिकित्स 100
ितीय 100
गण 100
▁अगु 100
ॉर्ट 100
▁पांडे 100
▁कटौती 100
ब्लिक 100
▁शराब 100
▁आएगा 100
▁छोटा 100
▁सपोर्ट 100
▁सच्चाई 100
▁रिया 100
▁अध्‍य 100
▁तृ 100
▁प्रोज 100
▁हुक्म 100
ोलॉजी 100
▁प्रतिनिधित्व 100
भूमि 100
▁लखनऊ 100
▁करण 100
▁प्रत्यक्ष 100
▁? 100
▁प्रजा 100
ध्या 100
▁तिमाही 100
▁रॉ 100
,2 100
ाफ 100
्रेडिट 100
▁हिसाब 100
दय 100
▁तुमने 100
ार्दिक 100
▁तुमको 100
▁दशक 100
▁प्रस 100
▁सेव 100
संद 100
▁पैसा 100
▁कर्मियों 100
जिट 100
▁तमाम 100
▁एजेंसियों 100
▁डॉक्टरों 100
मंत्र 100
▁नामक 100
▁रेखा 100
▁खाना 100
ायंस 100
मूल 100
स्‍था 100
रेट 100
तलब 100
▁आदित्यनाथ 100
फाइ 100
▁एह 100
▁उतर 100
▁हटाने 100
▁चिद 100
▁बला 100
▁लेखक 100
▁प्रकृति 100
▁अभ्यास 100
▁इमार 100
▁सिक् 100
▁n 100
▁मण्डल 100
▁एशियाई 100
▁आस्ट्रेलिया 100
▁आये 100
▁हिस्सेदारी 100
▁आंतरिक 100
ठभ 100
रानी 100
▁हार्दिक 100
▁नज 100
▁प्रोफेसर 100
▁गर्व 100
▁दान 100
▁संयंत्र 100
▁क़ौम 100
▁मरने 100
▁अट 100
▁आत्महत्या 100
▁370 100
▁चोरी 100
बु 100
▁जंग 100
▁अड्ड 100
▁ठाकरे 100
▁गडकरी 100
▁निर्मित 100
▁रास्ता 100
▁मद् 100
▁150 100
▁प्रणब 100
कोण 100
▁होटल 100
शंकर 100
▁कैमरे 100
▁बचाने 100
ेश्वर 100
▁इतने 100
आईए 100
▁कीजिए 100
▁ऑटो 100
▁भड़ 100
▁विषयों 100
▁मांगी 100
एंगे 100
▁अहमदाबाद 100
▁मुठभ 100
▁करवाया 100
▁व्‍या 100
▁हद 100
▁आलिया 100
ोरेट 100
▁खतर 100
ज्ज 100
▁उल्लेखनीय 100
▁अश्व 100
▁सीजन 100
▁बहस 100
▁नेहरू 100
ि‍ 100
▁प्रतिस्प 100
▁मुख्यालय 100
म्भ 100
▁व्यवसाय 100
राधिक 100
10 100
ोगे 100
यां 100
▁तिथि 100
44 100
me 100
तालों 100
▁तर्क 100
▁तीसरी 100
▁जयंती 100
ेंट्स 100
इंडीज 100
▁यूरोपीय 100
▁चुनौतियों 100
▁मृतक 100
ल्पना 100
▁रहीं 100
▁शक 100
स्वी 100
▁डाटा 100
▁श्रद्धांजलि 100
▁लिस्ट 100
न्यास 100
▁क्ला 100
▁गवाह 100
वानी 100
ारीरिक 100
▁दूध 100
▁आयुष 100
▁खतरे 100
पीएस 100
▁पार्क 100
▁दर्शकों 100
▁ब्रे 100
▁नाथ 100
▁दावे 100
▁फिट 100
ce 100
▁एफआईआर 100
▁कोविंद 100
▁सेल् 100
▁विद्यालय 100
▁एसोसिएशन 100
▁क्रेडिट 100
▁दर्शन 100
▁जू 100
पार 100
▁लड़ने 100
▁कना 100
▁गिल 100
▁अधिकतर 100
▁सुरेश 100
▁इलेक्ट्रॉन 100
स्वरूप 100
▁देखना 100
▁प्रस्तावित 100
▁ज़रूर 100
▁स्वच्छता 100
▁वक्‍त 100
▁हिंदु 100
▁बोली 100
▁2008 100
▁घंटों 100
▁कितनी 100
ेडियम 100
▁मद्देन 100
ोई 100
▁चैनल 100
▁जिनकी 100
▁सिलस 100
▁महात्मा 100
▁परेशानी 100
▁जताया 100
▁मिश्र 100
▁उत 100
गि 100
▁शैतान 100
न्‍द्रीय 100
ब्दी 100
▁तेरे 100
▁गांवों 100
▁निल 100
िथ 100
▁f 100
▁सालों 100
▁भूल 100
▁घाटी 100
▁इंजीनियरिंग 100
▁अमर 100
करार 100
▁शिकार 100
▁स्रोत 100
▁संचालित 100
श्त 100
▁लाखों 100
▁निंदा 100
▁संभावित 100
▁पायलट 100
▁धोखा 100
▁धा 100
▁माफी 100
▁साक्षी 100
▁गीत 100
▁देखी 100
▁अज्ञात 100
ंत्रिक 100
▁राष्‍ट्रपति 100
एनएस 100
▁रक्त 100
▁क्रिकेटर 100
▁बहुमत 100
▁उपभोक्ता 100
▁मानक 100
▁वायुसेना 100
▁दर्शा 100
▁पेशे 100
▁शारीरिक 100
▁प्रीम 100
ेंगी 100
▁शुरुआती 100
क्षेत्र 100
ुलकर 100
▁एक् 100
▁जोशी 100
▁ढां 100
राइ 100
डेट 100
os 100
▁दोप 100
तायात 100
▁आमिर 100
▁बढ़ाया 100
▁सम्बन्ध 100
,0 100
▁पैमाने 100
▁195 100
▁आज्ञा 100
▁स्कोर 100
्वान 100
▁आशी 100
▁कोयला 100
▁मिसाल 100
▁शतक 100
▁सर्वाधिक 100
▁खाली 100
,999 100
▁केन्‍द्रीय 100
सीबी 100
ांसी 100
▁42 100
▁सागर 100
▁कार्यकाल 100
▁सिनेमा 100
▁आमंत्रित 100
▁सावधान 100
▁सुंदर 100
वंत 100
मला 100
▁गौरतलब 100
▁स्‍व 100
▁साज 100
pp 100
▁मुठभेड़ 100
▁b 100
▁नमू 100
▁पहुँचा 100
▁विभिन्‍न 100
▁फॉर्म 100
▁अत्या 100
▁बढ़ते 100
▁पाठ्यक्रम 100
▁इसको 100
▁मंज 100
▁रिलायंस 100
सद 100
▁नितिन 100
▁38 100
कीम 100
तुम 100
▁खाता 100
▁मुख्‍य 100
▁पेट 100
▁नाज़ 100
▁परिचालन 100
▁प्रवर् 100
▁वेस्टइंडीज 100
ंबरम 100
▁भारती 100
▁मनोज 100
▁सहमत 100
▁लिखे 100
▁गाड़ी 100
▁एंड्र 100
▁वाक 100
▁उतार 100
▁फें 100
▁दीपक 100
▁भारतीयों 100
▁सूचित 100
णु 100
▁गाने 100
▁पीड़िता 100
▁यक़ीन 100
▁स्टेडियम 100
▁यातायात 100
▁लिंक 100
▁पंचायत 100
▁रमेश 100
▁बंदर 100
▁इंटरनेशनल 100
वर्ष 100
▁किमी 100
▁सीसीटी 100
-- 100
▁धमकी 100
▁फाइल 100
मै 100
▁पूछे 100
▁रणबीर 100
▁राजन 100
▁आफ 100
▁जगत 100
▁एकमात्र 100
▁इंडस्ट्री 100
हीन 100
-201 100
▁रकम 100
सील 100
▁प्रभारी 100
▁माय 100
▁शुद्ध 100
ापुर 100
▁गृहमंत्री 100
▁अमरीका 100
संच 100
▁हक 100
ोरेशन 100
▁300 100
सीआर 100
▁44 100
▁प्रोत्साहन 100
▁सैनिक 100
▁फायदे 100
▁आईसीसी 100
▁ब्लैक 100
▁संसाध 100
▁रणनीति 100
ायन 100
ोसी 100
▁बादल 100
▁समुद्री 100
▁चिदंबरम 100
▁(3 100
▁स्‍ट 100
▁डेब 100
▁एसपी 100
▁दुकान 100
▁पढ़ाई 100
▁सीईओ 100
▁हाँ 100
पेट 100
परेशन 100
▁आर् 100
▁Pro 100
ोड 100
▁जिक्र 100
▁इसने 100
▁चैंपियन 100
▁साउ 100
▁शरीफ 100
▁बीज 100
र्डर 100
▁संदि 100
▁ज्ञापन 100
▁रहो 100
▁काफ़ 100
दल 100
▁पादु 100
▁केंद्रों 100
▁सम्प 100
▁अग्रवाल 100
ोध्या 100
▁एयरपोर्ट 100
▁सीसीटीवी 100
▁अधिव 100
▁बॉक्स 100
▁कितने 100
▁बढ़ाकर 100
▁नतीजे 100
▁विभागों 100
▁हक़ 100
▁उपलब्‍ 100
▁बाइक 100
▁आपराधिक 100
▁उन्न 100
▁ठोस 100
ंगिक 100
घर 100
▁आह्वान 100
▁# 100
▁हृ 100
कृष्ट 100
▁पथ 100
▁आशंका 100
▁51 100
▁तिर 100
▁यूजर्स 100
▁वाज 100
▁बेटा 100
कांग 100
▁स्ट्र 100
▁देशभर 100
▁बाज़ 100
▁लाइस 100
▁भिन्न 100
▁गुजर 100
स्टिक 100
▁अस्पतालों 100
आईएम 100
▁दिग्गज 100
ग्रहण 100
▁जानने 100
▁भाषाओं 100
▁राज्‍यों 100
▁वर्षा 100
पीए 100
▁हालाँ 100
▁हालाँकि 100
वीय 100
▁ज़रूरी 100
▁ज़िंदगी 100
▁शिक्षक 100
वैधानिक 100
▁श्रीनगर 100
▁उपलब्‍ध 100
▁बट 100
▁पादुकोण 100
▁माइक्रो 100
▁आकर 100
भाग्य 100
ियस 100
▁दस्तावेज 100
▁सशक्त 100
तरीय 100
▁समझने 100
▁अल्पसंख्य 100
डीआर 100
▁परिस्थितियों 100
▁कंपनियां 100
▁ऑल 100
जिद 100
▁लिखी 100
▁कलाकार 100
▁मंड 100
▁ब्यू 100
▁झूठ 100
विमर्श 100
▁सीबी 100
▁तेंद 100
▁विफल 100
▁फीचर्स 100
▁टेक्न 100
असल 100
▁मुना 100
▁श्रमिक 100
ैस 100
बरी 100
▁रनों 100
▁डेविड 100
▁अधिसूचना 100
▁क्रिस 100
ंथ 100
▁प्रशंसा 100
▁कुशल 100
▁लिहा 100
▁मद्देनजर 100
▁ढांचा 100
▁शिविर 100
▁पोर्टल 100
▁संदिग्ध 100
▁प्रत्याशी 100
क्षणिक 100
ारक 100
पक्ष 100
मंडल 100
-4 100
▁सुष 100
▁जानिए 100
▁उपायों 100
िपुर 100
ैंक 100
▁युग 100
▁ध्व 100
▁जाहिर 100
▁परंतु 100
▁चौथे 100
▁धीरे 100
▁संशोधित 100
हल 100
▁भो 100
▁बताई 100
▁सुविधाएं 100
▁कारोबारी 100
▁त्य 100
डि़ 100
▁घुस 100
▁संसार 100
▁अयोध्या 100
किस्तान 100
▁चीजें 100
▁आंख 100
▁कोष 100
▁गूगल 100
धारकों 100
▁आईए 100
्‍यू 100
▁निधि 100
▁लंबा 100
▁खेती 100
ult 100
▁भय 100
▁किल 100
▁आवाज 100
▁प्रता 100
▁प्रोसेसर 100
▁आइए 100
▁हवाले 100
▁प्राइम 100
हमने 100
▁शुभार 100
▁उपस्थिति 100
▁देगी 100
▁मंडल 100
ंबित 100
▁आपात 100
▁49 100
▁यूनिट 100
▁इस्राएल 100
नाइट 100
▁भेद 100
▁कॉरप 100
▁बॉस 100
खण्ड 100
दंड 100
▁एकल 100
▁कृत 100
▁द्र 100
▁हितों 100
▁फीसद 100
▁रवाना 100
▁दिवसीय 100
यामत 100
▁जौ 100
▁कंप्यूटर 100
▁संतोष 100
रन 100
▁लाइसेंस 100
श्री 100
ितों 100
▁बौद्ध 100
▁कैप्ट 100
▁प्रोट 100
▁पंजीकरण 100
▁तिव 100
▁फर् 100
▁अवि 100
▁जज 100
ग्रस्त 100
▁प्रोजेक्ट 100
▁सरल 100
कप्तान 100
▁आयकर 100
▁सीए 100
▁तल 100
▁नियंत्रित 100
र्मी 100
▁अनुसूचित 100
▁43 100
▁नाज़िल 100
्यांकन 100
▁चालू 100
▁संसाधनों 100
▁कार्यान्वयन 100
संख्या 100
▁समन्व 100
▁बलात्कार 100
▁बंदरगाह 100
▁चुने 100
िंगटन 100
▁झग 100
▁तिवारी 100
▁d 100
▁समझते 100
▁इकट 100
▁भरा 100
स्त्री 100
▁अध्‍यक्ष 100
पालिका 100
▁65 100
▁निकाला 100
▁बसपा 100
आईसी 100
▁सीतारमण 100
▁सकी 100
-18 100
▁मात्र 100
▁सृजन 100
▁कनाडा 100
▁आना 100
▁अंकों 100
वेदनशील 100
▁कच्चे 100
्तों 100
▁सीआर 100
▁सेल्फी 100
▁एंट 100
▁यातना 100
▁पार् 100
लील 100
▁प्रेरणा 100
▁जुर्म 100
▁गेम 100
▁टूट 100
▁स्पेश 100
▁डाक 100
▁बैंकिंग 100
▁फ्री 100
▁मुक़ 100
▁बुद्ध 100
▁गुरुवार 100
▁दक्षिणी 100
▁दौड़ 100
रीत 100
स्‍थ्‍य 100
▁कमाई 100
▁मस्जिद 100
▁सेमी 100
▁दोपहर 100
▁कुलदीप 100
हि 100
ीट 100
▁बम 100
▁विंड 100
▁प्रदर्शनकारियों 100
▁इकट् 100
णियों 100
▁नारे 100
▁194 100
न्ट 100
▁आपस 100
▁परमेश्वर 100
em 100
▁खूबस 100
▁जगहों 100
▁नामांकन 100
▁इम 100
फिया 100
▁बैरल 100
चानक 100
ड़न 100
्‍स 100
स्को 100
▁बढ़े 100
डीएस 100
कुछ 100
▁दरअसल 100
▁चाहिये 100
ुदा 100
चक 100
हूर 100
▁ज़िले 100
▁मोर् 100
▁ज़िम्मे 100
▁प्रतिबद्धता 100
▁आएगी 100
ब्ब 100
▁किरा 100
▁अभिषेक 100
▁इंट 100
▁विनिर्माण 100
▁कॉन्फ्रेंस 100
ुता 100
▁छान 100
▁कैसा 100
▁लेता 100
▁भूकंप 100
▁क्लब 100
▁एकत्र 100
िंटन 100
▁गोल्ड 100
▁जस 100
▁39 100
▁फं 100
▁उर्व 100
▁पंड 100
▁निच 100
▁हुईं 100
▁पेशकश 100
▁पुरानी 100
यत 100
▁विरासत 100
▁महेंद्र 100
▁vs 100
▁यश 100
19 100
▁नॉ 100
वों 100
▁55 100
▁काउंस 100
▁लक्षण 100
▁अचानक 100
▁सरदार 100
▁हजारों 100
▁मेघ 100
क्टिव 100
ंपरिक 100
्रोल 100
▁मलिक 100
▁घटनास्थल 100
▁प्रयोगशाला 100
-17 100
▁अधी 100
प्पा 100
ut 100
▁पिछली 100
िंस 100
80 100
गैर 100
कांत 100
▁स्पिन 100
सायिक 100
▁h 100
▁लड़कियों 100
▁आजादी 100
▁प्राइवेट 100
▁शिम 100
▁रिसर्च 100
▁दुष् 100
▁सदी 100
▁अभिव 100
▁सफाई 100
▁हेड 100
▁जागरूकता 100
पीएम 100
▁कोर 100
▁वाइ 100
नेश 100
▁शिर 100
▁वायदा 100
क्ताओं 100
▁रैंकिंग 100
▁सच्चे 100
किम 100
▁मुआ 100
▁कैप्टन 100
▁खरीदने 100
▁बरकरार 100
▁a 100
▁खी 100
▁निर्मला 100
केज 100
क्चर 100
▁आकलन 100
▁शाहिद 100
▁सैफ 100
▁महत्त्व 100
▁टीमें 100
ृत्त 100
▁पाप 100
▁मणिपुर 100
त्न 100
▁खिता 100
▁दरवा 100
▁स्ना 100
▁इंदिरा 100
▁मुसलमानों 100
▁प्रतिनिधियों 100
▁भेजने 100
▁पत्थर 100
▁विपरीत 100
▁टू 100
▁तहसील 100
▁पड़ोसी 100
▁अकेले 100
▁स्‍वास्‍थ्‍य 100
▁इश 100
▁पत्रिका 100
रूप 100
▁मरा 100
▁निरी 100
▁करूंगा 100
▁देखिए 100
▁अटल 100
्‍प 100
▁आंकड़े 100
फ्टी 100
ंदाज 100
▁मरीज 100
▁इनका 100
▁हराया 100
▁शरण 100
द्दाख 100
हाबाद 100
गांव 100
BI 100
▁उत्‍पादन 100
▁जीते 100
अर 100
▁सर्विस 100
संचार 100
▁डायरेक्टर 100
60 100
▁बाजारों 100
म्स 100
▁मध्यम 100
ूती 100
▁मृतकों 100
▁उपकरणों 100
▁शिक्षकों 100
▁अपमान 100
स्वामी 100
▁शरद 100
डियो 100
▁जह 100
▁मुझसे 100
▁टुक 100
कालिक 100
दर्शी 100
▁वाता 100
▁बनाये 100
्वे 100
▁परिप 100
▁बाधा 100
▁आंकड़ा 100
mi 100
मतौर 100
▁समग्र 100
▁स्मृति 100
▁महत्‍व 100
▁भाइयों 100
▁भले 100
▁शेयरों 100
▁उत्कृष्ट 100
प्रति 100
▁बनाते 100
▁एका 100
▁बिता 100
▁संग्रहण 100
सिंह 100
ग्न 100
▁तथ्य 100
▁चीजों 100
▁फ़ाइल 100
आईपी 100
एमएस 100
ाजित 100
वानिव 100
11 100
पया 100
▁कलर 100
▁हृदय 100
▁मूल्यांकन 100
▁128 100
▁प्रसं 100
िने 100
▁उपयुक्त 100
इंट 100
▁उभर 100
▁शैक्षणिक 100
ीकृत 100
▁प्रवाह 100
▁नीर 100
।"" 100
▁ऑपरेशन 100
ियंस 100
झी 100
▁अख 100
रेन 100
▁इट 100
स्कर 100
ष्‍ट्रीय 100
▁पारंपरिक 100
▁वैज्ञानिकों 100
▁कंग 100
▁बैक 100
▁उद्योगों 100
▁ओब 100
▁स्वर्ग 100
ोजित 100
▁ख़बर 100
▁पैनल 100
फाइनल 100
▁शुरु 100
▁जयपुर 100
▁सबको 100
ॉड 100
▁गुनाह 100
▁वातावरण 100
▁हिन्दी 100
▁आख़िर 100
▁अंध 100
▁धूम 100
▁पत्रकारों 100
▁कैप 100
▁जियो 100
गीय 100
▁योग्यता 100
▁उधर 100
चुनाव 100
▁महार 100
▁प्रारंभिक 100
▁आवश्‍य 100
▁तेंदुलकर 100
▁पहुंचाने 100
▁ठहराया 100
▁निर्देशित 100
ुली 100
▁आपसी 100
टीय 100
▁नौकर 100
▁निवेशकों 100
िप्त 100
▁मुह 100
▁मशहूर 100
▁जिम 100
एनयू 100
▁यहू 100
▁पात्र 100
▁दिखाने 100
▁नजदी 100
प्शन 100
▁शता 100
▁बढ़ी 100
▁प्राप्‍त 100
▁आर्ट 100
▁चांदी 100
▁आजाद 100
▁संतुल 100
▁छु 100
▁मौल 100
▁पहन 100
▁ब्रांड 100
▁जोड़ने 100
▁औपचारिक 100
लिंग 100
दास 100
्ज 100
▁चम 100
▁अंश 100
ऊदी 100
केश 100
▁क्षमा 100
▁लद्दाख 100
व्र 100
▁निस् 100
▁स्वराज 100
वेज 100
साम 100
सिया 100
▁स्टॉक 100
ैनिक 100
▁निर्धारण 100
वेल 100
वीस 100
ab 100
▁अंजाम 100
मुख्य 100
हीम 100
ew 100
od 100
▁सैम 100
▁वित्‍त 100
▁सांसदों 100
गित 100
▁बिजनेस 100
▁नवीन 100
▁मुंह 100
▁सूक्ष 100
▁दृढ़ 100
▁माने 100
▁जनसंख्या 100
▁विश्लेषण 100
▁कानूनों 100
▁सिंगापुर 100
▁संदेह 100
▁कवर 100
हाई 100
▁तारीफ 100
▁बाहरी 100
▁बांध 100
▁गह 100
▁आमतौर 100
▁स्टाफ 100
▁जोड़ा 100
▁झुठ 100
▁बन् 100
टकों 100
▁टॉप 100
फेल 100
▁बुल 100
▁प्रशंस 100
▁संस्थाओं 100
▁झटका 100
▁कंट्रोल 100
▁करेंगी 100
▁व्याख्या 100
▁भेंट 100
रीबी 100
एनए 100
▁कोड 100
▁अनुश 100
▁विशेषज्ञों 100
िशियल 100
▁त्या 100
च्‍छ 100
ri 100
सेक्स 100
▁46 100
▁दत्त 100
▁इंस्टीट 100
▁वारदा 100
मैंने 100
जै 100
शाह 100
▁गौतम 100
त्तर 100
स्टार 100
▁झुठला 100
फाई 100
ुरू 100
▁पाय 100
▁ईंधन 100
वो 100
▁पहुंचाया 100
▁एक्सच 100
▁मार्केट 100
▁मिलाकर 100
▁IP 100
कीपर 100
▁हस्तक्षेप 100
▁यक़ीनन 100
▁दोस्तों 100
▁छानबीन 100
▁नीतियों 100
▁साउथ 100
▁रामनाथ 100
▁तौ 100
▁थोड़ी 100
ुसार 100
▁जीवित 100
▁i 100
▁किलोग्राम 100
▁सुषमा 100
▁बाप 100
▁बोला 100
▁हरी 100
▁जाएंगी 100
▁सिद्धार्थ 100
▁स्त्री 100
▁प्रतीक 100
▁पेर 100
डीएम 100
▁लम् 100
▁सुभाष 100
▁47 100
▁ब्यूरो 100
▁दीर् 100
शिंगटन 100
▁दह 100
▁फूल 100
पेयी 100
▁अत्यधिक 100
▁संवेदनशील 100
▁स्मिथ 100
▁दायरे 100
▁अर्थात् 100
▁मेजब 100
धित 100
▁मजबूती 100
▁पुरुषों 100
जात 100
्‍यों 100
▁52 100
▁& 100
▁एनसीपी 100
▁\"" 100
▁गोलीबारी 100
▁मध्यप्रदेश 100
▁जीतकर 100
▁शुभारंभ 100
दमी 100
ंदे 100
▁प्रोग्राम 100
र्की 100
▁कराए 100
▁जोन 100
▁खिताब 100
▁ख्या 100
▁खासकर 100
▁आँ 100
▁असफल 100
रित 100
ंचाई 100
▁वाणिज्यिक 100
▁पाते 100
सेट 100
ोदय 100
िक् 100
▁टक 100
▁फैंस 100
▁बलि 100
▁मारा 100
▁आश्वास 100
तल 100
अगर 100
संदेह 100
आइ 100
भाजपा 100
▁अस्त 100
▁साथियों 100
▁हां 100
▁आरबीआई 100
लोग 100
टर्स 100
ाहिर 100
▁स्वरूप 100
▁जितना 100
वली 100
ट्रिक 100
ूनी 100
▁मिट्टी 100
िपुरा 100
▁ब्रह 100
▁सज़ा 100
▁नवाचार 100
▁आतंकियों 100
▁राजेश 100
खल 100
बीसी 100
ाजत 100
▁सऊदी 100
▁बांट 100
▁बिंद 100
कला 100
ेशनों 100
ेयर 100
▁पुनः 100
ग़म्बर 100
हैं 100
▁जाएँगे 100
ter 100
▁अधीक्षक 100
इंड 100
ूहिक 100
▁शर्म 100
▁उत्स 100
मंद 100
▁बेंगलुरु 100
▁मनीष 100
▁लगाते 100
▁गंभीरता 100
▁माया 100
▁उन्हीं 100
▁डु 100
▁प्रारूप 100
▁सम्मिल 100
▁बच्ची 100
▁दूरसंचार 100
▁41 100
▁ग्लो 100
▁फार 100
न्ड 100
ऊद 100
▁फिल्‍म 100
ax 100
जान 100
▁पैकेज 100
▁सोचा 100
ऊँ 100
▁लेखा 100
▁नसी 100
▁प्रांत 100
▁प्रवासी 100
बॉल 100
▁सतर्क 100
har 100
▁India 100
संघ 100
▁रवी 100
▁लालू 100
▁सॉफ्ट 100
▁पोषण 100
▁सेहत 100
▁जन्मदिन 100
▁स्वि 100
ांतों 100
▁भोपाल 100
▁आरएसएस 100
▁स्पेशल 100
▁चैम्प 100
▁जटिल 100
▁निर्द 100
▁Red 100
▁प्रसन्न 100
▁एंटी 100
रोज 100
▁निभाई 100
▁मिलेंगे 100
▁तरीकों 100
▁54 100
▁मकसद 100
▁ढेर 100
up 100
esult 100
▁बोझ 100
ुक्‍त 100
▁गवर्नर 100
▁नैतिक 100
▁छोड़ने 100
▁यकीन 100
▁रानी 100
▁अभिनय 100
▁आश्वासन 100
▁बुलाया 100
नम 100
क्तियों 100
▁जहाज 100
▁कामों 100
▁अनुवाद 100
▁सीनियर 100
इंग 100
्रीम 100
िकेशन 100
▁न्यूज 100
▁सूर्य 100
▁सुश्री 100
▁हड़ताल 100
णाचल 100
▁गार 100
▁खूबसूरत 100
▁ताल 100
कन 100
ायतों 100
▁मार्गदर्शन 100
िडी 100
▁कल्पना 100
ढ़ा 100
▁सुनने 100
one 100
वाड़ा 100
▁अगुवाई 100
▁उड़ा 100
▁सामूहिक 100
▁सेन 100
ोड़े 100
▁अत्यंत 100
ैश 100
▁आयी 100
▁डिव 100
▁गोर 100
▁खतरनाक 100
ल्थ 100
देशों 100
▁अत 100
व्यू 100
ूंकि 100
▁आकर्षित 100
जुट 100
ष्‍ठ 100
▁पेय 100
▁गुस् 100
▁भरे 100
▁अड्डे 100
वर्ड 100
▁पीढ़ी 100
▁ईश्वर 100
▁औष 100
ँह 100
▁g 100
तांत्रिक 100
ष्णा 100
▁न्यूय 100
▁व्यक्‍ति 100
▁एकीकृत 100
टेल 100
▁भि 100
▁मिसाइल 100
▁आपत्ति 100
▁किशोर 100
▁स्तरीय 100
▁फ़र 100
▁बंध 100
सेस 100
▁ट्रेड 100
डीसी 100
▁करीबी 100
▁जब्त 100
▁मुज 100
▁संबोधन 100
▁त्रिपुरा 100
त्तियों 100
▁समृद्ध 100
▁कैद 100
▁स्वीकृति 100
▁कठोर 100
टों 100
▁आरक्षण 100
▁यो 100
▁ड्राइवर 100
राई 100
टीएम 100
▁लूट 100
▁भरी 100
ag 100
हारी 100
▁कमान 100
क्तूबर 100
▁बेस 100
रुण 100
▁रावत 100
▁सूत्र 100
▁नारायण 100
▁अतिथि 100
▁गलती 100
▁मनोर 100
▁दृश्य 100
▁2007 100
यो 100
▁उक्त 100
फ्तार 100
द्यपि 100
▁उनपर 100
▁Redmi 100
▁प्रे 100
▁एकजुट 100
▁स्‍था 100
▁सदस्यीय 100
र्र 100
▁अंबानी 100
ायती 100
▁हाइ 100
▁एक्सचेंज 100
▁सेल्स 100
एसए 100
▁जुड़ 100
▁निकालने 100
▁कॉम 100
▁इकाइयों 100
▁सम्मिलित 100
▁नरेन्‍द्र 100
▁ग्राहक 100
▁चलाया 100
▁तेलु 100
▁साइट 100
▁जुटी 100
▁नष्ट 100
▁प्रावधानों 100
▁निलंबित 100
▁हिन्दू 100
पीड़न 100
▁जैव 100
▁लाइफ 100
िक्क 100
▁पढ़ने 100
▁बुद्धि 100
▁स्‍तर 100
ap 100
▁रेप 100
▁देरी 100
▁कामयाब 100
▁साधारण 100
▁राजकुमार 100
▁जाँच 100
▁परिवर्त 100
▁शेट 100
▁कामक 100
▁निया 100
▁सब्स 100
र्पण 100
um 100
▁कृपया 100
▁गरीबी 100
▁स्त 100
▁गार्ड 100
▁प्रमो 100
▁बेस्ट 100
▁हंग 100
▁चिंत 100
▁पवन 100
्यूज 100
▁लड़के 100
▁शैली 100
est 100
▁यूनियन 100
art 100
जेंसी 100
▁जाल 100
▁उन्‍हें 100
▁वैध 100
▁इसल 100
णों 100
▁शताब्दी 100
▁व्यावसायिक 100
▁महज 100
▁दर्जा 100
▁मचा 100
▁वरुण 100
▁संस्कृत 100
▁द्वितीय 100
▁अनंत 100
▁+ 100
ुमान 100
▁जवाहर 100
ट्टर 100
▁ऑफर 100
स्‍तान 100
▁आएंगी 100
▁रिम 100
▁ऑप 100
▁खींच 100
▁राफेल 100
्रेशन 100
▁ऑफ़ 100
▁फेर 100
▁परिणामस्वरूप 100
एडा 100
▁फिल्में 100
li 100
वित 100
▁दैनिक 100
▁उपधारा 100
▁इंस्टीट्यूट 100
▁फाइन 100
पूर 100
▁दाऊद 100
▁आदान 100
▁अक्तूबर 100
▁भूप 100
▁निराश 100
▁प्रको 100
हमें 100
▁इस्‍ 100
ख़ुदा 100
▁कर्त 100
▁of 100
▁अर्ध 100
▁गिरोह 100
▁पद्ध 100
▁खबरों 100
▁समाजवादी 100
▁अमे 100
▁जबरद 100
यिक 100
▁दीवार 100
▁हुसैन 100
ुरी 100
साइड 100
▁जौहर 100
▁जुर्माना 100
▁महिंद्रा 100
▁मूल्यों 100
▁शौच 100
▁सेमीफाइनल 100
▁मुकेश 100
▁चेहरे 100
ख्‍या 100
▁मुआव 100
▁संवैधानिक 100
▁राजदूत 100
▁(4 100
▁एग् 100
▁खोलने 100
वामा 100
।। 100
▁नाराज 100
डन 100
पता 100
सीन 100
▁केन्‍द्र 100
▁(19 100
▁गहरी 100
▁प्रतिष्ठित 100
कृष्ण 100
▁पड़ने 100
▁कैफ 100
▁इस्पात 100
▁भौतिक 100
ेशिया 100
▁घोटाले 100
▁संवाददाताओं 100
पुट 100
▁काले 100
▁संवेद 100
▁दब 100
▁पीयू 100
▁भरने 100
▁संभ 100
▁दिमा 100
▁(1) 100
▁उपक्रम 100
▁हमलों 100
▁हर्षवर्धन 100
▁अवस्था 100
▁रोका 100
्रल 100
ाराण 100
▁वारदात 100
▁स्पेस 100
▁रिकार्ड 100
▁गौरव 100
▁सोल 100
▁पलट 100
▁मुफ्त 100
▁प्रतिनिधिमंडल 100
ेबल 100
▁सिद्धू 100
बूत 100
▁अकादमी 100
▁मार्क 100
हमारे 100
▁बुर 100
▁यद्यपि 100
क्की 100
-16 100
धारी 100
▁दायित्व 100
▁शेट्टी 100
▁संस्‍थ 100
▁सीधा 100
SE 100
णित 100
ाराणसी 100
ढ़े 100
▁रियल 100
र्त 100
▁सेंसेक्स 100
▁माँग 100
▁कार्ब 100
▁मजबूर 100
▁शत्र 100
डोर 100
जित 100
▁रंजन 100
लेस 100
िकरण 100
▁डालने 100
.""" 100
▁मकान 100
▁प्रतिदिन 100
▁सुनाई 100
▁बख् 100
▁छवि 100
ांकित 100
▁उपास 100
वस्‍था 100
विधि 100
▁सूक्ष्म 100
खों 100
बुल 100
▁नग 100
▁लुक 100
▁दिक्क 100
ंजा 100
लाइट 100
▁400 100
▁फ्ला 100
▁बचत 100
▁साजिश 100
▁बेल 100
▁४ 100
▁अखिलेश 100
▁उपलब्धि 100
िकर 100
▁स्कीम 100
12 100
सनीय 100
'' 100
भूति 100
▁देखो 100
▁वीजा 100
▁राकेश 100
▁पॉल 100
▁खड़ी 100
▁इजाजत 100
नाश 100
▁ज्यो 100
▁व्यय 100
▁द्वार 100
▁पेड़ 100
▁भागों 100
▁देवेंद्र 100
▁लंबित 100
▁विद्व 100
▁ताजा 100
मिन 100
▁2017-18 100
ate 100
▁पीने 100
▁प्लस 100
▁अरो 100
▁मारने 100
▁बिलकुल 100
कभी 100
्तिक 100
▁ईडी 100
एआई 100
िकाओं 100
▁सौंपा 100
▁बेन 100
केल 100
▁शिवराज 100
han 100
▁संस्थापक 100
▁टो 100
▁धमा 100
▁सफर 100
▁सिंचाई 100
▁नोएडा 100
▁अंडर 100
▁दीन 100
▁तूफान 100
सून 100
▁स्टील 100
▁हता 100
ak 100
माश 100
▁छुट्टी 100
▁भूषण 100
▁व्यस्त 100
▁ज़ाहिर 100
सागर 100
▁अवगत 100
▁करनेवाले 100
प्ति 100
▁पश्चात 100
▁आराम 100
▁वर्गों 100
▁सशस्त्र 100
▁सालाना 100
पीट 100
▁अग्रिम 100
रेज 100
▁गें 100
▁सेवानिव 100
▁किनारे 100
▁ट्रेलर 100
▁व्हाइट 100
न्दगी 100
▁देखे 100
▁उपचुनाव 100
▁शेख 100
▁टीका 100
▁अनुबंध 100
▁इलाहाबाद 100
▁विशेषकर 100
▁पहलू 100
▁सिलसिले 100
▁अपर 100
▁आवंटन 100
▁बचने 100
▁पुकार 100
▁अधिग्रहण 100
▁बोलने 100
▁पुलवामा 100
▁मुँह 100
▁ग्रीन 100
▁गिन 100
▁न्यायालयों 100
▁56 100
▁सभ 100
og 100
ंडे 100
ोंग 100
▁वजन 100
▁छिपा 100
▁पार्टियों 100
▁चूंकि 100
ोनेशिया 100
▁वर्णन 100
बली 100
▁कॉर्प 100
▁संदीप 100
▁शास्त्र 100
▁फाउंड 100
▁ख़ास 100
▁दोषियों 100
▁ज्‍या 100
▁रणनीतिक 100
▁2000 100
▁बाबा 100
क्‍स 100
स्‍ता 100
▁लैंड 100
▁बोलते 100
▁अमृत 100
▁महेश 100
ानियों 100
ंगुली 100
▁यथा 100
▁अभिव्य 100
चार्ज 100
▁लू 100
काया 100
व्या 100
▁काला 100
▁असल 100
▁डाले 100
▁इमारत 100
▁लगाकर 100
▁तीव्र 100
▁काउंसिल 100
▁रेडियो 100
▁प्रतिस्पर्धा 100
▁फि 100
▁हिद 100
▁उत्पीड़न 100
▁ज्‍यादा 100
▁जलाश 100
▁अवश्य 100
▁विविधता 100
ामक 100
▁तकली 100
विज्ञान 100
▁ग्रा 100
णवीस 100
▁बहनों 100
▁फस 100
▁एथ 100
▁पहलुओं 100
▁ईरानी 100
उप 100
धड़ी 100
▁टेलीवि 100
▁ट्रेनों 100
▁जहन्न 100
ज़न 100
▁गरीबों 100
▁कड़ा 100
▁ब्लॉक 100
्यूस 100
▁फीचर 100
अपनी 100
▁हिदायत 100
▁हुये 100
▁साक्षा 100
ून्य 100
ूष 100
जिन 100
मुख्यमंत्री 100
ोग्रा 100
▁सर्ज 100
▁रौ 100
एसएमई 100
▁वाराणसी 100
▁मिज 100
मानी 100
▁कविता 100
▁अवसरों 100
▁प्रवर्तन 100
▁अध्याय 100
काने 100
द्रोह 100
िपल 100
▁मानने 100
▁अमरि 100
▁पर्स 100
▁संपूर्ण 100
▁अखबार 100
▁जर्मन 100
▁मूर् 100
▁विपणन 100
▁गि 100
▁चरणों 100
▁बतौर 100
▁संबद्ध 100
▁लोकतांत्रिक 100
▁कामना 100
▁दरों 100
नैप 100
▁इंटरव्यू 100
णमूल 100
▁गेट 100
▁मेहर 100
▁रोगियों 100
बई 100
रचना 100
▁प्रका 100
शक्ति 100
पाकिस्तान 100
▁कव 100
▁झा 100
▁वाजपेयी 100
ment 100
▁ट्रस्ट 100
▁पब्लिक 100
▁पाएंगे 100
पानी 100
ूसु 100
▁गणराज्य 100
▁पुरी 100
▁बनना 100
ासित 100
▁निफ्टी 100
चित्र 100
▁आईं 100
▁कंगना 100
▁स्थानांतर 100
▁उमर 100
▁इटली 100
थाम 100
ेडकर 100
▁गढ़ 100
▁खून 100
▁स्थगित 100
▁भजन 100
क्षिक 100
▁सत्या 100
▁निस्संदेह 100
गंज 100
▁जेएनयू 100
सेल 100
▁लेफ्ट 100
▁अनुदान 100
▁निदेशालय 100
ard 100
▁श्रेय 100
स्पी 100
▁घे 100
▁विवेक 100
दिल 100
▁संयुक्‍त 100
प्रधान 100
▁बर्फ 100
▁ज्योति 100
▁निवास 100
▁अपडेट 100
▁सवालों 100
▁कपड़े 100
▁घटकर 100
▁त्रुट 100
II 100
▁तत्कालीन 100
▁2019: 100
ईडी 100
▁रफ्तार 100
टीन 100
▁सबके 100
▁गांगुली 100
प्रदान 100
▁किंग्स 100
▁सोनम 100
▁नीलामी 100
ानिया 100
▁महत्‍वपूर्ण 100
▁दिना 100
▁रजत 100
पश्चिम 100
ैया 100
▁चैम्पियन 100
▁टॉस 100
्यूशन 100
▁संख्‍या 100
ल्डर 100
▁श्रद्धा 100
▁बताने 100
▁फर्जी 100
▁प्राइमरी 100
▁विज्ञापन 100
▁रखो 100
▁शिमला 100
▁निष्कर्ष 100
▁तुर्की 100
शिक 100
▁खुफिया 100
▁शुक् 100
मेरे 100
▁बदमाश 100
▁सैक 100
▁टर्म 100
▁प्लेटफॉर्म 100
्वीप 100
▁हज 100
वाधिकार 100
ष्क 100
लोत 100
▁मेन 100
▁फांसी 100
ृत्य 100
▁एक्टिव 100
▁मंत्रालयों 100
ction 100
▁मोड 100
▁कमरे 100
▁हादसा 100
▁आशीष 100
▁तृणमूल 100
सो 100
▁भला 100
▁बढ़ता 100
बर्ग 100
▁कली 100
एनजी 100
▁जाव 100
▁चंद 100
▁w 100
हरण 100
▁डिफ 100
▁ओबामा 100
▁दशा 100
▁परम 100
▁आड 100
न्दा 100
▁घूम 100
▁भलाई 100
▁एक्शन 100
▁संपाद 100
▁सुम 100
▁एडमिट 100
फाइल 100
▁दोग 100
त्रि 100
▁पीयूष 100
▁घटा 100
▁कार्यशाला 100
▁ज़रिए 100
▁बहा 100
▁सम्‍म 100
▁अब्दुल्ला 100
▁मूल्‍य 100
▁चर्च 100
hi 100
▁कले 100
▁ख़िला 100
▁कीमतें 100
▁विनियम 100
▁इकट्ठा 100
▁लोन 100
▁अता 100
▁पदा 100
▁आईआईटी 100
स्पर 100
ोत्सव 100
JP 100
▁विलियम 100
▁रीति 100
▁कराना 100
▁निकले 100
▁लैस 100
िस्ट्रेट 100
यदि 100
▁IPL 100
▁ऊंचाई 100
धव 100
▁गोपाल 100
▁विद्यार्थी 100
ैग 100
ोलिक 100
▁उतारा 100
▁इंटरनल 100
▁विमानों 100
ID 100
ॉफ 100
▁माननीय 100
▁असली 100
▁बच्चा 100
▁जैन 100
▁तटीय 100
▁खरीदा 100
▁विभाजन 100
हु 100
▁फरमा 100
▁संपन्न 100
ुलर 100
▁PM 100
एँगे 100
▁सतत 100
40 100
अमेर 100
▁क्वाल 100
▁प्रिंट 100
▁परा 100
▁गेह 100
▁66 100
▁नज़ 100
हादुर 100
▁धोखाधड़ी 100
ers 100
▁उत्तराखण्ड 100
-12 100
▁सदस्‍ 100
▁महत्त्वपूर्ण 100
झाने 100
▁चौक 100
▁मांस 100
▁प्रसंस् 100
▁नबी 100
▁53 100
▁शिक्षण 100
▁सेंट्रल 100
ne 100
सास 100
▁72 100
जिटिव 100
▁नाबाल 100
▁संप्र 100
ice 100
▁समानता 100
▁विश्वविद्यालयों 100
▁बिन 100
▁शह 100
▁कामकाज 100
▁सिया 100
▁उत्तम 100
▁दुष्कर्म 100
▁निर्दिष्ट 100
▁फंसे 100
▁कलाकारों 100
▁इंडोनेशिया 100
▁मानवाधिकार 100
▁सेल्सियस 100
▁सॉफ्टवेयर 100
▁गहलोत 100
वारी 100
गारों 100
▁डिस् 100
▁एचडीएफसी 100
▁फ़ैस 100
▁मलेशिया 100
▁छेड़ 100
▁तरफ़ 100
पीआई 100
▁आयतों 100
▁कमांडर 100
alme 100
▁कार्तिक 100
▁भेजी 100
वाहा 100
▁इसलिये 100
▁अनुपात 100
▁गर 100
▁बजा 100
▁त्योह 100
ंगत 100
▁जमी 100
▁अग्रणी 100
▁67 100
▁त्रि 100
▁बारी 100
▁समावेश 100
वायर 100
रियर 100
▁आदम 100
स्तर 100
▁भरपूर 100
▁फाउंडेशन 100
▁उपलब्धता 100
ाज्य 100
▁टेल 100
▁पुलिसकर्मी 100
▁विशेषता 100
▁साहिब 100
▁इजा 100
▁सतह 100
▁वाक़ 100
▁हॉकी 100
▁खेली 100
▁अवॉर्ड 100
परी 100
▁आनन्द 100
ity 100
जीवन 100
▁मौजूदगी 100
,500 100
िमान 100
▁पॉजिटिव 100
▁प्रदर्शनी 100
▁राज्यमंत्री 100
▁दिमाग 100
▁स्टार्ट 100
▁जिसको 100
▁पढ़े 100
▁सत् 100
क्टिविटी 100
्रीट 100
साधारण 100
▁सूर 100
▁पोस्टर 100
ेंच 100
▁नवीकरण 100
▁मसीहियों 100
लत 100
▁खनन 100
▁ख्याल 100
बैक 100
▁मैक्स 100
▁हेली 100
▁उपग्रह 100
▁सौदे 100
▁शून्य 100
▁अत्यन्त 100
▁किंतु 100
▁समृद्धि 100
▁प्राप्ति 100
नीत 100
▁बचे 100
▁दोगु 100
▁सीखने 100
▁रॉयल 100
▁पठ 100
▁दिनेश 100
ग्रा 100
▁नाकाम 100
.... 100
भाई 100
चंद्र 100
▁करु 100
टेक 100
ालैंड 100
▁बलिदान 100
www 100
▁पढ़ा 100
▁५ 100
ट् 100
कॉ 100
बंद 100
शोधन 100
▁डब्ल्यू 100
▁टेक्नोलॉजी 100
▁अरोड़ा 100
आउट 100
▁2022 100
▁अपनाने 100
ड़प 100
▁इंकार 100
▁मॉड 100
▁मंजूर 100
▁ठिक 100
▁प्रताप 100
दिव 100
▁छू 100
भाषित 100
▁फेंक 100
▁इक् 100
निर्भर 100
▁पैग़म्बर 100
ालियों 100
बलों 100
▁सपना 100
नाइटेड 100
▁मायावती 100
ल्ला 100
▁कब्जा 100
▁राणा 100
▁उद्धव 100
बॉ 100
▁समन्वय 100
▁खि 100
स्पति 100
▁इत्या 100
▁गारंटी 100
▁डीजी 100
ार्टर 100
▁जोड़े 100
▁यूसु 100
सीएस 100
▁कठिना 100
▁जाधव 100
▁ब्रा 100
▁मानकों 100
सीएम 100
▁ढूं 100
▁सम्‍मेलन 100
▁तस 100
▁फेड 100
▁Realme 100
▁अमल 100
▁58 100
▁लाइव 100
▁ट्रॉ 100
टित 100
तीत 100
▁समापन 100
▁दीर्घ 100
▁प्रकाशन 100
▁संग्रहालय 100
▁नर्स 100
▁करवाने 100
▁चिट 100
▁जख 100
▁आचार 100
▁सांप 100
▁नवाज 100
▁रसायन 100
▁अरुणाचल 100
▁गवाही 100
▁स्पेन 100
िनेंट 100
▁मामूली 100
ष्‍ट्र 100
▁रिटर्न 100
▁स्वदेश 100
पुल 100
▁लोह 100
▁स्नैप 100
स्‍प 100
▁देखता 100
राय 100
▁नाते 100
ैक्ट 100
%), 100
▁85 100
▁सुदृ 100
▁सिम 100
▁डायरेक्ट 100
ख्तर 100
▁कार्म 100
ंथी 100
▁74 100
स्थापित 100
▁अफसर 100
▁ब्लू 100
▁डेब्यू 100
▁62 100
▁कच 100
▁ग्लोबल 100
). 100
▁भावनाओं 100
70 100
▁तुझे 100
▁पंजीकृत 100
वने 100
▁फड 100
▁पैन 100
▁निरीक्षण 100
▁उद्देश्‍य 100
▁रोकथाम 100
दर्शिता 100
▁समुदायों 100
▁सज 100
▁सिक्किम 100
▁ड्यू 100
▁गणना 100
बर्ट 100
भु 100
रज़ 100
▁ऑफिशियल 100
▁नाबालिग 100
ैव 100
▁मज़बूत 100
▁लाह 100
▁परियोजनाएं 100
▁खबरें 100
जिस 100
▁अल्पसंख्यक 100
▁ओम 100
▁मुर 100
▁एसबीआई 100
▁खन 100
▁बनाता 100
्मण 100
,‘ 100
▁63 100
▁समाप 100
▁जबरदस्त 100
▁शैक्षिक 100
▁बुराई 100
▁एकड़ 100
▁इर 100
▁एनआरसी 100
▁एव 100
कैया 100
▁रखती 100
▁निकलने 100
ान् 100
▁पन 100
▁बुक 100
▁हमसे 100
▁बहादुर 100
▁स्टूडेंट्स 100
▁ग्रामीणों 100
▁कं 100
फ्रा 100
▁राइ 100
▁माप 100
शास्त्र 100
ंगों 100
वाने 100
▁मांगा 100
छाड़ 100
र्इ 100
मीर 100
▁स्टैंड 100
▁हिंदुस्तान 100
बन 100
▁सीआरपीएफ 100
ॉयड 100
▁गेंदों 100
▁इच्छुक 100
▁अधिकारिता 100
▁दुर 100
▁कृष्णा 100
कांग्रेस 100
▁अर्पित 100
▁120 100
ha 100
▁Result 100
▁कहेंगे 100
▁तलाक 100
▁अवधार 100
क्‍ट 100
▁अजी 100
▁अख्तर 100
जनों 100
▁स्टो 100
▁युवकों 100
▁साक्षात्कार 100
▁रूट 100
▁संल 100
▁मतदाता 100
ित्रा 100
▁कैंप 100
▁नकदी 100
▁इंदौर 100
एसडी 100
▁लिहाज 100
▁सेटअप 100
▁250 100
▁इत्यादि 100
▁इलेक्ट्रॉनिक 100
▁भंडारण 100
पेक्ष 100
▁2006 100
▁अनुप्र 100
▁जायेगी 100
▁टेलीविजन 100
यद 100
वाट 100
म्‍बर 100
▁न्यूयॉर्क 100
▁प्रक्रियाओं 100
▁स्थिरता 100
▁पर्यटकों 100
▁प्रशांत 100
▁कस 100
▁साक्षियों 100
▁हॉल 100
▁महाराज 100
▁गोग 100
"""" 100
▁स्टेशनों 100
्‍यम 100
च्‍च 100
▁कैश 100
▁इब्र 100
▁भेदभाव 100
ंचित 100
वादियों 100
बड़ी 100
▁कनेक्टिविटी 100
▁घु 100
वाया 100
भारतीय 100
▁अंतर्राष्‍ट्रीय 100
यार 100
▁शर्त 100
▁उत्‍तर 100
भूषण 100
▁विमानन 100
त्ते 100
वाना 100
▁अंदाज 100
न्‍ना 100
▁सीएस 100
ालिम 100
▁वंश 100
शेष 100
▁जरूरतों 100
धिकारियों 100
▁प्रसंस्करण 100
▁लाइट 100
▁फडणवीस 100
▁हसन 100
अब 100
▁पश्चात् 100
▁2020: 100
▁निवार 100
क्रमण 100
▁स्पी 100
▁मजा 100
▁मास्क 100
▁लापता 100
्यिकी 100
▁मछली 100
▁शवों 100
▁मेहता 100
▁पहुंचकर 100
▁सोनी 100
▁नाटक 100
▁बुरे 100
▁आडवाणी 100
▁नकारात्मक 100
▁चौथा 100
▁विट 100
तावास 100
▁ख़ुद 100
▁डेवल 100
▁पेशेवर 100
्‍मी 100
▁आयर 100
▁वितरित 100
▁अस्तित्व 100
▁ईश 100
ंबा 100
ह्न 100
▁टेनिस 100
▁हथियारों 100
▁लगते 100
ैम 100
▁मनोरंजन 100
▁आश्च 100
▁मेघालय 100
▁सलामी 100
▁लाना 100
▁विद्या 100
ंतिम 100
ाजील 100
▁कुम 100
▁मजदूरों 100
▁हितधारकों 100
-5 100
▁अधिकरण 100
नैतिक 100
▁बाग़ 100
▁कप्त 100
न्ध्र 100
रार 100
▁डेन 100
संरचना 100
▁देवगन 100
▁पाइ 100
डीओ 100
▁कांस 100
▁रखेंगे 100
आन 100
शीलता 100
▁निर्माताओं 100
▁जीती 100
▁पदार्थों 100
▁मैनेज 100
▁छोड़ा 100
15 100
CC 100
▁चावल 100
▁2016-17 100
44. 100
▁ऑपरे 100
▁फसलों 100
संगत 100
▁कलीसिया 100
▁सदस्यता 100
ुदाय 100
▁बहाल 100
▁परस्पर 100
▁उदार 100
▁जलाशयों 100
ड्स 100
▁दिखाता 100
▁1000 100
▁2018-19 100
ओसी 100
डिया 100
▁बनकर 100
▁तीर्थ 100
▁आईडी 100
ैगन 100
▁लगेगा 100
▁तार 100
▁दिनांक 100
▁जनजातीय 100
▁उपयोगी 100
▁हवाला 100
▁लल 100
▁#44. 100
▁साधन 100
▁मजिस्ट्रेट 100
बहुत 100
▁59 100
▁57 100
▁दिलों 100
▁दलील 100
▁पांड 100
▁दूतावास 100
चुअल 100
▁क्यू 100
▁अपराधों 100
▁उतना 100
समय 100
ासा 100
▁एनडीए 100
जीबी 100
▁फुल 100
▁तोमर 100
▁सुर् 100
▁सिद्धांतों 100
▁मसले 100
▁सफलतापूर्वक 100
लेम 100
▁सचिवालय 100
▁दुर्भाग्य 100
▁शांत 100
पद 100
▁साक्ष्य 100
किट 100
▁हराकर 100
▁आन्ध्र 100
ेय 100
▁दवाओं 100
रेशन 100
▁बेचने 100
▁स्मारक 100
▁संवाददाता 100
▁मेक 100
▁कनेक्शन 100
▁क़ुर 100
▁मानी 100
साइकिल 100
ec 100
▁बैंड 100
▁आर्मी 100
पुरी 100
▁प्रच 100
ज़े 100
▁रिहा 100
ist 100
▁मच 100
▁इजाफा 100
▁फुटबॉल 100
बानी 100
▁चाय 100
▁जेम्स 100
▁प्लास्टिक 100
▁आश्चर्य 100
वाज 100
ामिन 100
▁हॉस्प 100
▁कू 100
▁चतु 100
▁कन्न 100
▁यहीं 100
ोरेंस 100
▁दर्शाता 100
▁भूट 100
▁रेख 100
▁जादू 100
▁73 100
▁डिवा 100
थल 100
▁जैक 100
▁जिनसे 100
▁धारणा 100
▁मल् 100
बूल 100
▁लॉग 100
▁आईसीआई 100
▁पुलिसकर्मियों 100
▁खातों 100
▁तलाशी 100
▁पुरूष 100
र्जन 100
▁हिस्‍ 100
▁चिन्ह 100
▁स्पीड 100
op 100
▁टाइम्स 100
▁आवेद 100
▁अलर्ट 100
वनेश्वर 100
▁अश्विन 100
▁प्रत्‍ 100
▁दिव्या 100
▁नृत्य 100
▁न्यायाधीशों 100
▁लोगो 100
ow 100
▁हेल 100
▁2005 100
▁रूसी 100
स्वतंत्र 100
पह 100
▁वर 100
▁शेर 100
▁त्याग 100
▁अर्थात 100
ोजक 100
▁लगाना 100
▁विनोद 100
▁% 100
▁स्पोर्ट 100
आईएस 100
▁इलेक्ट्रिक 100
▁68 100
▁कानपुर 100
▁मतदाताओं 100
▁देशवासियों 100
▁हुड्डा 100
▁ट्रैक 100
्मान 100
▁वेंकैया 100
फ़ा 100
▁व्‍यापार 100
इए 100
▁शांतिपूर्ण 100
▁रहमान 100
▁पेपर 100
▁बीमारियों 100
▁चौथी 100
पीएल 100
च्छा 100
▁अभ्य 100
▁ज़ालिम 100
▁कथा 100
क्क 100
▁संजीव 100
▁विवादित 100
▁जूनियर 100
1) 100
▁मीटिंग 100
▁सई 100
▁स्टोर 100
▁सब्सिडी 100
▁प्रीमियर 100
ess 100
कर्मियों 100
▁रेस 100
स्तरीय 100
▁मिजोरम 100
▁अकबर 100
▁एमएसएमई 100
▁रुक 100
▁वाशिंगटन 100
▁धु 100
मान्य 100
▁साइंस 100
▁असं 100
▁वर्क 100
▁ग्रो 100
▁सीमाओं 100
▁परीक्षाओं 100
िर् 100
क्‍ता 100
▁चैल 100
▁बृह 100
▁यहूदी 100
-15 100
कांक्षा 100
चरण 100
▁माफ 100
▁सीरिया 100
▁त्व 100
▁दुश्म 100
बस 100
▁खुली 100
▁लांच 100
▁एससी 100
▁सुधारों 100
▁डांस 100
▁मानता 100
▁दुआ 100
बाह 100
▁सहकारी 100
▁धातु 100
▁शमी 100
▁चुप 100
▁अमृतसर 100
▁(5 100
▁ऐंड 100
▁झड़प 100
▁> 100
चंद 100
▁डेम 100
▁दशकों 100
▁नहर 100
तू 100
▁गणतंत्र 100
▁अनुमानित 100
सरण 100
▁ब्राजील 100
▁सच्चा 100
▁युक्त 100
▁खाड़ी 100
▁मायने 100
▁राधा 100
▁उर्वरक 100
क्सीन 100
▁नतीजा 100
▁पड़ती 100
▁हरे 100
▁बताता 100
▁मनाने 100
▁बचपन 100
▁ख़िलाफ़ 100
▁श्रमिकों 100
▁आईसीआईसीआई 100
दायिक 100
▁उत्सव 100
▁प्रतिमा 100
▁ऊँ 100
▁डिप्टी 100
▁स्थलों 100
गेट 100
टके 100
▁किस्म 100
▁मतभ 100
▁कदमों 100
▁हैरान 100
स्ड 100
ूर्ण 100
लीन 100
▁आपसे 100
▁काफ़ी 100
▁विलय 100
▁शक्‍ति 100
थन 100
▁मार्ट 100
▁सुनकर 100
▁अधिसूचित 100
▁हेल्थ 100
टरों 100
▁सुशील 100
▁चोर 100
▁रूपए 100
▁यूसुफ 100
गिज़ 100
▁किरण 100
▁ब्रह्म 100
▁परिभाषित 100
▁बरसा 100
▁मुश 100
▁कम्य 100
दुनिया 100
▁भुवनेश्वर 100
डमिंटन 100
▁धाराओं 100
▁उछ 100
म्बई 100
सुर 100
▁बेरोज 100
▁उपासना 100
ख़् 100
▁नड्डा 100
-21 100
देवी 100
▁लाई 100
▁खट्टर 100
▁त्रुटि 100
▁मारुति 100
▁फरी 100
्‍च 100
▁युवती 100
गणना 100
पीपी 100
▁कांस्य 100
▁सूरत 100
▁फास्ट 100
▁साधा 100
▁\\ 100
▁शिश 100
चेरी 100
▁झेल 100
▁खनिज 100
▁परिणामों 100
): 100
▁ईसाई 100
ुल्म 100
▁गहन 100
▁सदा 100
पिंग 100
▁तेरी 100
सिम 100
िवारिक 100
▁अपहरण 100
▁कक्ष 100
▁संतु 100
वधि 100
▁विभाजित 100
▁दिश 100
▁लौटा 100
मुच 100
▁कालेज 100
▁दिलचस्पी 100
पीठ 100
▁केन 100
▁अंतरिम 100
▁मुकदम 100
वेस्ट 100
▁रोशन 100
ौदा 100
क्रामक 100
▁प्रिंस 100
▁नागपुर 100
▁शीर्षक 100
▁चिंतित 100
▁योजनाएं 100
25 100
▁मासिक 100
▁बढ़ाना 100
ma 100
▁मानवीय 100
▁अगला 100
▁फैलाने 100
पाई 100
▁लौटने 100
▁रोजाना 100
प्रकाश 100
▁पेयजल 100
▁लेफ्टिनेंट 100
▁सैकड़ों 100
▁श्रद्धाल 100
▁शौचालय 100
▁सत्तार 100
▁उपभोक्ताओं 100
रखा 100
▁बताए 100
विटी 100
िनल 100
▁जूझ 100
▁लड़ाकू 100
▁पाँच 100
▁99 100
▁प्रतिद्व 100
भावना 100
राशि 100
काय 100
▁नकद 100
▁तालि 100
▁राजनैतिक 100
▁प्रस्‍ 100
▁समित 100
ऊंगा 100
▁चपेट 100
▁नमाज़ 100
आरआई 100
▁मारपीट 100
मंत्रियों 100
▁अनुप्रयोग 100
बेल 100
▁जद 100
▁आदर 100
▁साम्र 100
▁उम्‍मी 100
▁विचारधारा 100
▁बाबत 100
▁स्कूली 100
▁घटनाएं 100
योग्य 100
▁पारिवारिक 100
▁एबी 100
▁स्नातक 100
▁बहर 100
▁सुर्ख 100
av 100
शनी 100
▁आभार 100
ड्रैगन 100
▁गिनती 100
▁सुरक्षाबलों 100
▁ध्‍ 100
▁एजें 100
ुदायिक 100
▁पकड़ने 100
▁St 100
▁एयरटेल 100
▁एके 100
मोरी 100
▁चैंपियनशिप 100
▁बेंच 100
डो 100
▁Y 100
▁लिखने 100
▁साइबर 100
फार्म 100
▁शिरकत 100
▁हानि 100
तौर 100
▁जड़ 100
▁कहाँ 100
▁सचमुच 100
▁दिलचस्प 100
▁निष्पक्ष 100
Ah 100
▁गैंग 100
कल्पिक 100
▁पंजाबी 100
▁193 100
▁रवै 100
▁अनुसरण 100
ानिर् 100
▁प्रतिबंधित 100
एजेंसी 100
▁६ 100
ोज़ 100
▁फर्क 100
ण् 100
ियर्स 100
ुमराह 100
▁अधिवक्ता 100
महिम 100
▁मोटरसाइकिल 100
▁पड़ोस 100
▁गोगोई 100
ॉप्टर 100
▁रेश 100
▁गेहूं 100
▁वैकल्पिक 100
▁प्राथम 100
▁नोटबंदी 100
▁जहन्नुम 100
िफिकेशन 100
▁पद्धति 100
वराज 100
▁BJP 100
▁बिंदु 100
▁स्पिनर 100
▁मिशेल 100
▁अवधारणा 100
▁पकड़े 100
▁चक्रवा 100
▁चिप 100
प्पी 100
▁गतिविधि 100
▁रिलीज़ 100
▁जितेंद्र 100
▁क्ली 100
ालों 100
जुए 100
्रेन 100
▁पद्म 100
▁सकल 100
▁मिस्र 100
▁अनुराग 100
▁लगती 100
▁अभियुक्त 100
किसी 100
▁खन्ना 100
क्व 100
▁हिट 100
▁महोदय 100
मेक 100
स्पे 100
▁अनुपालन 100
▁लव 100
ंगाई 100
कक्ष 100
▁प्रशास 100
▁69 100
जाने 100
lus 100
▁दुबई 100
इश 100
▁मास्टर 100
बूझ 100
यें 100
▁पकड़ा 100
▁बैडमिंटन 100
िवेश 100
▁वंचित 100
▁हताहत 100
▁घड़ी 100
▁जख्मी 100
▁इसरो 100
▁तत्वों 100
सारी 100
▁स्टीव 100
▁सावधानी 100
्यौ 100
पुरम 100
▁रुपया 100
▁तिल 100
▁संवेदना 100
लोगों 100
▁ड्रग 100
▁खेलना 100
▁उम्‍मीद 100
▁सामुदायिक 100
▁ट्रेनिंग 100
▁ग्री 100
▁पीजी 100
▁कारा 100
▁मानदंड 100
▁टैग 100
▁लिंग 100
▁यूएस 100
मित्व 100
▁दस्तावेजों 100
िंदर 100
▁करनेवालों 100
▁झूठे 100
▁सांख 100
▁गोद 100
▁e 100
▁वफा 100
न्वित 100
▁निचले 100
सीम 100
टरीना 100
▁अमरिंदर 100
▁आवंटित 100
लिटी 100
▁सौंपी 100
बै 100
▁ब्रेक 100
▁सहारा 100
ुश 100
म्मत 100
▁दयाल 100
▁दलित 100
ष्कार 100
क्टेयर 100
▁प्राथमिकी 100
▁अपनाया 100
▁विक्रम 100
रस 100
एसी 100
एक्स 100
मू 100
ईसी 100
▁भूटान 100
▁शुक्ला 100
▁अफवाह 100
▁अवार्ड 100
▁असाधारण 100
▁हॉस्पिटल 100
▁सेवन 100
ेदी 100
रखाव 100
SC 100
्लाई 100
थान 100
▁दिलाने 100
्रय 100
▁अफ़ 100
▁शक़ 100
▁निभाने 100
▁गायक 100
▁मानवता 100
गाव 100
▁वाकई 100
ंसक 100
▁डिस्क 100
पुरा 100
▁उन्होने 100
▁प्रशिक्षित 100
रेखा 100
▁मृ 100
डेजा 100
▁रुचि 100
लांग 100
▁ऑफिसर 100
सेव 100
▁ऋषि 100
पोषण 100
▁दुः 100
▁रेटिंग 100
▁वार्ड 100
येक 100
मेट 100
▁उदय 100
▁फायरिंग 100
▁सफेद 100
▁संतुलन 100
▁अभाव 100
▁बहरहाल 100
▁दिशानिर् 100
▁ऑस्ट्रेलियाई 100
▁वाद 100
▁उच्‍च 100
▁10,000 100
▁Gal 100
-10 100
धीरे 100
▁पीछा 100
दाद 100
▁फर्म 100
▁कप्तानी 100
▁चरित्र 100
िरो 100
▁महामहिम 100
▁पृष्ठभूमि 100
ांट 100
▁125 100
लिस्ट 100
▁आवाज़ 100
▁सिंधु 100
▁पाटिल 100
▁बिहारी 100
शिष्ट 100
▁लेती 100
▁उभ 100
स्‍व 100
▁गुप्त 100
▁राउ 100
ामाबाद 100
io 100
याय 100
▁सदैव 100
किया 100
▁ट्रॉफी 100
▁विवादों 100
▁दिखाते 100
तिन 100
बाई 100
▁कहे 100
▁सहज 100
▁रोगी 100
▁सेकेंड 100
एनएल 100
▁हिम्म 100
हू 100
शासित 100
▁अवसंरचना 100
▁चैलेंज 100
्वित 100
▁एश 100
▁सिरे 100
ानु 100
▁खेलते 100
▁एल् 100
▁मील 100
▁कैटरीना 100
▁सामर्थ 100
▁दीजिए 100
▁प्रसन्नता 100
▁जानना 100
िश्च 100
िकियों 100
axy 100
▁नु 100
▁प्रतीत 100
बराहीम 100
िणी 100
सीमा 100
▁मंग 100
▁फूड 100
▁मूर्ति 100
ोगी 100
ूढ़ 100
▁बगैर 100
जैसे 100
▁महबू 100
▁फैक्ट 100
डीआरएफ 100
▁गड़ 100
▁संस्कार 100
▁विय 100
▁सीएए 100
▁मल्टी 100
▁गुमराह 100
ऩे 100
▁क्लास 100
▁शर्तों 100
▁स्नैपड्रैगन 100
काई 100
▁रिफ 100
▁ज्व 100
▁हीरो 100
▁बन्दों 100
▁लक 100
नहीं 100
▁प्रतिभाग 100
▁मिलना 100
क्रिप 100
▁रेंज 100
▁मददगार 100
लै 100
▁परिश 100
▁महासागर 100
▁झील 100
▁वैसा 100
स्टेबल 100
▁कड़े 100
पीजी 100
▁आन्ध्रप्रदेश 100
▁कच्‍ 100
▁प्रवि 100
▁हैंड 100
▁आज़ा 100
▁बख्श 100
आरएस 100
फ़ार 100
▁प्रबंधक 100
▁जोश 100
▁पुरस्‍ 100
▁मनुष्यों 100
▁दुखद 100
▁अर्जित 100
श्मी 100
▁दक्षता 100
▁नियामक 100
पमेंट 100
▁मंडी 100
▁प्रोड्यूस 100
▁ठे 100
द्धा 100
होत्रा 100
▁हिम्मत 100
▁धर् 100
▁परिदृ 100
स्टन 100
▁सद् 100
▁पासवान 100
▁प्रणालियों 100
▁ख़ान 100
▁प्याज 100
▁छापेम 100
▁समर्थक 100
▁मोर्चा 100
▁स्वामित्व 100
▁वर्गी 100
▁ईमानदार 100
▁दस्त 100
▁म्या 100
▁अमीर 100
▁पैट 100
▁सुपरस्टार 100
िमय 100
ड्डी 100
▁समझता 100
▁Galaxy 100
2) 100
▁करोड़ों 100
▁71 100
लिसी 100
▁गले 100
▁हाइड 100
▁अस्थायी 100
▁भविष्यवाणी 100
मार्क 100
▁रेज 100
▁अभिभाव 100
औन 100
▁th 100
▁मेर 100
▁गेंदबाजों 100
▁पारदर्शिता 100
रेख 100
▁उन्नत 100
▁पहाड़ी 100
▁खुदरा 100
▁पत 100
▁उग्र 100
▁आगरा 100
▁ध्‍यान 100
ote 100
▁2004 100
ड़ेकर 100
▁नसीहत 100
▁नाश 100
▁ईस्ट 100
▁77 100
ल्लाह 100
ac 100
रायल 100
वहार 100
▁बुमराह 100
ेटर 100
गारी 100
▁दीं 100
▁जुटा 100
▁देखेंगे 100
▁छापेमारी 100
-6 100
इयां 100
▁महोत्सव 100
एसएल 100
▁गंग 100
▁इसीलिए 100
मौ 100
▁बढ़िया 100
नामा 100
▁नक्स 100
▁त्वर 100
▁तकलीफ 100
▁सच्ची 100
▁आवश्यकताओं 100
▁जडेजा 100
शेखर 100
▁फुटेज 100
▁उत्साहित 100
▁ज़ोर 100
आज 100
मंड 100
hone 100
▁प्राण 100
▁कॉरपोरेट 100
इज 100
्द 100
▁प्रस्‍ताव 100
दीव 100
▁गत 100
▁क्रांति 100
▁ट्रम्प 100
▁अपराधी 100
विचार 100
▁सुदृढ़ 100
व्‍य 100
▁गिरने 100
ग्व 100
▁बाँ 100
▁एम्स 100
▁मुर् 100
▁यूह 100
▁अनाज 100
90 100
▁आयुष्मान 100
▁पंडित 100
▁कर्तव्य 100
लाद 100
▁साहस 100
▁हंगामा 100
▁कार्यरत 100
▁चोटें 100
▁मुजफ् 100
▁रजनी 100
▁घटक 100
▁वसू 100
▁चढ़ा 100
याल 100
▁भली 100
▁सईद 100
भाविक 100
तया 100
▁त्वचा 100
टेन 100
▁जावड़ेकर 100
▁चलती 100
▁धनराशि 100
़ी 100
ित्त 100
▁कोर्इ 100
▁स्तरों 100
▁संवर्धन 100
▁नवीकरणीय 100
▁निकला 100
▁विश्वसनीय 100
▁तथापि 100
▁दीक्षित 100
▁नदियों 100
तनाम 100
▁फोर्स 100
▁मज़ा 100
▁न्‍या 100
▁जितनी 100
▁शुक्रिया 100
▁हेक्टेयर 100
▁रेखांकित 100
▁जायेंगे 100
▁वाम 100
▁नीरव 100
विंग 100
लेजों 100
▁जातियों 100
▁शक्तिशाली 100
दूरी 100
ोत्‍ 100
▁समस्त 100
▁76 100
ख़्श 100
▁लक्ष्मी 100
ड़क 100
▁दुष्ट 100
▁नवम्बर 100
▁ग्ल 100
कर्मी 100
ुकेशन 100
▁मातृ 100
ियाना 100
▁विरू 100
▁सनी 100
▁गाज 100
▁श्रेष्ठ 100
पों 100
क्यों 100
▁अन्तर 100
डिय 100
कार्य 100
▁उपन्यास 100
▁सीधी 100
दायक 100
▁जर् 100
▁यानि 100
▁उठाना 100
▁आक्रमण 100
▁उपमुख्यमंत्री 100
▁निहित 100
▁इबराहीम 100
▁चलो 100
ॉग 100
▁उपज 100
▁जंगल 100
▁हरगिज़ 100
▁कूट 100
▁प्रभावशाली 100
▁कन 100
▁क़यामत 100
्योर 100
ST 100
▁जानवरों 100
ोंक 100
▁78 100
▁पीडि़ 100
▁डाक्टर 100
▁दिवंगत 100
ok 100
एमटी 100
▁फ्रेंच 100
बिया 100
▁लेंस 100
नाल 100
ोश 100
▁अपराधियों 100
▁उक 100
ान्त 100
▁खाल 100
▁ऑयल 100
▁नारेबाजी 100
▁अस्वी 100
▁आरोपित 100
▁कार्बन 100
▁स्थानांतरित 100
▁अजीत 100
वास्तव 100
▁डिट 100
▁मध्यस्थ 100
▁छेड़छाड़ 100
न्नी 100
▁दिवाली 100
▁बंट 100
▁95 100
▁गुज़र 100
▁शत्रु 100
▁विजेताओं 100
▁सब्ज 100
▁समकक्ष 100
▁गतिविधियां 100
▁नामों 100
▁l 100
ैशी 100
▁त्वरित 100
▁पैरा 100
▁पीटीआई 100
▁कार्मिक 100
▁तस्वीरों 100
-11 100
▁थर 100
▁रिव 100
▁सेनाओं 100
▁मुसी 100
▁पहलों 100
▁बिलियन 100
एफआई 100
ड़िया 100
्‍ड 100
ोटा 100
▁आवश्‍यक 100
ive 100
▁समझना 100
।” 100
▁New 100
▁लिखकर 100
▁प्रकरण 100
▁लेगा 100
▁सुस 100
्टा 100
ख्यात 100
▁यूजर 100
▁दोस्ती 100
▁देनी 100
▁सांख्यिकी 100
▁पर्यटक 100
▁करनेवाला 100
▁नजदीक 100
ूतपूर्व 100
▁गोला 100
▁हन 100
▁सहयोगियों 100
गिल 100
▁वैक्सीन 100
▁धान 100
▁जीडीपी 100
▁तुममें 100
▁लाहौर 100
▁विदेशों 100
▁उपायुक्त 100
▁समर्थकों 100
21 100
▁लिप 100
▁2019-20 100
▁मस्ति 100
सां 100
▁एनएच 100
▁कैसी 100
पाठी 100
धारित 100
▁शोर 100
▁जीन 100
▁निप 100
▁हिल 100
▁दिलाया 100
▁घाटे 100
▁टाइगर 100
▁चीज़ों 100
▁फ़ैसला 100
▁1.5 100
▁बकाया 100
▁स्त्रियों 100
चलित 100
▁गहराई 100
▁वीं 100
▁गोरख 100
▁मारी 100
▁पिट 100
▁गुलाम 100
▁माध्‍यम 100
▁निकायों 100
▁कार्यवाह 100
विन 100
▁डिवाइस 100
▁कारों 100
▁माध्यमिक 100
▁इस्लामिक 100
ोजी 100
▁पंक 100
▁मल्होत्रा 100
लाब 100
▁बाध्य 100
ांतिक 100
▁मरे 100
▁स्पष्टीकरण 100
▁एले 100
▁विज्ञप्ति 100
▁मानो 100
▁परिवर्तित 100
▁गोप 100
▁हमलावर 100
गमन 100
▁कोर्स 100
द्रास 100
▁अंतर् 100
▁रजिस्ट्रेशन 100
मय 100
▁बताती 100
▁जॉर्ज 100
▁तैयारियों 100
▁इराक 100
▁समुचित 100
ौरन 100
क्ल 100
िगे 100
▁84 100
शिला 100
▁सलाम 100
▁म्यूज 100
▁इको 100
▁तेरा 100
▁जीने 100
▁प्रतिभागियों 100
▁रित 100
ंठ 100
क्य 100
इल 100
ज़ाम 100
वाहाटी 100
▁आख़िरत 100
बन्ध 100
ुपयोग 100
▁दमकल 100
▁साझी 100
▁दुनियाभर 100
▁माल्या 100
▁पीड़ितों 100
▁उर्फ 100
▁01 100
▁नान 100
▁सेवक 100
▁सितम्बर 100
दरी 100
▁प्रतिद्वंद 100
▁One 100
▁वैल 100
ल्ली 100
▁इस्तीफे 100
▁नाज 100
▁परे 100
▁किम 100
▁महंगाई 100
▁लाभार्थियों 100
जोत 100
▁इनसे 100
▁सम्‍ 100
पाक 100
▁खुर 100
▁बनता 100
▁आईपीसी 100
वीएम 100
स्ति 100
▁उजा 100
▁दिसम्बर 100
▁सत्तारूढ़ 100
▁गिरी 100
▁एजुकेशन 100
ाजनक 100
व्यापी 100
▁चरम 100
षित 100
ष्ठा 100
र्वेद 100
ोकस 100
▁साम्राज्य 100
▁रिश्‍ 100
ईई 100
▁नामित 100
▁बाधित 100
ासंगिक 100
▁यूनाइटेड 100
तरस 100
विश्वास 100
▁पीटर 100
्रिकर 100
▁इक्विटी 100
▁सिफारिशों 100
▁सैमसंग 100
▁उपरा 100
▁घाट 100
▁डाइ 100
▁अजित 100
▁ज़िम्मेदारी 100
▁दादा 100
ंमार 100
▁त्योहार 100
▁यरू 100
▁डरते 100
▁ज्ञात 100
▁डेमोक 100
▁चलाई 100
▁कॉलेजों 100
ोत्तम 100
▁ब्ला 100
▁एआई 100
▁प्रीमियम 100
▁पड़ताल 100
▁लक्ष्यों 100
तीन 100
▁प्रेष 100
▁दाख 100
▁निशाने 100
ज़ल 100
▁टूर 100
▁वेल 100
17 100
▁शोषण 100
जुर्ग 100
▁नाइट 100
▁विनिमय 100
पंच 100
▁तैनाती 100
▁आओ 100
▁पाउ 100
कोई 100
▁समस्याएं 100
▁हस्‍ता 100
▁अभिव्यक्ति 100
ढा 100
▁ऊंची 100
ड़ियां 100
▁वादे 100
श्मीरी 100
वाड़ी 100
▁मौलिक 100
्रेम 100
tt 100
▁मिड 100
▁गणेश 100
▁अल्ट 100
▁मार्शल 100
▁प्रतिकूल 100
▁बल्लेबाजों 100
oc 100
▁इंतजाम 100
▁संज्ञान 100
र्थी 100
▁टॉम 100
▁नियत 100
स्पेक्टर 100
▁कार्यालयों 100
रोन 100
▁मालदीव 100
▁आखिरकार 100
▁लापर 100
▁गर्मी 100
▁चिकित्सकों 100
', 100
प्रधानमंत्री 100
▁कमिश् 100
▁फट 100
indi 100
▁Z 100
▁आब 100
निर्देश 100
▁सूरज 100
बादत 100
▁मुफ् 100
▁मुनाफा 100
▁कुर् 100
धों 100
स्मा 100
▁क्‍या 100
▁आईसी 100
▁सतीश 100
षक 100
▁रिमांड 100
▁अपेक्षित 100
▁पासपोर्ट 100
▁पुत्रा 100
▁उत्पादक 100
काउंट 100
▁Note 100
अंग 100
▁मेट 100
▁उतरे 100
▁क्वा 100
र्फ़ 100
▁जरुर 100
▁टाइप 100
▁इलेवन 100
कांपा 100
▁आत्मनिर्भर 100
एचओ 100
▁इरादा 100
▁पोत 100
▁तालिबान 100
▁पंत 100
▁आकर्षक 100
▁कीं 100
▁पुष् 100
▁बोस 100
▁इंडियंस 100
▁तैयारियां 100
▁आरम्भ 100
-14 100
ड्रा 100
▁बढ़ेगी 100
पत् 100
▁पठान 100
▁सोनाक्षी 100
▁चू 100
▁कुंजी 100
▁पाकिस्‍तान 100
75 100
▁रास 100
▁डूब 100
▁कुमा 100
▁हेलीक 100
▁हस्तांतर 100
▁करवाई 100
▁क्‍यों 100
▁कच्‍चे 100
ब्स 100
▁हैः 100
तिथि 100
▁जैश 100
▁सोचते 100
▁चार्जिंग 100
▁मेजर 100
डीआई 100
▁स्पीकर 100
नियों 100
▁गर्ल 100
▁सर्वि 100
▁पुराना 100
▁इक 100
▁ट्रैफिक 100
▁अतिरिक्‍त 100
डीएफ 100
▁पतरस 100
▁कांफ्रेंस 100
्ही 100
▁कुरैशी 100
▁विटामिन 100
▁रूम 100
्‍ला 100
▁घात 100
▁प्रोटोक 100
▁टॉ 100
▁हिमालय 100
▁क्रिस्ट 100
णिक 100
▁पेरिस 100
▁ख् 100
रेस्ट 100
▁इस्लामाबाद 100
▁गुस्सा 100
▁पेमेंट 100
▁उपलब्धियों 100
ank 100
निया 100
शलेम 100
▁मराठी 100
विंदर 100
▁साफ़ 100
▁वस 100
▁राजने 100
बिन 100
▁लहर 100
▁(6 100
▁इनाम 100
▁एग्जाम 100
▁पॉलिसी 100
▁पाकर 100
▁प्रथा 100
▁मुजफ्फर 100
नाग 100
▁जोरदार 100
▁मद्रास 100
▁मित्रों 100
▁कहो 100
▁कमीशन 100
▁कर्मी 100
िंक 100
▁निको 100
नाह 100
▁सपने 100
जीविका 100
▁हिंसक 100
▁हालिया 100
फुल 100
▁विरूद्ध 100
▁सिस 100
▁चिह्न 100
▁मुलायम 100
▁आमद 100
▁पॉप 100
▁बिल्ड 100
▁चन्द्र 100
ep 100
▁गीता 100
▁बाला 100
▁भीषण 100
द्घ 100
▁लीक 100
फीति 100
▁माइकल 100
▁ड्यूटी 100
▁ईमेल 100
ोषित 100
▁क्रियान्वयन 100
▁ठहर 100
पूर्ति 100
▁जवाहरलाल 100
्की 100
▁मैस 100
निर 100
िंग्स 100
▁दुर्गा 100
▁संभावनाओं 100
न्थ 100
▁महबूबा 100
▁प्रयोजन 100
श्‍मीर 100
▁चलेगा 100
सोस 100
▁निवारण 100
▁रिक्त 100
▁विनय 100
▁इजरायल 100
▁अफ्रीकी 100
▁बुजुर्ग 100
▁हाफ 100
▁आलोक 100
▁रोहत 100
▁ज़ुल्म 100
िटीज 100
लक 100
फ़र 100
▁एंटर 100
▁गुवाहाटी 100
सूद 100
▁लीजिए 100
पैठ 100
ams 100
वाड़ 100
▁अम्ब 100
याह 100
न्‍व 100
▁पाता 100
▁हिंदुओं 100
▁x 100
▁ज़रुर 100
एगी 100
▁संभावनाएं 100
ओल 100
▁बपति 100
गोपाल 100
’, 100
▁नूह 100
▁आरक्षित 100
▁त्रिपाठी 100
mAh 100
टीए 100
▁अकसर 100
▁व्यापारिक 100
ूँगा 100
▁शिवा 100
▁वृक्ष 100
▁मुफ्ती 100
ेस्ट 100
▁नमूनों 100
▁मोटर्स 100
▁शॉर्ट 100
▁(201 100
्टे 100
करों 100
gov 100
▁कोट 100
ट्यूब 100
▁आइस 100
▁बैन 100
ंदीदा 100
▁कश्मीरी 100
▁बरी 100
▁फते 100
▁मुम्बई 100
पंथी 100
▁यरूशलेम 100
▁मैनेजमेंट 100
▁चिल 100
▁दुखी 100
्रु 100
ोदन 100
▁खिल 100
▁रच 100
गठ 100
ोली 100
अनु 100
ाइक 100
धियों 100
सभी 100
दिल्ली 100
फरत 100
▁हॉट 100
▁रखकर 100
▁परिभाषा 100
▁निवासियों 100
▁कार् 100
▁सीबीएसई 100
.30 100
▁सैनी 100
▁अकाली 100
▁बृहस्पति 100
▁शिकायतों 100
▁नाई 100
▁गणित 100
▁गोपनीय 100
पण 100
▁अधिकृत 100
▁चयनित 100
▁पहाड़ 100
▁आजम 100
▁इबादत 100
▁फिटनेस 100
▁जयशंकर 100
▁पसंदीदा 100
▁क़ा 100
▁उज्ज 100
▁निर्व 100
घात 100
▁बर्थ 100
▁सटी 100
▁शक्तियों 100
▁पर्रिकर 100
▁स्वीकृत 100
लीम 100
विदा 100
रीबन 100
▁ट्रां 100
▁स्रोतों 100
न्यू 100
14 100
▁रचनात्मक 100
क़ी 100
▁लीला 100
ौत 100
22 100
com 100
▁लड़े 100
ung 100
▁ताज 100
▁शंकर 100
▁जैविक 100
▁तन 100
▁डेमोक्रेट 100
▁डिफेंस 100
▁नीतिगत 100
▁आयुर्वेद 100
▁धमाके 100
▁हाज 100
▁एकदम 100
▁सीखा 100
▁थोड़े 100
▁घुसपैठ 100
▁मानसून 100
▁कंध 100
▁घटनाक्रम 100
▁सौदा 100
▁अंसारी 100
▁निभाते 100
▁83 100
▁आश्व 100
▁डालकर 100
▁निर्देशों 100
▁महल 100
▁मेजबानी 100
▁जानकर 100
▁जितने 100
▁मुकदमे 100
▁मधुम 100
▁कमिश्नर 100
▁केन्द्रों 100
▁नेक 100
▁मैनेजर 100
▁मंदिरों 100
qu 100
ET 100
▁इव 100
▁मुआवजा 100
▁मस्तिष्क 100
्टन 100
्‍तीय 100
▁सर्क 100
▁क्वार्टर 100
▁ऑप्शन 100
▁किस् 100
16 100
▁घेर 100
▁! 100
oss 100
ियाला 100
▁माबू 100
▁जापानी 100
▁आजीविका 100
▁सुब्र 100
▁खपत 100
▁संधि 100
▁फ्लाइट 100
▁उत्‍पाद 100
ूण 100
गाम 100
▁कारगर 100
▁जिंदा 100
▁चाहेंगे 100
▁आहार 100
स्टेट 100
▁बड़ 100
▁निपटान 100
र्नर 100
्तार 100
▁ढूंढ 100
▁न्यायपालिका 100
▁वां 100
▁डालें 100
▁आसार 100
मताओं 100
▁फोरम 100
▁डरा 100
▁एंड्रॉयड 100
जाही 100
▁www 100
▁भूमिकाओं 100
▁२० 100
▁लक्ष्‍य 100
अनंतिम 100
हानि 100
▁यूहन्‍ना 100
▁गहरे 100
▁शख़्श 100
▁आंश 100
▁उल्‍ 100
▁स्टेप 100
▁परिजन 100
▁सूचीबद्ध 100
ेब 100
▁मेगावाट 100
▁एजेंट 100
▁ऑड 100
संशोधन 100
फ्रेंड 100
▁प्रासंगिक 100
▁सांप्र 100
▁मत्ती 100
▁धीर 100
साइटी 100
▁पुरस्‍कार 100
ौज 100
ैर्य 100
▁वोटिंग 100
▁व्‍यवस्‍था 100
▁अनिश्चित 100
▁सबका 100
▁(2) 100
▁पाइप 100
शीट 100
चारा 100
▁जनजाति 100
▁प्रसारित 100
फरी 100
▁नफरत 100
▁खाद्या 100
▁राजनयिक 100
▁स्थितियों 100
▁वियतनाम 100
ुद्दीन 100
▁दूंगा 100
he 100
एप 100
़ों 100
कपा 100
▁नमक 100
▁साई 100
▁इरफान 100
तुम्ह 100
▁श्रॉफ 100
▁आवाजाही 100
ोव 100
▁खर 100
▁दुःख 100
▁तुमपर 100
▁पारि 100
सीएल 100
▁गाना 100
▁कमलनाथ 100
▁परवाह 100
▁इंडस्ट्रीज 100
▁राजेंद्र 100
▁पांचवें 100
:- 100
▁प्रतीक्षा 100
▁रविशंकर 100
▁and 100
नात्मक 100
▁दिक्कत 100
▁सकेगी 100
ौलत 100
▁उकसा 100
▁नींद 100
्रेज़ी 100
▁संस्‍थान 100
▁स्तंभ 100
▁चैम्पियनशिप 100
कांक्षी 100
▁घाटा 100
▁दोनो 100
तीकरण 100
▁तथ्यों 100
18 100
▁86 100
▁आंखों 100
▁प्रोटीन 100
▁संक्ष 100
अल्लाह 100
.25 100
▁परिदृश्य 100
म्बे 100
ार्स 100
▁कामयाबी 100
▁सोसाइटी 100
▁स्‍वच्‍छ 100
▁संभालने 100
▁चौके 100
▁डाली 100
▁मेहमान 100
▁कहला 100
शिव 100
ांची 100
क्यू 100
▁दुरुपयोग 100
दत्त 100
क्‍टर 100
दायी 100
▁जोध 100
▁लेनदेन 100
▁वित्‍तीय 100
वासन 100
▁256 100
▁आकांक्षा 100
▁निर्दलीय 100
▁बेंगलुरू 100
▁भगत 100
▁ऐश्व 100
▁डीएम 100
▁पार्ष 100
▁डिस्काउंट 100
ौली 100
▁थाई 100
ओयू 100
▁टेक 100
▁अनल 100
▁श्रेणियों 100
कांड 100
▁बैठकों 100
▁लाठी 100
▁केएल 100
▁कॉरपोरेशन 100
▁सांप्रदायिक 100
▁बॉल 100
▁काग 100
▁चहल 100
▁रिश्तों 100
▁फील्ड 100
▁घृ 100
▁मेले 100
स्टल 100
▁बुख 100
▁निर्वाचित 100
▁2002 100
▁आदिवासी 100
▁विनाश 100
▁प्रयुक्त 100
▁बोर 100
▁रोज़ी 100
▁यहूद 100
▁बढ़ाई 100
्ष् 100
क्षकों 100
▁k 100
▁आशय 100
▁दफ् 100
थित 100
भवती 100
▁हेम 100
▁कैल 100
▁ख्वाह 100
▁व्हाट्स 100
▁निशानियाँ 100
▁विंडो 100
▁मुरली 100
▁धैर्य 100
▁प्रदीप 100
▁बढ़ेगा 100
सम्म 100
▁रिच 100
र्धी 100
▁आधा 100
▁टाल 100
.20 100
रिटी 100
जीएसटी 100
▁रत्न 100
▁राउत 100
▁अनुचित 100
▁याक 100
▁कुफ् 100
▁प्रशंसकों 100
▁अनुभ 100
डनी 100
▁बसों 100
िजय 100
▁आंशिक 100
▁डिज़ 100
ort 100
▁कुमाऊँ 100
▁सर्किट 100
क़यामत 100
▁(_ 100
ुद्ध 100
▁गुरुद 100
ast 100
डिंग 100
ंसू 100
▁पिक्सल 100
▁समर्पण 100
▁चाइ 100
▁फैशन 100
▁दर्दनाक 100
▁बाबू 100
▁1,000 100
ार्टमेंट 100
भारी 100
▁डालते 100
र्चर 100
▁आमदनी 100
▁काफ़िर 100
श्ती 100
▁गणमान्य 100
▁पुज 100
▁ब्रॉड 100
एनबी 100
जक 100
▁एयरलाइ 100
▁नतीजों 100
▁भंग 100
▁उद्देश्यों 100
ुआर 100
ाज़त 100
परि 100
▁गर्भवती 100
ग्विजय 100
ोगा 100
▁जिनको 100
रोधक 100
▁बजाज 100
▁भाग्य 100
▁पोस्टम 100
▁हंस 100
▁अतीत 100
▁क्रमशः 100
▁जोधपुर 100
▁मुक्ति 100
▁समाप्ति 100
▁हल्की 100
▁संध्या 100
जेडी 100
▁खोले 100
▁बालक 100
▁मुश्‍ 100
▁अन्यथा 100
▁गोरखपुर 100
▁r 100
हमारी 100
▁मिर्जा 100
ंसी 100
र्दू 100
्याम 100
ौस 100
ure 100
▁भव्य 100
▁सरकारें 100
24 100
ैंट 100
▁कि‍ 100
राउंड 100
▁ट्रेनें 100
िंगर 100
▁130 100
▁मैथ 100
वायरस 100
ॉर्टम 100
▁एसटी 100
▁प्रमाणपत्र 100
श्छ 100
▁Big 100
ालक 100
▁600 100
▁खोला 100
▁चट 100
▁डू 100
▁ख़र्च 100
▁क्षमताओं 100
▁फोटोग्रा 100
▁बृहस्पतिवार 100
नीतिक 100
▁रोमांच 100
▁स्वाभाविक 100
प्पल 100
▁क्रू 100
ps 100
्‍व 100
▁एमए 100
▁इन्कार 100
ff 100
▁दफ्तर 100
चौ 100
लाश 100
▁लापरवाही 100
स्पद 100
▁एटीएम 100
▁अनुग्रह 100
दूत 100
रिस 100
द्वीप 100
▁लौटे 100
▁कमज़ 100
▁मुख्‍यमंत्री 100
▁वस्त्र 100
वृ 100
▁१५ 100
▁अध्‍यक्षता 100
▁सीर 100
▁तालम 100
▁मोड़ 100
▁एंट्री 100
▁मुश्‍किल 100
▁दिलाई 100
▁सिर्फ़ 100
▁मुक़ाब 100
▁अनुमोदन 100
▁सेवानिवृत्त 100
▁एसएमएस 100
▁जताते 100
▁७ 100
रलैंड 100
▁पूर्ति 100
▁आश्वस्त 100
▁कन् 100
▁फेल 100
▁मांगों 100
▁तहरी 100
▁प्रोटोकॉल 100
िगेड 100
▁छीन 100
▁शशि 100
▁रजिस्टर 100
रेली 100
▁ईसा 100
▁तकरीबन 100
▁मुखिया 100
▁८ 100
ऐसे 100
▁शिल्प 100
▁भागने 100
ऊण् 100
्‍ल 100
ऊण्श्छ 100
ऊण्श्छ्ष् 100
▁जुटाने 100
▁बुकिंग 100
▁दिग्विजय 100
-8 100
▁आईएएस 100
▁हटाया 100
▁इसपर 100
वैसी 100
▁अलगाव 100
35 100
▁मंदी 100
▁छात्राओं 100
▁ऑट 100
▁विधिक 100
बाबू 100
▁महम 100
िकन 100
ाधिकार 100
▁क्षतिग्रस्त 100
▁Bo 100
▁र् 100
▁काली 100
▁औरतों 100
▁मतभेद 100
▁औऱ 100
▁जेस 100
▁युवराज 100
▁स्पर्धा 100
▁स्पोर्ट्स 100
-7 100
ब्‍ल 100
.10 100
▁कंस 100
▁अनुभवी 100
तिर 100
▁रांची 100
▁सीपी 100
▁वाड्रा 100
igh 100
▁मेडल 100
▁उठाते 100
▁उछाल 100
▁तालमेल 100
▁याकूब 100
▁उद्यमों 100
▁प्रमोशन 100
▁CO 100
▁छक्के 100
▁आधारशिला 100
im 100
उसने 100
▁पूज 100
▁उधार 100
▁अभिले 100
मुना 100
▁बहि 100
▁बिगड़ 100
▁Mi 100
ूंगी 100
्पा 100
▁नौज 100
▁आवासी 100
मोहम्मद 100
्यर 100
▁वस्‍ 100
▁Hindi 100
▁बदौलत 100
▁जसप्रीत 100
▁पोस्टमॉर्टम 100
हेज़ 100
▁क्वाली 100
▁पुनर्वास 100
स्केट 100
▁फौरन 100
▁ज़िक्र 100
▁श्रीदेवी 100
▁फिन 100
यरी 100
▁मुहम्मद 100
▁खड़ 100
▁संघीय 100
▁उद्यमियों 100
ob 100
माला 100
▁अटक 100
▁भावी 100
▁इंस्पेक्टर 100
टीसी 100
वृत्ति 100
▁ज़रा 100
सेफ 100
▁विकासशील 100
▁तेलुगू 100
ब्बास 100
▁चम्म 100
क़ा 100
▁फोकस 100
▁राउंड 100
▁पूर्वान 100
्रेसी 100
प्ले 100
▁तोड़ने 100
न्त्र 100
▁फू 100
▁गुरू 100
▁ब्रिक्स 100
IC 100
▁सतर्कता 100
▁अंडमान 100
▁सैल 100
▁असमर्थ 100
फ़ी 100
धियाना 100
▁एनआईए 100
▁अद् 100
िश्ता 100
▁कबूल 100
▁बारह 100
▁लेखन 100
▁जायजा 100
▁सुलझाने 100
ायें 100
▁बैच 100
्वल 100
▁टर्मिनल 100
▁चम्मच 100
▁नियोजन 100
▁रोशनी 100
▁मशी 100
▁पाना 100
▁बीएसएफ 100
▁विद्यमान 100
ानिक 100
▁चेहरा 100
▁ईमानदारी 100
िमा 100
▁तौबा 100
▁वास्त 100
▁परहेज़ 100
▁ग्ला 100
▁आधारभूत 100
▁समू 100
▁धीमी 100
▁छिप 100
ub 100
▁वरीय 100
▁ढा 100
▁शास्त्री 100
मोदी 100
▁गेल 100
▁गर्भ 100
▁पाएगा 100
▁आल 100
▁मेमोरी 100
%) 100
▁पीवी 100
▁ओवैसी 100
▁नवजोत 100
▁सर्च 100
▁ब्रिगेड 100
▁अजहर 100
▁रेलगा 100
▁मैक 100
▁जानकार 100
▁अनुशासन 100
▁शीत 100
▁स्‍वी 100
▁सुग 100
▁अब्बास 100
▁व्यापारी 100
▁सर्वर 100
▁कॉलिंग 100
▁उलट 100
▁कबीर 100
▁आचरण 100
केशन 100
▁आधे 100
िरल 100
▁मय 100
एनआई 100
▁बाई 100
▁बैठा 100
▁ग़रज़ 100
▁ष 100
▁बाह 100
▁कमाल 100
▁संरक्षक 100
▁मर् 100
▁उसपर 100
13 100
भद्र 100
▁डीआर 100
▁दमदार 100
▁मेहरबान 100
▁अमी 100
▁गायब 100
▁उन्हों 100
▁मिथ 100
▁कर्नल 100
▁पुनर्ग 100
▁समितियों 100
दिवसीय 100
रीना 100
▁पेन 100
रात्रि 100
▁स्मरण 100
▁हिन्दु 100
▁बचाया 100
▁यथ 100
▁कोटा 100
▁फिली 100
▁बदमाशों 100
▁आला 100
▁दिलीप 100
▁लड़कों 100
▁रिपब्लिक 100
▁मारकर 100
▁पारदर्शी 100
धाम 100
▁भक्त 100
ालिब 100
▁अर्जी 100
ोसिस 100
▁जावेद 100
दाश्त 100
▁बपतिस्मा 100
ine 100
▁मुक्के 100
▁संरक्षित 100
▁खेत 100
▁Ch 100
95 100
▁ऋष 100
▁पिच 100
▁सिंघ 100
िस्तान 100
ोटे 100
▁Boss 100
▁रखरखाव 100
▁2001 100
▁सोचने 100
▁ईमानदारों 100
▁खासतौर 100
▁समावेशी 100
विकेट 100
▁वसूली 100
▁पंकज 100
▁बताना 100
▁निवेशक 100
▁सुर्खियों 100
▁परेड 100
▁हॉलीवुड 100
दीन 100
▁एहसास 100
▁झटके 100
▁किफ 100
▁तुझ 100
ारण 100
▁तरल 100
▁चिट् 100
▁सुनते 100
▁चार्ट 100
▁ऐश्वर्या 100
ओएस 100
▁तलवार 100
िज्म 100
▁मेयर 100
डीजी 100
▁मात 100
▁उजागर 100
ॉल्ट 100
▁2003 100
▁नॉर्थ 100
शियल 100
ॉकि 100
▁संस्थागत 100
▁वेद 100
▁सोसाय 100
▁डुअल 100
▁सदस्‍य 100
▁वोटों 100
▁साहब 100
▁परिसंप 100
▁वकीलों 100
ीनी 100
▁गलिय 100
▁बौद्धिक 100
ख्ती 100
▁टिका 100
▁इस्लामी 100
▁बालों 100
▁एकत्रित 100
▁थरूर 100
▁नवीनतम 100
▁निभाया 100
▁म्यांमार 100
▁सर्विसेज 100
▁आवासीय 100
▁उड़ानों 100
न्नत 100
▁पर्वत 100
▁कृति 100
भि 100
▁सशक्तिकरण 100
▁राजकीय 100
▁लकड़ी 100
▁करतार 100
▁निकाले 100
शियों 100
▁साढ़े 100
कोष 100
▁छत 100
▁शिप 100
▁गुरुद्व 100
▁कमर 100
ल्फ 100
रिडोर 100
▁कार्यभार 100
▁ख़ूब 100
▁स्वाय 100
ोदिया 100
▁संक्षिप्त 100
23 100
▁१० 100
▁राठ 100
▁पंक्ति 100
▁ऊपरी 100
▁चिंताओं 100
▁अपलोड 100
क्रिय 100
▁जुल 100
▁एनजी 100
रक्षा 100
▁दुकानों 100
▁व्यावहार 100
▁सर्वोत्तम 100
वचन 100
▁सभाओं 100
▁ठिकाना 100
▁81 100
▁एमएस 100
▁दावों 100
▁चौकी 100
amsung 100
▁साइकिल 100
▁पीट 100
्वत 100
▁चूक 100
▁88 100
▁भोज 100
▁मीट्रिक 100
कानूनी 100
▁शिशु 100
▁हत्य 100
▁अन्वे 100
▁महिमा 100
▁उपबंधों 100
▁सुधारने 100
▁ईद 100
ियाबाद 100
▁iP 100
▁एंज 100
▁ऑक्सी 100
▁पाउडर 100
▁दुश्मन 100
▁पत्रों 100
▁190 100
▁प्रस्तुति 100
▁उद्यमिता 100
धीर 100
▁96 100
ेंटी 100
▁चिकित्सक 100
प्रश 100
▁मिश्रण 100
हाना 100
ान्य 100
▁सबक 100
▁शान्ति 100
स्तियों 100
उनके 100
▁जेपी 100
ऑफ 100
▁इस्‍तेमाल 100
▁भागवत 100
▁Bigg 100
निर्माण 100
▁अत्याचार 100
▁९ 100
▁होश 100
▁पर्दे 100
▁कम्पनी 100
▁औषधि 100
▁फायदेमंद 100
निय 100
▁भूख 100
▁5,000 100
▁कहकर 100
.50 100
▁61 100
▁हराम 100
लियों 100
▁सेले 100
स्ट्रक्चर 100
▁अभिया 100
देही 100
यूवी 100
▁वि‍ 100
▁सदर 100
▁देशमुख 100
▁विक्रे 100
बरद 100
▁क्रोध 100
▁रणदीप 100
बिज 100
बीएस 100
्‍याण 100
▁इन्होंने 100
▁मलया 100
जद 100
▁अनो 100
▁बनेगा 100
▁रनौत 100
▁प्रकोप 100
▁आवश्‍यकता 100
्नवी 100
▁यूए 100
▁गिराया 100
▁बर्बाद 100
▁मैत्री 100
▁लुधियाना 100
▁जेन 100
▁प्रौद्योगिकियों 100
▁असाम 100
ुरप्पा 100
▁रूपरेखा 100
ain 100
▁डिली 100
▁व्यावहारिक 100
▁आंसू 100
फ्ल 100
▁हज़ार 100
▁संतुष्ट 100
विड़ 100
▁तंग 100
मेरा 100
// 100
ष्णु 100
▁पहुँचे 100
▁धरना 100
▁सृजित 100
▁ज़िन्दगी 100
▁अभिप 100
▁गवर्न 100
▁यूपीए 100
▁हार्ड 100
माचार 100
पर्स 100
▁नैन 100
▁अकेला 100
▁मूलभूत 100
▁अनुसूची 100
ब्रा 100
▁कल्‍याण 100
▁व्यापारियों 100
▁लायक 100
▁स्ट्रीट 100
▁सैयद 100
▁सीमेंट 100
▁मेजबान 100
RC 100
सरकार 100
▁जानती 100
▁बटन 100
▁अग् 100
िकासी 100
▁आईएम 100
▁जश्न 100
▁तालिका 100
ud 100
▁अंधे 100
▁2015-16 100
▁छाया 100
▁जाह्नवी 100
▁दिव्यांग 100
▁प्लांट 100
ष्य 100
▁कहें 100
▁लाते 100
▁कमेंट 100
▁निभ 100
▁विंग 100
▁वास 100
ld 100
▁जोकि 100
▁डीएसपी 100
पड़ 100
▁कैथ 100
▁उत्सुक 100
end 100
र्वाद 100
▁चांद 100
▁स्त्र 100
▁144 100
▁Samsung 100
▁स्‍थापना 100
▁विनिर्दिष्ट 100
केंद्र 100
▁जमीनी 100
इसके 100
▁मुल् 100
▁तेलुगु 100
▁विद्रोह 100
ओपी 100
▁डील 100
▁मुसीबत 100
ब्‍ल्‍यू 100
.00 100
▁कपड़ा 100
भुत 100
AT 100
▁भीम 100
धुनिक 100
▁देओल 100
▁त्रिव 100
▁बस्ती 100
▁विडियो 100
च्छिक 100
?""" 100
▁अड्डा 100
▁50,000 100
▁उपयोगकर्ता 100
एब 100
्‍मू 100
▁पूछने 100
▁@ 100
▁टि 100
▁आंग 100
▁स्वदेशी 100
▁वरिष्‍ठ 100
पिछ 100
▁कारक 100
▁सचेत 100
▁भागीदार 100
▁चंद्रशेखर 100
▁सहन 100
▁इंद्र 100
▁निराशा 100
▁सोसायटी 100
▁कम्युन 100
▁रिश्वत 100
▁क़सम 100
▁इवेंट 100
▁एलईडी 100
एचडी 100
राही 100
▁छठे 100
▁फॉलो 100
प्रिंट 100
▁मिटा 100
त्‍या 100
घरों 100
शै 100
▁कदा 100
▁शरीक 100
▁मौतें 100
ध्याय 100
▁किफायती 100
▁बहुप 100
▁संगठित 100
लिन 100
ोपिक 100
▁अय्यर 100
▁3: 100
जिस्ट 100
▁चक्रवर्ती 100
स्सी 100
▁(7 100
▁रिए 100
▁उच्चाय 100
▁ग्रैंड 100
▁गंवा 100
डीटी 100
बम 100
▁शाही 100
▁An 100
▁महमूद 100
▁वफादार 100
▁सचिवों 100
▁800 100
▁बैल 100
▁प्रॉ 100
▁बन्द 100
▁आक्रामक 100
▁व्‍यक्‍त 100
▁प्रश् 100
▁हस्‍ताक्षर 100
85 100
शाही 100
▁हरकत 100
▁सिंगल 100
वैज्ञान 100
▁पर्यवे 100
▁टीकाकरण 100
▁दीपा 100
▁नजदीकी 100
▁दोहराया 100
▁सना 100
▁एनटी 100
if 100
।’ 100
बोर्ड 100
▁अद्य 100
▁लंबाई 100
▁मधु 100
िकीकरण 100
▁जानबूझ 100
▁यूनानी 100
▁प्रत्‍येक 100
▁खेर 100
▁उड्ड 100
▁स्‍थापित 100
▁झुठलाया 100
omi 100
्यून 100
▁सिसोदिया 100
▁टिम 100
▁टेलीफोन 100
▁पोख 100
▁एनएस 100
ान्वित 100
्बा 100
ंक्शन 100
▁निकासी 100
▁to 100
VID 100
▁मरियम 100
▁हकदार 100
▁राकांपा 100
▁२०० 100
▁संस्‍ 100
▁केदार 100
गोलिक 100
▁उर्दू 100
▁यूट्यूब 100
▁केश 100
▁दां 100
▁पीडीपी 100
▁बिगा 100
▁ईवीएम 100
▁आयतें 100
श्योरेंस 100
लल 100
▁ऑर्डर 100
▁निशानी 100
▁स्टोरी 100
देख 100
▁आक 100
▁2011-12 100
ंसाली 100
▁समझे 100
ुअल 100
▁91 100
▁उत्सर्जन 100
फोटो 100
अमेरिका 100
▁रिचर्ड 100
▁82 100
संबंध 100
▁काफिर 100
▁re 100
▁रॉबर्ट 100
▁किशन 100
▁रियो 100
▁निर्णायक 100
म्र 100
शुल्क 100
त्‍साह 100
राइल 100
त्‍मक 100
▁अल्ट्रा 100
▁लश् 100
▁मांगे 100
▁हैंडल 100
▁संभाला 100
▁चेल 100
▁अभिनव 100
▁आशीर्वाद 100
एसआर 100
▁रोहतक 100
ँग 100
क्ष्य 100
▁पच 100
सैनिक 100
▁मरम्मत 100
▁हालॉकि 100
▁कॉरिडोर 100
▁द्रविड़ 100
▁न्यूज़ 100
▁पूर्वानुमान 100
दिय 100
▁केन्द्रित 100
र्टी 100
▁तस्करी 100
▁सख्ती 100
▁वय 100
▁स्‍प 100
▁घोटाला 100
▁नौका 100
▁वाइस 100
▁मोम 100
:// 100
जुकी 100
▁चमक 100
िताओं 100
▁कृपा 100
▁डेवलपमेंट 100
ौफ 100
▁मीरा 100
मस 100
▁कपास 100
▁गुरुग्राम 100
▁टकराव 100
निष्ठ 100
▁डेरा 100
▁सौरव 100
▁क्षण 100
▁स्पा 100
▁ग़ालिब 100
▁Pr 100
▁मूवी 100
▁व्यक्तित्व 100
्‍क 100
▁नास 100
वियों 100
र्निंग 100
▁भंसाली 100
▁कारावास 100
▁हांग 100
▁बैंगल 100
▁विमर्श 100
▁रजनीकांत 100
▁टुकड़े 100
▁सम्पूर्ण 100
▁मिर्च 100
▁पटियाला 100
▁माबूद 100
▁संन्यास 100
64 100
लेकिन 100
▁आगमन 100
▁रहस्य 100
▁कॉफी 100
▁आईएसआई 100
मेडी 100
खाने 100
▁हाम 100
▁सब्र 100
▁चैनलों 100
▁सम्बंध 100
म्परा 100
se 100
दून 100
▁the 100
▁उड्डयन 100
िस्टर 100
▁एडवा 100
▁विजन 100
▁रहेंगी 100
▁चक 100
िडेंट 100
▁कैपिटल 100
क़े 100
▁गुट 100
▁पूर्वा 100
aj 100
▁प्रोत्‍साह 100
▁विशा 100
▁गुणों 100
▁संपादक 100
खलन 100
▁Ex 100
प्रो 100
▁जन् 100
▁लोड 100
▁अनदे 100
▁दाह 100
▁मंज़ 100
गठबंधन 100
▁करतारपुर 100
▁बर्फबारी 100
वश 100
▁गौरी 100
▁किसने 100
विकेटकीपर 100
गना 100
▁105 100
▁करिश 100
▁कैलाश 100
▁जम्‍मू 100
▁मार्टिन 100
-13 100
गांठ 100
▁पुतिन 100
▁संयोजन 100
▁शैल 100
▁एसआईटी 100
▁उल्‍लेख 100
▁कांस्टेबल 100
वर्ग 100
चालित 100
र्निया 100
▁अल्पसंख्यकों 100
▁नरेश 100
▁सुजुकी 100
▁जना 100
▁एसिड 100
फै 100
▁मुख्यमंत्रियों 100
हतिया 100
स्फीति 100
▁हस्तियों 100
▁कलक 100
▁दरम 100
न्‍वयन 100
ाफ्ट 100
▁ऑडियो 100
▁बनायी 100
▁बनाती 100
▁व्‍यक्ति 100
lection 100
▁भौगोलिक 100
▁कस् 100
▁परिचय 100
▁तंज 100
▁लड़ेंगे 100
▁डिवी 100
ंगाबाद 100
▁आदेशों 100
ant 100
▁सरा 100
ath 100
▁बया 100
▁स्‍थान 100
▁ज़्यादातर 100
▁श्रद्धालुओं 100
ोजनों 100
▁किले 100
▁होंडा 100
▁एडमिरल 100
ोले 100
▁97 100
▁इंसानों 100
▁समर्थित 100
▁स्वायत्त 100
▁अंकित 100
▁आत्मविश्वास 100
▁जोस 100
▁कुमारी 100
▁हल्के 100
सेन 100
▁डबल 100
▁क़ान 100
▁एपी 100
▁शक्त 100
▁पौधों 100
▁मोर्चे 100
राद 100
▁नाक 100
▁फ़ो 100
▁मतों 100
▁कठिनाई 100
28 100
▁अबतक 100
▁क्रे 100
▁पशुओं 100
▁पहने 100
▁किग्रा 100
▁दीर्घकालिक 100
▁हेलीकॉप्टर 100
ect 100
▁चुनें 100
▁पढ़िए 100
▁(0 100
▁देसाई 100
▁ज़िम्मेदार 100
▁संतान 100
▁सभ्यता 100
▁थाईलैंड 100
▁स्वयंसेव 100
▁आइड 100
▁क़दम 100
▁रोगों 100
▁विकेटकीपर 100
ोरा 100
्‍न 100
▁बॉय 100
▁कुरि 100
▁इलेक्ट्रॉनिक्स 100
▁चलना 100
▁प्रतिष्ठा 100
र्रर 100
▁राजग 100
▁नाबाद 100
▁गवाहों 100
वाग 100
▁iPhone 100
▁टोक 100
▁सितारे 100
लाइका 100
▁श्रीवास्तव 100
चलन 100
तोड़ 100
राबरी 100
▁जाओगे 100
▁फंस 100
▁आकर्षण 100
▁पायी 100
▁प्रभुत्व 100
▁पों 100
▁गाँ 100
orld 100
▁नमूने 100
▁चाहूंगा 100
▁79 100
▁यक़ीनी 100
▁सिलसिला 100
नॉ 100
▁दिखाए 100
▁देहरा 100
▁स्टोक्स 100
▁कुमारस्वामी 100
शित 100
▁रघु 100
▁क्रॉस 100
ण्य 100
▁दरवाजे 100
▁सेवकों 100
▁फैलने 100
▁घन 100
पकों 100
▁कीर् 100
सरत 100
▁ज़बरद 100
▁कमज़ोर 100
du 100
▁फिंगर 100
िएट 100
▁लश्कर 100
▁उपन 100
▁डोम 100
बेन 100
▁सन्तान 100
▁मिश्रित 100
ric 100
▁सिखाया 100
▁ट्रांसफर 100
उल 100
▁2: 100
▁नशे 100
▁हेन 100
▁पुरा 100
ase 100
टेस्ट 100
रसन 100
खड़ 100
भजन 100
▁किट 100
ोत्तरी 100
▁सिवाय 100
डीयू 100
▁जनसभा 100
▁टेबल 100
▁हुक 100
▁ऋतिक 100
दोनों 100
ायनिक 100
▁सिंधिया 100
बों 100
▁जानवर 100
▁स्कॉट 100
.75 100
▁प्रोडक्शन 100
ओए 100
▁II 100
▁किताबें 100
hat 100
▁सटीक 100
▁सस्ता 100
▁कोशिका 100
▁खुराना 100
श्यप 100
▁अंततः 100
▁इनपुट 100
▁ठंड 100
▁निकाली 100
▁परिषद् 100
▁साझेदार 100
▁फ्लैट 100
▁कन्नड़ 100
all 100
▁दरें 100
▁नायक 100
▁दर्जे 100
.05 100
विया 100
▁मत् 100
▁कोरोनावायरस 100
MS 100
▁अजीब 100
▁आस्था 100
▁परिश्रम 100
मों 100
त्ल 100
फील्ड 100
▁गयीं 100
▁कामगारों 100
▁स्क् 100
▁ट्रिपल 100
ूथ 100
▁स्टडी 100
▁बराबरी 100
▁भिड़ 100
▁आकाशों 100
▁एमबी 100
▁मलाइका 100
▁एकदिवसीय 100
▁94 100
▁एथली 100
▁चट्ट 100
▁पड़ोसियों 100
▁१२ 100
▁निः 100
▁सामर्थ्य 100
▁87 100
▁शेड 100
▁पहना 100
▁अपशिष्ट 100
▁परम्परा 100
▁डेमोक्रेटिक 100
हाउस 100
▁अवलोक 100
▁कवरेज 100
▁मार्गों 100
▁सुरेंद्र 100
त्रिम 100
▁उबर 100
अत 100
मेंद्र 100
▁महत्वा 100
▁देशभ 100
▁संपदा 100
▁शोधकर्ताओं 100
▁98 100
कार्ट 100
कॉमर्स 100
▁उमेश 100
▁फु 100
▁व्ही 100
कूला 100
▁साम्ह 100
णाल 100
iaomi 100
ोत्‍तर 100
सह 100
शंस 100
षकों 100
▁मजाक 100
▁रैना 100
व्यों 100
घन 100
सिस 100
▁गुड़ 100
▁कोयले 100
▁झलक 100
▁सौह 100
▁नम्र 100
▁स्पे 100
▁मैसेज 100
ुआरों 100
▁उतनी 100
▁युगल 100
▁नाजुक 100
▁आईएएनएस 100
▁वर्णित 100
▁यहूदियों 100
▁आज़ 100
▁गैले 100
त्यक्ष 100
▁अनुभवों 100
▁फोटोज 100
बाग 100
▁महाविद्यालय 100
▁लौह 100
ang 100
▁रमन 100
▁अन्दर 100
▁बॉन्ड 100
▁खाई 100
▁तोह 100
▁टीएमसी 100
घाट 100
▁ग्रंथ 100
▁विद 100
▁पांड्या 100
"", 100
▁तिरु 100
▁परिक 100
पीआर 100
मेरी 100
सीना 100
▁कश्यप 100
▁भरोसे 100
▁आर्यन 100
▁nic 100
Plus 100
▁ब्यौ 100
▁सुनाया 100
▁परंपरागत 100
▁उगा 100
▁मजदूरी 100
▁दाल 100
सरकारी 100
▁अध्यादेश 100
▁घुट 100
▁दत्ता 100
▁हवाईअ 100
AA 100
▁खाम 100
▁बॉम्बे 100
3) 100
▁इधर 100
▁दिखे 100
▁बनाएं 100
▁अद्यतन 100
▁मसल 100
▁दुकानें 100
▁१८ 100
▁अपार 100
▁एनडीआरएफ 100
▁राष्ट्रों 100
ड् 100
रीज़ 100
▁धारण 100
▁सीआई 100
▁असिस्ट 100
.11 100
▁हाश 100
▁ख़ुश 100
कह 100
▁बायो 100
▁निरस्त 100
▁छुटकारा 100
▁92 100
▁हैक 100
रेगा 100
▁News 100
▁वाइड 100
▁धर्मों 100
विद 100
▁वोल 100
▁तेजस्वी 100
ide 100
न्ग 100
▁दूत 100
▁ऊंचे 100
▁लिय 100
▁क्वालकॉम 100
दक्ष 100
▁हरित 100
▁किराया 100
गरी 100
▁डॉट 100
▁डेयरी 100
ance 100
▁मध्‍य 100
▁मांगने 100
फ़्र 100
▁लाश 100
▁हाज़ 100
▁जरुरत 100
▁1: 100
▁विशाखा 100
ame 100
▁स्वभाव 100
उसके 100
▁ड्रेस 100
ोल्यूशन 100
▁मछुआरों 100
आर्थिक 100
▁अनुपम 100
▁बायोपिक 100
फ्रास्ट्रक्चर 100
▁रैंक 100
▁प्रक्षेप 100
▁अपेक्षाकृत 100
▁प्रस्तावों 100
िफ़ 100
▁110 100
▁हकी 100
▁पैदल 100
▁आयरलैंड 100
▁ठुक 100
▁पेड 100
▁वर्चुअल 100
ik 100
शय 100
▁पंचायती 100
▁गाजियाबाद 100
रिय 100
▁निमंत्र 100
▁हत्याकांड 100
आम 100
▁शुल 100
▁श्व 100
▁बहुते 100
ore 100
फोर्ड 100
▁पंचायतों 100
▁बर्दाश्त 100
लभ 100
िल्ल 100
▁होली 100
▁सिक्योर 100
▁जिसमे 100
▁निकोबार 100
िस् 100
समूह 100
ंता 100
▁फीट 100
▁वर्जन 100
क़त 100
▁फ्रां 100
▁मौतों 100
▁2018: 100
▁गुमराही 100
▁लक्ष्मण 100
In 100
,‘‘ 100
वाब 100
▁आदत 100
▁हरभजन 100
▁संतुलित 100
ass 100
ऐसा 100
जोल 100
मोर 100
ब्रे 100
▁फ्लैश 100
दियुरप्पा 100
▁परिस्थिति 100
BSE 100
▁आईफोन 100
डऩे 100
हप्र 100
▁ग्रोवर 100
▁अब्र 100
▁बास्केट 100
▁मुस्लिमों 100
रेप 100
वेंद्र 100
▁ओवरों 100
▁कोशिकाओं 100
▁गुणा 100
▁पाये 100
▁पढ़ते 100
▁फर्ना 100
▁वस्‍तु 100
वैज्ञानिक 100
▁मलयालम 100
िकेश 100
▁कुरान 100
▁OnePlus 100
रह 100
बेह 100
त्‍ता 100
्वाइंट 100
िण 100
▁भटक 100
▁राशिद 100
दिया 100
▁वन्य 100
▁मन्द 100
▁रौशन 100
ौरी 100
▁सहवाग 100
वादा 100
द्धान 100
त्‍य 100
▁बीस 100
▁Xiaomi 100
▁ग्रेड 100
▁ध्वनि 100
▁2020-21 100
▁मीर 100
▁वॉट 100
▁रहित 100
▁ह्यू 100
▁अभिन्न 100
▁स्ट्राइक 100
ies 100
▁अन्याय 100
िज़ 100
▁विस्‍ 100
▁मुद्रास्फीति 100
▁गुजरा 100
▁प्रवी 100
▁सानिया 100
▁दंप 100
▁अवतार 100
नीति 100
कमिंग 100
▁पीड़ा 100
▁पीजीआई 100
▁यूं 100
▁अग्नि 100
▁सामरिक 100
खास्त 100
पादों 100
▁कांग्रेसी 100
▁आभूषण 100
▁उद्यान 100
▁कार्यान्वित 100
27 100
▁1999 100
▁पार्थ 100
गृह 100
▁कलकत्ता 100
,"" 100
ईआर 100
डीजल 100
▁प्रयोगशालाओं 100
-9 100
विधा 100
▁पेंट 100
ाचार्य 100
▁फरहान 100
▁श्रीनि 100
▁2.5 100
▁संलग्न 100
26 100
▁सुगम 100
▁बनेंगे 100
▁ग्रेजुए 100
▁डिज़ाइन 100
▁प्रवृत्ति 100
▁गज 100
▁कथन 100
▁वैल्यू 100
▁महासभा 100
▁देहरादून 100
▁माइक्रोएसडी 100
▁आजकल 100
▁मोटे 100
▁पुनर्गठन 100
िराज 100
▁१९९ 100
ोटी 100
▁पासवर्ड 100
ब्बत 100
▁मक्का 100
▁ग्राउंड 100
▁राष्ट्रवादी 100
▁जिहाद 100
किस 100
सनी 100
▁नानक 100
▁फर्स्ट 100
▁प्रतिद्वंद्वी 100
?" 100
▁4: 100
▁89 100
▁मानहानि 100
शुदा 100
▁क़रीब 100
▁कैदियों 100
▁दमन 100
▁साकार 100
▁वास्तविकता 100
▁माइक्र 100
▁दरमियान 100
▁अभिभावकों 100
AM 100
राज्यपाल 100
▁परीक्षाएं 100
▁बेटियों 100
▁पार्किंग 100
▁कारोबारियों 100
ial 100
वला 100
▁वॉल 100
▁गर्ग 100
▁लेनी 100
▁समेक 100
ans 100
ियमित 100
▁5000 100
▁फ्लिप 100
▁पार्षद 100
▁क्‍योंकि 100
▁उत्पादकता 100
▁जुटे 100
▁रावल 100
अभ 100
ूलन 100
टिया 100
लपुर 100
▁डेबिट 100
▁कृत्रिम 100
▁रहमत 100
▁बिप 100
द्रिक 100
▁फिलिप 100
▁रवींद्र 100
▁रखेगा 100
▁धीरज 100
▁कॉर्पोरेशन 100
▁शहीदों 100
स्खलन 100
▁एमटी 100
▁डालर 100
बोध 100
▁हिर 100
▁हटाए 100
▁ट्रिब 100
▁रवैया 100
▁आईआर 100
▁क्लीन 100
▁प्रायः 100
33 100
ंचल 100
▁पौधे 100
▁कोलंब 100
▁प्रया 100
▁खंडन 100
▁सोचना 100
ॉरिटी 100
निर्देशों 100
▁पदाधिकारी 100
▁समीप 100
▁कोच्च 100
▁रिश्ता 100
▁अभूतपूर्व 100
▁चैलेंजर्स 100
डॉ 100
▁एंगल 100
▁प्रमाणित 100
▁आनु 100
▁जीवा 100
▁स्पॉट 100
▁पश्‍ 100
▁मल्ल 100
▁अंतरण 100
▁तकनीकों 100
▁हांगकांग 100
णि 100
▁ड्रा 100
▁पाबंदी 100
▁प्राधिकारी 100
र्चा 100
▁अभिषिक 100
▁बनती 100
▁मैरी 100
▁इरादे 100
ुलेंस 100
▁उपहार 100
▁ब्राह 100
▁स्वर् 100
ब्बा 100
▁पूर्वोत्‍तर 100
▁चार् 100
▁शासक 100
▁गाँधी 100
िजन 100
▁वान 100
▁ध्रु 100
▁ट्रैक्टर 100
▁अतुल 100
राक 100
▁ढु 100
▁अवमान 100
▁झगड़ा 100
▁येदियुरप्पा 100
ितर 100
▁जेसन 100
▁प्रचलित 100
▁उपरो 100
▁माइक 100
षे 100
▁डेल 100
▁ग्रिड 100
▁शिक्षित 100
▁जाग 100
▁टैंक 100
▁बचें 100
▁सर्ट 100
▁वार्नर 100
▁उत्पत्ति 100
▁चुनौतियां 100
▁आभारी 100
▁वीरेंद्र 100
▁उम्‍मीदवार 100
किर 100
यालय 100
▁नाव 100
▁नींव 100
▁पुनर्विचार 100
िश्त 100
▁राशन 100
बॉक्स 100
▁अभियोजन 100
▁नाना 100
उत् 100
िंडा 100
▁देन 100
▁जयर 100
▁बैग 100
▁पटनायक 100
▁महाराष्‍ट्र 100
▁मॉड्यूल 100
▁बहुल 100
▁रेडमी 100
▁पश 100
▁पथराव 100
▁चीज़ें 100
▁ललित 100
▁साक्षर 100
संप 100
▁UP 100
▁थॉम 100
▁कतार 100
sc 100
▁लाओ 100
▁रासायनिक 100
गई 100
मिली 100
ोदित 100
पहले 100
▁st 100
▁साम्हने 100
ंडन 100
र्ता 100
क़रीब 100
▁नकवी 100
ूल्य 100
▁नैशनल 100
▁सुनता 100
क्योंकि 100
सीडी 100
▁गियर 100
▁विद्वान 100
▁उड़ी 100
▁उन्म 100
▁गुफा 100
▁ठेके 100
▁देखरेख 100
जेवाला 100
ूटर 100
ईएम 100
▁htt 100
▁लड़क 100
▁निर्दोष 100
ंसल 100
▁गाइड 100
▁सीता 100
86 100
▁गरि 100
मिल 100
▁आधुन 100
▁वांछ 100
▁सुल्तान 100
▁महागठबंधन 100
ौहार 100
▁नर्म 100
▁जहाजों 100
▁बर्खास्त 100
भौ 100
▁जॉनसन 100
सिंग 100
▁गंत 100
▁शिवाजी 100
काउ 100
डि़यों 100
लु 100
▁कटरीना 100
▁कुलपति 100
▁प्रयोजनों 100
▁थोक 100
▁पुस्तकों 100
▁इन्हीं 100
▁गाड़ियों 100
▁मध्यस्थता 100
▁औस 100
▁चौंका 100
▁बंदूक 100
▁2014-15 100
▁११ 100
▁चाहें 100
▁सुसमाचार 100
याद 100
▁फेम 100
दक 100
ेक्स 100
▁समाय 100
▁लिखते 100
फेड 100
▁अनू 100
▁अवलोकन 100
▁आईपीएस 100
र्तग 100
ंडर 100
जीर 100
जाति 100
▁बेव 100
▁बुलेट 100
▁पड़ेगी 100
▁औरत 100
▁कुश 100
▁कॉपी 100
▁व्‍यापक 100
▁कागज 100
छात्रा 100
▁फाइबर 100
▁स्टैंडर्ड 100
?"" 100
▁180 100
▁दखल 100
▁आरंभिक 100
डिय़ों 100
▁ब्लूट 100
▁लड़का 100
ॉर् 100
▁कंटेन 100
▁धर्मेंद्र 100
ेरत 100
धर्म 100
▁एहसान 100
▁बच्‍च 100
▁हकीकत 100
ii 100
स्कृत 100
▁दर्जन 100
▁एटी 100
▁केके 100
▁क़ुरान 100
▁रिपोर्टों 100
▁जदयू 100
ue 100
ईए 100
▁डॉन 100
चार्य 100
▁ग़ौर 100
▁कलेक्टर 100
▁मुक़र्रर 100
▁पारिस्थित 100
▁बैठकें 100
8) 100
्यम 100
निरपेक्ष 100
▁भूपेंद्र 100
टाला 100
▁फिज 100
▁देवता 100
▁अद्भुत 100
▁शिकायतें 100
▁पार्टनर 100
▁कैलि 100
▁चलकर 100
नस 100
▁म्यूजिक 100
▁मुक़ाबले 100
▁इंश्योरेंस 100
▁देय 100
▁करोगे 100
याम 100
▁पंप 100
▁कट्ट 100
▁हाजिर 100
▁बैठने 100
▁रोमांचक 100
▁सब्जियों 100
गरों 100
ाहम 100
▁दूँ 100
▁ग्लास 100
▁ट्रायल 100
ँति 100
ांतरण 100
ाइज 100
▁लैब 100
▁रक्ष 100
▁गिरकर 100
▁लगाये 100
▁मशीनों 100
▁बच्‍चों 100
न्ने 100
▁350 100
▁चलाए 100
▁पैरवी 100
▁सदियों 100
▁एयरलाइंस 100
▁फरीदाबाद 100
घाती 100
▁उपे 100
▁मॉन 100
▁इशारा 100
▁फैन्स 100
▁सौभाग्य 100
धारक 100
▁मसूद 100
▁खोजने 100
▁बेटों 100
▁मैट 100
▁अखंड 100
▁संस्‍थानों 100
▁नाइक 100
▁पीपुल 100
▁मान्य 100
▁मोहाली 100
▁विवेकान 100
एंड 100
4) 100
▁CBI 100
ost 100
▁नोडल 100
▁एनर्जी 100
▁परिचित 100
▁आरा 100
चंद्रन 100
▁ड्राइव 100
▁बंगाली 100
▁सर्जरी 100
▁ईपीएफ 100
▁चिट्ठी 100
▁अवकाश 100
▁प्रश्नों 100
▁अगस्‍त 100
▁जुड़ने 100
▁93 100
नाथन 100
स्परिक 100
▁डिवीजन 100
मुंबई 100
▁पाठक 100
▁गरिमा 100
▁बयानों 100
▁छुट्ट 100
▁महाजन 100
▁रायपुर 100
▁() 100
इंडिया 100
▁COVID 100
▁कॉमेडी 100
▁बॉर्डर 100
▁सिद्दी 100
▁निमंत्रण 100
▁700 100
दरलैंड 100
▁निष्पादन 100
▁उज 100
ानगर 100
▁चुनने 100
▁हिस्‍सा 100
▁स्वर्गीय 100
▁अस्‍प 100
▁सेलि 100
▁अर्धशत 100
▁बीएच 100
▁सीने 100
▁पांडेय 100
▁घातक 100
▁अदालतों 100
▁ब्लड 100
▁फेस्ट 100
▁पंचकूला 100
▁व्याख्यान 100
▁अपी 100
▁अपकमिंग 100
▁अभिषिक्‍त 100
जहां 100
द्वाज 100
▁एर 100
फोड़ 100
▁भती 100
▁झूठा 100
▁कोच्चि 100
▁प्रबल 100
▁सुरजेवाला 100
हाड़ 100
▁वीवी 100
▁अक्षर 100
▁स्टार्टअप 100
▁'% 100
पूर्वी 100
▁सरपंच 100
च्छे 100
यानक 100
▁इंटेल 100
▁पिटाई 100
▁सब् 100
▁लेगी 100
▁आचार्य 100
▁हाज़िर 100
क़्त 100
▁6.5 100
▁अरबी 100
▁बंबई 100
▁आश्रम 100
▁रहाणे 100
▁तीर 100
फोसिस 100
▁दोगुनी 100
▁मौलाना 100
▁ऑपरेटिंग 100
▁कारी 100
पाली 100
▁एंब 100
▁ट्रेंड 100
▁पायदान 100
▁नौकरियों 100
.) 100
▁महंगा 100
▁सेकंड 100
▁संभवतः 100
▁अलीगढ़ 100
▁चंद्रयान 100
ivo 100
क्रिप्ट 100
▁Rs 100
▁आॅ 100
▁बंधन 100
▁आधुनिकीकरण 100
▁हार्ट 100
▁सौहार्द 100
▁भड़क 100
▁प्रारम्भ 100
▁आपातकालीन 100
▁उत्कृष्टता 100
▁वक्तव्य 100
अंग्रेज़ी 100
▁वाटर 100
▁प्रमुखों 100
▁राष्ट्रमंडल 100
ND 100
▁विष्णु 100
तमंद 100
▁तेज़ 100
▁रहकर 100
▁स्ने 100
डेंट 100
▁चंद्रबाबू 100
▁ढुलाई 100
▁सत्यापन 100
▁प्रक्षेपण 100
ात्मक 100
▁हनुमान 100
▁जितेन्द्र 100
45 100
हेल 100
मोचन 100
▁पृथक 100
▁राजू 100
िवल 100
▁तले 100
▁दर्शाया 100
ँस 100
एमआर 100
▁बॉडी 100
▁यूएन 100
ंछ 100
▁चौटाला 100
▁ब्लूटूथ 100
ऐप 100
▁राइट 100
धक 100
.12 100
ृता 100
▁नल 100
बड़े 100
▁एसएसपी 100
▁दिखायी 100
▁हस्तांतरण 100
ary 100
▁लिव 100
▁बंटव 100
जियम 100
▁भारद्वाज 100
धू 100
▁2,000 100
▁याचिकाकर्ता 100
▁फिरऔन 100
▁निष्ठा 100
▁औसतन 100
▁सातवें 100
००० 100
▁चाहा 100
▁एक्टिंग 100
बेस 100
▁दरबार 100
▁सनराइ 100
▁प्रेषित 100
वाहिक 100
िश्चय 100
▁पक्का 100
▁स्ट्रीम 100
्सन 100
▁बदलकर 100
▁बादशाह 100
गोल 100
▁एकीकरण 100
▁योद्धा 100
मेंस 100
▁2.0 100
▁शिष्ट 100
▁ज़िला 100
ru 100
ौड़ 100
लेषण 100
▁बेकार 100
▁नाट 100
▁हरदीप 100
ामंत्री 100
तिश 100
लोनी 100
▁पारस्परिक 100
शीद 100
AP 100
SS 100
▁Q 100
▁अस्थिर 100
▁पर्सनल 100
▁अमन 100
▁एसडीएम 100
ड़की 100
▁जुन 100
ेशनल 100
▁चारा 100
▁नज़दी 100
आख़िर 100
राउंडर 100
▁कश्‍मीर 100
▁बनते 100
जीरिया 100
▁मोमिन 100
▁अग्न 100
▁औलाद 100
▁अन्वेषण 100
▁खरीदारी 100
▁बदलना 100
▁अप्रत्यक्ष 100
▁फ्रेम 100
▁बेरोजगारी 100
र्गन 100
रियाल 100
▁कहान 100
▁सबकुछ 100
▁पिछड़े 100
89 100
▁छुड़ा 100
▁विशेषज्ञता 100
▁सुले 100
▁घटाकर 100
▁नगालैंड 100
▁सम्पत्ति 100
▁खाद्यान्न 100
▁वाक़िफ 100
▁जोनस 100
▁अनियमित 100
▁अब्राहम 100
ारह 100
▁डीए 100
▁ऑटोम 100
▁आरटीआई 100
▁हिक 100
▁मानें 100
▁विशेषाधिकार 100
याँ 100
▁नीरज 100
▁आसियान 100
गान 100
▁बैनर 100
▁समझौतों 100
▁स्तन 100
▁एसयूवी 100
▁पुर्तग 100
विस 100
▁महासंघ 100
▁फेडरेशन 100
▁अंग्रेज़ी 100
ायम 100
▁खुलकर 100
▁मानदंडों 100
गढ 100
▁एजेंडा 100
ोब 100
▁क्रूर 100
शान 100
▁पूल 100
▁रोष 100
▁हरि 100
▁उत्‍पादों 100
▁चार्जशीट 100
▁आईएस 100
▁घृणा 100
▁तोड़ा 100
▁खरा 100
▁गुड 100
▁मजे 100
▁सेक्शन 100
▁फ्लिपकार्ट 100
▁फैमिली 100
▁अश्विनी 100
7) 100
▁काबिल 100
▁एलपीजी 100
▁रहीम 100
कारिता 100
▁दुर्भाग्यपूर्ण 100
िमी 100
▁नक् 100
▁साइना 100
▁प्रेमी 100
▁बुद्धिमान 100
नास 100
्‍ट 100
ेंजर 100
▁आएँ 100
▁Vivo 100
▁रम 100
▁तृतीय 100
▁मत्स्य 100
▁बेटियां 100
जीसी 100
▁खण्ड 100
▁अनक़रीब 100
ब्बल 100
्याह 100
▁नोक 100
▁सिंगर 100
▁भयानक 100
▁पेटेंट 100
ूला 100
फेयर 100
्याद 100
▁बीबी 100
▁मदन 100
▁बंसल 100
चाराधीन 100
▁अड्डों 100
▁अमीरात 100
▁5: 100
ायाह 100
माता 100
▁लैंगिक 100
▁किताबों 100
एटी 100
▁$ 100
▁इब्रा 100
नाई 100
▁फ़िर 100
▁अधिवेशन 100
▁कोने 100
▁सप्लाई 100
▁जमात 100
▁दर्शक 100
▁बुलाई 100
▁पोखरियाल 100
्वार 100
▁धूप 100
▁यूर 100
▁समन 100
▁दुबे 100
▁जानबूझकर 100
▁लि‍ 100
▁अन्ना 100
▁हमलावरों 100
▁उपर्य 100
ललिता 100
▁खतरों 100
▁संपत्तियों 100
▁उठे 100
▁चेतना 100
▁रतन 100
बाही 100
▁कटा 100
▁लेवल 100
▁आधी 100
▁बाघ 100
भागीय 100
▁ज़िन्दा 100
करने 100
▁यशायाह 100
▁लची 100
▁सम्रा 100
▁बख्शने 100
डाफोन 100
पतियों 100
▁औरंगाबाद 100
▁करिश्मा 100
▁जवाबदेही 100
ंधर 100
पेश 100
परिव 100
▁एहतिया 100
फोल 100
▁अमेठी 100
▁ड्रग्स 100
▁गैलेक्सी 100
दानी 100
न्धी 100
▁हरेक 100
▁क्वार 100
▁एस्टेट 100
▁विकल्पों 100
▁असंत 100
▁वेणु 100
ॉफ्ट 100
▁मोर 100
▁जनहित 100
▁पिन 100
▁अमेजन 100
▁संक्रमितों 100
▁108 100
▁जगा 100
क्साइड 100
▁वारिस 100
▁क्री 100
▁फलों 100
▁रिटेल 100
▁राजकोष 100
▁विश्‍वविद्यालय 100
▁कलाम 100
▁जयराम 100
▁दंगों 100
▁तरक्की 100
▁शिकस्त 100
▁नीतिवचन 100
▁संविदा 100
▁रेफर 100
▁जवाबी 100
▁आईएनएस 100
▁सुहाना 100
▁सेकेंडरी 100
▁नंद 100
▁रुझ 100
▁ऑक्सीजन 100
▁प्रतिस्पर्धी 100
▁रास्त 100
ED 100
▁रूपों 100
बिलिटी 100
▁अकादम 100
▁मन्दिर 100
▁सम्पर्क 100
ताप 100
क्षे 100
▁निर्भ 100
29 100
5) 100
▁एमपी 100
▁बजाए 100
▁बागी 100
▁क्राइम 100
▁स्वचालित 100
नान 100
▁ऐक्ट 100
▁शोधन 100
▁मसौदा 100
▁पक्षकार 100
व्‍यवस्‍था 100
चिक 100
▁ठुकरा 100
▁सार्थ 100
धिकरण 100
▁राइड 100
▁सम्‍मान 100
यर्स 100
्लाह 100
▁यंत्र 100
▁ताक 100
▁जर्नल 100
▁अंतराल 100
▁मथ 100
▁इस्राएलियों 100
39 100
▁नूर 100
▁सेक्स 100
▁पुस्तकालय 100
ओगे 100
▁IC 100
▁स्वर्गदूत 100
▁बहिष्कार 100
▁(10 100
▁बसे 100
▁जजों 100
▁स्ल 100
our 100
▁टिकाऊ 100
ईस 100
दिर 100
▁सुब्रमण 100
उत्तर 100
▁दस्तावेज़ 100
टू 100
▁सड़कें 100
67 100
जोड़ 100
▁पशुप 100
उनकी 100
खबरी 100
▁गोलियां 100
▁सिलेंडर 100
चाप 100
्वेष 100
▁दोगुना 100
▁तीव्रता 100
▁नाराजगी 100
▁यान 100
▁डीजीपी 100
▁लाभान्वित 100
साफ 100
अज़ाब 100
▁ख्वा 100
▁उठाये 100
यना 100
▁टोल 100
रीक्षक 100
▁भरत 100
णियां 100
▁उठता 100
▁यमुना 100
▁प्रवीण 100
▁मशीनरी 100
▁रथ 100
ंबले 100
▁बिट 100
्राफी 100
▁इनको 100
▁कतर 100
▁किय 100
▁भेड़ 100
▁मोहित 100
▁2, 100
▁थॉमस 100
▁कुफ्फ़ार 100
ैत 100
▁फ़िल 100
▁पुनरु 100
▁स्टाइल 100
बीटी 100
▁पटरी 100
▁किराए 100
▁पक्षी 100
▁उपक्रमों 100
▁यहूदा 100
फोर्निया 100
▁अर्थशास्त्र 100
फना 100
▁सिग 100
▁प्रशासक 100
▁एन् 100
▁कब्र 100
▁छोड़े 100
▁दृढ़ता 100
▁सिद्धान 100
▁नवन 100
▁दरवाजा 100
▁मदर 100
▁करनाल 100
▁वर्षगांठ 100
ex 100
▁नस्ल 100
▁बदलते 100
▁खंडपीठ 100
ोनिया 100
▁बीएसपी 100
▁विस्‍तार 100
ारोप 100
▁पाट 100
▁IS 100
▁तीर्थया 100
.09 100
▁कष्ट 100
▁विजयन 100
▁राजनेता 100
ब्ध 100
▁घटी 100
▁फिंच 100
ph 100
▁दिखता 100
▁नियो 100
▁स्क्रीनिंग 100
ष्‍ट्रपति 100
oun 100
प्ल 100
बोट 100
/2 100
▁ताइ 100
▁दिखाना 100
▁पुरस्कारों 100
▁अवर 100
अम 100
▁for 100
88 100
मीत 100
▁झूठी 100
▁निष्क्रिय 100
गों 100
▁लह 100
▁1,5 100
▁स्वै 100
▁शिलान 100
▁सुप्र 100
▁कम्युनिस्ट 100
ुमा 100
▁नागालैंड 100
▁सनराइजर्स 100
▁धरो 100
्रीकरण 100
▁पीपुल्स 100
▁वोडाफोन 100
▁क्विंट 100
▁त्यौहार 100
स्‍वतंत्र 100
▁मनु 100
▁जगदी 100
▁बाज़ार 100
▁प्रयत्न 100
▁मंडली 100
▁एंडरसन 100
▁बिल्डिंग 100
वान्वेष 100
▁स्वीडन 100
िसी 100
▁कचरे 100
डेन 100
वंश 100
▁on 100
▁अद्व 100
▁फ्लोर 100
▁व्यवस्थित 100
▁चुनौतीपूर्ण 100
1, 100
एनसीआर 100
▁व्हाट्सएप 100
▁संयंत्रों 100
65 100
▁उठाकर 100
फन 100
▁चेलों 100
▁तबाही 100
क्‍टूबर 100
▁ढूँ 100
▁बंगल 100
▁वाणी 100
▁पसन्द 100
जनन 100
▁शिफ्ट 100
एलए 100
बेट 100
▁पट्टी 100
मि 100
▁अर्थव्‍यवस्‍था 100
िश्तों 100
▁खुलती 100
ियुस 100
▁निगाह 100
▁कुशलता 100
▁फ़ोल्डर 100
ंसर 100
▁World 100
▁निचली 100
वीपी 100
▁निम्‍ 100
सेवा 100
ाहिम 100
▁चेन 100
▁मधुमेह 100
▁विचारण 100
अमत 100
ष्म 100
▁नीदरलैंड 100
▁20,000 100
▁जयललिता 100
▁बैंगलोर 100
नीकरण 100
▁पीएस 100
▁पोष 100
▁अफसोस 100
▁डीआरडीओ 100
▁स्कैन 100
▁आरोपितों 100
▁डेढ़ 100
जरलैंड 100
▁सिल्वर 100
केन 100
.07 100
▁झगड़े 100
ैड 100
▁इज़ 100
▁सीम 100
स्पीड 100
▁कराता 100
▁सुविध 100
▁कीर्ति 100
कोल 100
▁con 100
▁एली 100
बाहरी 100
▁अहमियत 100
▁दिखाएँ 100
ical 100
▁टैं 100
▁अंबेडकर 100
▁फाइनेंस 100
▁अटैक 100
▁परस 100
▁आंगन 100
मिट 100
एफपी 100
▁ऊंचा 100
▁कराची 100
मुसलमान 100
▁उद्धार 100
▁आजीवन 100
▁प्रतियोगिताओं 100
▁En 100
▁आएं 100
▁अमृता 100
▁गतिरोध 100
▁प्रायोजित 100
योजना 100
▁फतेह 100
▁गुस्से 100
▁सुप्रीमो 100
▁रिपोर्ट्स 100
▁फिंगरप्रिंट 100
▁फैले 100
▁नोबेल 100
▁संयोजक 100
▁मंत्रिम 100
तकों 100
संभव 100
ार्जुन 100
▁जामिया 100
▁कल् 100
▁एसी 100
▁पुख 100
▁दाख़ 100
▁उतरने 100
▁ड्रोन 100
▁सेंगर 100
▁सूचनाओं 100
ित् 100
▁गाव 100
▁किसे 100
▁सूखे 100
र्फ्यू 100
▁पैग़म्बरों 100
▁बंदरगाहों 100
ai 100
▁अयोग्य 100
▁मुम 100
▁अनलिमिटेड 100
▁इल्म 100
▁मृत्य 100
गिर 100
▁बिछ 100
▁बारगाह 100
एनसी 100
▁परेशानियों 100
▁ि 100
▁तलब 100
▁फैन 100
युद्ध 100
▁निर्धारिती 100
तुल 100
▁१३ 100
▁बांस 100
▁सस्ती 100
▁प्रदर्शनों 100
▁थल 100
▁App 100
▁निज 100
▁बनेगी 100
▁मित्त 100
▁सियासी 100
▁सीएसआईआर 100
▁ब्रिज 100
▁प्रशंसक 100
.08 100
चढ़ा 100
▁अन्न 100
▁हफ्त 100
वालो 100
▁धरने 100
▁पालने 100
▁होस्ट 100
▁हौस 100
▁मतगणना 100
▁असिस्टेंट 100
▁विद्यालयों 100
ुतोष 100
▁व्यर्थ 100
ev 100
mit 100
▁बूथ 100
2, 100
लेन 100
▁तबाह 100
▁शिंदे 100
▁मुख्या 100
.06 100
पायर 100
▁बसा 100
▁सिं 100
ख्ते 100
ग़ैर 100
▁शार 100
क्कड़ 100
▁पनाह 100
▁प्रभाग 100
▁बर्थडे 100
नई 100
्‍द 100
ढ़ियों 100
▁शिना 100
▁मित्तल 100
▁पार्टियां 100
सिल 100
कुशी 100
▁पूर्ववर्ती 100
▁धरोहर 100
▁As 100
आईएल 100
▁विमोचन 100
▁सितारों 100
महा 100
▁ब्ले 100
दक्षिण 100
▁अस्वीकार 100
▁दबो 100
▁शॉट 100
▁तारा 100
बीजेपी 100
▁ढांचागत 100
iss 100
िजू 100
▁सर्टिफ 100
▁विधियों 100
▁सम्बन्धित 100
▁मुमकिन 100
▁तूने 100
टेनमेंट 100
अर् 100
▁साक्षरता 100
▁फ्रांसीसी 100
▁प्रतिबंधों 100
▁सज् 100
▁प्रजातियों 100
▁Go 100
▁लुट 100
▁रोधी 100
▁याचिकाओं 100
▁विवेकानंद 100
▁_ 100
▁टीके 100
▁काव्य 100
▁नोटों 100
▁विधवा 100
नेवाले 100
▁असह 100
▁उन्नाव 100
▁क्विंटल 100
तरफा 100
▁हमको 100
▁खुशखबरी 100
▁१४ 100
▁छोर 100
▁वहन 100
▁रसोई 100
▁तादाद 100
▁पोर्टफोल 100
▁हवाईअड्ड 100
▁बरतने 100
▁प्रतिरोध 100
िं 100
ारंग 100
▁स्‍कूल 100
▁रोटी 100
▁बुखार 100
िसा 100
▁डराने 100
▁160 100
▁बिर 100
▁रैल 100
▁दण्ड 100
▁निपटा 100
▁टु 100
▁दलितों 100
▁रॉयल्स 100
▁अथॉरिटी 100
▁अवमानना 100
▁हफ्तों 100
▁{ 100
▁ट्राइ 100
▁निदान 100
▁सृष्टि 100
▁धर्मनिरपेक्ष 100
खिक 100
न्तर 100
▁अफगान 100
▁निदेशकों 100
शहर 100
▁कॉमन 100
▁नायर 100
▁प्रोफ 100
▁रिश्तेदार 100
▁क़ानून 100
▁पहाड़ों 100
▁बस्तियों 100
▁ध्वज 100
▁डीएनए 100
▁लक्षित 100
ामे 100
▁com 100
▁झुक 100
▁कन्ह 100
▁गुला 100
▁मधुर 100
प्रत्य 100
िगो 100
▁दयावान 100
▁दुर्लभ 100
▁आईजी 100
▁पॉवर 100
▁विंडों 100
▁भ्रम 100
▁कर्फ्यू 100
34 100
ध्द 100
▁आर्म 100
▁खादी 100
▁सबकी 100
▁एयरलाइन 100
▁प्रतिभूति 100
वमेंट 100
▁बढ़ोत्तरी 100
▁HD 100
▁अनि 100
▁छठी 100
मुक्त 100
▁एनएम 100
▁चिन् 100
▁अपवाद 100
▁सुराग 100
▁पीडि़त 100
लन 100
▁ग्ले 100
▁सोचता 100
▁सिद्दीकी 100
▁षड 100
स्‍या 100
▁प्‍ 100
विशेष 100
▁शेखर 100
चाह 100
▁कहर 100
▁आबंट 100
ou 100
▁कैदी 100
▁नेकी 100
▁दीक्ष 100
▁बढ़ना 100
▁चक्रवात 100
चू 100
.15 100
▁एय 100
▁परो 100
▁क्वाड 100
▁गिरफ़ 100
▁पुष्प 100
▁पाएँगे 100
▁छोड़ी 100
▁शिल्पा 100
▁उपराज्यपाल 100
▁पदाधिकारियों 100
ूमत 100
ोड़ा 100
▁सौंपे 100
▁सिब्बल 100
▁संस्‍था 100
▁फिल्मकार 100
ज़ु 100
▁आसिफ 100
▁करों 100
▁चुप्पी 100
▁दाख़िल 100
▁उपरोक्त 100
▁कहानियों 100
31 100
त्प 100
▁राघ 100
▁बेदी 100
ेंशियल 100
▁लेखकों 100
▁1,0 100
▁घबरा 100
▁टैब 100
▁बराक 100
▁फैक्ट्री 100
▁अत्याधुनिक 100
▁सता 100
▁माधुरी 100
▁अनौ 100
▁आईबी 100
▁पुजारा 100
▁सम्राट 100
▁रविंद्र 100
ly 100
डब्‍ल्‍यू 100
▁लोकप्रियता 100
▁रेन 100
धु 100
▁बुलंद 100
▁हेल्प 100
▁अंपायर 100
▁पूंजीगत 100
▁रक्षामंत्री 100
▁बनीं 100
▁माकपा 100
▁सुसाइड 100
▁नोटिफिकेशन 100
▁बक 100
▁यूँ 100
परमेश 100
▁जेडीएस 100
▁गर्इ 100
▁बटलर 100
▁गड़बड़ी 100
▁टेलर 100
▁कुंबले 100
▁पहलवान 100
▁नवान्वेष 100
▁आशुतोष 100
▁उपयोगकर्ताओं 100
मोबाइल 100
▁तीमु 100
▁रंगारंग 100
▁ससुर 100
▁दिखने 100
▁जगदीश 100
▁परिकल्पना 100
▁ख़त्म 100
▁बाजवा 100
▁सार्थक 100
▁115 100
▁धूल 100
▁कांड 100
▁एलान 100
▁मकानों 100
कशी 100
मूर 100
ईटी 100
▁आरजेडी 100
▁कैरियर 100
▁विशेषताओं 100
▁>> 100
▁रोकना 100
▁एमएम 100
▁राइफल 100
▁gov 100
गेटिव 100
▁लम्बी 100
▁अफसरों 100
▁पोर्टफोलियो 100
ाव 100
▁ठहरे 100
▁पुनरुत् 100
▁स्पेक्ट्र 100
ैद 100
र्जर 100
भवन 100
▁एप्पल 100
▁थीम 100
िरोधी 100
▁1990 100
▁पूछते 100
▁विवादा 100
▁बेल् 100
▁श्वे 100
▁हटकर 100
▁तसवीर 100
▁माउंट 100
▁नाह 100
▁वर्गीकरण 100
▁सक् 100
▁बीएसएनएल 100
▁जरा 100
▁जनगणना 100
AI 100
▁3.5 100
ानुभूति 100
87 100
▁एसए 100
▁दिशानिर्देश 100
बीपी 100
▁लाभांश 100
रोल 100
▁आमने 100
▁संगम 100
▁विजयी 100
▁गुरदास 100
ब्बे 100
कृष्णन 100
▁आश्रय 100
▁इब्राहिम 100
▁विद्वानों 100
रीदी 100
बड़ 100
▁मेला 100
▁राजे 100
▁लियोन 100
ल्ले 100
▁चुनी 100
रोधी 100
▁इनकम 100
▁उन्नयन 100
परमेश्‍वर 100
▁प्रभावों 100
फिल 100
▁हमे 100
▁एरिया 100
▁रिजिजू 100
▁क्रांतिक 100
्लाद 100
▁बेचा 100
▁इमारतों 100
▁प्रदर्शनकारी 100
तब 100
ोजिट 100
▁डीसी 100
क्सिको 100
▁मुशर्र 100
▁सस्प 100
▁प्रेरितों 100
ैमान 100
▁हेर 100
▁2013-14 100
▁लड़कियां 100
ind 100
▁पापा 100
उद 100
मपुर 100
▁-- 100
▁डरो 100
▁फूट 100
▁मादक 100
▁बिगाड़ 100
वनी 100
▁रायगढ़ 100
▁वरीयता 100
▁शाखाओं 100
▁सदनों 100
मगर 100
▁लॉस 100
▁बहुतेरे 100
▁प्रगतिशील 100
रेल 100
▁मोट 100
▁बेसब 100
▁हासन 100
▁खरीदी 100
▁युज 100
▁कचरा 100
▁सौरभ 100
▁उच्चतर 100
िनार 100
ुम्ब 100
▁बंगला 100
▁जयंत 100
▁अक्षम 100
32 100
ोनिक 100
▁ताह 100
▁पक्षियों 100
▁हला 100
▁साइन 100
▁कृत्य 100
▁अभिनंदन 100
▁बुद्धिम 100
▁चंदा 100
▁मसला 100
▁हरीश 100
▁समेकित 100
▁इब्राहीम 100
▁वसा 100
▁हार् 100
▁दोहरे 100
▁कॉर्पोरेट 100
▁झंडी 100
▁दुर्ग 100
▁लिहाजा 100
▁श्रीराम 100
▁प्लेटफार्म 100
▁सील 100
▁सुलझ 100
▁हल्का 100
▁साधनों 100
▁श्रीकांत 100
नामी 100
मिक्स 100
▁इंटी 100
▁सुझावों 100
▁चश्म 100
▁समस्‍या 100
▁अक्‍टूबर 100
47 100
ॉइड 100
▁गोले 100
▁उपभोग 100
न्दु 100
▁सिडनी 100
▁प्रज्ञा 100
▁कम्प्यूटर 100
▁नगरपालिका 100
▁मुहर 100
▁पैसों 100
▁पाठ्यक्रमों 100
▁लीडर 100
aw 100
ite 100
▁(3) 100
▁असमान 100
▁जिसपर 100
▁वेणुगोपाल 100
▁मोती 100
▁मुस्क 100
▁विनियमन 100
.04 100
▁घटाने 100
▁विवादास्पद 100
ग्रेड 100
▁भड़का 100
शोर 100
▁रिकवरी 100
▁सहानुभूति 100
▁एण्ड 100
▁किराये 100
फू 100
ेंग 100
▁वॉर 100
▁लेटेस्ट 100
▁चुनि 100
▁वेल्स 100
▁अखंडता 100
▁फार्मा 100
▁» 100
▁पड 100
▁सुचार 100
▁जबरन 100
स्‍थान 100
▁रीमेक 100
▁होल्ड 100
आईजी 100
वाक्य 100
▁प्रजनन 100
▁प्रीति 100
▁अनुमोदित 100
▁1996 100
▁प्रश्‍न 100
▁ज़बरदस्त 100
.40 100
मध्य 100
▁ग्रस्त 100
▁झुका 100
▁ठंडा 100
▁वारंट 100
▁वीरभद्र 100
▁वैन 100
▁बाह्य 100
▁= 100
▁विद्यु 100
▁दिशानिर्देशों 100
▁खट 100
▁मक् 100
▁ऑडिट 100
▁छुपा 100
▁आत्मघाती 100
▁राजकोषीय 100
▁निविदा 100
ोरिया 100
▁म्यू 100
▁स्टेन 100
▁अर्धशतक 100
▁कन्हैया 100
▁उपभोक्‍ता 100
▁१६ 100
िज्ञ 100
▁आख़ 100
▁ऑर् 100
▁एनसी 100
▁नेहा 100
▁गुजराती 100
▁गैरकानूनी 100
▁फैसलों 100
▁अभियानों 100
▁खुदकुशी 100
▁हादसों 100
ंटा 100
▁पचास 100
▁मेरठ 100
▁देंगी 100
▁वस्तुएं 100
▁असंभव 100
लें 100
▁निस 100
▁सॉल 100
▁बढ़ाते 100
एली 100
.2016 100
▁बाएं 100
▁Jio 100
▁पायनियर 100
▁सुलैमान 100
माया 100
▁जगन 100
▁डाक्टरों 100
▁अनौपचारिक 100
ढे 100
हमारा 100
डान 100
आरपी 100
▁कार्गो 100
▁दुर्घटनाओं 100
▁मुजफ्फरपुर 100
▁शर्मनाक 100
तरित 100
▁टेस्टिंग 100
,990 100
▁सेबी 100
▁शिनाख्त 100
▁नॉन 100
▁1961 100
▁तेज़ी 100
▁वैधता 100
▁हिकमत 100
▁एजेंसियां 100
▁काटने 100
▁पवित्रा 100
प्रद 100
▁आलू 100
▁अय्यूब 100
तको 100
लीकरण 100
▁भुला 100
▁चोटिल 100
▁पाती 100
▁विकलांग 100
▁टॉर्क 100
▁पड़ते 100
▁अपर्चर 100
▁कोरियाई 100
▁दीक्षांत 100
old 100
▁टकरा 100
▁टाउन 100
काउंटर 100
▁एमएएच 100
▁ड्यूल 100
▁हेमंत 100
▁लाभकारी 100
▁चिर 100
▁हैकि 100
▁सनसनी 100
▁कृतज्ञ 100
▁दयालुता 100
▁उपाध्याय 100
फेस 100
▁खदान 100
▁फिरोज 100
▁मॉनसून 100
ill 100
गाई 100
▁ओबीसी 100
▁कारकों 100
▁उन्मूलन 100
▁इन्वेस्ट 100
लास 100
▁साइड 100
▁सीखना 100
▁एनटीपीसी 100
▁संभवत 100
▁अप्रिय 100
▁गैंगरेप 100
ापनों 100
▁ठिकानों 100
37 100
▁उड़ीसा 100
▁आवि 100
फिल्म 100
ांटिक 100
▁पहनने 100
▁विस्फोटक 100
pd 100
िनीन 100
▁नैनो 100
▁शृंखला 100
आईबी 100
▁यूएई 100
▁सेशन 100
▁भावुक 100
▁चाकू 100
▁बनें 100
▁तैमूर 100
▁जानकारियां 100
शिल 100
▁निरोधक 100
.45 100
दराज 100
▁एशियन 100
ंगर 100
गया 100
▁लाठीचार्ज 100
57 100
.01 100
ala 100
▁पटक 100
▁दहेज 100
▁ब्रांच 100
कुम 100
▁कुरिन्थ 100
▁SC 100
▁केवी 100
▁पैरों 100
▁बरसात 100
हीर 100
▁बेड 100
▁केशव 100
▁रंगों 100
▁विराम 100
▁महाप 100
▁करम 100
▁हिसार 100
▁एयरवेज 100
▁ट्रांसम 100
▁सीन 100
▁एफडीआई 100
▁फीड 100
▁इकबाल 100
▁रितेश 100
▁विहार 100
▁अनुकरण 100
▁आइडिया 100
▁तिहाड़ 100
▁स्टूडियो 100
▁इतर 100
▁शेन 100
▁रखिए 100
▁तिहाई 100
▁बिपिन 100
▁सपनों 100
▁प्रतिफल 100
▁ण 100
▁चुक 100
▁हटने 100
▁आज़ाद 100
▁मथुरा 100
▁शुल्‍क 100
▁उड़ानें 100
▁104 100
▁बरस 100
▁पुडु 100
▁गुरुद्वारा 100
षेध 100
▁दरिया 100
▁समझाने 100
▁140 100
▁करोड 100
▁स्वीकार्य 100
▁प्राची 100
▁लेह 100
▁वैसी 100
▁एमएसपी 100
उच्च 100
र्मल 100
▁इजाज़त 100
बैंड 100
▁1998 100
▁पूनम 100
▁हुकूमत 100
▁खरीफ 100
▁श्याम 100
▁सामंज 100
बेर 100
▁सरी 100
▁पिक् 100
▁सूबे 100
▁महाराजा 100
क़ुर 100
तियाँ 100
▁रिटायर 100
▁2010-11 100
▁भव 100
▁मिया 100
▁रिहाई 100
▁सस्ते 100
▁प्रवासियों 100
▁प्रत्याशियों 100
▁अंज 100
▁अकादमिक 100
▁स्‍थानीय 100
▁आपत्तिजनक 100
वॉ 100
स्मिक 100
▁लोकल 100
र्थियों 100
▁बनाएंगे 100
व्हा 100
▁हाईवे 100
▁हामिद 100
▁ड्रामा 100
▁क्रिसमस 100
▁चंद्रमा 100
▁गुरदासपुर 100
ingh 100
▁बैकअप 100
▁उपराष्‍ट्रपति 100
▁बग 100
▁कूद 100
▁निम्‍न 100
OS 100
▁नेताजी 100
▁युजवेंद्र 100
▁शिलान्यास 100
मोल 100
▁आँख 100
भाँति 100
▁रोमांटिक 100
रकों 100
▁लूत 100
▁बटाल 100
▁सहभाग 100
स्तु 100
ारिक 100
नायक 100
▁कैंड 100
▁हिन्दुस्तान 100
▁थिए 100
▁बाबुल 100
▁भिज 100
▁(200 100
▁श्वेता 100
इं 100
▁अपन 100
पादित 100
▁आयुर् 100
्लीकेशन 100
▁मुशर्रफ 100
▁मानसिकता 100
घ्न 100
▁एट 100
ेली 100
प्रा 100
▁13: 100
▁खेद 100
▁आर्य 100
▁फैली 100
▁बचना 100
▁ट्यूब 100
सुन 100
▁1. 100
▁डीलर 100
▁मैग् 100
दर्शक 100
▁समझाया 100
▁निर्भया 100
्यूर 100
▁जया 100
सियों 100
▁निकली 100
▁व्ह 100
▁सूद 100
▁उतरी 100
▁संयम 100
▁तहरीर 100
▁डिम 100
▁पैक 100
▁संग्राम 100
▁दिखी 100
▁एग्री 100
▁ग्राफ 100
▁चक्कर 100
▁परिपक्व 100
(1) 100
िराम 100
▁पर्दा 100
▁परत 100
ंडई 100
▁आवेदक 100
▁सुरंग 100
▁नेटवर् 100
▁मालिकों 100
▁प्रतिवर्ष 100
देना 100
▁काठ 100
▁संकल 100
▁कैलिफोर्निया 100
हिंद 100
▁गरम 100
▁बिम 100
▁आयुर्विज्ञान 100
▁ताना 100
चुरी 100
▁फ्लैग 100
▁सौंपने 100
▁di 100
वड़ा 100
▁बताओ 100
▁मित्रता 100
माम 100
▁क़ु 100
▁ग़लत 100
▁कार्ट 100
▁वृद्ध 100
टिक 100
▁लि‍ए 100
बद 100
▁सोनू 100
क्‍ट्र 100
68 100
▁असुर 100
वहन 100
▁व्र 100
▁कार्प 100
▁पूज्य 100
▁कुफ़्र 100
▁माओ 100
▁स्वप् 100
▁विधायी 100
▁वकाल 100
▁शोएब 100
▁डोभाल 100
▁कैलेंडर 100
ुखी 100
वेली 100
▁मयंक 100
▁मैसूर 100
▁साधते 100
▁जेडीयू 100
▁गाड़ियां 100
▁केंद्रशासित 100
▁वसीम 100
विरोधी 100
▁जलाने 100
▁स्विट् 100
▁भविष्‍य 100
आईएफ 100
क़ात 100
▁।""" 100
▁आज़ादी 100
▁चिल्ला 100
▁चुनिंदा 100
गौ 100
ाइजी 100
▁गोविंद 100
▁फोटोग्राफी 100
▁Ind 100
▁रुका 100
▁मृत्युद 100
▁हममें 100
▁ग्रेटर 100
▁पठानकोट 100
6, 100
ाइट 100
गरीय 100
▁टैगोर 100
▁नहरें 100
▁पैटर्न 100
▁परंपराओं 100
क्टी 100
▁बेल्जियम 100
▁सदस्‍यों 100
▁Ad 100
▁मीना 100
▁मौजि 100
▁सलीम 100
▁जंगली 100
▁गोपनीयता 100
ge 100
विच 100
िश्र 100
▁आहत 100
▁हाफिज 100
▁तड़ 100
▁वसूल 100
▁ट्रांसपोर्ट 100
।' 100
▁मार्केटिंग 100
69 100
▁एमओयू 100
▁तब्दी 100
▁बहुजन 100
▁भक्ति 100
▁सम्बोध 100
शास्त्री 100
ँसी 100
▁खज 100
▁नाल 100
▁बर्ताव 100
▁प्रकोष्ठ 100
▁अध्यापकों 100
ौनी 100
▁कन्या 100
▁फिलीपी 100
▁बाधाओं 100
▁इंतज़ार 100
ज़ों 100
▁उमा 100
▁अंतः 100
▁आगाह 100
त्तियां 100
▁नवो 100
ानुसार 100
▁प्रविष्ट 100
▁सर्टिफिकेट 100
▁१७ 100
▁अशु 100
▁चक्रवाती 100
▁विषा 100
▁हाथी 100
भौमिक 100
▁एपिस 100
▁नकार 100
नेड 100
▁6: 100
प्रण 100
IS 100
▁कदर 100
▁नमूना 100
▁पदभार 100
▁कियारा 100
▁शिविरों 100
▁संस्‍कृति 100
िन्यू 100
▁आईएफ 100
▁टीचर 100
ech 100
▁Day 100
▁चांस 100
▁लटका 100
▁वकालत 100
▁उद्यमी 100
▁बागवानी 100
▁पिंक 100
▁बश 100
▁बढा 100
▁यूके 100
▁फेस्टिवल 100
49 100
तै 100
फोर्स 100
▁पिला 100
▁पुख्ता 100
▁निर्णयों 100
▁फिक् 100
▁जिन्ना 100
▁गेम्स 100
▁ट्रांसमिशन 100
▁विलंब 100
▁नर्मदा 100
▁खरीदे 100
▁फुटबाल 100
▁इंडेक्स 100
▁दुल 100
टरिंग 100
प्रबंध 100
भ्र 100
▁एमडी 100
▁रिज़ 100
▁नियमन 100
▁रामपुर 100
ya 100
अमेरिकी 100
▁यथास्थिति 100
▁करन 100
▁4,000 100
▁उभरते 100
▁रात्रि 100
▁इकाइयां 100
▁लड 100
▁3,000 100
गोर 100
▁पूरक 100
एनजीसी 100
▁लम्बे 100
▁शुभकामना 100
िएशन 100
▁भाष 100
ज़त 100
▁वीक 100
▁चाचा 100
▁कैथोलिक 100
ates 100
▁मनाई 100
▁बीएसई 100
IR 100
फायर 100
▁पारिस्थितिकी 100
पुलिस 100
▁वाक्य 100
▁पुडुचेरी 100
▁खिलाडिय़ों 100
▁प्रतिभाशाली 100
आती 100
▁पदो 100
िनेशन 100
▁मंशा 100
▁ड्राइविंग 100
▁प्रिंसिपल 100
▁चिकित्‍ 100
्वाल 100
▁कॉन्फ्रेंसिंग 100
▁ओला 100
▁नेअमत 100
हाली 100
▁वॉच 100
▁जोड़ें 100
"") 100
▁जिन्‍ह 100
खने 100
▁रेशम 100
▁आँखों 100
▁प्रकाशितवाक्य 100
प्प 100
port 100
▁रोचक 100
जुद्दीन 100
▁गलियारे 100
▁प्रताड़ 100
शियम 100
▁हिंदुत्व 100
शो 100
ace 100
ॉनिक 100
▁कलेक्शन 100
77 100
▁आक्रो 100
▁जलमार्ग 100
▁महत्वाकांक्षी 100
ताएं 100
▁छापे 100
▁सौंद 100
▁अमेरिकन 100
▁गुंजा 100
▁डिलीवरी 100
▁एजेंडे 100
▁केयर 100
▁कनेक्ट 100
▁गंतव्य 100
जेड 100
ेशंस 100
▁वेंट 100
▁तप 100
▁पहुँचने 100
▁प्रतिष्ठान 100
जोरी 100
▁दबंग 100
▁समीकरण 100
▁पख 100
क्‍शन 100
▁पारा 100
उन्हें 100
.03 100
.35 100
ड़कर 100
अच्छा 100
▁क़ायम 100
▁गे 100
ुप्त 100
▁खासी 100
▁सुलभ 100
▁दोहरी 100
देशी 100
पटॉप 100
▁समूचे 100
▁मैनुअल 100
▁युक्ति 100
वण 100
▁विदा 100
▁अंतररा 100
▁सुसंगत 100
ूबी 100
▁नशी 100
▁जीवंत 100
▁अध्यापक 100
lip 100
पीओ 100
▁चौड़ा 100
IM 100
स्टा 100
थियुस 100
IP 100
▁उन्हे 100
▁सोव 100
ुराम 100
▁Cup 100
▁नेह 100
▁एपिसोड 100
त्‍म 100
▁आलम 100
▁एकाउंट 100
▁कॉमर्स 100
▁सुन्दर 100
▁ऑंख 100
▁बीत 100
▁अपनाई 100
▁इकोनॉ 100
▁विचाराधीन 100
रां 100
▁वक़्त 100
फिट 100
श्र 100
▁अवशेष 100
▁लाभों 100
▁पीएनबी 100
सीटीसी 100
▁विक्की 100
▁कसा 100
▁मुल्क 100
रब 100
मलव 100
▁यूक 100
▁किस्त 100
▁रॉकेट 100
▁शुमार 100
▁इंग्लिश 100
▁वैरिएंट 100
▁खड़गे 100
▁मुआवजे 100
▁स्‍मार्ट 100
▁जैकी 100
▁ख़ुशी 100
▁पराजित 100
▁हरसंभव 100
▁वित्तमंत्री 100
▁काउंटी 100
▁बीजिंग 100
3, 100
गीर 100
▁तबाद 100
▁मौद्रिक 100
वरकर 100
▁तालाब 100
▁रिपब्लिकन 100
ational 100
▁ख्वाहिश 100
कैद 100
▁चलाते 100
▁असामान्य 100
▁महानिदेश 100
▁उत्तरदायी 100
▁तीमुथियुस 100
▁प्रविष्टि 100
pr 100
वर्स 100
चढ़ाव 100
▁पीटा 100
6) 100
शैली 100
▁दहशत 100
▁करदाताओं 100
55 100
▁काजोल 100
▁विनम्र 100
सिन 100
ोही 100
▁जीपीएस 100
ach 100
तूस 100
▁दामों 100
▁पुस्तिका 100
दह 100
दिक 100
▁एनकाउंटर 100
AN 100
▁एडी 100
▁एलि 100
▁बलू 100
▁क़त्ल 100
▁जालंधर 100
▁मौर्य 100
▁सार्वभौमिक 100
ell 100
▁फिस 100
▁रचा 100
धीनगर 100
▁सम्पन्न 100
‍ि 100
मैया 100
▁अहले 100
▁वर्ण 100
▁गुज़ 100
▁इंटेलिज 100
िरे 100
▁गाया 100
48 100
▁कोचिंग 100
▁US 100
▁चलन 100
▁एसएस 100
▁देशी 100
▁खातिर 100
▁दशमलव 100
▁नेतृत्‍व 100
▁j 100
डेकर 100
▁सीसी 100
▁भूस्खलन 100
▁सैंप 100
टेलाइट 100
▁गर्लफ्रेंड 100
oron 100
इससे 100
भुता 100
▁शीला 100
▁सिफारिशें 100
ॉज 100
▁मोमिनीन 100
ंवर 100
बड़ा 100
▁वेट 100
▁पढ़ी 100
▁कैशबैक 100
लग 100
▁हब 100
▁शॉप 100
▁असदु 100
▁मसलन 100
▁लगाएं 100
▁ब्यौरा 100
▁स्टारर 100
▁संलिप्त 100
ष्ठी 100
▁घेरे 100
▁माइन 100
▁स्टे 100
▁रहनेवाले 100
पाही 100
▁हिला 100
▁देवताओं 100
7, 100
▁टंडन 100
▁अच्‍छ 100
षद 100
बाय 100
▁कोचर 100
कलापों 100
▁पुत्री 100
▁आपातकाल 100
मुसलमानों 100
।’’ 100
▁खाओ 100
▁पटा 100
क्राफ्ट 100
oh 100
▁डब 100
▁कौल 100
शिक्ष 100
▁कमजोरी 100
ंधा 100
मुक 100
▁(9 100
टाइम 100
▁डिक 100
▁पार्थिव 100
करीब 100
▁वसु 100
▁शेड्यूल 100
▁किरदारों 100
▁स्पेक्ट्रम 100
संह 100
▁अहसास 100
▁विहित 100
▁बैठकर 100
▁मार्श 100
▁सम्भव 100
▁हेनरी 100
▁शरणार्थियों 100
ारिया 100
▁संघों 100
बडे 100
वाय 100
पत्तन 100
▁फिक्स 100
ेटिक 100
▁प्रमोद 100
▁वॉशिंगटन 100
पय 100
गामी 100
▁ऑस्ट 100
▁\""""" 100
▁अवज्ञा 100
▁हाइड्रो 100
▁वोल्ट 100
▁दांव 100
▁सुधीर 100
▁चालकों 100
▁स्वैच्छिक 100
ber 100
परा 100
िडेट 100
▁तत्पर 100
▁नवजात 100
▁स्किल 100
▁आवागमन 100
▁क्लिंटन 100
▁गांधीनगर 100
तुति 100
▁ICC 100
तिक्र 100
▁काशी 100
▁न्‍यू 100
▁एंटरटेनमेंट 100
▁अर्द्ध 100
ah 100
बदल 100
▁गिनी 100
▁टिप्पणियों 100
▁भूत 100
▁भरें 100
▁मेक्सिको 100
▁परिवर्तनों 100
▁ग्लेन 100
irus 100
म्पर 100
▁नामजद 100
▁प्लाज 100
▁गुंजाइश 100
▁क्षमाशील 100
▁सामान्यतः 100
बीह 100
▁घम 100
▁राध 100
▁मेनन 100
लेरिया 100
▁सिखाने 100
▁शक्तियां 100
▁अनाव 100
▁हरिद 100
अस 100
ual 100
▁हनी 100
▁उपाधि 100
▁मूर्ख 100
▁वर्गीकृत 100
▁सीमावर्ती 100
▁खैर 100
▁अनावरण 100
▁प्वाइंट 100
▁वित्तपोषण 100
▁शास्त्रीय 100
▁बख 100
▁कारप 100
▁विलास 100
▁रिलेशन 100
▁फ़ॉ 100
▁अनदेखी 100
▁डिप्लो 100
ारस 100
▁शत 100
▁सीरीज़ 100
▁प्रदत्त 100
▁विश्राम 100
▁अस्‍पताल 100
र्मित 100
▁लूका 100
▁मिलीं 100
▁बांटने 100
नक 100
ash 100
उसकी 100
▁जातीय 100
▁Me 100
▁नेहवाल 100
▁बन्दगी 100
िलो 100
▁जोसेफ 100
▁अन्तिम 100
थियों 100
देशीय 100
▁1980 100
▁स्वत 100
▁टेक्स 100
▁मॉल 100
▁Price 100
▁सिंधू 100
हालांकि 100
▁विलियमसन 100
गमेंट 100
▁मर्द 100
▁कार्यान्‍वयन 100
ust 100
ुल्ला 100
▁लाकर 100
▁शुरूआती 100
▁चिकित्सीय 100
▁प्रतिज्ञा 100
pl 100
▁नमन 100
▁सुपु 100
38 100
.2014 100
▁कारतूस 100
प्थ 100
एमआई 100
▁ऋषभ 100
▁1984 100
▁दार् 100
▁प्रह 100
▁राजकोट 100
▁जफर 100
▁एमजी 100
▁स्वयंसेवक 100
म्पा 100
▁धर्मशाला 100
ोनें 100
▁उतारे 100
▁लोकपाल 100
अंदाज 100
▁मंजिल 100
्रपान 100
▁पुरस्कृत 100
जेट 100
62 100
समझ 100
▁सजदा 100
स्टर्स 100
▁भांति 100
▁अभिलेख 100
▁आंखें 100
▁पद्मा 100
▁परिणी 100
▁कट्टरप 100
▁नौजवान 100
▁हज़ 100
▁नकली 100
▁कैडेट 100
▁सिपाही 100
▁रविचंद्रन 100
ाक 100
▁गला 100
▁कोटक 100
▁आकांक्षाओं 100
जीब 100
एनआर 100
जिंग 100
ब्बर 100
▁1.2 100
▁मेमोर 100
▁आकस्मिक 100
▁चमत्कार 100
▁क्रांतिकारी 100
नाड 100
ज्जित 100
▁हड्ड 100
छात्राओं 100
▁गुनाहों 100
▁जरूरतमंद 100
रर 100
ome 100
▁Khan 100
▁बिजी 100
▁पेड़ों 100
▁अनुक्रम 100
)- 100
zon 100
▁संयोग 100
▁बाली 100
▁अगुआई 100
▁घेराब 100
▁मुख्यातिथि 100
▁खाद 100
▁निकालकर 100
प्ताहिक 100
▁इस्‍पात 100
▁लाभदायक 100
टिन 100
नेल 100
साफ़ 100
▁फंसा 100
्यादती 100
▁उपद्र 100
▁एक्सिस 100
▁पशुपालन 100
▁मुक्केबाज 100
▁अंद 100
्राष्ट्रीय 100
राइट 100
▁गोपी 100
▁सावरकर 100
▁पुनर्व 100
▁हिना 100
▁राजस्‍थान 100
▁मझ 100
▁इंगल 100
▁माधव 100
▁मुबार 100
वर्तमान 100
पोल 100
ंतपुरम 100
▁उम्रकैद 100
▁लता 100
▁क्रो 100
▁स्वाद 100
▁ज़माने 100
मेन 100
ंघाई 100
▁बोन 100
▁पोषक 100
▁लैपटॉप 100
ताज 100
ौला 100
▁खै 100
ष्टिक 100
▁स्थाई 100
▁सभापति 100
▁व्यायाम 100
▁ज़ालिमों 100
▁3, 100
▁माध्यस्थ 100
▁सांसारिक 100
▁भावनात्मक 100
▁कार्यवाहक 100
▁02 100
ब्लू 100
▁फेफ 100
्यवहार 100
▁रिफाइन 100
▁दीपावली 100
▁पुस्तकें 100
▁संकाय 100
▁निष्का 100
▁अपमानजनक 100
गिन 100
▁ओमान 100
▁नासा 100
▁ठहराए 100
▁सामग्र 100
▁पांचवीं 100
▁इंडिगो 100
▁कोमल 100
▁सुलझा 100
▁गार्डन 100
▁नज़दीक 100
▁उपेक्षा 100
▁तत्वदर्शी 100
िस्म 100
▁चावला 100
▁अभ्यर्थी 100
▁मुनाफे 100
▁हानिक 100
खु 100
्‍चित 100
▁अंडे 100
▁मानती 100
▁एनसीआर 100
▁मोन 100
वर्गीय 100
▁एनजीओ 100
▁उपर्युक्त 100
▁समीर 100
वर्षीय 100
▁करुणा 100
ेए 100
ड्ढा 100
▁मैग 100
▁हौसला 100
▁अंबाला 100
▁परिसरों 100
▁रिश्‍ते 100
अभी 100
फोन्स 100
▁डालना 100
▁दुर्व 100
▁प्राणी 100
▁घूमने 100
▁बेंगलूर 100
पेड 100
▁कड़ 100
एशिया 100
▁औरतें 100
▁पुरात 100
▁सामंजस्य 100
▁कुट 100
▁किला 100
▁सजग 100
▁सत्रों 100
▁असदुद्दीन 100
किब 100
▁हैस 100
▁घनिष्ठ 100
▁उच्चायुक्त 100
न्नू 100
र्जित 100
▁बीसीएम 100
▁मल्लिक 100
▁घेराबंदी 100
▁सिक्योरिटी 100
संत 100
ोंस 100
तिपय 100
▁जिंद 100
▁उत्ते 100
▁कमिंस 100
▁अभिप्रे 100
▁डिपार्टमेंट 100
▁रिश्तेदारों 100
स्की 100
.02 100
ंटे 100
ईपी 100
ठित 100
▁कुक 100
ित्‍व 100
▁2030 100
▁देवे 100
▁देगें 100
▁छोड़ना 100
▁पंड्या 100
pt 100
दानिक 100
▁बेसब्री 100
रिफ 100
क्टा 100
▁गियरबॉक्स 100
▁पहच 100
▁उपदेश 100
▁कार्यकार 100
अग 100
kart 100
▁तुष 100
▁सुशासन 100
▁लॉजिस्ट 100
▁सहभागिता 100
▁शम 100
▁मिनी 100
▁बोबडे 100
▁मापदंड 100
▁2012-13 100
नार 100
▁कैच 100
विदों 100
▁पानीपत 100
▁पुनरुत्थान 100
ठिंडा 100
▁□ 100
▁इमाम 100
स्‍तुत 100
▁कार्ल 100
ंबन 100
▁Flip 100
▁आंधी 100
▁ढाका 100
▁सुखबीर 100
▁वामपंथी 100
▁काफ़िरों 100
▁हानिकारक 100
▁चिकित्‍सा 100
▁08 100
ogle 100
▁अनमोल 100
▁केलिए 100
▁डेप्थ 100
▁आइपीएल 100
▁उम्मीदें 100
▁प्रोफाइल 100
▁हुंडई 100
▁वांछित 100
100 100
जाद 100
▁BS 100
▁डिटे 100
▁बांड 100
▁काफिरों 100
ियनों 100
▁खेतों 100
▁सुगमता 100
ुअ 100
▁नाथन 100
ैटिक 100
िलेरी 100
▁जेईई 100
ियलिटी 100
▁Board 100
▁मजेदार 100
▁रॉक 100
▁डॉक्ट 100
▁प्रिया 100
▁विक्रय 100
.’ 100
▁जीवों 100
▁बनाएगा 100
▁चिन्हित 100
ket 100
▁अनन्त 100
▁चाइना 100
▁सैनिट 100
▁विस्तारित 100
72 100
▁वल्ल 100
71 100
▁डां 100
▁तुम्हे 100
▁सीपीआई 100
▁गावस्कर 100
सै 100
पाट 100
▁फारूक 100
ऊं 100
▁वक् 100
▁बसें 100
▁सद्भाव 100
▁सीताराम 100
▁नौकरियां 100
स्वती 100
▁तब्दील 100
▁मैक्रो 100
लेखक 100
▁पटकथा 100
▁सावंत 100
▁राजाओं 100
▁सराहनीय 100
▁खरे 100
▁फौज 100
▁माई 100
आधारित 100
▁सोवियत 100
oto 100
ाल् 100
▁pro 100
▁कीट 100
▁प्रां 100
▁प्रदाता 100
सूसी 100
▁450 100
▁सप्‍ 100
.85 100
सम्मति 100
▁रामदेव 100
▁नवाजुद्दीन 100
ाहि 100
▁CM 100
ष्णुता 100
▁बंटवारे 100
बास 100
▁लख 100
▁आपूर् 100
▁कास्ट 100
▁अधीनस्थ 100
▁जिनपिंग 100
▁05 100
ट्टे 100
▁गर्दन 100
▁वीडिय 100
लाम 100
▁Al 100
▁ac 100
▁कहेगा 100
79 100
▁09 100
म्भीर 100
▁अभिर 100
▁अफरीदी 100
IA 100
▁1.4 100
▁प्रि 100
▁हारून 100
स्त्रों 100
▁निर्मल 100
▁फर्नांड 100
▁तम् 100
▁नीत 100
कार्ड 100
▁एलेक्स 100
▁जासूसी 100
▁नर्सिंग 100
oor 100
प्रत्येक 100
▁पूछना 100
▁कोशिशों 100
जीवी 100
▁भया 100
र्माने 100
▁चलेगी 100
▁सम्बन्धी 100
▁सेमिन 100
एमए 100
▁कर्ण 100
▁स्वे 100
▁हड़कंप 100
▁प्रस्‍तुत 100
▁नद 100
▁तबी 100
▁घुटने 100
▁1992 100
▁बोतल 100
▁मैन्यु 100
84 100
▁लां 100
▁ऑप्ट 100
▁चड्ढा 100
▁भास्कर 100
▁अमरनाथ 100
EE 100
▁चैट 100
▁नरम 100
▁डिप्लोमा 100
सक 100
▁or 100
▁तदन 100
▁पोट 100
-2018 100
▁नीतियां 100
▁परिणीति 100
olog 100
आरडी 100
▁बदली 100
▁क़ुबूल 100
रीद 100
प्रे 100
▁होट 100
▁कच्चा 100
▁आदमियों 100
▁क्रिकेटरों 100
▁अर्थव्यवस्थाओं 100
बाप 100
ियॉ 100
▁भट 100
माना 100
ैतिक 100
▁कठिनाइयों 100
▁यूरिया 100
▁रामपाल 100
▁पर्यावरणीय 100
▁सबरी 100
▁क्लिप 100
▁स्क्र 100
अपना 100
▁लाज 100
पुरुष 100
▁बाबर 100
▁पीएचडी 100
▁बवाल 100
▁लक्षणों 100
▁गुणवत्‍ता 100
...] 100
हिया 100
▁खंग 100
▁एम्ब 100
▁निकाह 100
83 100
िओ 100
र्मन 100
▁कार्ति 100
.60 100
ेशर 100
▁मठ 100
▁चटर्जी 100
▁समकालीन 100
.80 100
CCI 100
▁124 100
्रेटरी 100
▁अभिला 100
▁न्यास 100
चिस्तान 100
▁कंधे 100
▁तुषार 100
▁गुड़गांव 100
वार् 100
▁धनी 100
▁कदापि 100
▁लैंडिंग 100
सामने 100
▁चौंकाने 100
.2015 100
बरेली 100
▁1993 100
▁नारा 100
कुमारी 100
▁अग्रसर 100
▁चांसलर 100
▁लाइब्रे 100
▁04 100
▁2. 100
▁Pl 100
▁डायल 100
▁फ्लू 100
▁हवाईअड्डे 100
sp 100
▁घोषण 100
▁यादगार 100
▁नैदानिक 100
▁बटालियन 100
▁नियंत्रक 100
क्सो 100
▁करूं 100
▁हवाओं 100
तकोत्तर 100
▁प्रतिरक्षा 100
ef 100
अफ 100
▁170 100
▁फ़ाय 100
▁शेल 100
▁सिंड 100
िटल्स 100
▁चन्द 100
▁Flipkart 100
▁अंग्रेजों 100
▁नारियल 100
▁यथार्थ 100
▁गांधीजी 100
सीबीआई 100
प्राप्त 100
▁निरीक्षक 100
▁अड़ 100
▁एएम 100
66 100
▁Un 100
यहोवा 100
तई 100
▁देसी 100
▁बदतर 100
▁हीरा 100
▁तरीक़े 100
▁इंटेलिजेंस 100
▁अनी 100
▁नाप 100
च्‍छा 100
▁अयस्क 100
▁उपरांत 100
▁कुश्ती 100
▁चित्रित 100
खला 100
ब्बी 100
▁ओपी 100
विश्व 100
▁मस्ती 100
▁ओएनजीसी 100
▁छात्रवृत्ति 100
नाइज 100
▁1991 100
▁बारा 100
▁वैधानिक 100
▁रसूलों 100
▁विशेषताएं 100
ppo 100
विव 100
▁पढ 100
▁सिले 100
▁ऑलराउंडर 100
▁पक्षकारों 100
रेस 100
ि‍त 100
ight 100
ोवाल 100
▁पुत 100
महिला 100
▁केबल 100
ile 100
▁नं 100
▁काश 100
avirus 100
▁कक्षाओं 100
▁वेबिनार 100
▁टैक्सी 100
बात 100
▁बालिका 100
▁सक्सेना 100
▁स्टूडेंट 100
▁.. 100
▁189 100
▁जोग 100
ाध्यक्ष 100
▁रहूंगा 100
ड़ला 100
▁कतिपय 100
▁तबीयत 100
▁केदारनाथ 100
▁धूम्रपान 100
▁सुविधाजनक 100
PF 100
-09 100
नूल 100
▁काफ 100
▁सोलर 100
▁नजरअंदाज 100
orm 100
परस्त 100
▁पीपी 100
▁हैऔर 100
▁चलाना 100
▁सरकशी 100
.65 100
▁सेवानिवृत्ति 100
बिट 100
आईवी 100
▁वज़ 100
-200 100
▁पाम 100
▁न्यो 100
▁रूचि 100
▁एएनआई 100
▁परसतिश 100
▁कुरिन्थियों 100
▁रेस्त 100
्रार 100
▁गम्भीर 100
▁निकलता 100
▁रियलमी 100
▁पेशेवरों 100
▁जिम्‍ 100
▁रोबोट 100
▁हेलिक 100
▁गलतियों 100
▁वस्‍तुओं 100
▁प्रतिष्ठानों 100
▁धर्मी 100
▁तारीखों 100
▁हसीना 100
▁कर्तव्यों 100
एलसी 100
र्ज़ 100
▁छः 100
▁किशोरी 100
▁उत्तराधिकारी 100
▁मुन 100
▁कराते 100
▁हैरानी 100
▁स्‍वच्‍छता 100
▁बन्दे 100
दायित्व 100
दृष्टि 100
▁लड़ते 100
▁काउंटर 100
ens 100
▁खिस 100
▁चाँ 100
▁3000 100
▁मादा 100
▁संगो 100
ोत 100
▁जाट 100
▁टाई 100
▁नैतिकता 100
▁प्राधिकार 100
▁बहुपक्षीय 100
.70 100
एएल 100
▁बेचे 100
▁मुश्किलें 100
▁साप्ताहिक 100
51 100
▁थिएटर 100
▁हैसियत 100
▁अड 100
छोटे 100
▁वेग 100
▁पत्‍ 100
▁रिसे 100
▁हिलेरी 100
▁दावेदार 100
▁शॉ 100
▁चोरों 100
▁चिपसेट 100
▁सर्वसम्मति 100
▁अरूण 100
▁ब्रह्मा 100
▁विश्लेषकों 100
mazon 100
▁अकार 100
▁इस्र 100
▁बाक़ी 100
▁गिरिराज 100
त्तों 100
▁कटाई 100
▁दंपति 100
▁कार्यकारिणी 100
▁कण 100
▁साब 100
▁साहित्यिक 100
रेकर 100
सवाल 100
▁अम्बाला 100
▁प्रैक्ट 100
▁यूक्रेन 100
▁स्टार्क 100
▁मग 100
▁सांग 100
▁जीतना 100
▁मृतका 100
▁उपर 100
▁बनाएँ 100
▁दिखाती 100
▁प्रजाति 100
▁विभागीय 100
▁सरस्वती 100
▁शिवकुमार 100
▁विक्रेताओं 100
ओवर 100
तिक्रमण 100
▁जोड़कर 100
▁बुलाने 100
▁प्राचीनों 100
▁उस् 100
▁Singh 100
▁जिम्म 100
▁मांगें 100
▁जुर्माने 100
वेरी 100
साथी 100
▁ओली 100
▁डिस 100
▁कुरु 100
▁जमाने 100
▁आर्टिकल 100
▁गों 100
▁महापौर 100
▁मेमोरियल 100
जंग 100
▁रूह 100
▁राजमार्गों 100
छे 100
जनी 100
बसपा 100
▁बच्‍ 100
▁लाता 100
▁उभरती 100
▁एक्सेस 100
▁मल्लिकार्जुन 100
▁y 100
▁बठिंडा 100
▁अद्वितीय 100
ब्बू 100
▁घास 100
▁सोनाली 100
▁वाणिज्‍य 100
अंतर 100
जेक्ट 100
▁प्रभुत्वशाली 100
FC 100
.19 100
▁("" 100
▁पते 100
▁शंघाई 100
▁मानचित्र 100
गंगा 100
बांग 100
न्नों 100
▁अजमेर 100
▁अर्ज़ 100
▁दिव्य 100
▁मनाते 100
▁रिस्प 100
▁मुख्यतः 100
▁नाइजीरिया 100
bo 100
जरत 100
ोकन 100
भिन्न 100
▁रुके 100
र्वे 100
पीसीएल 100
▁मंचों 100
▁आसमानों 100
▁सिनेमाघरों 100
ओमी 100
हीत 100
▁हरिद्वार 100
▁स्नातकोत्तर 100
जग 100
▁1971 100
▁रोके 100
▁रिफंड 100
▁चर्चित 100
▁मुबारक 100
▁घोर 100
ालिया 100
▁रोमन 100
▁[...] 100
▁वयस्क 100
▁बनाएगी 100
▁स्कूटर 100
▁मांसपेश 100
गुरु 100
प्रभु 100
▁मूंग 100
्लिकेशन 100
-30 100
▁डें 100
▁हेग 100
▁स्वप्न 100
वही 100
▁एनबी 100
▁नम्बर 100
▁सान 100
▁1950 100
▁सोया 100
▁कैंडिडेट 100
▁यम 100
▁व्रत 100
▁गुरमीत 100
देय 100
▁काय 100
▁पिछड़ा 100
▁लाभार्थी 100
▁संगीतकार 100
ग़रज़ 100
▁कोल् 100
▁पूछो 100
▁अभिक 100
▁आरके 100
▁त्यागी 100
▁एकजुटता 100
▁हिस्‍से 100
▁बघ 100
▁फज़ल 100
▁कौशिक 100
▁तापसी 100
▁वादों 100
▁जॉनी 100
क़ुरान 100
▁यूएसबी 100
▁सर्जिकल 100
▁अभिप्रेत 100
36 100
TE 100
ेरों 100
▁समन्वित 100
दयाल 100
▁छावनी 100
वॉट 100
एनपी 100
▁सल् 100
राहुल 100
▁करुण 100
▁पाटी 100
▁सूखा 100
▁ग्वाल 100
▁नौवहन 100
अन्य 100
▁सहेज 100
▁डेनमार्क 100
▁संप्रभुता 100
महल 100
▁इने 100
▁पिक 100
▁सुखद 100
स्थापन 100
▁निकोल 100
▁प्रभास 100
▁इफ 100
▁करारा 100
धिकृत 100
ख्तेयार 100
▁जोड़ना 100
▁प्रान्त 100
चूड़ 100
▁पनडु 100
▁उन्‍न 100
▁06 100
▁वेश 100
प्रेस 100
खो 100
▁ग्रोथ 100
▁पत्रकारिता 100
▁नवाजा 100
▁रुझान 100
▁सामान्‍य 100
▁03 100
▁पिस्टल 100
▁सेरे 100
▁नेपाली 100
▁माइक्रोस 100
उड 100
odi 100
इसी 100
▁बेयर 100
▁फटकार 100
▁स्किन 100
▁निकलते 100
▁निवेदन 100
▁पात्रता 100
.2017 100
▁मृदा 100
▁स्विट्जरलैंड 100
▁आति 100
▁बेग 100
▁बिड़ला 100
▁(20 100
▁उदा 100
▁नवाब 100
▁सेक्रेटरी 100
गर् 100
▁रंज 100
▁छापा 100
▁कैम्प 100
▁शिरोम 100
नेकर 100
▁उल्लिखित 100
▁फलस्वरूप 100
,' 100
▁Ar 100
▁कोंक 100
▁अकेली 100
▁Amazon 100
▁सुपुर्द 100
▁मूल्यवान 100
▁1997 100
▁कपड़ों 100
▁भट्टाचार्य 100
81 100
.90 100
ेला 100
▁गोया 100
▁कुणाल 100
▁ट्रोल 100
▁सेगमेंट 100
ोकर 100
▁आंत 100
▁प्रगा 100
▁अतिक्रमण 100
▁Upd 100
▁बीती 100
्यन 100
▁बजर 100
कीर्ण 100
व्हाण 100
▁एक्‍स 100
▁मौखिक 100
▁जनादेश 100
▁मैक्सवेल 100
साइज 100
▁पढ़ना 100
▁पिस्त 100
are 100
---- 100
▁दर्शाती 100
▁जल्दबाजी 100
▁ढ़ 100
▁अभ्यर्थियों 100
▁अरेस्ट 100
▁निपटारा 100
नें 100
माटर 100
▁गनी 100
▁साहेब 100
▁दिलजीत 100
▁वाक़िफ़ 100
जिक 100
ence 100
▁आदिल 100
▁एल्बम 100
▁वेंटिल 100
ऐसी 100
धीय 100
वर्द्ध 100
▁इकट्ठे 100
▁दुर्घटनाग्रस्त 100
▁मिठ 100
ाइलों 100
▁वाकि 100
▁सुदूर 100
▁जुड़ाव 100
ौग 100
▁धक्का 100
▁उतारने 100
▁शर 100
▁Air 100
▁ढाल 100
▁वाचा 100
▁जल्‍द 100
▁बदलावों 100
▁कमाने 100
▁सिखों 100
▁रिव्यू 100
▁निर्भरता 100
NU 100
▁वड 100
स्टो 100
▁लिखना 100
▁नोकिया 100
▁बड़ौदा 100
नीर 100
▁झुल 100
▁रीड 100
शिवसेना 100
िस्ट्री 100
▁बिस्तर 100
▁2009-10 100
टीओ 100
▁घटित 100
▁हैरी 100
▁आईटीसी 100
▁श्रेयस 100
▁महाभारत 100
▁आनन 100
पुत्र 100
▁ईपीएफओ 100
▁आयत 100
▁सफ़ 100
▁करनेवाली 100
ऊल 100
र्तन 100
▁थाम 100
ंबाकू 100
▁आईएनए 100
▁प्रॉप 100
▁मुहिम 100
▁बीवी 100
ेंटीना 100
74 100
▁अलब 100
▁शिया 100
▁करारी 100
▁टीसीएस 100
बीसीसीआई 100
.95 100
‍िल 100
्यूम 100
▁अहं 100
▁Bank 100
▁राजभवन 100
eal 100
बैंक 100
कायदा 100
ख़बरी 100
▁परिवेश 100
ंबू 100
त्याशित 100
डाल 100
कास्ट 100
प्रणाली 100
▁चव्हाण 100
रीश 100
ामाद 100
▁1500 100
▁फूलों 100
▁पीढ़ियों 100
▁विनिश्चय 100
बारे 100
▁लेग 100
▁नारी 100
▁खुराक 100
▁मिलनी 100
▁सिरसा 100
▁दीवारों 100
▁क्वालिटी 100
▁ईमानवालों 100
सायी 100
स्पेस 100
▁उठाई 100
ड्रिंग 100
▁गीतों 100
oronavirus 100
▁कैन 100
▁जंगलों 100
▁प्राइस 100
चड़ 100
▁डै 100
▁अवय 100
▁जोंग 100
▁ताहिर 100
▁हराने 100
न्नाथ 100
▁ठाणे 100
आपको 100
र्ते 100
▁ग्रेजुएट 100
चाल 100
▁उलझ 100
▁यों 100
▁धोखे 100
▁प्रोड्यूसर 100
▁मक़ 100
▁कारबार 100
▁शर्तें 100
76 100
82 100
बर्न 100
▁बिख 100
▁कमिटी 100
▁सोनीपत 100
▁हाउसिंग 100
कई 100
र्टर 100
▁ईयर 100
विष्ट 100
▁पेशा 100
per 100
जाल 100
▁इम् 100
▁Oppo 100
▁कॉम्प 100
▁चुकाने 100
▁इकल 100
▁बंधक 100
▁तकलीफ़ 100
▁सहकारिता 100
हमति 100
▁कुदर 100
▁अनुपस्थिति 100
कहा 100
टने 100
माई 100
▁मसलों 100
▁हैंडसेट 100
पट्ट 100
▁बाजी 100
▁बैठी 100
▁स्क्रिप्ट 100
ग्‍ 100
▁बृ 100
पिछले 100
▁रश्म 100
▁बोल्ड 100
▁संशोधनों 100
ft 100
फाल 100
▁वु 100
▁कंब 100
्यंत्र 100
▁निकालना 100
▁एंड्रॉइड 100
कोश 100
▁रं 100
जना 100
भास 100
मिया 100
वरीय 100
▁अंकुश 100
▁टमाटर 100
▁ओपनिंग 100
वनंतपुरम 100
▁दिखेंगे 100
विवाद 100
▁नम्रता 100
▁राधिका 100
46 100
▁सड 100
▁1995 100
▁Indi 100
▁परफॉ 100
▁रिंग 100
▁कैंपस 100
▁क्वालीफाई 100
▁फ्रेंचाइजी 100
टीपी 100
▁खर् 100
▁लोहे 100
▁जरुरी 100
▁मासूम 100
▁ब्राह्मण 100
िसिन 100
▁वॉर्नर 100
▁मार्जिन 100
▁गिरफ़्तार 100
▁पेस 100
▁बान 100
दुर्ग 100
▁इमेज 100
▁टावर 100
▁शोभा 100
ेन्‍द्र 100
▁रोमांस 100
ॉयस 100
ोनी 100
,900 100
▁बांटा 100
▁निर्वहन 100
▁अल्म 100
▁सोचिए 100
▁जीवनसाथी 100
ta 100
▁पला 100
प्रथम 100
ियामत 100
ोलिया 100
▁धूमल 100
▁बदनाम 100
▁उस्मान 100
▁घरवालों 100
▁पतन 100
▁आगाज 100
▁झगड़ 100
▁टीजर 100
▁Google 100
सूर 100
▁डेंगू 100
▁चिह्नित 100
एमपी 100
गराज 100
हाट 100
▁तान 100
▁रामायण 100
▁व्याप्त 100
▁गोस्वामी 100
खाना 100
त्विक 100
▁सुधर 100
▁कराधान 100
▁हज़ारों 100
▁रायबरेली 100
जीन 100
▁सबूतों 100
▁आयाम 100
▁स्थानांतरण 100
▁रघ 100
▁असीम 100
▁तर्ज 100
लीड 100
कथित 100
ाबेस 100
▁सज्जन 100
▁क़ुरआन 100
▁पर्सेंट 100
▁सिद्धान्त 100
▁3. 100
oday 100
मुखी 100
▁तटर 100
ॉर्डन 100
र्वेदी 100
▁15,000 100
▁लाइब्रेरी 100
▁चेत 100
▁ट्राफी 100
▁शीतकालीन 100
▁गढ़वाल 100
▁प्रगाढ़ 100
▁देशभक्ति 100
▁निराशाजनक 100
लए 100
▁एस् 100
जम्मू 100
▁पागल 100
▁कोहरे 100
▁हेल्पलाइन 100
िनो 100
निहित 100
न्नति 100
बार्ड 100
▁कोले 100
▁कंटेनर 100
▁प्रहरी 100
▁पिस्तौल 100
एड 100
▁कंड 100
▁पोलैंड 100
▁कार्यबल 100
ुदरत 100
▁एकाद 100
▁एनसीसी 100
▁मनोवैज्ञानिक 100
जून 100
चकों 100
▁जिन्ह 100
▁यॉर्क 100
▁संदाय 100
▁पलटवार 100
▁रूख 100
इसमें 100
▁दामाद 100
▁विफलता 100
▁टेलीकॉम 100
▁द्वीपों 100
लकर 100
▁फेज 100
प्टर 100
▁अंगों 100
▁घराने 100
▁ब्राउ 100
▁इंगलैंड 100
ासपुर 100
▁जीना 100
▁निबंध 100
▁भाटिया 100
▁जगन्नाथ 100
CP 100
महारा 100
▁एथलीट 100
▁नक्सलियों 100
▁109 100
आरओ 100
राईल 100
ापत्र 100
▁आईआई 100
▁तंबाकू 100
Name 100
▁बलर 100
▁सरो 100
▁ताकतवर 100
तुम्हारे 100
▁डीडी 100
▁वीरता 100
▁भागीदारों 100
▁दुश 100
िल्ला 100
▁Exam 100
▁पंचा 100
▁भयावह 100
▁प्रख्यात 100
▁समारोहों 100
▁विश्‍लेषण 100
▁स्मार्टफोन्स 100
हरों 100
कार्प 100
▁तितर 100
▁बाहम 100
नोलॉजी 100
▁नेत्र 100
ध् 100
म्मा 100
▁1947 100
क्‍ताओं 100
प्रतिनि 100
▁दार्शन 100
▁डेटाबेस 100
▁कैपिटल्स 100
▁श्रद्धालु 100
आधार 100
सबसे 100
▁सवारी 100
56 100
▁क़िस्म 100
पृ 100
ौरा 100
▁ग्य 100
▁शिपिंग 100
▁प्रतिपक्ष 100
वंशी 100
ुकला 100
▁इलाका 100
▁पेडनेकर 100
▁रिश्‍ता 100
▁सरपरस्त 100
▁सेलिब्र 100
कल् 100
▁ढाई 100
वाड़े 100
▁मेनका 100
▁अनुशंसा 100
▁सौंदर्य 100
यंकर 100
युक्‍त 100
ोदरा 100
▁काबुल 100
▁बतायी 100
आरए 100
▁लियो 100
▁पढ़कर 100
▁गर्मियों 100
▁चतुर्वेदी 100
ईएस 100
▁ढी 100
ेंदर 100
्लील 100
▁चलें 100
▁वृत्त 100
▁सकने 100
स्वास्थ्य 100
▁अप्रत्याशित 100
▁पान 100
▁प्यारे 100
▁प्रचारक 100
,400 100
▁कोत 100
पत्रों 100
▁त्रास 100
रादित्य 100
़ा 100
▁घने 100
▁रैप 100
▁चोटी 100
▁स्नेह 100
▁निर्या 100
▁ग्वालियर 100
केयर 100
▁चिन 100
▁रोहन 100
▁स्‍वतंत्र 100
eath 100
▁ईशा 100
▁खासा 100
▁छत्र 100
चाने 100
▁मुगल 100
▁सिगरेट 100
▁संतोषजनक 100
विलास 100
्‍यास 100
▁गौड़ा 100
▁भतीजे 100
▁नवम्‍बर 100
▁दुर्व्यवहार 100
▁RBI 100
▁फ़्र 100
▁आईसीए 100
▁एसएचओ 100
▁सीखते 100
▁वस्तुत 100
▁सुचारू 100
42 100
EO 100
िकता 100
▁कैमरों 100
राट 100
▁चीज़े 100
▁जिलाधिकारी 100
्योरा 100
▁वल्लभ 100
61 100
▁1.3 100
▁बोध 100
▁विक्ट 100
▁चित्रण 100
▁कम्युनिक 100
शब्द 100
▁तद 100
ठीक 100
▁सीडी 100
▁महीना 100
▁वैद्य 100
हता 100
▁घंटा 100
▁ट्राई 100
▁कारगिल 100
▁शिक्षाओं 100
मेड 100
▁जनों 100
▁टीबी 100
▁डेली 100
▁कराएगा 100
▁इथ 100
चारे 100
▁इंतज़ाम 100
▁एप्लीकेशन 100
▁विज्ञापनों 100
▁सामग्रियों 100
▁07 100
▁5, 100
▁चिन्ता 100
▁175 100
▁खाया 100
▁चलिए 100
▁किस्मत 100
▁गायिका 100
▁प्रतिबि 100
▁सुप्रीमकोर्ट 100
यानी 100
द्वारा 100
▁नगरों 100
▁उदयपुर 100
▁शिवपाल 100
▁लय 100
▁हावी 100
▁व्यास 100
▁जिम्‍मे 100
ारन 100
▁बची 100
▁उपयो 100
▁मौकों 100
▁स्नान 100
▁रोमियों 100
श्यों 100
▁आयरन 100
▁छिपे 100
▁सेतु 100
▁उपयोगिता 100
/- 100
▁जहर 100
▁लेट 100
▁जनजातियों 100
▁देह 100
▁रक्षक 100
▁संक्षेप 100
▁शिकायतकर्ता 100
ुरुस्त 100
▁सूचनाएं 100
▁प्रोडक्ट 100
▁रेस्तरां 100
▁पुनर्निर्माण 100
▁बडी 100
यात्रा 100
▁डिजिट 100
▁आविष्कार 100
▁ज्योतिरादित्य 100
जील 100
▁थिय 100
▁हिफ 100
▁लेबल 100
▁अनन्या 100
ack 100
ट्टा 100
मिकल 100
▁प्रमाणन 100
▁आंब 100
▁पीओ 100
ोजीशन 100
▁चौबे 100
▁घटकों 100
▁क्लस्टर 100
▁शिरोमणि 100
▁अफवाहों 100
▁निर्यातकों 100
▁हैरिस 100
▁आपूर्तिक 100
▁ऑटोमोबाइल 100
निश 100
ूजा 100
ानंद 100
▁ऑक्स 100
▁विगत 100
▁लाइनों 100
▁आस्ट्रेलियाई 100
बलि 100
▁Com 100
▁सुमित 100
▁पहुंचीं 100
▁स्टार्स 100
▁उन्होनें 100
und 100
▁भां 100
▁नुक़ 100
▁याजक 100
▁बर्लिन 100
ble 100
ंधरा 100
▁फिल्मी 100
8, 100
▁बॉबी 100
ission 100
▁एक्सट 100
▁ऑक्टा 100
▁दाखिला 100
डमी 100
▁टीडीपी 100
बंग 100
वस्तु 100
▁स्तुति 100
ry 100
con 100
▁खत 100
ihar 100
▁पक्की 100
प्रबंधक 100
▁पुकारा 100
स्फ 100
िप्र 100
र्याप्त 100
▁धूमधाम 100
▁उम्मीदों 100
’। 100
ंटो 100
▁दंगे 100
राज्‍य 100
▁पश्‍चा 100
▁वाईएसआर 100
MC 100
▁ऑर 100
ब्वे 100
▁मुल 100
▁इसराईल 100
▁बहुमूल्य 100
▁मानवाधिकारों 100
ोग्य 100
▁SBI 100
स्तीन 100
▁मिलान 100
▁परोक्ष 100
▁अर्जेंटीना 100
▁बोलना 100
▁विरोधियों 100
▁विश्लेषक 100
▁टर् 100
▁ट्यू 100
▁मांज 100
ोपियां 100
▁कट्टर 100
ee 100
रेटर 100
वेंशन 100
▁रखनी 100
▁खालिद 100
▁जन्नत 100
▁वेंकट 100
ट्रिन्यू 100
▁अनावश्यक 100
▁उत्तरदायित्व 100
age 100
!""" 100
न्‍म 100
▁पन्नू 100
▁राठौड़ 100
▁तटरक्षक 100
▁महानिदेशालय 100
कहो 100
माइ 100
ंजलि 100
बुद्ध 100
ारोपण 100
▁डरता 100
▁बढ़ाए 100
▁भयंकर 100
▁विजिट 100
▁चिंताजनक 100
उसे 100
ाराम 100
▁कोण 100
▁फहरा 100
एनएच 100
णुओं 100
▁संगत 100
▁उन्नति 100
TC 100
▁लान 100
▁दौलत 100
▁लिट 100
▁टर्न 100
▁संचालक 100
▁किसके 100
▁सराहा 100
▁किंगडम 100
िशर 100
लेटर 100
▁इब् 100
▁मलबे 100
▁साइं 100
▁तंत्रिका 100
▁प्रतिभूत 100
▁संदर्भित 100
पंथ 100
वाइ 100
लगभग 100
र्कों 100
▁शाऊल 100
▁सैंपल 100
▁मुक्‍त 100
▁सप्‍ताह 100
माद 100
्लू 100
▁एं 100
ुअर्ट 100
▁रणजी 100
▁पाइपलाइन 100
▁राष्ट्रवाद 100
ारू 100
▁जायें 100
▁घब 100
स्पष्ट 100
▁क़रार 100
▁तदनुसार 100
▁:- 100
ांडू 100
जरानी 100
▁अपरि 100
▁सुलह 100
▁पीएमओ 100
▁भ्रमण 100
▁षड्यंत्र 100
▁1956 100
▁पुंछ 100
▁संजू 100
▁मुकुल 100
▁गठजोड़ 100
▁फ़ंक्शन 100
▁जन्मभूमि 100
▁क्षतिपूर्ति 100
▁सगाई 100
▁पोम्प 100
▁पंचवर्षीय 100
्शन 100
ख्वाह 100
▁तुरन्त 100
▁दिलाता 100
कने 100
▁पारे 100
▁दसवीं 100
▁फोर्ड 100
▁कॉलोनी 100
▁प्रशस्त 100
सीएमआर 100
▁सत्ताधारी 100
▁महानिरीक्षक 100
vi 100
ईमान 100
▁झंडा 100
▁मेधा 100
▁अवरोध 100
▁देखती 100
▁कुलभूषण 100
▁नियुक्‍त 100
▁क्रियान्वित 100
वीन 100
ोटो 100
▁4. 100
▁वज़ह 100
▁भेजकर 100
▁उद्धृत 100
▁जबलपुर 100
▁निम्‍नलिखित 100
ि़ 100
▁900 100
▁पिथ 100
ब्रिज 100
▁बघेल 100
▁ठप 100
▁डिल 100
▁थ्र 100
▁भिव 100
वर्तन 100
वोकेट 100
▁रहिए 100
▁कुर्सी 100
▁समयबद्ध 100
▁परिपूर्ण 100
▁संवेदनाएं 100
▁पंथ 100
्‍यता 100
▁एसडी 100
▁भवनों 100
मुस्लिम 100
▁अवतरित 100
▁टिकटों 100
▁भविष्यव 100
▁बछ 100
▁ताल्ल 100
▁थै 100
▁दीर्घा 100
▁अंदरूनी 100
न्मेष 100
▁टायर 100
▁माइक्रोसॉफ्ट 100
ोपै 100
▁107 100
▁कतई 100
▁अग्निश 100
▁दाहिने 100
▁विनिया 100
▁ऑस्कर 100
▁प्रवृत्त 100
▁कवा 100
पीएसी 100
िलियन 100
▁निशानियों 100
पुन 100
विकास 100
▁रियाय 100
▁बाग़ों 100
▁शासकीय 100
▁हाइड्र 100
ुए 100
्शा 100
▁लीज 100
ब्रिड 100
▁निगमों 100
▁प्राथमिकताओं 100
▁बक् 100
▁रूपा 100
▁होगें 100
▁आउटपुट 100
▁बढ़ाता 100
सात 100
▁ओपनर 100
▁स्काई 100
ऑन 100
▁औंस 100
▁इस्राएली 100
iz 100
▁खिंच 100
▁ताला 100
▁हेमा 100
▁कुत्ते 100
▁बीएचपी 100
▁बहाली 100
▁राज़ी 100
▁तत्त्व 100
शियन 100
▁मेस 100
▁परिसंघ 100
मनी 100
ेटिव 100
▁Off 100
▁गोदाम 100
▁घोषणापत्र 100
▁चोक 100
▁पांव 100
▁लड़ना 100
▁पैदावार 100
▁एंबुलेंस 100
▁कुरुक्षेत्र 100
ुण 100
करा 100
सुल 100
▁114 100
विभाग 100
▁धमाल 100
▁समिट 100
र्मेंस 100
▁मानकर 100
▁सीनेट 100
▁इमरजेंसी 100
▁उर्वरकों 100
▁उत्तरप्रदेश 100
ोहरा 100
▁कपल 100
▁पें 100
▁अजीज 100
▁ब्‍ल 100
▁आंध्रप्रदेश 100
▁छी 100
अधिक 100
▁रश्मि 100
▁अनंतनाग 100
▁तोड़फोड़ 100
uk 100
▁अश्लील 100
▁तख्त 100
▁अनुभाग 100
▁पुर्तगाल 100
▁बलूचिस्तान 100
AR 100
▁उम् 100
▁स्टेज 100
▁प्रसंग 100
▁रिफाइनरी 100
▁राजेन्द्र 100
साल 100
यहां 100
शन्स 100
▁ड्रॉ 100
▁स्ला 100
▁इन्सान 100
▁ध्वस्त 100
▁अस्थाना 100
▁0.5 100
▁शहद 100
▁इसहा 100
▁25,000 100
योन 100
द्घि 100
▁सफदर 100
▁इनेलो 100
▁गन्ना 100
▁चट्टान 100
▁अलबत्ता 100
▁दर्शाते 100
elhi 100
मोली 100
▁सैं 100
▁कुंभ 100
▁चटका 100
▁अपनाए 100
▁झांसी 100
पंजा 100
▁वरन 100
▁डालता 100
▁फ्रेंड 100
वले 100
जीएस 100
▁सबमिट 100
▁शरणार्थी 100
▁झां 100
▁नकल 100
▁मों 100
ॉर्नी 100
▁सोरेन 100
▁पारियों 100
क्सन 100
गैरह 100
भासी 100
यनों 100
▁GST 100
▁बोप 100
ition 100
आईपीएल 100
▁वर्धन 100
▁रियलिटी 100
▁दिक्कतों 100
प्स 100
▁पीस 100
▁गुहार 100
▁भत्ता 100
▁अशुद्ध 100
▁कहानियां 100
▁तर्कसंगत 100
59 100
ारो 100
जिसे 100
िवुड 100
▁एना 100
▁कों 100
▁4000 100
▁अनैतिक 100
▁गतिशील 100
▁लड़ेगी 100
▁महाद्वीप 100
▁विश्वसनीयता 100
अद 100
▁11: 100
▁नस् 100
▁सैंड 100
▁आज़मा 100
▁प्रथाओं 100
▁स्‍वागत 100
▁रबी 100
ंडलीय 100
▁फ्यू 100
▁एमसीए 100
▁तलाशने 100
▁बिताने 100
▁विर 100
▁डोमेन 100
▁मम्मी 100
▁बालाकोट 100
▁वसुंधरा 100
▁एडिशन 100
तरह 100
चेस्टर 100
▁स्विच 100
▁ग्यारह 100
▁छात्रावास 100
▁लॉन्ड्रिंग 100
rag 100
ंधी 100
▁स्टुअर्ट 100
▁Con 100
▁नैनी 100
▁पाकी 100
▁संधू 100
हांत 100
▁126 100
▁वृह 100
▁पैलेस 100
▁महानगर 100
▁कोलंबिया 100
▁सक्रियता 100
▁दर्ज़ 100
▁आंबेडकर 100
▁बिश 100
रिएबल 100
रेटिव 100
▁तोहफा 100
ैच 100
▁चालान 100
▁निशंक 100
▁बाराम 100
▁संकलन 100
▁सम्बद्ध 100
▁सुध 100
▁1989 100
▁निषेध 100
▁खिड़की 100
▁प्रसन्‍न 100
73 100
▁एयरो 100
▁बारीक 100
▁अभिभावक 100
▁समाप्‍त 100
▁नवोन्मेष 100
▁112 100
▁माला 100
▁कुफ्र 100
▁पांचों 100
▁फार्मास 100
्वरी 100
फेक्ट 100
ोवेशन 100
▁ग्रेट 100
▁हटाना 100
▁आदर्शों 100
▁फ़रिश्ते 100
▁उच्चस्तरीय 100
▁कैट 100
▁मैथ्यू 100
▁नवरात्रि 100
ale 100
ग्स 100
▁CBSE 100
▁वांग 100
▁वाहक 100
▁साहा 100
▁होल्डर 100
▁सर्दियों 100
िनि 100
▁अंधा 100
▁लुत् 100
▁सुने 100
▁हमीर 100
▁सेमिनार 100
▁सरफ 100
.2020 100
▁सुनो 100
श्‍वरीय 100
▁न्‍याय 100
▁प्रतिभागी 100
▁खिलाडि़यों 100
फ़् 100
गेशन 100
यामी 100
▁जनक 100
▁रहम 100
▁दोज़ 100
▁यूजीसी 100
ूर्त 100
▁उठने 100
▁वक्फ 100
▁जहाजरानी 100
▁मांजरेकर 100
▁मसौ 100
▁सास 100
▁दालों 100
▁एबीवीपी 100
दबा 100
िपि 100
▁ढील 100
▁सरकश 100
▁सुधा 100
▁प्रांतीय 100
एलएफ 100
ोलेशन 100
िलाबाद 100
▁टास्क 100
म्पिक 100
▁नंदा 100
▁लौटना 100
▁असंवैधानिक 100
▁विद्युतीकरण 100
ict 100
गौड़ा 100
ियुक्त 100
ेंसिंग 100
▁इन्फोसिस 100
हिट 100
▁1-0 100
▁स्वतः 100
▁आईसीयू 100
▁नुक़सान 100
▁परीक्षणों 100
▁प्रॉपर्टी 100
ङ् 100
▁रवीश 100
▁फिल्म्स 100
लिड 100
किटे 100
यंत्र 100
▁राहे 100
▁विख्यात 100
▁कूटनीतिक 100
▁आईआरसीटीसी 100
छता 100
▁अा 100
तिमा 100
▁इल् 100
▁कॉन्ग 100
▁ठहराते 100
▁अर्थशास्त्री 100
52 100
▁क़ी 100
▁स्का 100
वाहक 100
▁230 100
▁पाब 100
रक्षण 100
▁अपनाना 100
▁चित्रों 100
▁पहुंचाना 100
▁रिकॉर्डिंग 100
ेदों 100
▁सुक 100
▁मेहरा 100
▁मिलाया 100
.67 100
▁FIR 100
▁मोज 100
शिल्प 100
िफिकेश 100
▁दिखाकर 100
▁दर्जनों 100
डब्ल्यूडी 100
▁प्रोत्‍साहित 100
इसे 100
▁यि 100
▁२४ 100
तीर्ण 100
▁टीआरएस 100
43 100
ear 100
ुला 100
▁‘’ 100
▁नि‍ 100
संहार 100
▁रेपो 100
▁भेजना 100
▁गिराने 100
▁सितम्‍बर 100
▁4, 100
करघा 100
▁फोर्ट 100
▁मार्क्स 100
▁राइडर्स 100
शर 100
ेने 100
▁अभय 100
▁छोड 100
▁इंडी 100
▁करूँ 100
▁पहचाना 100
लीला 100
▁गड् 100
▁आमंत्रण 100
▁उपलब्धियां 100
-) 100
▁दवाएं 100
▁गुर्जर 100
▁मुजाहि 100
▁2008-09 100
भाषण 100
▁कोठ 100
▁कारखाने 100
▁खां 100
▁भरपाई 100
▁क़ादिर 100
▁रूपांतरण 100
त्स 100
हासन 100
▁गैल 100
▁डोप 100
मर्रा 100
▁कैडर 100
लेटिक्स 100
▁ताकतों 100
बच्च 100
▁फीफा 100
ष्कृत 100
▁इसरा 100
▁शरार 100
▁पैकेट 100
▁स्टाल 100
▁आक्रोश 100
▁राजभाषा 100
▁सद्भावना 100
▁मौनी 100
▁दायरा 100
गली 100
▁एक्सी 100
▁मकर 100
▁माज 100
इसलिए 100
▁सम्बंधित 100
▁Coronavirus 100
▁अंशदान 100
आतंक 100
कलाप 100
भावी 100
▁प्रचंड 100
gr 100
ूज 100
मोट 100
▁तिब्बत 100
▁अविश्वास 100
▁रेजोल्यूशन 100
india 100
▁अकाल 100
▁इसमे 100
▁जुनून 100
▁मुस्त 100
गए 100
▁उखा 100
▁बडे 100
▁वचनबद्ध 100
▁कार्यवाहियों 100
▁चाली 100
▁मवेश 100
▁डांसर 100
▁पहिले 100
जेंस 100
▁मानद 100
▁वोटर 100
▁द्विव 100
▁सर्दी 100
िलियर्स 100
पैग़म्बर 100
▁संदिग्धों 100
DA 100
man 100
लेवा 100
▁विघ 100
▁ताइवान 100
▁एडवोकेट 100
ॉन्स 100
▁अरू 100
▁सिग् 100
▁ब्योरा 100
▁मुख्तार 100
इस्ल 100
स्टी 100
्युन 100
▁१९८ 100
▁यूने 100
▁शेखा 100
▁कांगड़ा 100
▁शोपियां 100
▁नामांकित 100
हद 100
ांता 100
▁And 100
▁चमोली 100
▁रंजीत 100
एलडी 100
प्लस 100
पल्ली 100
िकाने 100
▁तुलसी 100
▁गिलानी 100
▁हमीरपुर 100
मां 100
▁TV 100
▁प्या 100
▁लड़ी 100
स्‍टर 100
▁डिटेल 100
▁IND 100
ेक्शन 100
▁तीखी 100
▁सम्बोधित 100
वसाय 100
सूची 100
िरोध 100
द्धांतिक 100
▁सुब्रमण्यम 100
िगर 100
िक्ट 100
▁रोट 100
▁सहि 100
▁धारक 100
▁व्यु 100
▁शीतल 100
▁संवे 100
प्रभाव 100
▁प्रचुर 100
▁वास्तुकला 100
ंर 100
शूट 100
कहीं 100
नूलु 100
▁750 100
▁आमाल 100
▁मोटो 100
▁अल्‍प 100
▁छलांग 100
▁मैत्रीपूर्ण 100
द्रा 100
▁http 100
▁प्रेशर 100
▁मंत्रि 100
▁प्रतिस्‍प 100
टीई 100
▁कॉलम 100
▁बोनी 100
▁करायी 100
▁ब्लॉग 100
▁पोजीशन 100
▁डिजाइनर 100
▁महेन्द्र 100
▁उम्‍मीदवारों 100
▁मोल 100
▁झंडे 100
▁क़ियामत 100
फिंग 100
▁आड़े 100
▁हारने 100
▁नौजवानों 100
▁पत्नियों 100
▁प्रतिस्थापित 100
▁शश 100
▁12: 100
▁आर्थ 100
▁ईशान 100
जेक्शन 100
▁तब्बू 100
महाराष्ट्र 100
ata 100
▁घी 100
▁नीले 100
▁ज़कात 100
ग्राफ 100
▁अमान 100
▁चेता 100
पत्तनम 100
▁कवायद 100
▁एकतरफा 100
▁सातवीं 100
▁बोपन्ना 100
nic 100
सर्व 100
▁Kap 100
▁लेडी 100
▁पुण्य 100
▁30,000 100
▁बुझाने 100
▁बेहतरी 100
▁ब्रायन 100
▁प्रोफेशनल 100
समान 100
▁न्यौ 100
▁कारें 100
▁102 100
▁कबड्डी 100
ish 100
ater 100
उसका 100
▁550 100
पत्नी 100
▁खुलने 100
▁डीएमके 100
▁साहसिक 100
IV 100
ics 100
समिति 100
्‍याज 100
▁घिरा 100
क्षमता 100
▁रोकते 100
▁मनरेगा 100
ंकि 100
िलर 100
तिया 100
▁ब्राउन 100
▁भिड़ंत 100
तला 100
लीटर 100
त्वना 100
▁हरमन 100
▁Apple 100
▁फिलीपींस 100
▁रामविलास 100
▁चंद्रचूड़ 100
▁समाह 100
▁हाकी 100
▁लक्षद्वीप 100
▁* 100
▁1994 100
▁अनूप 100
▁उतने 100
▁डिस्ट 100
▁परिस्थितियां 100
)) 100
हक़ 100
▁कांत 100
▁पावन 100
▁क़ाबू 100
▁बहनें 100
▁शर्मि 100
▁अरे 100
▁जूट 100
▁छिड़ 100
▁घोड़े 100
▁टोक्यो 100
▁श्रीनिवास 100
बाध 100
▁बाहु 100
▁बनारस 100
▁अन्ततः 100
▁पेंटिंग 100
CB 100
▁पुनर्जी 100
▁वनस्पति 100
▁एंजेल 100
▁खेलेंगे 100
▁टिप्पणियां 100
ord 100
▁राख 100
्‍यून 100
▁पुष्ट 100
▁डिविलियर्स 100
▁119 100
▁क्रूज 100
▁थर्मल 100
▁ऑपरेटर 100
▁रिसेप्शन 100
िंद 100
वर्ण 100
▁करूँगा 100
▁प्लेयर 100
▁इब्रानी 100
▁लुढ़ 100
▁सहारे 100
▁ईश्‍वर 100
▁सरफराज 100
▁परिप्रे 100
▁अज़ 100
▁विक्र 100
▁बुजुर्गों 100
ोटेक 100
▁जॉब 100
▁होशियार 100
अव 100
प्‍ 100
िंक्य 100
▁1986 100
▁पीएफ 100
▁बदलती 100
ख्तियार 100
▁पग 100
aria 100
▁BCCI 100
▁जहाज़ 100
▁लेखों 100
▁परिधान 100
▁रियायत 100
डार 100
▁ओस 100
यकों 100
यूआई 100
▁AAP 100
द्रोही 100
▁फॉक्स 100
▁बायोम 100
▁शाहीन 100
▁भूमिगत 100
▁बहू 100
एनसीपी 100
▁साजिद 100
▁प्रहार 100
▁आवेदनों 100
ign 100
▁ख्वाजा 100
▁उत्पादित 100
▁हार्डवेयर 100
54 100
erv 100
कर्णी 100
▁लॉटरी 100
▁डायब 100
ाहियों 100
▁रवैये 100
प्रशांत 100
▁"""\"" 100
▁कार्यक्षेत्र 100
नए 100
▁२१ 100
गिरी 100
▁Raj 100
▁मसौदे 100
▁न्यूयार्क 100
▁संगण 100
▁कहलाता 100
▁न्योता 100
▁लॉन्चिंग 100
▁बगल 100
▁मनन 100
बरदार 100
▁रचने 100
▁सरसों 100
ैण्ड 100
सूचना 100
pe 100
.55 100
ध्‍य 100
▁फ्ले 100
▁मर्डर 100
▁देशद्रोह 100
▁नवान्वेषण 100
शक 100
▁मोटा 100
▁व्यभि 100
esh 100
▁शल 100
▁हव 100
▁कोशिशें 100
▁प्राधिकृत 100
▁राजनेताओं 100
ron 100
▁।) 100
▁512 100
▁थोप 100
▁मला 100
▁भक्तों 100
▁अजिंक्य 100
▁दिवालिया 100
▁5. 100
▁कैल् 100
▁बंदी 100
भ्रष्ट 100
▁जिंदल 100
न्द्रनाथ 100
▁खुशहाली 100
▁सस्पेंड 100
63 100
ix 100
/201 100
जेंडर 100
▁नवनिर् 100
▁लगीं 100
▁प्लेस 100
▁राठौर 100
▁लचीला 100
▁Sh 100
hats 100
अच्छे 100
▁रिलेशनशिप 100
▁आदिवासियों 100
.17 100
▁302 100
▁मिग 100
▁वुड 100
▁फ़ोन 100
थ्य 100
शाक 100
ोलो 100
▁वाट 100
▁आश्र 100
▁दंगा 100
▁महावीर 100
▁विनियामक 100
आय 100
▁क्ले 100
▁लोकेश 100
▁ज़िंदा 100
▁अनुमानों 100
▁महाप्रबंधक 100
""।" 100
▁हुनर 100
प्रतिशत 100
वर्द्धन 100
▁अटॉर्नी 100
▁न्यायाधिकरण 100
बिक 100
▁अच 100
▁गली 100
▁आत्मिक 100
▁शिष्टमंडल 100
चढ़ 100
क्लो 100
▁मिलन 100
▁अभिनीत 100
▁ट्रांज 100
▁आनेवाले 100
▁यंग 100
▁पट्ट 100
▁हलाल 100
▁Today 100
▁मोर्च 100
▁एंड्रयू 100
▁ईश्‍वरीय 100
▁मुजफ्फरनगर 100
▁(8 100
िय्य 100
▁वैट 100
▁जिया 100
फिकेशन 100
▁कराये 100
▁नजरिया 100
▁बैक्टी 100
▁प्रत्यर्पण 100
'। 100
सुख 100
क्ले 100
▁वास्‍त 100
▁नज़रिया 100
▁पूर्ववर्ष 100
▁कमला 100
▁काबिज 100
▁काल्प 100
▁बर्बर 100
नाइजेशन 100
▁सीमाएं 100
▁करत 100
▁सीजी 100
▁ताल्लुक 100
▁प्रदेशाध्यक्ष 100
एपी 100
डसे 100
मिस 100
▁गिना 100
▁लानत 100
▁सरोज 100
▁पादरी 100
▁वृद्घि 100
▁तथाकथित 100
पांच 100
पद्मा 100
▁चढ़ाई 100
▁पहुँची 100
▁विदर्भ 100
▁अध्‍ययन 100
▁इलेक्‍ट्र 100
माह 100
▁अशर 100
▁लगाम 100
▁प्रवास 100
▁राजस्‍व 100
▁इतिहासकार 100
फेर 100
▁इंस्टिट 100
▁फैक्टरी 100
53 100
▁प्रदाताओं 100
दिस 100
▁शब 100
▁हेज 100
▁श्रो 100
▁क्वीन 100
▁पाएगी 100
प्लेक्स 100
▁विनष्ट 100
▁बांद्रा 100
▁विनिवेश 100
▁मार्गदर्शक 100
▁राजनीतिज्ञ 100
▁दली 100
न्हीं 100
▁इर्द 100
▁तारों 100
▁बुज़ु 100
▁मिलों 100
▁बिंदुओं 100
नीज 100
बन् 100
प्‍त 100
▁अनवर 100
▁मज़े 100
▁एएसआई 100
▁असमानता 100
▁ड्राफ्ट 100
ana 100
कृषि 100
▁-19 100
विधान 100
▁फिलि 100
▁होगे 100
▁कस्टम 100
▁चोकसी 100
▁दुष्य 100
▁सांस्‍ 100
▁ईंट 100
▁हुयी 100
▁कीचड़ 100
▁परिसंपत्तियों 100
थुर 100
ोचित 100
▁एजे 100
▁अभिम 100
▁महंगे 100
▁प्रतिवादी 100
RO 100
भीत 100
▁छे 100
▁छाए 100
▁पेटीएम 100
▁विश्वकप 100
▁काल्पनिक 100
▁विक्रेता 100
▁एयरक्राफ्ट 100
खार 100
▁सूट 100
डीएमए 100
▁भाग्यशाली 100
▁पडे 100
▁रेग 100
▁बेस्ड 100
▁बोल्ट 100
▁लगायी 100
स्‍ट्रे 100
▁एचआईवी 100
ापे 100
▁Col 100
िक्‍स 100
▁वरना 100
▁फ़ैसले 100
▁सुनाने 100
▁असुरक्षित 100
िनर 100
ंगें 100
▁कोषा 100
▁संगोष्ठी 100
▁इब्रानियों 100
▁2025 100
ंडों 100
▁10: 100
▁क्‍ 100
ाजीपुर 100
▁अलगाववादी 100
▁एप्लिकेशन 100
41 100
आईआई 100
कार्ब 100
▁उठकर 100
▁द्वि 100
▁परदे 100
▁6,000 100
▁दिसम्‍बर 100
▁प्रोत्‍साहन 100
सांझ 100
ीराज 100
▁बनाओ 100
▁उड़ाया 100
▁अहि 100
केतिक 100
▁केन्या 100
▁जादूगर 100
▁पुरातत्व 100
▁सब्जी 100
▁पहुंचना 100
तेहैं 100
▁निजाम 100
▁जानलेवा 100
▁संदेशों 100
▁रिपोर्टिंग 100
atch 100
दुरी 100
योटा 100
▁२०१ 100
▁प्रायद 100
▁जानेवाले 100
▁शत्रुघ्न 100
▁दार 100
ेंबली 100
्रीकृत 100
▁कीटना 100
्बाब्वे 100
‘‘ 100
▁दार्शनिक 100
.33 100
▁२२ 100
▁तनु 100
▁पौरा 100
फैक्चर 100
▁सोनोवाल 100
▁खली 100
▁साख 100
▁गोल्डन 100
▁दोसांझ 100
▁रिवर्स 100
▁अपग्रेड 100
▁भड़काने 100
▁भूतपूर्व 100
▁संवेदनशीलता 100
ऊँगा 100
ॉजिट 100
▁विस 100
▁अनाथ 100
▁धमाका 100
▁हड्डी 100
▁निकटतम 100
▁निकलकर 100
▁त्रासदी 100
▁सिंहासन 100
▁शादीशुदा 100
▁मुख्यधारा 100
ाइप 100
रीशस 100
▁CAA 100
▁सटे 100
▁इंगित 100
आईएमआईएम 100
▁ट्रिलियन 100
▁सब्जियां 100
▁मृत्युदंड 100
गं 100
चनों 100
▁106 100
▁पाद 100
▁नवदीप 100
▁विशिष्‍ट 100
▁अनुप्रयोगों 100
▁साहू 100
▁शॉपिंग 100
▁समाहित 100
िटन 100
बहनों 100
▁गुलाबी 100
▁जोड़ता 100
▁निकोलस 100
▁होटलों 100
▁उग्रवाद 100
▁दुष्यंत 100
▁अग्निशमन 100
▁गतिशीलता 100
gl 100
टकर 100
एनएन 100
▁असु 100
▁शाल 100
▁1970 100
▁पीसी 100
▁चंद्रा 100
▁भावनाएं 100
▁अदिलाबाद 100
▁डिस्चार्ज 100
▁आश्चर्यजनक 100
बीच 100
▁वीके 100
▁संप्रग 100
▁फिनलैंड 100
78 100
कौन 100
जेश 100
▁बुश 100
▁वॉक 100
▁पॉली 100
▁दूरदर्शन 100
▁स्पेसिफिकेश 100
DI 100
यंस 100
िंगा 100
▁हाय 100
▁द्रव्य 100
▁पालिका 100
▁बुनियाद 100
▁बुज़ुर्ग 100
sh 100
ंपर 100
समी 100
▁राखी 100
▁विले 100
▁पौराणिक 100
▁अमरेंद्र 100
▁चार्टर्ड 100
▁प्रति‍ 100
▁शेखावत 100
▁परवेज 100
▁फरमाया 100
▁सेवकाई 100
▁संकेतों 100
▁कुबूल 100
▁वॉट्स 100
▁बशर्ते 100
▁मिलीमीटर 100
हुए 100
▁लिन 100
िमेंट 100
▁क्यो 100
▁खुर् 100
▁दोहन 100
▁विलियम्स 100
▁रेत 100
▁कराकर 100
▁परफॉर्मेंस 100
नव 100
त्‍त 100
▁कुवै 100
▁गोवि 100
▁ऑफर्स 100
▁सैटेलाइट 100
भागी 100
▁उम्दा 100
▁यशवंत 100
▁गवर्नमेंट 100
PS 100
त्थे 100
सहाय 100
▁जीरो 100
▁ठंडे 100
ंत्रिकी 100
▁मिशनरी 100
▁वेंटिलेटर 100
िटिक्स 100
▁मर्या 100
▁प्रसंस्‍ 100
▁रजिस्ट्रार 100
▁सैद्धांतिक 100
एचएस 100
▁केअ 100
▁डकै 100
▁यूथ 100
▁चिली 100
▁अनुयाय 100
▁नक्सली 100
▁निभाती 100
▁रुकावट 100
▁उपयोक्ता 100
oo 100
डीएआई 100
▁गिरे 100
▁वगैरह 100
▁आर्किटे 100
▁आलोचकों 100
▁101 100
▁The 100
▁ऊँच 100
▁डिफ़ 100
▁दिखती 100
▁वाकिफ 100
▁तमन्ना 100
▁आरोपपत्र 100
▁यूआई 100
▁असंतोष 100
दड़ 100
,600 100
lect 100
स्‍क 100
▁यमुन 100
▁पट्टे 100
▁मार्कस 100
▁चेतेश्वर 100
▁देनेवाला 100
गव 100
▁रॉस 100
▁नक़ 100
▁बीएम 100
▁एडवाइ 100
▁क्रैश 100
▁थानों 100
▁हथकरघा 100
▁अभिनेताओं 100
echn 100
आरएल 100
▁चुंब 100
▁महंगी 100
▁जहन्नम 100
▁जैकलीन 100
िरण 100
दुचेरी 100
▁बर्तन 100
▁विभेद 100
▁हजारे 100
▁उद्धरण 100
▁रोहिंग 100
▁मेगावॉट 100
▁अदिलाबादु 100
▁फ़रिश्तों 100
▁ब्रॉडबैंड 100
▁उभरी 100
▁डरने 100
▁मुंहतोड़ 100
मेज 100
ल्‍ट 100
▁(12 100
▁काया 100
▁दोज़ख़ 100
इले 100
ईएफ 100
चुर 100
▁गगन 100
▁लिपि 100
▁रातों 100
▁टोयोटा 100
िक़ 100
▁5- 100
रेपी 100
▁103 100
▁पिघ 100
▁साड़ी 100
▁विरोधा 100
▁मूवमेंट 100
▁अनिश्चितता 100
▁शीट 100
्युलर 100
रीक्षण 100
▁जुटाए 100
▁दूँगा 100
▁कैप्शन 100
▁आवेदकों 100
▁सत्यापित 100
▁तीर्थयात्रियों 100
शेर 100
▁118 100
▁650 100
▁यमन 100
▁तस्‍ 100
▁महामंत्री 100
रुप 100
▁एनए 100
▁कराती 100
▁किरेन 100
▁जबर्द 100
▁तिरुवनंतपुरम 100
।- 100
संक 100
▁चुरा 100
▁बहने 100
लैंगिक 100
▁अहिंसा 100
▁पीपीपी 100
▁कोतवाली 100
टेयर 100
▁कूप 100
▁गोह 100
▁पायलटों 100
▁प्रबन्ध 100
▁इंफ्रास्ट्रक्चर 100
▁थम 100
्यूनल 100
▁ख़राब 100
▁गिरीश 100
निर्मित 100
▁वैवाहिक 100
ug 100
▁तिलक 100
▁धुंध 100
▁तड़के 100
▁आपदाओं 100
▁उपनिवेश 100
▁मेलबर्न 100
▁गन 100
▁दरार 100
णात्मक 100
▁बाबरी 100
▁ट्रेंट 100
▁बॉलिवुड 100
▁विवाहित 100
▁ट्रिब्यून 100
िएंट 100
▁तटों 100
▁दादी 100
▁इशांत 100
▁परमिट 100
तैय 100
▁IM 100
▁135 100
▁कुचल 100
▁ख़ौफ 100
▁जूते 100
स्‍त्र 100
▁असहमति 100
▁पाकीज़ा 100
▁प्रयागराज 100
ुमन 100
समें 100
कार्पण 100
▁करवाकर 100
▁Election 100
▁संस्थाएं 100
पंजाब 100
▁आठवें 100
▁कमांडिंग 100
▁संतुष्टि 100
▁क्षेत्रफल 100
.18 100
▁हेट 100
▁बटोर 100
▁ठिकाने 100
▁अमरिन्दर 100
होम 100
▁टल 100
,300 100
▁117 100
▁जोको 100
▁बेसिक 100
-1) 100
गुज 100
हराम 100
▁नेत 100
▁बकर 100
▁लोप 100
▁कुंड 100
▁डेस् 100
▁कीमती 100
▁फेंकने 100
▁पोप 100
▁गुलाब 100
▁विध्व 100
▁शशांक 100
▁एनएसजी 100
▁चाहेगा 100
ड्रन 100
▁बेबी 100
▁लगाता 100
▁अभिभाषण 100
▁धमाकेदार 100
▁अनुयायियों 100
▁Sc 100
able 100
▁पैं 100
▁एंटनी 100
▁निलंबन 100
▁शासकों 100
ूफ 100
▁बँ 100
उनका 100
्‍दी 100
▁उपनि 100
▁बोनस 100
▁कृतज्ञता 100
▁शौचालयों 100
▁हिन्दुओं 100
ंटाइन 100
कानेर 100
▁दंडा 100
▁पोषित 100
▁प्रसव 100
द्योगिकी 100
.62 100
पने 100
▁एनाल 100
▁अत्‍य 100
▁ईएसआई 100
▁फेंका 100
▁ब्लास्ट 100
ईएल 100
▁उध 100
िमीर 100
▁वापिस 100
▁दूरस्थ 100
▁बिलासपुर 100
▁लोकार्पण 100
▁सांत्वना 100
▁प्रहरीदुर्ग 100
BC 100
ेटेड 100
▁डरे 100
▁एनडी 100
00,000 100
तराखंड 100
▁बजरंग 100
▁पांचवां 100
▁बेरोजगार 100
nap 100
शाम 100
ener 100
▁लालच 100
स्त्रा 100
▁2016) 100
▁वोल्टेज 100
▁परिसंपत्ति 100
▁विशाखापत्तनम 100
इन् 100
टकी 100
यानंद 100
▁कच्छ 100
▁बहादुरी 100
▁अध्ययनों 100
▁उत्तीर्ण 100
▁निब 100
▁पूजन 100
▁ओलम्पिक 100
▁ग्रेनेड 100
▁नेटवर्किंग 100
टूर 100
ल्दी 100
▁लात 100
▁जड़ा 100
टरियों 100
▁मस्जि 100
▁सुनना 100
▁एडवांस 100
▁रघुराम 100
▁इनोवेशन 100
▁श्रीलंकाई 100
rans 100
▁खदे 100
▁घिरे 100
▁डीके 100
क्‍टेयर 100
▁एक्सपो 100
▁नैनीताल 100
AD 100
ोआ 100
▁काठम 100
▁वॉटर 100
▁शिला 100
▁यिर्म 100
▁स्पाइस 100
जैसा 100
ज्जर 100
▁नासिक 100
▁करूंगी 100
▁माध्यमों 100
▁अंतरराष्‍ट्रीय 100
▁अलवर 100
▁लगेंगे 100
▁Results 100
▁मुलाक़ात 100
▁सांस्‍कृतिक 100
ूदी 100
▁सहारन 100
▁हवेली 100
▁सिंघवी 100
4, 100
▁बलराम 100
▁एडमिशन 100
▁निराधार 100
▁निभाएंगे 100
▁इंजीनियरों 100
▁ठान 100
▁क्रा 100
सिद्धि 100
ियंत्र 100
▁अखबारों 100
▁भाईचारे 100
▁लानेवालो 100
शद 100
ोच 100
▁शू 100
▁सँ 100
▁नियाम 100
▁बहाने 100
▁आसाराम 100
▁सेटिंग 100
▁भूमिकाएं 100
▁145 100
▁उठी 100
▁बीर 100
▁द्रम 100
▁महाभ 100
▁आयातित 100
▁निर्धन 100
क्रिप्शन 100
▁क्रूरता 100
▁साझीदार 100
▁कारीगरों 100
ie 100
▁फूंक 100
▁करवाए 100
▁लाएगा 100
सेवानिव 100
ोभ 100
खले 100
▁ओह 100
▁२५ 100
▁अचल 100
▁बापू 100
▁गेस्ट 100
▁रोहिंग्या 100
वात 100
▁आरती 100
▁कैरी 100
परिवर्तन 100
कटॉप 100
कड़ 100
▁साद 100
▁दागे 100
▁चढ़कर 100
▁उद्योगपति 100
▁सघन 100
▁सीओ 100
▁मर्स 100
▁हैंः 100
▁आइसोलेशन 100
▁तनावपूर्ण 100
▁रेक 100
▁बचाओ 100
▁बरेली 100
▁तोड़कर 100
▁द्रमुक 100
ंची 100
ग्रे 100
▁डीन 100
▁साँ 100
▁श्वेत 100
▁पक्षपात 100
ूतों 100
▁आबे 100
▁ख़ा 100
▁ब्लॉ 100
▁करवाना 100
एयर 100
▁जेब 100
▁बेब 100
▁होल 100
▁भटका 100
▁2021: 100
▁प्लॉट 100
▁भेजें 100
▁डीसीपी 100
▁फातिमा 100
▁बीबीसी 100
▁नियोजित 100
▁मूल्‍यों 100
▁मुक्केबाजी 100
oy 100
जुल 100
एवाई 100
▁रूक 100
ology 100
▁बाड़ 100
▁मांड 100
▁टैरिफ 100
▁ढूँढ़ 100
▁मिनिस्टर 100
▁लिप्त 100
स्‍ट्रेलिया 100
▁हस्तांतरित 100
▁बसु 100
▁इष्ट 100
▁सूजन 100
▁पॉइंट 100
▁टेस्‍ट 100
ंबे 100
जेज 100
,499 100
डियों 100
वार्ता 100
▁प्रणव 100
▁पिताजी 100
▁प्रोटेक्शन 100
इसका 100
▁ग़ल 100
▁कस्बे 100
▁बखूबी 100
▁अंदाजा 100
▁फंडिंग 100
▁सुन्नी 100
▁बांग्ला 100
▁रोज़गार 100
▁कुलकर्णी 100
बहार 100
ुकता 100
ैक्स 100
▁असी 100
▁एंव 100
▁कैर 100
पर्सन 100
▁असंग 100
▁गुजार 100
▁त्रिकोण 100
.72 100
ंपल 100
तरण 100
हों 100
okia 100
▁पत्थ 100
▁धर्मा 100
▁हरसिम 100
▁स्कॉटलैंड 100
शहरी 100
▁अथक 100
▁ढूंढ़ 100
▁वेडिंग 100
ोगिक 100
▁सुमन 100
▁मनीषा 100
▁भोजपुरी 100
▁हेलिकॉप्टर 100
.77 100
दावरी 100
▁सूरी 100
▁औषधीय 100
▁यात्राओं 100
98 100
▁वश 100
▁वॉयस 100
▁दस्तक 100
▁पराली 100
▁वायुम 100
▁निर्यातक 100
▁यूनेस्को 100
▁होनेवाली 100
एचसी 100
▁आन्द 100
▁झेलनी 100
▁समझदारी 100
ond 100
▁Home 100
▁लुत्फ 100
.73 100
वीसी 100
संस्था 100
पश्चिमी 100
▁चार्ल्स 100
▁वफादारी 100
▁अपर्याप्त 100
▁छुट्टियां 100
▁लेक 100
ायर्ड 100
▁बजकर 100
संपर्क 100
▁समझकर 100
▁प्रोसेसिंग 100
BS 100
्वेन 100
▁आघात 100
समर्पण 100
▁टैंकर 100
▁सीरियल 100
▁सबरीमाला 100
आरबी 100
ूर्व 100
ragon 100
▁अराज 100
▁पाली 100
▁वैष्ण 100
▁ऑफलाइन 100
▁उत्प्रे 100
▁संप्रदाय 100
बिग 100
▁Card 100
▁म्यु 100
▁मेहुल 100
▁फॉर्मेट 100
जगह 100
जुब 100
टेकर 100
▁लाम 100
मार्च 100
▁भौतिकी 100
▁साइंसेज 100
▁फ़िल्मों 100
9, 100
▁० 100
▁जाली 100
▁साध्वी 100
▁न्‍यायालय 100
फर्म 100
▁122 100
▁376 100
धीनता 100
▁दवाई 100
▁आठवीं 100
▁दबदबा 100
ेस्टेंट 100
▁मतभेदों 100
!" 100
तित 100
▁गुन 100
सीआईएल 100
▁उठाएं 100
▁गुटों 100
▁आरोग्य 100
ail 100
▁जूल 100
▁ठेस 100
▁नमाज 100
▁निजता 100
▁हस्तशिल्प 100
दीस 100
▁छाई 100
▁उर्जा 100
▁मैदानी 100
▁भरोसेमंद 100
▁निष्कासित 100
लाभ 100
▁एमके 100
▁पीसीबी 100
▁राजौरी 100
▁उत्पादकों 100
▁अधू 100
▁मौज 100
▁लहरा 100
▁आकाशवाणी 100
▁सहारनपुर 100
ठों 100
napd 100
फानन 100
▁खुल्ल 100
मंत्रालय 100
58 100
यायी 100
स्टाइल 100
▁Whats 100
▁दुल्ह 100
▁करनेके 100
▁पॉपुलर 100
करम 100
यून 100
▁छठ 100
चन्द 100
▁ऋणों 100
कश्‍मीर 100
▁नाटकीय 100
▁फेरबदल 100
▁सेफ्टी 100
डब्ल्यूसी 100
▁288 100
▁हाट 100
-2015 100
बिजली 100
▁अदरक 100
आरएसएस 100
▁बहरीन 100
▁यिर्मयाह 100
हेज 100
▁1988 100
▁पकड़कर 100
▁सीएनजी 100
▁उठाएंगे 100
▁आईएनएक्स 100
▁उत्पन्‍न 100
▁कैल्शियम 100
▁हस्तियां 100
.16 100
यक्ष 100
▁चैं 100
▁1962 100
▁केसी 100
▁खजूर 100
▁जॉर्डन 100
▁मालिनी 100
▁राजपत्र 100
▁ओमप्रकाश 100
▁फाइनेंशियल 100
न्‍स 100
▁कंज 100
▁ब्री 100
▁मोटी 100
▁दंडित 100
▁उड़ाने 100
▁सुलेमान 100
▁शेयरधारकों 100
वादन 100
तैयबा 100
▁हायर 100
▁नींबू 100
▁परीक्ष 100
▁येचुरी 100
▁कट्टरपंथी 100
वाइड 100
▁बुन 100
▁एसएम 100
धारियों 100
▁स्त्रियाँ 100
▁गुणवत्तापूर्ण 100
IN 100
.39 100
▁बगा 100
▁भर् 100
िकागो 100
▁जहरी 100
▁बोइंग 100
▁ठहराने 100
▁शुक्रगु 100
▁विजयवर्गीय 100
▁चालीस 100
▁गुजरने 100
▁स्वार्थ 100
▁विनियमित 100
▁कार्यपालिका 100
एमएल 100
जोशी 100
ज्जत 100
हैकि 100
▁अमीन 100
▁मच्छ 100
▁एकसाथ 100
▁प्रतियोगी 100
ip 100
ॉन् 100
ोहन 100
▁MP 100
▁डोन 100
विदेश 100
▁यूटी 100
▁बीकानेर 100
]] 100
mart 100
चाहे 100
ध्दि 100
▁केप 100
▁आख़ेरत 100
▁कहूंगा 100
▁विस्‍त 100
▁पदोन्नति 100
.44 100
▁टच 100
ovid 100
नीचर 100
▁तैर 100
▁परख 100
▁एसके 100
▁नजीर 100
▁नाईक 100
स्‍केट 100
▁माथुर 100
▁असफलता 100
रियल 100
▁खाएं 100
▁बेड़े 100
▁लॉगिन 100
▁जंक्शन 100
ारमैया 100
्यूटिव 100
▁Snapd 100
▁हास्य 100
▁बिन्दु 100
▁जवाबदेह 100
▁डेस्कटॉप 100
▁शुगर 100
▁घनत्व 100
▁भिड़े 100
eb 100
.32 100
App 100
ूँकि 100
▁समर 100
ार्पण 100
▁हलाक 100
▁इंस्‍ 100
▁जोनास 100
▁बलबीर 100
▁पुकारते 100
▁सुपरहिट 100
▁निरंतरता 100
▁सुरक्षाकर्मियों 100
.13 100
फिन 100
▁डार 100
मित्त 100
▁सार्क 100
▁सुनीता 100
▁आईसीएमआर 100
एएस 100
िडा 100
line 100
▁काे 100
सूत्र 100
▁अदाय 100
▁ऊँची 100
▁गिरजा 100
▁चिंतन 100
▁आरसीबी 100
▁नाबार्ड 100
▁मलेरिया 100
▁उल्‍लेखनीय 100
खुदा 100
निजी 100
▁औषध 100
▁बैर 100
▁नीतू 100
▁अगरचे 100
▁एसोसिएट 100
▁दीनदयाल 100
▁विन्यास 100
▁रामचंद्र 100
▁अन्तर्राष्ट्रीय 100
सुप 100
राहट 100
▁4.5 100
▁खटख 100
▁आरटी 100
▁इण्ड 100
▁बान् 100
▁गेट्स 100
▁बढाने 100
▁लॉर्ड 100
▁डिपॉजिट 100
▁परिप्रेक्ष्य 100
.69 100
धना 100
▁up 100
▁हेरो 100
▁Nokia 100
▁कुवैत 100
▁जाकिर 100
▁मैट्र 100
ेंद्रीय 100
▁40,000 100
▁भाषणों 100
▁डिजी 100
▁लगाव 100
▁Kapoor 100
▁पर्वतीय 100
▁पद्धतियों 100
▁प्रेसिडेंट 100
▁इंस्टिट्यूट 100
IT 100
cy 100
▁ओलि 100
▁हुर 100
▁फैसल 100
▁मॉरीशस 100
-25 100
▁धड़ 100
ोनियों 100
▁बताएं 100
▁ट्रकों 100
प्रदर्शन 100
▁रिज़र्व 100
ईन 100
पूरा 100
▁माफ़ 100
▁रेगि 100
मीडिया 100
▁जेलों 100
दरा 100
वेशन 100
तालवी 100
▁शल्य 100
किंग्स 100
▁कुदरत 100
▁हावड़ा 100
णाधीन 100
▁एफसी 100
संख्‍य 100
▁ध्रुव 100
▁अंधेरे 100
▁रिजल्‍ट 100
फ़े 100
वटी 100
▁फोर् 100
▁क्लिन 100
▁व्लाद 100
▁मनप्रीत 100
▁सम्भावना 100
AS 100
गै 100
मंच 100
▁मीन 100
वस्थित 100
▁अर्जन 100
▁लैंडर 100
▁अत्याचारी 100
▁विक्टोरिया 100
क्वा 100
गिर्द 100
▁मिमी 100
▁भत्ते 100
▁वुहान 100
▁स्वरा 100
बुद्दीन 100
▁ढूंढने 100
▁हरसिमरत 100
▁अल्मोड़ा 100
▁समानांतर 100
फली 100
मिला 100
किताब 100
▁मुख़ 100
ुल्लाह 100
▁बदलें 100
▁प्लानिंग 100
इर 100
कास 100
▁भगा 100
▁हर् 100
ेलनों 100
▁दाना 100
▁वादी 100
▁डिलिव 100
▁प्रामा 100
▁कृत्यों 100
ors 100
▁एहद 100
▁यकी 100
▁1985 100
▁घेरा 100
▁हाला 100
▁थियेटर 100
▁बिताया 100
▁मुताबिक़ 100
▁संक्रामक 100
.78 100
ुलन 100
▁नू 100
बिंद 100
▁भोग 100
▁आबंटन 100
▁दुग्ध 100
▁शुक्ल 100
▁समयसीमा 100
शेद 100
▁स्लो 100
▁ट्रीट 100
▁वास्तु 100
▁गलियारा 100
▁छत्रपति 100
▁विधेयकों 100
▁राधाकृष्णन 100
OC 100
▁टूल 100
▁अंतत 100
▁एनआई 100
▁टूटने 100
▁जाऊंगा 100
▁टुकड़ों 100
▁बाहुबली 100
ith 100
दोष 100
अप्र 100
▁कटि 100
▁लेटर 100
▁विवश 100
▁पाओगे 100
▁मिलिट 100
▁मंगोलिया 100
▁प्राणियों 100
▁Snapdragon 100
▁छिपी 100
▁बालन 100
▁राज़ 100
ार्किक 100
▁देखोगे 100
▁द्विवेदी 100
▁व्यवसायी 100
ंधे 100
हाइड 100
▁तफ् 100
ुलेशन 100
▁फेमस 100
▁सुनाते 100
▁ग्रीष्म 100
▁सेठ 100
एमओयू 100
▁जेने 100
▁सभ्य 100
▁सोलंकी 100
▁महाभियोग 100
▁जिलाध्यक्ष 100
सरे 100
▁सेब 100
▁मंडा 100
▁लार् 100
ations 100
▁चौकसी 100
प्रकाशित 100
▁उदाहरणों 100
नाज 100
▁मिलाने 100
▁कक 100
पूरी 100
▁केक 100
▁नमी 100
स्‍टम 100
▁तरजी 100
▁बैलेंस 100
डों 100
▁Test 100
▁अशरफ 100
▁अनोखी 100
▁सिक्का 100
▁प्रशासकों 100
▁पर्यवेक्षक 100
▁दि‍ 100
प्राइ 100
विश्‍ 100
▁Moto 100
▁इकलौ 100
पीडिया 100
▁सरगना 100
▁नरसिंह 100
▁निकलती 100
▁ट्रेडिंग 100
.83 100
tra 100
र्षि 100
▁सैर 100
स्कोप 100
▁1960 100
▁नरसिम 100
▁सैलरी 100
▁एविएशन 100
▁कामगार 100
▁दायित्वों 100
पालन 100
▁इम्प 100
▁समझदार 100
▁मास्टर्स 100
▁कॉन्ग्रेस 100
▁कल्याणकारी 100
▁लिम 100
▁सामानों 100
▁अभियुक्तों 100
▁स्ट्रीमिंग 100
▁व्‍यक्तियों 100
मई 100
वेन 100
▁14: 100
िय्येल 100
▁खर्चों 100
.43 100
परक 100
▁उतरा 100
▁जोगी 100
▁लौटी 100
▁उपवास 100
▁ताज़ा 100
▁वोक्स 100
▁संकेतक 100
▁पहचानने 100
▁रोनाल्ड 100
▁सफदरजंग 100
▁फिक्सिंग 100
▁डायरेक्शन 100
रिट 100
ैनी 100
,800 100
ंदना 100
▁कूल 100
▁समता 100
▁सिद्धारमैया 100
91 100
थलग 100
ख्वा 100
ोहित 100
▁पोज 100
▁ऊँचे 100
▁मुरा 100
▁लोहा 100
▁प्रगट 100
▁कक्कड़ 100
▁ज्यादती 100
-50 100
▁परहेज 100
पीपीएसी 100
▁अप्लाई 100
▁रैलियों 100
धरन 100
ोला 100
▁121 100
▁खुदाई 100
▁हेक्‍टेयर 100
▁जिम्बाब्वे 100
नौ 100
▁1987 100
▁Read 100
▁अगवा 100
ऑक्साइड 100
▁मैक्सिको 100
▁मुश्किलों 100
.14 100
प्पो 100
▁नरमी 100
स्तीनी 100
िय्याह 100
▁क्रोम 100
▁ज़बान 100
▁फ़रमा 100
▁स्‍टेशन 100
▁चैंपियंस 100
▁2-0 100
न्‍नई 100
▁तारे 100
▁दबोच 100
▁बहती 100
▁स्कॉ 100
▁पिछला 100
▁दुरुस्त 100
▁स्पेसिफिकेशन्स 100
▁दबिश 100
▁तलाक़ 100
▁स्‍थानों 100
▁एअर 100
▁तमा 100
▁जड़े 100
▁भरना 100
▁राइफ 100
▁पोलियो 100
▁दानिय्येल 100
▁पुनर्जीवित 100
स्टोर 100
▁संचयी 100
▁स्टालिन 100
▁निर्देशिका 100
999 100
त्वा 100
▁ऋतु 100
▁व्हील 100
हरियाणा 100
वाए 100
▁नह 100
मिंग 100
मेंट्स 100
▁अदायगी 100
▁पूर्णिमा 100
▁प्रकाशना 100
fo 100
िसिटर 100
▁घटने 100
▁भरकर 100
▁हल्दी 100
क़ों 100
बारूद 100
▁टूटा 100
▁तेजस 100
▁अवसाद 100
▁आँखें 100
▁अपीलीय 100
▁बेहिश्त 100
▁रक्तचाप 100
▁खरीदारों 100
▁समायोजित 100
▁(4) 100
▁जेड 100
▁6000 100
▁आस्ति 100
▁श्रीनिवासन 100
उसी 100
▁नीट 100
▁एससीओ 100
▁जुलूस 100
▁एसएससी 100
▁टैक्‍स 100
▁रिचार्ज 100
ंकित 100
▁पोते 100
▁श्या 100
.48 100
▁सौम 100
▁विधिव 100
▁निशानेबाज 100
▁लिंच 100
▁पलायन 100
▁रखेगी 100
कोड 100
▁घाव 100
▁पित 100
▁जिम्मा 100
▁तफ्तीश 100
▁पुजारी 100
दौर 100
आईएसएफ 100
▁अंगूर 100
▁बरबाद 100
▁मुंडे 100
▁हलफना 100
▁भिवानी 100
▁सोमनाथ 100
▁निर्बाध 100
ंघम 100
रेत 100
वासा 100
▁इफिस 100
▁नडाल 100
▁नीलम 100
▁लाएँ 100
▁मोहलत 100
▁हिन्‍ 100
▁इंटरफेस 100
ideo 100
▁दाएं 100
▁भेजता 100
▁भेजते 100
▁रेवाड़ी 100
app 100
,700 100
▁7.5 100
▁कंक 100
▁जीप 100
ज्ज़त 100
▁आंकी 100
▁डालो 100
▁गर्भा 100
▁एनी 100
▁तूफ 100
▁2024 100
▁Gold 100
▁उभार 100
▁माली 100
▁फेडरल 100
▁बारीकी 100
▁उच्चायोग 100
HT 100
पैड 100
lass 100
िकीय 100
बाड़ी 100
बिहार 100
▁तत्‍ 100
▁विकार 100
▁सिक्के 100
▁स्टीवन 100
क्‍तियों 100
▁डिटेल्स 100
.64 100
ern 100
ंजय 100
ांशु 100
▁5.5 100
▁बाउ 100
▁चंदन 100
आरबीआई 100
▁बब्बर 100
▁स्विस 100
▁शिकागो 100
▁स्पेसिफिकेशन 100
उनसे 100
फ्लिक्स 100
▁सीमांत 100
▁वन्यजीव 100
▁व्यभिचार 100
स्‍य 100
िशनल 100
▁मगध 100
ेंसिक 100
▁Modi 100
▁कैथल 100
▁ख़ैर 100
▁लुभा 100
्वीराज 100
▁मराठा 100
व्यक्ति 100
केंद्रीय 100
▁इस्राइल 100
▁मिलेंगी 100
▁नक्सल 100
▁बेसिन 100
▁मिलें 100
▁फर्नीचर 100
▁विस्‍तृत 100
▁प्रायोगिक 100
.24 100
बल् 100
्युम 100
▁चेले 100
▁दामन 100
▁तहरीक 100
▁शारदा 100
▁संक्र 100
▁साझेदारों 100
.63 100
▁ऑब् 100
.2013 100
▁अरशद 100
एमसीजी 100
▁ढेरों 100
▁लेंगी 100
▁एनपीआर 100
▁काफिले 100
▁हेगड़े 100
▁बंगलादेश 100
▁सुसज्जित 100
रियंट 100
▁इच्छाओं 100
▁Pri 100
▁कजा 100
▁ठहरने 100
▁पापों 100
▁उकसाने 100
▁निपटाने 100
▁ट्रैकिंग 100
्रीका 100
▁शुष्क 100
ोग्राफी 100
िर्धारित 100
▁रेलगाड़ी 100
▁कश्मीरियों 100
किता 100
टेगरी 100
वाचित 100
▁चिकन 100
▁नेगी 100
न्याहू 100
▁इन्द्र 100
▁पुरूषों 100
▁चिकित्सकीय 100
जलिस 100
▁मिच 100
वित्त 100
▁प्लग 100
▁हारे 100
▁बत्रा 100
▁बुवाई 100
▁उत्थान 100
स्थाई 100
▁नामी 100
▁सीज़न 100
क्तीकरण 100
▁मिटाने 100
▁निरन्तर 100
▁आईएसआईएस 100
.27 100
सफाई 100
▁नॉट 100
▁सवा 100
खानों 100
ग्रेट 100
▁जेएस 100
▁बरकत 100
▁रीजन 100
कृष्णा 100
▁अभिप्र 100
▁अंग्रेज 100
▁लाभप्रद 100
▁बांग्लादेशी 100
ib 100
.88 100
मैप 100
प्ता 100
▁JNU 100
▁खासियत 100
▁चौकियों 100
▁डिफ़ॉल्ट 100
▁हाइब्रिड 100
डीज 100
बाती 100
▁नोड 100
ोपैथी 100
▁द्रव 100
▁दूषित 100
▁मॉडलों 100
▁शस्त्र 100
▁देनेवाले 100
▁रिचर्डसन 100
सुम 100
दादा 100
▁अज़ी 100
▁कस्ट 100
▁नक्शे 100
लाइज 100
▁दीव 100
▁चौबी 100
▁लौटकर 100
▁अविश्व 100
▁प्रदूषित 100
ood 100
लिफ्ट 100
▁आइये 100
▁तौभी 100
▁श्रृ 100
▁लैटिन 100
▁इतालवी 100
▁दिल्लीः 100
▁संरचनात्मक 100
▁छुआ 100
▁पैस 100
वंशिक 100
▁https 100
▁जमशेद 100
▁वैदिक 100
▁जावडेकर 100
▁दर्शाने 100
▁नौकरशाह 100
▁समलैंगिक 100
य्या 100
▁धमक 100
▁बाँध 100
▁पाटनी 100
▁लर्निंग 100
▁अधिकारिक 100
▁अभिव्यक्त 100
ंद्रह 100
▁Plus 100
प्रत्‍ 100
▁ससुराल 100
▁जीवनशैली 100
(2) 100
▁बीए 100
▁नेवी 100
▁हारी 100
▁मंत्रिप 100
eng 100
▁रक 100
tern 100
▁पंख 100
राजनीतिक 100
▁त्रिवेंद्र 100
.96 100
▁बड 100
्राव 100
▁फेयर 100
▁मेटल 100
▁रीढ़ 100
आईसीसी 100
▁तुच्छ 100
▁पाण्ड 100
▁मनोबल 100
act 100
▁नृ 100
गार्ड 100
▁भागे 100
▁अरबों 100
▁विकिरण 100
▁हलफनामे 100
▁अम्बेडकर 100
so 100
▁NE 100
सीएए 100
नैशनल 100
ालियां 100
▁स्पर्श 100
हाब 100
▁खेप 100
▁1951 100
▁अन्‍ 100
▁देहा 100
▁बचाए 100
▁गानों 100
▁चूँकि 100
▁बदलता 100
▁बेल्ट 100
▁टुकड़ा 100
▁बैक्टीरिया 100
.84 100
▁दंत 100
▁अन्ध 100
▁गायन 100
▁पछता 100
▁निरूप 100
▁मर्यादा 100
▁बुलंदशहर 100
▁पत्रिकाओं 100
▁1973 100
▁रोमी 100
▁डूबने 100
▁अशांति 100
▁वस्तुतः 100
▁संस्कृतियों 100
cc 100
ey 100
.47 100
सेक 100
▁गम 100
▁छल 100
्युर 100
▁लिं 100
▁जहीर 100
▁आनंदी 100
▁भूपेश 100
ोरेंसिक 100
▁कावेरी 100
▁धारकों 100
▁अपमानित 100
▁क्लार्क 100
षी 100
▁पाएं 100
▁मण्ड 100
▁मिक्स 100
▁मोस्ट 100
▁हटाकर 100
▁कंट्री 100
▁कन्वेंशन 100
▁पहुँचाने 100
▁संपादकीय 100
▁प्रताड़ित 100
▁स्‍वीकृति 100
ंन 100
बेथ 100
▁मेहमानों 100
▁राजपक्षे 100
-22 100
.76 100
्ज़ 100
हाने 100
▁कि‍या 100
▁जतायी 100
▁फ्रैं 100
बरे 100
▁झर 100
▁इंक 100
▁छेद 100
▁साय 100
▁मॉनि 100
▁खंडों 100
▁निभाता 100
▁प्रतिभूतियों 100
ियाई 100
▁मनाली 100
‍त 100
alue 100
िसिस 100
▁अनोखा 100
▁समझें 100
▁कॉन्फ़ 100
▁मिस्त्री 100
▁ढह 100
सेवी 100
▁Mar 100
▁रत् 100
▁महफू 100
▁रिवा 100
▁उतारी 100
▁विदाई 100
कलिन 100
दुर् 100
▁चूर 100
▁उभरा 100
▁कठुआ 100
▁समेट 100
...... 100
▁फंडों 100
प्रत्‍येक 100
▁निश्‍चित 100
▁नेतन्याहू 100
▁मांसपेशियों 100
.41 100
वाहित 100
▁अब्बा 100
▁केकेआर 100
▁चतुर्थी 100
▁अधिनियमों 100
क्ड 100
▁मग़ 100
नेटिक 100
▁वर्दी 100
▁कुपोषण 100
▁संगणित 100
▁प्रामाणिक 100
▁लाठ 100
▁गिफ्ट 100
▁डिलिवरी 100
ैब 100
.36 100
▁""% 100
▁अखा 100
पार्ट 100
▁उठते 100
.26 100
उदी 100
राइड 100
▁हनन 100
ज्जुब 100
▁कॉम् 100
▁गाथा 100
▁अरबाज 100
▁साधना 100
92 100
कैप 100
मृत 100
वियर 100
▁10, 100
▁दाग 100
▁रामा 100
▁रोडवेज 100
▁अभियोजक 100
▁व्युत्प 100
▁प्रचारकों 100
▁प्रायद्वीप 100
., 100
▁गाली 100
▁रिपो 100
▁जासूस 100
केन्द्र 100
▁प्रेरक 100
▁प्रचालन 100
▁वैचारिक 100
▁लालकृष्ण 100
yst 100
▁दै 100
महाद 100
▁आर्क 100
▁कैरो 100
▁बेची 100
▁बुलाए 100
▁पोलार्ड 100
▁नियोक्ता 100
ढी 100
कीर 100
▁116 100
▁कुप 100
▁टेर 100
▁डोक 100
▁दूं 100
मौजूद 100
शुक्र 100
▁चेतन 100
▁आहूजा 100
▁कंसल्ट 100
▁निःशुल्क 100
▁फोरेंसिक 100
▁मैनचेस्टर 100
▁स्थितियां 100
▁153 100
▁420 100
वित्र 100
▁औजार 100
▁लोका 100
▁लॉन्‍ 100
▁वाजिब 100
▁दीवाली 100
▁उपग्रहों 100
▁परिचर्चा 100
▁हरमनप्रीत 100
rad 100
▁कमोड 100
▁वंदे 100
▁एनएसई 100
▁चाहने 100
▁मोर्गन 100
▁स्टीफन 100
▁दृश्यों 100
नोट 100
कुलम 100
प्ला 100
▁नाता 100
▁वनों 100
▁जर्सी 100
▁शिष्य 100
▁साउंड 100
▁अवरुद्ध 100
▁गर्मजोशी 100
.28 100
▁at 100
▁अदन 100
▁पाचन 100
▁अनगिन 100
▁कराएं 100
स्क्रीन 100
▁आनुवंशिक 100
▁क्वारंटाइन 100
ि‍क 100
नेशन 100
▁घमंड 100
क्‍तूबर 100
▁बालकों 100
▁शत्रुओं 100
▁अंतर्निहित 100
▁भविष्यवक्‍ता 100
ays 100
जाब 100
केवल 100
गोया 100
▁720 100
▁यौग 100
▁रस् 100
▁चरणबद्ध 100
▁नेटफ्लिक्स 100
खत 100
.86 100
वालिया 100
ौजी 100
▁2' 100
▁३० 100
▁युन 100
▁धौनी 100
▁फ‍िल 100
▁डालेगा 100
▁प्रयोगशालाएं 100
▁सुरक्षाकर्मी 100
HO 100
ताअत 100
▁गंवाने 100
▁सन्दर्भ 100
▁7: 100
▁Ph 100
तापूर्ण 100
प्रदायिक 100
▁प्रत्‍यक्ष 100
भोग 100
▁(15 100
▁बनो 100
ियन्स 100
▁कैरे 100
▁खर्चे 100
▁अलविदा 100
▁फ़िरऔन 100
▁भेड़ों 100
▁ऑस्‍ट्रेलिया 100
मेकर 100
वाकर 100
▁धाम 100
▁फोर 100
माइंड 100
▁दाखिले 100
▁ऑप्टिकल 100
▁पहुंचते 100
▁संपादित 100
▁अल्‍पसंख्‍य 100
▁राष्ट्रव्यापी 100
▁6, 100
ivers 100
ानिधि 100
▁अव्य 100
▁तबादला 100
▁न्यूटन 100
▁अस्पष्ट 100
▁कटारिया 100
▁किन्हीं 100
▁हैट्रिक 100
▁कोलेस्ट्र 100
वई 100
▁हिज 100
स्कों 100
▁करंट 100
▁विकृत 100
▁अनंतपुर 100
▁होनेवाले 100
▁राज्यक्षेत्र 100
हमी 100
ंसिल 100
िकल्स 100
▁जलकर 100
एनआरसी 100
▁उपखंड 100
▁हाकिम 100
▁वायनाड 100
▁एथलीटों 100
▁पत्थरों 100
▁स्वास्थ 100
▁डायबिटीज 100
-2020 100
▁बेंज 100
▁आईओसी 100
▁छक्का 100
▁मेरिट 100
ग्रामीण 100
▁संपादन 100
▁परिपत्र 100
▁सुंदरता 100
rol 100
फ्रंट 100
▁चिराग 100
▁अपोजिट 100
▁अर्चना 100
▁चेन्‍नई 100
▁शासनकाल 100
▁अतिथियों 100
▁शोधकर्ता 100
mm 100
▁बालास 100
▁गौरवान 100
▁डिस्ट्र 100
▁पद्मावती 100
▁आंगनवाड़ी 100
▁220 100
▁भाल 100
ेडियन 100
▁चाँद 100
▁बल्‍ 100
▁अदिति 100
▁अधर्म 100
▁एथलेटिक्स 100
शासन 100
▁एनएफ 100
▁परिण 100
▁वसंत 100
▁शिवम 100
▁पोशाक 100
▁बेवकू 100
▁अटकलें 100
▁अरूणाचल 100
▁आत्मसमर्पण 100
▁Sp 100
▁कैब 100
▁मंडप 100
▁हुओं 100
▁निजात 100
▁मेंबर 100
▁कार्यप्रणाली 100
नाद 100
लियन 100
▁इबर 100
चित्य 100
बाज़ी 100
▁किसकी 100
▁संभाग 100
▁इजराइल 100
▁पूर्णतः 100
▁132 100
▁ह्र 100
▁चाहो 100
▁जन्‍म 100
▁स्क्वा 100
▁स्लाइड 100
▁असेंबली 100
▁पीडि़ता 100
▁मंत्रिपरि 100
▁व्यवसायों 100
▁संभालेंगे 100
▁111 100
▁सूझ 100
ॉजिकल 100
▁कृषक 100
mission 100
▁फिल्मफेयर 100
▁ex 100
▁हलफ 100
स्वच्छ 100
▁2017) 100
▁कानों 100
▁मसाला 100
किक 100
ायों 100
कार्बन 100
▁केविन 100
▁फैलाव 100
▁न्‍यून 100
▁स्‍वीकार 100
ower 100
बर्स 100
▁छठा 100
▁नाख 100
▁बडा 100
▁होप 100
▁नाले 100
▁2018) 100
▁पहुंचाई 100
▁प्रभाकर 100
▁एयरफोर्स 100
▁प्रैक्टिस 100
ork 100
रेड 100
▁मोचन 100
▁पाबंद 100
▁आन्दोलन 100
▁हत्यारों 100
णता 100
▁एला 100
▁पीपीई 100
▁पाठकों 100
जेआई 100
तनों 100
ब्रह 100
▁मंस 100
कोविड 100
ोड़ों 100
▁पीना 100
▁जलस्तर 100
▁ताजमहल 100
▁द्वारका 100
ral 100
▁थक 100
▁मौन 100
िटिकल 100
▁कोचों 100
▁बिनती 100
▁मौजिज़े 100
▁प्रसंस्‍करण 100
चिंग 100
▁पैड 100
▁डिनर 100
▁स्को 100
▁नाराज़ 100
▁वृध्दि 100
▁कोविन्द 100
▁गोलाबारी 100
96 100
.87 100
पोर 100
दर्स 100
▁मून 100
ग़ैरह 100
▁क्रय 100
एसएलवी 100
गुजरात 100
▁पक्के 100
▁निमित्त 100
▁सशक्तीकरण 100
▁अविश्वसनीय 100
.68 100
▁Son 100
▁मिर 100
▁बचाना 100
▁सत्यपाल 100
▁गौरवान्वित 100
.79 100
मेगा 100
▁मोइ 100
वृत्त 100
▁चलाता 100
▁झज्जर 100
▁एकेडमी 100
▁सोयाबीन 100
▁त्योहारों 100
▁शिष 100
विराम 100
▁आंका 100
▁झुंड 100
▁धनिया 100
्‍लादेश 100
▁व्लादिमीर 100
▁ट्रिब्यूनल 100
▁खाए 100
▁सिग्नल 100
▁मेट्रोप 100
.99 100
tel 100
जहा 100
नोई 100
्युट 100
क्तिक 100
▁कोटे 100
▁जींद 100
▁हलचल 100
कृष्‍ट 100
▁टेक्‍ 100
▁पत्ते 100
▁पंद्रह 100
▁हैप्पी 100
▁जनप्रतिनि 100
‍क 100
.82 100
▁(30 100
▁शौक 100
पश्चा 100
▁पड़ाव 100
▁अच्‍छी 100
▁आर्टिफ 100
▁मनोनीत 100
▁रचनाओं 100
▁ओलिंपिक 100
▁हिफाज़त 100
्पी 100
▁AM 100
▁देवर 100
▁आगजनी 100
▁उखाड़ 100
▁योद्धाओं 100
▁अछ 100
कुशल 100
ालाम 100
ाहेब 100
िलिटी 100
▁मोइन 100
▁आईआईएम 100
▁भंडारी 100
▁हत्यारे 100
▁पूर्वाग्रह 100
93 100
फ्री 100
▁कान् 100
▁सोचे 100
▁बेहोश 100
▁उज्ज्वल 100
.21 100
.29 100
aun 100
एलियों 100
▁खोलकर 100
▁खोलें 100
▁स्‍वयं 100
▁MS 100
स्‍ते 100
▁समझी 100
▁निक्ष 100
▁बुलेटिन 100
LA 100
अय 100
ियाज 100
▁डोर 100
▁पाओ 100
वसायिक 100
▁कमाया 100
▁ब्रावो 100
▁ब्‍याज 100
▁बढ़ेंगे 100
▁वॉट्सऐप 100
▁सुर्खियां 100
फत 100
यूपी 100
▁जीटी 100
▁संगति 100
▁नेगेटिव 100
▁म्यूजियम 100
▁पहाड़ियों 100
.22 100
ज़ू 100
ितु 100
कुफ् 100
फ़ाइल 100
▁पारस 100
▁भगवा 100
▁एहकाम 100
▁वायरलेस 100
झू 100
जन्म 100
▁आड़ 100
▁रपट 100
▁लिक 100
▁एग्जिट 100
▁पुनराव 100
▁पोंटिंग 100
▁विस्थापित 100
,’ 100
▁वल 100
फर्ट 100
▁मता 100
▁यूनी 100
▁रोकता 100
▁अनुज्ञा 100
▁विदेशियों 100
इंटर 100
पोरा 100
फ़्ट 100
▁182 100
▁बढऩे 100
▁सवाब 100
▁निखिल 100
▁उठाएगा 100
▁एहतियात 100
.37 100
.61 100
.91 100
▁लत 100
▁शमू 100
▁अंगू 100
▁मैमोरी 100
▁अक्षरों 100
गजों 100
हादत 100
ूराम 100
▁ज़ी 100
▁रुस 100
▁मिता 100
▁रिकी 100
▁मानों 100
▁लेखिका 100
▁असुविधा 100
▁देशभक्त 100
▁सापेक्ष 100
▁दबाने 100
▁प्रफुल 100
ुकूल 100
▁बेथ 100
▁बोरिस 100
▁रैपिड 100
▁डेर 100
▁शाप 100
▁जिंस 100
▁कोंकण 100
▁जोरों 100
▁भड़के 100
▁महर्षि 100
▁मेधावी 100
▁उम्मीदवारी 100
.34 100
.71 100
ध्व 100
गवर् 100
ासान 100
▁अले 100
▁तिम 100
▁बेर 100
▁एनपी 100
सम्मान 100
▁एनपीएस 100
▁सेनानी 100
▁हॉस्टल 100
▁रक्तदान 100
▁यमुनानगर 100
97 100
नेंस 100
▁सबब 100
erala 100
▁कतरा 100
▁डीवी 100
▁निंद 100
▁सदमे 100
”। 100
सीओ 100
ामि 100
वर्थ 100
▁174 100
▁2,1 100
▁Nar 100
▁दफा 100
परिवार 100
ुनियाद 100
▁ऊँचाई 100
▁दस्ते 100
▁खुलासे 100
▁लुटेरों 100
माव 100
पर्य 100
▁डैन 100
▁मजी 100
▁प्रज 100
▁भार् 100
▁लिफ्ट 100
▁आईटीआई 100
हॉ 100
.38 100
पेज 100
ताकि 100
▁एनिम 100
▁गुर् 100
▁Delhi 100
▁चुकता 100
▁कुल्लू 100
▁अनुयायी 100
▁फरिश्ते 100
-08 100
फ़त 100
पैरा 100
▁Pre 100
▁अौर 100
▁पिल 100
▁फारसी 100
▁अंकिता 100
▁खुल्लम 100
▁ताज्जुब 100
▁जिन्‍होंने 100
मॉ 100
ज्जा 100
▁मंथन 100
प्रसार 100
▁सुनामी 100
▁चेयरपर्सन 100
af 100
बितर 100
▁ओएस 100
▁आरएस 100
▁ग्लै 100
▁डिब्बे 100
▁डाटाबेस 100
▁यूरोपियन 100
▁"( 100
विता 100
▁भूजल 100
▁रावण 100
व्यवहार 100
▁गर्भाव 100
▁डॉक्‍टर 100
▁न्‍यूनतम 100
▁जितेन्‍द्र 100
ठ् 100
ष्टा 100
िकोड 100
▁टेप 100
▁तात् 100
▁स्की 100
▁गंदगी 100
▁नवीनीकरण 100
▁प्रस्थान 100
▁मस्जिदों 100
ालत 100
एफटी 100
▁सुझ 100
▁वेदी 100
▁इंडीज 100
▁ईएमआई 100
▁समझती 100
▁नरसंहार 100
▁नस 100
ूरती 100
▁खौफ 100
▁झिल 100
▁तरस 100
▁मरक 100
▁डेयर 100
▁उबरने 100
▁प्राधिकारियों 100
ूकी 100
सिटी 100
▁आइट 100
▁समझो 100
▁बोलीं 100
▁पखवाड़े 100
Hz 100
.66 100
.74 100
लाने 100
▁समूद 100
▁घुसने 100
▁सांद्र 100
▁विपत्ति 100
CR 100
ाजय 100
▁एमी 100
त्‍ती 100
▁रेणु 100
▁वज़न 100
▁फेडरर 100
▁ब्रैड 100
सामान्य 100
▁शिशुओं 100
▁खाकर 100
▁जनमत 100
▁निभाए 100
▁दोहराते 100
१९ 100
वत् 100
एलपी 100
▁बरन 100
▁भान 100
ङ्क्ष 100
▁1948 100
▁गन्ने 100
▁पाउंड 100
▁विक्ष 100
▁स्मार 100
▁लोहिया 100
▁अभिरक्षा 100
▁एक्सप्रेसवे 100
ty 100
.97 100
ढ़ि 100
खोरी 100
▁आलेख 100
▁ऐप्स 100
▁झोंक 100
▁शार्द 100
▁डॉक्यू 100
▁बनवाया 100
.89 100
बहन 100
ुका 100
▁हं 100
बूती 100
▁शासी 100
▁किडनी 100
▁रोज़े 100
▁विधायिका 100
▁अपार्टमेंट 100
एव 100
▁कद 100
▁ढल 100
्रोम 100
▁अन्जाम 100
▁कराएगी 100
▁स्‍पष्‍ट 100
▁पारसी 100
▁भक्‍ति 100
▁चुंबकीय 100
▁समायोजन 100
▁राष्ट्रपिता 100
put 100
पाठ 100
▁अपा 100
रेकीन 100
▁बीटा 100
▁आर्चर 100
▁तिलहन 100
▁बोलता 100
▁पालिसी 100
▁उपनगरीय 100
.93 100
कूद 100
ॉक्स 100
चिकित् 100
स्ट्रा 100
▁एलएमटी 100
▁खरीदना 100
▁संवेदी 100
▁पृथ्वीराज 100
िच 100
ICI 100
▁,‘‘ 100
स्कूल 100
▁ओबेर 100
▁रशीद 100
▁बैठते 100
▁हाइवे 100
▁प्रीपेड 100
▁फ‍िल्‍म 100
▁होल्डिंग 100
▁धारावाहिक 100
▁पण 100
बाला 100
ोडिया 100
▁फेलो 100
▁संचित 100
▁दूरदराज 100
▁बायोटेक 100
94 100
ुस् 100
ोलेड 100
▁सूडान 100
ariable 100
▁मज़दूरी 100
▁आसन 100
▁फेक 100
▁रैफर 100
▁चित्त 100
▁बताइए 100
▁खेलेगी 100
▁निर्गम 100
▁सर्वप्रथम 100
ंझ 100
.98 100
ोजपा 100
▁पैग़ 100
▁अभयार 100
▁आलोचक 100
▁हव्वा 100
▁फ्रैंक 100
9) 100
gy 100
▁1976 100
▁हँसी 100
▁मजलिस 100
रेन्द्र 100
▁दोहराई 100
▁माताओं 100
▁इंजीनिय 100
▁खुर्शीद 100
▁संकीर्ण 100
▁बागेश्वर 100
▁360 100
▁1972 100
▁कोरोन 100
▁रियाज 100
▁मूस 100
▁जैकेट 100
▁नहींहै 100
▁संरचनाओं 100
▁स्वेच्छा 100
▁वेबसाइटों 100
ष्टमी 100
▁वेने 100
▁वंदना 100
▁आज्ञाकारी 100
▁डेरे 100
▁स्‍थल 100
▁क़समें 100
▁नजरबंद 100
▁चिकित्सालय 100
ैप 100
ओटी 100
▁२३ 100
ख़्त 100
▁चखा 100
दानंद 100
निर्ण 100
▁अधीर 100
▁कायर 100
▁वडोदरा 100
▁अभियंता 100
▁गोदावरी 100
▁याचिकाएं 100
▁संकल्पना 100
▁केम 100
▁भाइ 100
▁उप्र 100
▁लिबर 100
▁खटखटा 100
▁सेंटी 100
▁न्यौता 100
▁लॉन्‍च 100
▁अक्‍तूबर 100
▁कम्पनियों 100
ari 100
ंबल 100
शाद 100
▁MI 100
न्सी 100
▁शेफ 100
्‍तान 100
▁वजहों 100
▁अनगिनत 100
▁किनारा 100
▁परिषदों 100
▁अनुज्ञात 100
▁कॉन्फ़िगर 100
▁सौराष्ट्र 100
▁पीते 100
▁बगावत 100
▁ओबेरॉय 100
बिर 100
▁यार 100
▁शाओमी 100
▁संभाली 100
▁ज्वालाम 100
▁कॉमेडियन 100
▁खूबसूरती 100
गति 100
डीई 100
▁III 100
▁क़दर 100
▁थकान 100
परीक्षा 100
▁इंद्रा 100
▁चाइल्ड 100
▁अभिनिर्धारित 100
तेल 100
्रू 100
irst 100
▁डेड 100
▁साठ 100
िलिंग 100
▁तंवर 100
▁वेरियंट 100
▁अपेक्षाओं 100
▁Shar 100
▁सिमट 100
लाइट्स 100
▁ईशांत 100
▁छिपाने 100
▁डेनियल 100
▁पेट्रो 100
▁मित्रा 100
▁मूर्तियों 100
देपा 100
िलाई 100
▁(18 100
▁१९७ 100
विधिक 100
▁जोनल 100
▁साहनी 100
मावली 100
▁निसान 100
▁मानकी 100
▁घमासान 100
▁पोस्‍ट 100
▁मशीनें 100
form 100
दर्द 100
▁1983 100
▁इताअत 100
▁अविनाश 100
▁जोड़ते 100
▁सेक्सी 100
▁गर्भपात 100
▁दरवाज़े 100
बांग्लादेश 100
▁केन्‍द्रों 100
▁कोषाध्यक्ष 100
▁डब्ल्यूएचओ 100
▁इन्वेस्टमेंट 100
थॉन 100
ंटीन 100
▁लुईस 100
▁कड़ाई 100
▁भ्रूण 100
▁वरदान 100
▁शहादत 100
▁मधुमक् 100
▁इंटरनैशनल 100
▁सहिष्णुता 100
'. 100
.42 100
ंकेश 100
▁रसी 100
▁बुआई 100
▁आनेवाली 100
PM 100
तुर 100
▁बं 100
▁मीट 100
▁साबर 100
▁अपितु 100
▁मसाले 100
▁पूर्वक 100
▁ईमानवाले 100
▁जिम्मेदारियों 100
▁कोक 100
▁कीगई 100
▁गश्त 100
▁ग़ैर 100
संयुक्त 100
▁कमांडो 100
▁प्यारी 100
▁भ्रामक 100
▁दिग्गजों 100
▁रखनेवाले 100
▁पर्याप्‍त 100
▁हेल्थकेयर 100
.46 100
▁मूत्र 100
▁शोरूम 100
▁अस्थाई 100
▁नदियां 100
ज्बे 100
▁ढाँ 100
▁छूने 100
▁मीणा 100
फ़ारिश 100
शिक्षा 100
▁जस्टिन 100
▁भाईयों 100
te 100
▁तग 100
▁(-) 100
▁Pol 100
▁वर्षो 100
▁साभार 100
▁उज्जैन 100
▁कार्टून 100
▁कॉन्ट्र 100
▁प्लेइंग 100
US 100
एचए 100
दाह 100
ौना 100
लाधार 100
eather 100
▁रणधीर 100
▁सायना 100
▁दिवाला 100
▁मीडियम 100
▁मीनाक्षी 100
▁धार्मिकता 100
▁फ्रेमवर्क 100
स्का 100
▁कसर 100
▁नजात 100
▁गोडसे 100
▁डायना 100
▁रणजीत 100
▁रिमोट 100
▁नॉर्वे 100
▁सीआईआई 100
कारात्‍मक 100
ory 100
एलबी 100
▁चौदह 100
▁प्रीत 100
▁एमोलेड 100
▁चिड़िया 100
ंतुक 100
ल्‍प 100
त्‍यादि 100
▁डिमांड 100
▁आयोजकों 100
▁प्रारूपों 100
▁सम्मेलनों 100
▁बिश् 100
▁रसेल 100
▁अज्ञान 100
▁सम्मुख 100
▁जबर्दस्त 100
▁प्रतियां 100
▁समाधानों 100
▁छुट्टियों 100
▁बेबुनियाद 100
सैट 100
▁उग 100
द्धार 100
▁पूरब 100
▁सउदी 100
▁इलिया 100
▁झी 100
ियोल 100
▁गरज 100
▁बेज 100
▁हैड 100
▁काटा 100
▁अन्तर् 100
▁अर्धसैनिक 100
Com 100
फाक 100
▁ra 100
दलीय 100
देखो 100
▁घसी 100
▁बुत 100
ंदाजी 100
▁1200 100
▁अंडा 100
▁मदुर 100
▁संग्र 100
▁हार्म 100
▁कागजात 100
▁हिरानी 100
▁जाएँगें 100
▁पनडुब्बी 100
्मिक 100
▁आनी 100
▁बिठ 100
्रेजी 100
▁थावर 100
जिसमें 100
▁प्रतिल 100
▁इत्‍यादि 100
▁देशव्यापी 100
▁स्वाधीनता 100
▁[[ 100
▁कुच 100
▁पका 100
▁मोनो 100
▁बिलों 100
▁सीकरी 100
▁एलआईसी 100
▁Updates 100
.81 100
lic 100
मरी 100
▁8, 100
ॉप्ट 100
याधीश 100
▁जताने 100
▁एनडीपी 100
▁कार्यो 100
▁त्रिवेदी 100
▁मुजाहिदीन 100
:% 100
.23 100
ेनॉल 100
▁हान 100
स्क्यू 100
ांतरित 100
▁डोकलाम 100
बनी 100
वारा 100
▁आॅफ 100
▁एलन 100
▁जलन 100
▁लैंग 100
उद्दीन 100
ियोग्रा 100
▁अभिकरण 100
▁महफूज़ 100
▁विश्वनाथ 100
कक 100
तनत 100
ियानो 100
▁जज़ा 100
▁मंज़ूरी 100
▁सुमित्रा 100
▁पहुंचेंगे 100
ौटी 100
उदाहरण 100
▁ट्वीटर 100
▁लीबिया 100
▁व्यतीत 100
▁जनसंपर्क 100
▁धर्मेन्द्र 100
get 100
सरा 100
ाइजर 100
▁113 100
ystem 100
त्‍मा 100
चन्द्र 100
स्तरों 100
▁सिंड्रोम 100
▁डाइट 100
▁सरीही 100
▁निधियों 100
▁परहेज़गारों 100
कील 100
थरा 100
▁धीमा 100
▁वृहद 100
▁जन्मे 100
▁जाखड़ 100
▁ड्रीम 100
▁तालीम 100
▁होम्य 100
▁गुजरना 100
▁पूर्वजों 100
▁रखनेवालों 100
MI 100
▁ओं 100
▁गृ 100
▁पटल 100
सिस्ट 100
▁दिनभर 100
▁मिताली 100
इम 100
▁थ्रो 100
िरोपित 100
▁खंगाल 100
▁फाइटर 100
▁कुत्तों 100
▁फ्लोरिडा 100
▁सुरेन्द्र 100
▁इलै 100
ईआरटी 100
▁इम्त 100
▁आईओएस 100
▁पश्‍च 100
महाद्वीप 100
▁कुशवाहा 100
ुलाम 100
▁गायों 100
▁दिलाना 100
-2017 100
▁क्रीज 100
▁अंदाज़ 100
▁कविताओं 100
▁आईडीबीआई 100
मरण 100
-400 100
हारा 100
ोकॉन 100
▁मोशन 100
▁विधा 100
▁सौते 100
▁शाकिब 100
▁एनएसएस 100
▁परहेज़गार 100
.31 100
▁is 100
ब्रू 100
▁एवी 100
▁टार 100
▁आरसी 100
पट्टनम 100
▁खरीदार 100
▁टूरिज्म 100
▁तार्किक 100
जहन्न 100
▁पीला 100
▁मीका 100
▁खजाने 100
▁गोलियों 100
/1 100
5, 100
तन्य 100
▁उपलक्ष्य 100
▁चयनकर्ता 100
▁स्‍वतंत्रता 100
.92 100
▁123 100
▁छमाही 100
▁प्रयो 100
▁मुंडा 100
▁परवरिश 100
▁जानकारियों 100
▁Man 100
▁Max 100
▁घिर 100
▁सूख 100
▁इबरत 100
▁हिजब 100
▁रंगमंच 100
▁बेटियाँ 100
▁बोर्डों 100
▁मेडिसिन 100
ब्बों 100
▁पेशी 100
▁अनलॉक 100
▁किसका 100
▁मरज़ी 100
▁विराज 100
ध्‍यक्ष 100
▁चेहरों 100
▁ट्रैवल 100
▁अनुकूलन 100
▁उपयुक्‍त 100
▁ऑक्सफोर्ड 100
▁सुपरकिंग्स 100
▁प्रधानमंत्रियों 100
रूस 100
न्हे 100
▁आँक 100
▁कटे 100
▁हंगामे 100
▁बाजपेयी 100
▁वर्कर्स 100
सेवानिवृत्त 100
▁तव 100
▁असद 100
▁खोने 100
▁शबाना 100
▁कड 100
तराज 100
▁129 100
▁मशक् 100
▁Office 100
▁औचित्य 100
▁जायसवाल 100
▁अधिरोपित 100
▁काठमांडू 100
गुण 100
पिछला 100
▁अटला 100
▁बयां 100
▁सेनन 100
▁पेस्ट 100
▁मसीहा 100
▁वाईएस 100
▁पूर्णता 100
स्टीन 100
esults 100
इंडियन 100
▁श्वसन 100
▁चौड़ाई 100
▁हड्डियों 100
▁गर्भावस्था 100
▁मंत्रिपरिषद 100
▁00 100
▁जवानी 100
▁निकलना 100
▁काउंसलिंग 100
डिज 100
बर् 100
▁याज 100
▁रची 100
▁बरती 100
▁हेजल 100
प्रमुख 100
ियोजित 100
▁कोलिन 100
▁अच्‍छा 100
▁बच्‍चे 100
▁शुद्धता 100
▁ऊंचाइयों 100
यूए 100
▁240 100
बियों 100
स्‍तक 100
▁ग्रै 100
▁दलहन 100
▁वैभव 100
▁हरिया 100
▁सीएसआर 100
इलेक्ट्र 100
▁फेफड़ों 100
जीपी 100
▁ऊँचा 100
▁दिखते 100
▁मनसुख 100
▁सिराज 100
▁अनुष्ठ 100
▁तूफानी 100
न्यायालय 100
▁असंगठित 100
DP 100
▁de 100
▁जिल 100
▁उन्‍ 100
▁एड्स 100
▁वसीय 100
▁फ़ायदा 100
▁अक्षमता 100
▁आज़माइश 100
▁रास्तों 100
▁WhatsApp 100
▁पद्मश्री 100
ुनी 100
ुमो 100
▁ऑनर 100
▁रबा 100
▁कहूं 100
▁।... 100
▁2015) 100
विभागों 100
▁उद्यमशीलता 100
AC 100
▁IN 100
▁Box 100
ोनियो 100
▁मिलर 100
▁लियोनी 100
▁राइफल्स 100
ब्रिट 100
▁डिपो 100
▁पाँव 100
▁फिरा 100
.94 100
rom 100
ोपरा 100
▁एआर 100
▁एर् 100
कानून 100
▁अम्ल 100
▁धनुष 100
▁यामी 100
▁लपेट 100
▁डेविस 100
▁तसबीह 100
▁साबुन 100
▁जिम्‍मेदारी 100
▁11, 100
▁लेबर 100
▁परगना 100
▁मांझी 100
▁फिजिकल 100
▁भार्गव 100
नीस 100
पुस्त 100
प्पड़ 100
वाणिज 100
▁हंसी 100
▁चरवाह 100
▁भीतरी 100
▁वाद्य 100
स्वार्थ 100
▁विनाशकारी 100
चालक 100
नाया 100
नियम 100
भ्यास 100
▁सीटी 100
▁क्रमिक 100
▁मारिया 100
▁यूनिटी 100
▁बका 100
▁बहल 100
ution 100
▁दलीलें 100
▁बीएमसी 100
▁मूंगफली 100
▁बीमारियां 100
खेल 100
त्तक 100
▁लक् 100
्लैंड 100
▁योगा 100
संबंधी 100
▁चर्चाओं 100
▁संस्थापित 100
उद् 100
""." 100
लेखन 100
समैन 100
▁एएस 100
▁रजा 100
▁एलजी 100
▁आर्ट्स 100
▁सुखदेव 100
▁मुकाबलों 100
▁यस 100
सांख 100
▁आव्र 100
▁मिलाएं 100
▁निजीकरण 100
▁परिपक्वता 100
सन् 100
ृद्धि 100
▁ताड़ 100
▁तटस्थ 100
▁फिरते 100
▁संसद् 100
▁सीबीआइ 100
न्य 100
▁बर्न 100
▁तुर्क 100
▁लंकेश 100
▁सातों 100
▁अनेकों 100
▁दुबारा 100
▁पुत्रों 100
▁हलफनामा 100
▁रिटायर्ड 100
जगत 100
▁304 100
▁तंगी 100
म्परिक 100
▁एडमिन 100
▁शमूएल 100
▁डायमंड 100
▁क्राफ्ट 100
▁बेयरस्टो 100
▁मंत्रिमण्डल 100
▁उद्योगपतियों 100
नेर 100
▁निग 100
▁इन्‍ 100
▁नाईं 100
▁साज़ 100
▁होइए 100
▁रमजान 100
▁अदाकारा 100
रागढ 100
▁खरब 100
▁नफ़ 100
▁पशुधन 100
▁सजाया 100
▁एकाग्र 100
▁कंटेंट 100
▁इंजीनियरी 100
▁परहेज़गारी 100
anc 100
▁मची 100
▁पीले 100
रेगांव 100
▁झुकाव 100
▁डिलीट 100
▁दरगाह 100
▁पौष्टिक 100
▁एमबीबीएस 100
amp 100
ुलम 100
▁खल 100
न्दन 100
होने 100
िनेट 100
▁वक्र 100
▁वीवो 100
▁अफ़ग़ 100
▁पूर्णतया 100
▁प्रतिबिंबित 100
comm 100
एनटी 100
▁फ़ी 100
▁1978 100
▁कोस्ट 100
▁निपटना 100
▁मेहरबानी 100
▁उत्‍कृष्‍ट 100
तृक 100
▁उमंग 100
घोष 100
▁अँ 100
दीक़ 100
▁हरफ 100
▁बेघर 100
▁डेस्क 100
▁राजनय 100
▁करेगें 100
▁रेस्क्यू 100
चिन 100
क़ूब 100
▁नीम 100
aunch 100
न्याय 100
रेक्ट 100
▁एरिक 100
▁छाती 100
▁टिकी 100
▁कैटेगरी 100
▁महारानी 100
एमओ 100
▁आटा 100
▁जि़ 100
▁फाल 100
िपूर्ण 100
▁Kerala 100
▁ठेकेदार 100
▁निंदनीय 100
▁श्रीमान 100
खनन 100
टेबल 100
▁छुप 100
▁टोनी 100
▁अररिया 100
▁अस्थिरता 100
▁नियमावली 100
▁अध्यक्षों 100
काशी 100
डियम 100
▁139 100
▁ओड़ 100
▁देब 100
विल्स 100
दित 100
▁घों 100
▁तक़ 100
सार्व 100
▁(199 100
▁1975 100
▁अंचल 100
▁तरुण 100
▁मैरा 100
▁दाविद 100
▁प्‍लेट 100
▁सुरजीत 100
▁ह्यूस्टन 100
▁▪ 100
टाउन 100
डीबी 100
▁थाइ 100
▁भीमा 100
▁साधु 100
संख्यक 100
▁बीजों 100
▁लांबा 100
▁सौदों 100
चिकित्सा 100
▁एनएचएआई 100
▁व्यक्‍त 100
▁जलापूर्ति 100
▁नवनिर्वाचित 100
▁बांग्‍लादेश 100
▁8: 100
ृश्य 100
▁गंध 100
▁पिए 100
▁बूट 100
बल्कि 100
▁महंत 100
▁मानस 100
▁दीवान 100
▁संचाल 100
▁सीवेज 100
▁मंडियों 100
▁रैलियां 100
▁प्रतिमाह 100
▁आर्टिफिशियल 100
क्कन 100
िक्‍ 100
▁(11 100
▁सुप 100
▁बकरी 100
▁भण्ड 100
▁टिप्स 100
▁दरख्त 100
▁भयभीत 100
▁गंगवार 100
▁पाटेकर 100
▁पटरियों 100
▁प्रोसेस 100
▁रिएक्शन 100
▁सिफ़ारिश 100
▁ग्रेजुएशन 100
▁निर्माणाधीन 100
▁पीड 100
▁शंक 100
अर्था 100
रावती 100
शांति 100
▁पेंस 100
▁बैजल 100
विंद्र 100
▁अनजान 100
▁पटानी 100
▁गुज़ार 100
▁एजेंटों 100
▁मर्सिडी 100
▁एआईएमआईएम 100
▁6. 100
गपुर 100
राबी 100
▁एचएस 100
▁शशिक 100
▁अनूठी 100
▁तरजीह 100
▁चैतन्य 100
▁भड़काऊ 100
ँग्रेज़ी 100
▁9: 100
▁नॉम 100
▁बूझ 100
▁ठेका 100
▁नाफर 100
▁बक्स 100
▁सोर्स 100
▁रिक्शा 100
▁कार्यकलापों 100
EC 100
ंबी 100
वाँ 100
क्सिस 100
▁लारा 100
▁विघटन 100
▁पहचाने 100
▁मैसर्स 100
▁रोनाल्डो 100
▁उपलब्‍धता 100
कूट 100
बाज़ 100
ाम्ब 100
▁NRC 100
▁नाभ 100
▁वैय 100
करबर्ग 100
▁आंदोल 100
▁जन्मा 100
▁स्केल 100
▁बुलाते 100
▁महानायक 100
▁अधिनियमित 100
▁प्रकोष्‍ठ 100
बता 100
बैं 100
▁On 100
▁रोज़ा 100
▁छोड़ते 100
▁वग़ैरह 100
▁अभ्‍यास 100
▁सरदारों 100
कम्प 100
▁बैट 100
हापुर 100
आईआईटी 100
▁शब्दा 100
▁हाशमी 100
▁उपभोक्‍ताओं 100
▁→ 100
अभिने 100
▁क़ब्ल 100
▁नजरिए 100
मेंट्री 100
सुरक्षा 100
▁कोलंबो 100
▁सिकंदर 100
▁जेठ 100
▁आफिस 100
▁ट्री 100
▁वाक्या 100
▁समावेशन 100
▁1) 100
भाड़ 100
▁धुआ 100
▁Step 100
▁नीना 100
▁नीला 100
▁कमलेश 100
▁जसवंत 100
▁सीनेटर 100
▁इंटीरियर 100
▁रजिस्टर्ड 100
▁संलिप्तता 100
ock 100
चूर 100
▁क्य 100
▁रबर 100
क्राम 100
क्रेट 100
▁ICICI 100
▁अंत्य 100
▁प्रतिद्वंद्व 100
▁अघ 100
▁निष्‍ 100
▁परमार 100
▁वायदे 100
▁स्टेटस 100
▁निर्वाह 100
▁qu 100
▁इंप 100
▁बेगम 100
▁ब्रु 100
▁आभासी 100
▁खर्चा 100
▁पकड़ी 100
▁पैतृक 100
▁मारते 100
▁निकटता 100
▁माहिरा 100
▁ट्रीटमेंट 100
श्क 100
एफएस 100
▁149 100
▁योन 100
▁इयोन 100
▁1,500 100
[...]
