▁t 100
he 100
▁a 100
in 100
re 100
▁the 100
on 100
er 100
nd 100
▁s 100
at 100
▁o 100
is 100
▁w 100
en 100
▁c 100
ed 100
an 100
or 100
ar 100
it 100
es 100
▁p 100
▁f 100
▁of 100
▁b 100
▁in 100
al 100
ing 100
as 100
▁to 100
▁and 100
▁h 100
ou 100
ion 100
ic 100
▁d 100
▁m 100
il 100
▁S 100
ent 100
▁T 100
ro 100
▁A 100
le 100
▁I 100
▁th 100
id 100
▁M 100
▁re 100
▁be 100
ve 100
ad 100
ct 100
st 100
▁C 100
▁n 100
▁P 100
om 100
▁is 100
▁e 100
▁l 100
▁The 100
am 100
ur 100
▁g 100
▁for 100
ation 100
ol 100
ay 100
ot 100
▁B 100
▁on 100
ver 100
ter 100
im 100
ir 100
▁R 100
el 100
et 100
ut 100
ce 100
▁H 100
▁D 100
ill 100
▁st 100
us 100
ra 100
ly 100
ment 100
ig 100
▁al 100
ch 100
ow 100
▁he 100
▁that 100
"" 100
▁N 100
ak 100
▁G 100
res 100
ith 100
▁K 100
ri 100
ist 100
ul 100
od 100
▁wh 100
un 100
▁Ind 100
and 100
ers 100
ia 100
▁y 100
▁with 100
▁as 100
▁has 100
▁was 100
▁con 100
▁pro 100
▁de 100
▁1 100
ate 100
▁ha 100
hi 100
▁an 100
▁W 100
os 100
ere 100
▁are 100
est 100
▁at 100
▁it 100
her 100
▁( 100
▁sa 100
▁2 100
th 100
ab 100
▁by 100
▁will 100
▁se 100
op 100
ld 100
▁J 100
ain 100
ag 100
our 100
▁have 100
art 100
▁v 100
um 100
▁com 100
rom 100
if 100
pp 100
▁said 100
ice 100
▁F 100
▁from 100
▁not 100
ort 100
ity 100
ies 100
nt 100
▁L 100
ha 100
em 100
ess 100
so 100
ac 100
▁su 100
▁ex 100
▁India 100
pe 100
▁this 100
iv 100
ud 100
▁E 100
▁u 100
ant 100
ht 100
▁ne 100
ive 100
▁r 100
▁U 100
▁O 100
ction 100
ong 100
se 100
ister 100
ore 100
har 100
▁or 100
ial 100
▁also 100
qu 100
ure 100
▁Min 100
▁been 100
▁le 100
▁go 100
cc 100
ard 100
▁you 100
▁his 100
ry 100
ust 100
▁k 100
▁sh 100
▁He 100
ould 100
all 100
ian 100
▁In 100
han 100
oc 100
ress 100
▁20 100
▁were 100
ther 100
▁wor 100
▁pol 100
are 100
vern 100
ap 100
▁ag 100
▁all 100
▁we 100
ated 100
ident 100
ast 100
▁"" 100
▁Th 100
ef 100
▁Minister 100
▁inc 100
ime 100
▁V 100
ric 100
ok 100
ary 100
▁pl 100
ep 100
ire 100
▁had 100
ge 100
ous 100
▁their 100
ff 100
vernment 100
ich 100
ight 100
▁Ra 100
ind 100
ount 100
ome 100
rou 100
ost 100
00 100
ase 100
▁ad 100
▁res 100
▁per 100
▁Pr 100
▁j 100
▁me 100
ear 100
li 100
▁ab 100
▁who 100
▁comp 100
nder 100
▁which 100
▁part 100
age 100
te 100
port 100
ik 100
▁pe 100
one 100
▁off 100
ew 100
▁Ch 100
▁they 100
av 100
▁them 100
▁im 100
▁can 100
out 100
ru 100
▁St 100
ber 100
▁do 100
ide 100
ah 100
ell 100
ect 100
ople 100
ations 100
▁up 100
▁It 100
wo 100
orm 100
." 100
ult 100
▁3 100
ence 100
ord 100
▁acc 100
fter 100
du 100
▁en 100
▁Y 100
og 100
▁us 100
▁whe 100
ans 100
▁un 100
ition 100
vel 100
▁dis 100
▁app 100
▁other 100
ance 100
ue 100
ctor 100
▁Al 100
ake 100
▁Sing 100
ile 100
▁Indian 100
ical 100
▁people 100
▁under 100
▁cont 100
▁int 100
ov 100
pl 100
per 100
▁man 100
pt 100
▁- 100
ach 100
▁again 100
gh 100
ays 100
▁police 100
very 100
▁out 100
▁its 100
ational 100
▁Singh 100
▁sp 100
▁Rs 100
▁ar 100
ine 100
▁reg 100
ish 100
hed 100
ose 100
ank 100
ree 100
▁te 100
▁one 100
▁Sh 100
ame 100
▁over 100
ack 100
▁As 100
▁government 100
ates 100
▁This 100
ail 100
▁201 100
ign 100
▁count 100
ath 100
▁cl 100
iz 100
ub 100
ade 100
▁am 100
▁so 100
mit 100
ass 100
ions 100
▁sc 100
red 100
▁state 100
able 100
▁" 100
JP 100
▁We 100
ang 100
▁there 100
esh 100
ace 100
day 100
▁against 100
▁work 100
▁but 100
ater 100
▁fil 100
▁ch 100
hief 100
▁two 100
ens 100
▁rec 100
▁fir 100
form 100
▁pres 100
▁Del 100
▁tr 100
▁after 100
▁any 100
ib 100
▁him 100
▁Go 100
▁5 100
▁BJP 100
▁about 100
me 100
erv 100
▁Delhi 100
▁would 100
ious 100
ted 100
▁Mod 100
▁year 100
▁new 100
▁4 100
▁no 100
ered 100
▁""" 100
con 100
▁qu 100
now 100
ash 100
uring 100
ip 100
aw 100
▁her 100
old 100
we 100
▁lead 100
ings 100
▁ev 100
iss 100
ourt 100
ever 100
▁Un 100
▁case 100
▁ro 100
▁' 100
▁our 100
▁inv 100
ities 100
▁dec 100
ove 100
▁Modi 100
▁first 100
erson 100
oin 100
▁Wh 100
lic 100
▁min 100
▁Cong 100
▁time 100
mer 100
ket 100
▁your 100
ces 100
lud 100
▁All 100
▁Com 100
▁cent 100
▁De 100
ual 100
▁Congress 100
igh 100
cted 100
ild 100
rit 100
▁Raj 100
tern 100
▁pre 100
aj 100
▁And 100
), 100
▁spe 100
oy 100
▁film 100
▁offic 100
▁bet 100
ob 100
▁country 100
▁ra 100
ook 100
▁Se 100
istan 100
velop 100
▁cro 100
ital 100
ied 100
oll 100
ced 100
▁An 100
▁lik 100
▁prov 100
ents 100
▁includ 100
▁pr 100
man 100
▁dist 100
ise 100
ased 100
▁add 100
▁should 100
reat 100
▁being 100
▁more 100
rict 100
▁ind 100
▁bec 100
ite 100
ren 100
cial 100
ely 100
hip 100
oun 100
ward 100
ged 100
amil 100
ram 100
stit 100
vers 100
ory 100
▁know 100
▁6 100
▁tak 100
▁when 100
ie 100
▁Ar 100
aus 100
ndra 100
ks 100
▁Pak 100
ject 100
tain 100
▁into 100
ife 100
▁tra 100
▁Prime 100
ai 100
ya 100
▁rel 100
act 100
▁ele 100
▁Pol 100
▁made 100
▁person 100
▁Su 100
▁19 100
▁imp 100
ood 100
20 100
emb 100
▁On 100
ments 100
▁such 100
▁mar 100
▁rem 100
oth 100
cy 100
rib 100
▁mat 100
ound 100
▁what 100
arn 100
▁iss 100
▁these 100
eng 100
ma 100
▁Man 100
▁some 100
▁my 100
urn 100
▁med 100
▁Pakistan 100
▁comm 100
▁But 100
▁How 100
▁co 100
adesh 100
ral 100
ution 100
▁cons 100
▁act 100
▁att 100
▁ass 100
▁ac 100
ating 100
▁only 100
▁during 100
der 100
▁meet 100
▁Chief 100
oh 100
ana 100
▁Shri 100
resident 100
hen 100
ci 100
ons 100
own 100
▁God 100
▁There 100
eral 100
med 100
▁get 100
amp 100
▁Government 100
ission 100
▁ter 100
ctions 100
ween 100
ower 100
fere 100
▁report 100
▁if 100
rough 100
ict 100
▁between 100
used 100
▁like 100
▁Police 100
▁7 100
led 100
ision 100
▁They 100
▁need 100
▁ph 100
fore 100
▁10 100
▁Re 100
▁invest 100
gan 100
▁President 100
▁than 100
ting 100
▁supp 100
ised 100
akh 100
▁those 100
ug 100
▁far 100
ked 100
▁three 100
▁stud 100
les 100
▁New 100
end 100
▁play 100
elf 100
way 100
▁fe 100
▁through 100
▁Pro 100
▁then 100
alth 100
istry 100
▁sub 100
▁while 100
▁develop 100
▁ent 100
ited 100
ured 100
ally 100
row 100
ful 100
▁day 100
▁State 100
▁8 100
ors 100
ont 100
ific 100
▁she 100
umb 100
ret 100
▁present 100
▁wom 100
▁world 100
ures 100
▁very 100
umar 100
▁district 100
ved 100
eh 100
▁Ma 100
▁Ad 100
ck 100
▁em 100
▁did 100
ause 100
ats 100
▁mon 100
▁giv 100
osp 100
get 100
▁crore 100
ases 100
olog 100
▁pos 100
▁Pradesh 100
ness 100
▁bl 100
▁cap 100
▁fl 100
ars 100
▁Khan 100
▁official 100
▁dire 100
▁serv 100
als 100
▁produ 100
vi 100
cess 100
ublic 100
▁last 100
-1 100
▁fin 100
ters 100
▁sec 100
oor 100
arli 100
▁hel 100
ata 100
▁set 100
other 100
▁how 100
▁famil 100
round 100
pect 100
.. 100
""" 100
000 100
▁take 100
ollow 100
▁So 100
▁where 100
hes 100
ative 100
ible 100
▁inform 100
ph 100
,"" 100
▁minister 100
▁Kumar 100
ft 100
ix 100
▁good 100
arendra 100
▁here 100
▁Gand 100
▁well 100
▁accused 100
▁today 100
ax 100
ati 100
▁dif 100
▁Narendra 100
▁call 100
▁En 100
▁say 100
▁soc 100
▁start 100
▁Allah 100
ran 100
▁Bh 100
▁every 100
oint 100
rest 100
ues 100
ility 100
▁taken 100
▁see 100
▁Cent 100
▁many 100
▁eff 100
wn 100
▁court 100
und 100
ices 100
▁years 100
ospital 100
uth 100
ble 100
▁For 100
▁dem 100
xt 100
ink 100
▁inj 100
air 100
ven 100
ody 100
▁help 100
ural 100
ss 100
up 100
▁team 100
ries 100
▁chan 100
▁may 100
▁loc 100
▁party 100
▁incident 100
▁exp 100
▁Comm 100
ool 100
▁Gandhi 100
▁post 100
▁She 100
▁Court 100
▁Shar 100
eep 100
▁Ministry 100
min 100
▁des 100
▁child 100
ants 100
▁num 100
uk 100
). 100
▁la 100
▁trans 100
▁You 100
tend 100
ism 100
▁before 100
▁US 100
ey 100
▁Gu 100
▁ser 100
ided 100
▁ann 100
▁Sha 100
▁var 100
▁could 100
▁National 100
ather 100
ning 100
▁& 100
▁life 100
ared 100
cond 100
▁right 100
▁9 100
ives 100
▁shall 100
▁rep 100
▁12 100
▁Is 100
▁occ 100
▁make 100
▁just 100
▁Union 100
ond 100
▁vis 100
aking 100
The 100
uss 100
▁Ex 100
▁sy 100
▁arrest 100
its 100
▁chief 100
▁vi 100
chn 100
▁cur 100
ular 100
▁follow 100
ty 100
▁ob 100
▁number 100
▁However 100
▁def 100
▁meeting 100
ght 100
▁cor 100
mir 100
▁Pun 100
ms 100
.""" 100
▁happ 100
▁hand 100
▁high 100
rol 100
conom 100
▁regist 100
▁disc 100
,000 100
▁col 100
▁come 100
▁including 100
▁family 100
▁four 100
ivers 100
kar 100
▁sha 100
att 100
ouse 100
▁car 100
uc 100
▁Ram 100
▁even 100
▁incre 100
ember 100
ics 100
▁prog 100
▁av 100
▁Sec 100
read 100
▁PM 100
▁Act 100
▁most 100
▁sm 100
▁lakh 100
▁back 100
cer 100
▁pass 100
ines 100
arch 100
▁import 100
pur 100
▁Tr 100
ave 100
eneral 100
▁given 100
▁compan 100
cept 100
▁br 100
▁month 100
ior 100
▁char 100
amm 100
▁op 100
▁sit 100
▁rele 100
rent 100
▁both 100
▁support 100
▁Kash 100
▁kill 100
▁law 100
▁inter 100
▁down 100
▁Sab 100
▁Am 100
▁bu 100
riv 100
▁cases 100
stem 100
ists 100
▁Kap 100
ute 100
ee 100
▁among 100
▁ret 100
▁fac 100
ides 100
▁inf 100
▁gu 100
ording 100
urity 100
ways 100
ploy 100
▁What 100
▁Kashmir 100
ror 100
▁appro 100
▁Me 100
▁opp 100
▁15 100
ush 100
com 100
▁sent 100
▁ben 100
ince 100
▁hospital 100
▁run 100
ple 100
roup 100
▁registered 100
▁show 100
▁investig 100
▁polit 100
chool 100
▁Te 100
▁contin 100
▁Shah 100
jab 100
asht 100
ges 100
▁resp 100
▁conf 100
▁place 100
▁requ 100
▁water 100
ament 100
▁partic 100
▁dep 100
▁200 100
retary 100
na 100
▁beli 100
▁former 100
pend 100
▁end 100
▁differe 100
umbai 100
▁Ass 100
uch 100
iness 100
ency 100
▁ref 100
▁death 100
▁organ 100
ins 100
▁Con 100
andid 100
ina 100
ternational 100
▁rece 100
▁second 100
embers 100
▁Punjab 100
▁bus 100
tt 100
king 100
▁lar 100
▁attack 100
ired 100
▁Sabha 100
ified 100
▁held 100
▁way 100
▁cr 100
▁sign 100
rong 100
▁Bank 100
▁each 100
▁ins 100
osed 100
▁power 100
▁ed 100
▁result 100
▁form 100
▁Mumbai 100
▁sur 100
▁want 100
▁laun 100
▁development 100
ued 100
▁women 100
BI 100
war 100
▁cre 100
urther 100
oard 100
▁leaders 100
▁look 100
▁arrested 100
ale 100
▁does 100
▁project 100
▁mov 100
▁health 100
▁injured 100
▁Hind 100
▁spot 100
▁Sharma 100
▁now 100
▁same 100
pr 100
ched 100
ology 100
▁Wor 100
▁students 100
▁No 100
▁social 100
▁grow 100
▁Ab 100
gest 100
wal 100
▁cle 100
▁11 100
▁alle 100
▁Res 100
▁prom 100
▁public 100
▁avail 100
▁air 100
▁gl 100
▁leader 100
▁media 100
ough 100
ently 100
▁Dep 100
ention 100
aim 100
▁president 100
▁ear 100
ashtra 100
ull 100
jay 100
▁bro 100
▁comple 100
▁aff 100
▁econom 100
▁found 100
▁Rah 100
tal 100
stru 100
pre 100
ani 100
▁long 100
▁exam 100
▁Z 100
ten 100
▁because 100
▁matter 100
au 100
▁due 100
▁occas 100
▁days 100
ages 100
▁His 100
▁oper 100
▁cond 100
ctors 100
▁took 100
▁members 100
artment 100
az 100
▁Jeh 100
▁vill 100
ross 100
iet 100
▁own 100
outh 100
▁commit 100
▁regard 100
mers 100
abad 100
ts 100
▁various 100
▁children 100
arat 100
eration 100
ne 100
▁open 100
▁used 100
land 100
ized 100
ving 100
▁system 100
ovah 100
▁process 100
ling 100
ock 100
▁mod 100
▁current 100
▁Jehovah 100
▁says 100
▁main 100
▁next 100
▁along 100
▁adv 100
lim 100
ner 100
▁order 100
▁Kapoor 100
▁Mahar 100
wards 100
▁told 100
▁If 100
▁candid 100
▁Bi 100
ration 100
▁Lord 100
▁occasion 100
▁tal 100
▁announ 100
▁Dr 100
▁remain 100
enior 100
ves 100
imes 100
▁Pat 100
▁Ag 100
▁others 100
▁won 100
▁Commission 100
uation 100
▁too 100
ived 100
ination 100
eth 100
▁must 100
els 100
▁different 100
▁quest 100
▁great 100
▁land 100
▁fore 100
ote 100
ature 100
▁ve 100
uthor 100
rat 100
ajor 100
▁going 100
▁Acc 100
ished 100
▁Rahul 100
▁bank 100
▁writ 100
▁sl 100
oot 100
embly 100
▁information 100
▁head 100
▁After 100
gy 100
▁14 100
riend 100
▁Cha 100
ality 100
▁terror 100
▁win 100
erest 100
▁added 100
▁Sa 100
▁further 100
▁det 100
ias 100
▁program 100
▁countries 100
▁five 100
eld 100
▁stand 100
ason 100
▁around 100
▁13 100
▁est 100
ttar 100
nce 100
ys 100
ID 100
ract 100
▁started 100
▁issue 100
▁commun 100
▁techn 100
ricket 100
▁18 100
ffic 100
▁Shi 100
▁At 100
▁High 100
▁belie 100
illion 100
▁val 100
ried 100
▁national 100
▁tem 100
▁killed 100
tee 100
▁pur 100
▁called 100
▁Le 100
▁del 100
▁Lok 100
▁Jan 100
▁account 100
ned 100
▁prev 100
▁security 100
▁Uttar 100
▁important 100
▁Chand 100
▁vide 100
▁claim 100
▁Part 100
▁fa 100
▁level 100
▁let 100
arh 100
ached 100
mber 100
▁seen 100
▁test 100
▁area 100
▁market 100
engal 100
▁visit 100
▁sever 100
ering 100
▁across 100
▁Eng 100
▁poss 100
▁body 100
▁Maharashtra 100
ump 100
ec 100
▁gr 100
▁reported 100
ilit 100
▁colle 100
▁group 100
por 100
▁Air 100
▁give 100
arlier 100
uman 100
▁much 100
ke 100
▁prop 100
ulture 100
▁action 100
▁respect 100
▁Q 100
▁several 100
▁decl 100
▁benef 100
iod 100
▁school 100
▁Mad 100
▁plan 100
▁Bengal 100
▁Cor 100
my 100
▁sche 100
▁another 100
▁Par 100
ield 100
to 100
▁equ 100
ird 100
ising 100
ek 100
▁jud 100
ressed 100
▁available 100
LA 100
▁Guj 100
▁succ 100
▁home 100
▁indust 100
▁demand 100
▁compl 100
▁states 100
▁use 100
▁interest 100
▁Just 100
ick 100
▁decision 100
▁special 100
ele 100
▁major 100
agar 100
▁read 100
▁total 100
▁World 100
ours 100
ll 100
ought 100
▁Fin 100
▁16 100
ammu 100
▁Secretary 100
aid 100
stitution 100
iti 100
iversity 100
▁yet 100
io 100
▁San 100
▁educ 100
▁came 100
ession 100
▁done 100
▁ext 100
▁Mus 100
▁che 100
-19 100
ala 100
▁[ 100
orth 100
▁proble 100
CC 100
▁condu 100
oss 100
▁Central 100
arliament 100
▁25 100
▁near 100
▁Pe 100
airs 100
▁asked 100
▁Jammu 100
▁pay 100
▁Chr 100
▁lit 100
▁house 100
ena 100
▁period 100
▁persons 100
era 100
▁leg 100
▁farmers 100
icket 100
▁situation 100
▁away 100
aryana 100
▁prot 100
chan 100
99 100
▁Af 100
▁road 100
▁exper 100
▁areas 100
▁consid 100
▁States 100
▁best 100
▁role 100
▁Haryana 100
▁big 100
▁Bihar 100
▁political 100
▁later 100
▁When 100
▁bas 100
▁discuss 100
▁train 100
▁officials 100
▁complain 100
ept 100
oney 100
rate 100
▁think 100
uty 100
▁son 100
▁since 100
▁ens 100
▁sk 100
atch 100
▁list 100
irl 100
0. 100
▁point 100
▁become 100
bs 100
▁elections 100
ready 100
▁Gujarat 100
▁Day 100
▁company 100
ience 100
▁hig 100
▁city 100
▁return 100
▁allow 100
stand 100
▁West 100
lement 100
itiz 100
▁MP 100
▁success 100
▁concer 100
▁One 100
ames 100
▁employ 100
ually 100
▁CO 100
soci 100
▁happen 100
preme 100
▁attend 100
▁Mar 100
▁Spe 100
▁Dire 100
▁top 100
ption 100
▁particip 100
▁name 100
▁fr 100
▁already 100
cent 100
▁Develop 100
▁put 100
▁record 100
▁book 100
▁never 100
ources 100
▁ident 100
▁24 100
▁2020 100
▁keep 100
▁things 100
cl 100
▁Amit 100
▁These 100
▁soon 100
▁Test 100
▁met 100
▁vict 100
wood 100
▁Im 100
▁China 100
▁cer 100
▁got 100
self 100
▁activ 100
▁seats 100
not 100
▁sim 100
mi 100
ging 100
▁rest 100
▁turn 100
▁2019 100
ports 100
▁six 100
▁view 100
▁sector 100
▁build 100
▁few 100
ortun 100
▁price 100
▁friend 100
▁effect 100
view 100
icle 100
... 100
▁heav 100
▁Sc 100
▁May 100
▁video 100
oad 100
▁pop 100
▁men 100
cing 100
▁Aust 100
ets 100
rid 100
▁According 100
stitut 100
olly 100
itness 100
▁inde 100
ruct 100
▁alleged 100
▁senior 100
▁condition 100
▁Rail 100
▁gen 100
▁camp 100
▁Development 100
▁hold 100
▁cost 100
▁business 100
iving 100
▁Supreme 100
ient 100
icy 100
▁gre 100
▁tru 100
▁fun 100
than 100
line 100
▁Him 100
augh 100
.5 100
orts 100
▁eng 100
▁viol 100
wh 100
mend 100
▁General 100
aug 100
▁17 100
▁father 100
▁move 100
▁provide 100
▁Bhar 100
lish 100
▁spok 100
sel 100
ately 100
minist 100
▁announced 100
▁wife 100
▁event 100
▁village 100
obal 100
eal 100
▁upon 100
▁Pl 100
▁Austral 100
▁pric 100
▁Indias 100
▁Christ 100
▁news 100
▁perform 100
▁care 100
▁Son 100
ST 100
▁statement 100
▁To 100
.1 100
ference 100
▁30 100
▁fire 100
agement 100
▁based 100
angu 100
urs 100
▁treat 100
▁poll 100
ancial 100
reng 100
idence 100
▁cam 100
▁without 100
▁South 100
▁MLA 100
ense 100
▁region 100
▁died 100
▁services 100
mitted 100
▁series 100
GB 100
pected 100
eleb 100
▁Shiv 100
▁50 100
▁making 100
▁toget 100
ises 100
▁together 100
▁investigation 100
▁Mal 100
cil 100
▁author 100
▁pet 100
▁question 100
be 100
▁reached 100
ily 100
itional 100
▁launched 100
ury 100
▁bel 100
▁bring 100
▁sol 100
ined 100
kh 100
▁Ran 100
ollywood 100
iety 100
▁inst 100
▁clear 100
VID 100
▁impro 100
ger 100
aka 100
▁hist 100
▁earth 100
mon 100
▁prof 100
ivil 100
asthan 100
▁Department 100
inder 100
▁applic 100
▁relations 100
here 100
▁issued 100
▁ur 100
▁working 100
▁streng 100
▁Party 100
▁Home 100
▁art 100
▁received 100
▁Ja 100
inal 100
▁priv 100
itive 100
hya 100
ners 100
▁word 100
▁growth 100
▁Med 100
thing 100
▁international 100
▁heart 100
▁par 100
ork 100
▁better 100
▁cha 100
▁Sam 100
▁initi 100
▁tax 100
▁strong 100
▁love 100
▁Sat 100
▁gra 100
▁known 100
ones 100
▁fund 100
ium 100
▁chall 100
▁Justice 100
▁dri 100
adav 100
arent 100
ected 100
▁issues 100
▁COVID 100
▁relig 100
▁still 100
une 100
▁girl 100
▁field 100
▁find 100
▁bo 100
▁beg 100
▁Aff 100
▁Rajasthan 100
cies 100
▁Do 100
iron 100
▁address 100
▁plac 100
▁stor 100
irus 100
▁That 100
less 100
▁celeb 100
par 100
ches 100
▁dev 100
▁informed 100
▁Mr 100
▁IP 100
▁respons 100
▁include 100
▁phone 100
gr 100
▁money 100
▁times 100
▁Karn 100
▁cricket 100
▁cannot 100
▁Parliament 100
ouncil 100
▁food 100
▁ple 100
▁third 100
▁Col 100
▁Sal 100
ergy 100
▁sing 100
▁2018 100
ification 100
▁Yadav 100
201 100
nel 100
▁My 100
▁Mah 100
▁large 100
▁towards 100
▁war 100
isation 100
▁local 100
▁however 100
▁beh 100
▁woman 100
▁implement 100
▁trad 100
▁following 100
▁human 100
ari 100
▁education 100
▁till 100
▁100 100
▁currently 100
▁prote 100
▁rul 100
▁/ 100
.0 100
▁Bang 100
▁brother 100
ential 100
app 100
▁Director 100
▁Or 100
anka 100
We 100
▁daugh 100
idd 100
▁Centre 100
▁Affairs 100
▁join 100
▁runs 100
▁lot 100
iance 100
ences 100
ali 100
▁real 100
▁cust 100
resent 100
▁Bollywood 100
▁Ele 100
ically 100
▁filed 100
▁control 100
▁tre 100
ron 100
▁Rep 100
ulation 100
▁protest 100
amb 100
ternal 100
▁match 100
▁saying 100
▁movie 100
of 100
chie 100
▁Health 100
▁week 100
▁comes 100
▁deb 100
▁taking 100
▁div 100
▁Mo 100
▁detail 100
▁With 100
rought 100
reed 100
▁data 100
▁fut 100
▁actor 100
▁Board 100
▁nation 100
▁class 100
▁dead 100
▁saf 100
▁Muslim 100
▁candidates 100
ively 100
ards 100
sh 100
▁University 100
overed 100
▁Koh 100
▁released 100
▁expl 100
▁Co 100
ians 100
▁2017 100
▁Vi 100
rying 100
▁within 100
▁Its 100
▁1, 100
ructure 100
go 100
▁product 100
▁increase 100
▁step 100
▁Assembly 100
SP 100
ilities 100
▁change 100
ify 100
TI 100
esus 100
▁Dh 100
▁peace 100
▁veh 100
medi 100
▁believe 100
ither 100
▁Kh 100
osition 100
▁opportun 100
mar 100
oura 100
itizens 100
▁CBI 100
▁always 100
ibility 100
hav 100
irit 100
ps 100
atives 100
▁service 100
inet 100
▁full 100
▁small 100
▁general 100
DI 100
▁shared 100
▁youn 100
ourn 100
▁invol 100
▁fight 100
aff 100
weet 100
adu 100
▁Pra 100
▁ru 100
▁21 100
▁Vir 100
ataka 100
iqu 100
mes 100
▁final 100
▁accident 100
rial 100
▁achie 100
▁vot 100
▁Jesus 100
▁Commit 100
aged 100
while 100
▁CM 100
iding 100
ained 100
band 100
▁proper 100
ara 100
▁entire 100
▁deal 100
▁office 100
pril 100
▁Ah 100
aring 100
part 100
▁Kohli 100
IC 100
▁mother 100
ances 100
▁Ph 100
▁provided 100
▁inn 100
iver 100
selves 100
ples 100
▁sus 100
▁feat 100
▁es 100
▁estab 100
▁Karnataka 100
▁complaint 100
the 100
over 100
ware 100
▁earlier 100
put 100
▁crit 100
▁left 100
▁why 100
orn 100
▁redu 100
▁Army 100
▁financial 100
▁X 100
▁camera 100
irman 100
ilar 100
▁enc 100
SE 100
▁constru 100
ointed 100
pan 100
▁pati 100
pped 100
▁ord 100
▁serious 100
jee 100
▁certain 100
abinet 100
▁went 100
▁Australia 100
▁brought 100
aram 100
▁rate 100
▁decided 100
ka 100
rug 100
ultural 100
▁Our 100
▁mess 100
▁spec 100
▁sug 100
▁et 100
meric 100
fic 100
▁April 100
aries 100
▁live 100
▁date 100
▁accept 100
eb 100
▁treatment 100
▁free 100
▁press 100
stitute 100
▁International 100
men 100
▁ri 100
resh 100
ope 100
▁front 100
rast 100
▁Def 100
▁economic 100
wit 100
.3 100
▁bre 100
irth 100
▁contrib 100
▁Council 100
▁understand 100
▁Trump 100
▁continue 100
▁future 100
▁elect 100
▁som 100
▁Tamil 100
▁election 100
▁prin 100
▁months 100
raft 100
▁million 100
▁Ash 100
▁Kar 100
▁pri 100
▁feel 100
▁ensure 100
▁Cl 100
▁Committee 100
▁global 100
amed 100
esides 100
ley 100
▁spirit 100
IR 100
anwhile 100
uf 100
▁played 100
ban 100
▁scheme 100
ability 100
▁Serv 100
▁policy 100
viron 100
""." 100
▁langu 100
wan 100
▁storage 100
ti 100
▁dont 100
▁directed 100
▁Mon 100
▁(1 100
▁old 100
▁Red 100
▁Finance 100
alf 100
▁might 100
▁. 100
▁etc 100
▁immedi 100
▁administ 100
▁prices 100
ude 100
▁wicket 100
ize 100
isions 100
.2 100
vironment 100
▁Reg 100
▁March 100
▁industry 100
ship 100
▁workers 100
cell 100
▁People 100
▁past 100
▁United 100
ored 100
▁Both 100
▁22 100
▁Nav 100
▁parties 100
lished 100
▁efforts 100
ober 100
▁meas 100
▁Sub 100
▁Ali 100
▁eas 100
ung 100
▁amount 100
ees 100
rain 100
la 100
▁youth 100
▁mis 100
▁har 100
▁faith 100
▁Sm 100
lam 100
his 100
▁doing 100
▁tar 100
erred 100
▁Two 100
irc 100
side 100
▁short 100
▁App 100
▁fact 100
▁expected 100
leg 100
▁Gur 100
▁lo 100
▁having 100
▁tweet 100
erala 100
▁milit 100
▁kind 100
reen 100
hold 100
▁ide 100
▁bat 100
▁function 100
▁Pri 100
rah 100
▁learn 100
▁stat 100
▁recently 100
duc 100
▁job 100
▁self 100
ton 100
▁projects 100
nes 100
imum 100
▁Pre 100
▁Why 100
uary 100
ization 100
operation 100
▁North 100
hu 100
▁pict 100
▁UP 100
oj 100
▁phot 100
▁represent 100
▁results 100
crib 100
▁programme 100
▁less 100
▁During 100
▁non 100
▁face 100
▁officers 100
▁private 100
hra 100
▁fail 100
ert 100
▁Har 100
▁Dist 100
▁daughter 100
▁mind 100
▁dom 100
▁dest 100
▁Kerala 100
▁hon 100
▁den 100
AN 100
▁Then 100
ension 100
▁percent 100
▁ver 100
▁likely 100
hers 100
ledge 100
uly 100
▁share 100
▁mur 100
AM 100
ipal 100
▁Moh 100
▁means 100
▁gave 100
▁capital 100
▁Form 100
▁dou 100
▁Hy 100
▁Sy 100
▁celebr 100
isl 100
ator 100
▁smart 100
person 100
▁foreign 100
▁Add 100
▁possible 100
▁section 100
▁reason 100
▁suff 100
ample 100
▁Educ 100
▁webs 100
riculture 100
▁Pan 100
▁award 100
▁rese 100
▁tour 100
▁Meanwhile 100
ceed 100
▁port 100
ights 100
▁While 100
▁conne 100
▁Ne 100
▁Sw 100
▁Muk 100
erc 100
▁0 100
tle 100
▁release 100
▁station 100
itor 100
▁direct 100
usband 100
▁written 100
.4 100
dom 100
wa 100
▁compet 100
▁pract 100
ains 100
rodu 100
▁lost 100
▁basis 100
▁associ 100
▁victim 100
▁Madhya 100
▁led 100
▁side 100
▁companies 100
ika 100
▁truth 100
▁lim 100
▁Americ 100
▁medical 100
▁mor 100
aster 100
▁mult 100
ream 100
▁rev 100
iting 100
▁Indust 100
asing 100
▁technology 100
▁able 100
stitu 100
▁production 100
▁according 100
▁don 100
▁cause 100
▁contest 100
aker 100
cember 100
eptember 100
▁el 100
icles 100
▁needs 100
ring 100
▁position 100
otion 100
ode 100
▁fall 100
IM 100
akes 100
▁pan 100
aign 100
▁higher 100
▁Oct 100
▁became 100
▁Be 100
ival 100
Ind 100
▁resol 100
▁rain 100
▁ful 100
▁23 100
▁sele 100
sw 100
▁birth 100
ada 100
ev 100
ern 100
hest 100
▁gold 100
▁bow 100
head 100
▁stop 100
ogn 100
▁cong 100
▁net 100
▁parent 100
order 100
▁mob 100
mp 100
IT 100
▁hard 100
▁Far 100
ufact 100
▁Techn 100
▁Govern 100
▁close 100
▁June 100
▁oil 100
▁fear 100
adi 100
▁design 100
acity 100
▁captain 100
uge 100
ama 100
▁coun 100
coming 100
engers 100
▁Fore 100
▁caus 100
▁travel 100
▁foc 100
▁previous 100
▁journ 100
▁claimed 100
▁young 100
ovember 100
▁Sun 100
▁parts 100
▁sal 100
▁Sri 100
▁study 100
▁Afric 100
▁lives 100
▁Roh 100
▁Virat 100
uro 100
▁extend 100
then 100
▁sw 100
▁community 100
af 100
▁getting 100
▁declared 100
▁related 100
▁Sur 100
▁sure 100
▁officer 100
▁wrong 100
▁sens 100
▁districts 100
avirus 100
▁2016 100
▁conv 100
▁Offic 100
▁Defence 100
▁lab 100
▁28 100
▁increased 100
aut 100
▁star 100
50 100
▁using 100
▁Sci 100
oses 100
AR 100
▁Bl 100
▁energy 100
rastructure 100
▁stated 100
▁forces 100
ourse 100
▁aut 100
▁society 100
come 100
▁reve 100
garh 100
▁ever 100
onavirus 100
▁conn 100
▁target 100
▁coming 100
▁i 100
hing 100
▁31 100
atory 100
empt 100
uted 100
▁Some 100
▁England 100
▁trib 100
▁points 100
▁problem 100
aur 100
▁witness 100
▁exist 100
▁website 100
encies 100
▁December 100
▁light 100
▁Andhra 100
ivid 100
udd 100
▁whom 100
▁institut 100
by 100
▁husband 100
▁obs 100
▁ty 100
▁Mu 100
▁conducted 100
▁Bible 100
▁, 100
▁prep 100
▁sold 100
▁assist 100
▁coll 100
▁example 100
▁citizens 100
▁Aug 100
▁Vice 100
▁member 100
ipur 100
▁Ke 100
▁September 100
▁director 100
▁unt 100
▁activities 100
▁created 100
▁Tel 100
play 100
▁least 100
In 100
aya 100
▁key 100
aks 100
▁Education 100
▁night 100
SS 100
▁loss 100
ficult 100
▁disp 100
ison 100
ource 100
itation 100
▁circ 100
▁common 100
▁campaign 100
▁40 100
CP 100
▁building 100
▁features 100
mission 100
▁Former 100
▁details 100
▁vir 100
▁January 100
▁Isra 100
▁July 100
▁necess 100
ething 100
▁Salman 100
▁26 100
▁places 100
▁Sp 100
ushed 100
▁Hindi 100
▁constitu 100
▁card 100
▁problems 100
▁connection 100
▁progress 100
rote 100
▁recom 100
▁November 100
▁particular 100
udget 100
▁Corpor 100
▁stri 100
▁appear 100
▁trade 100
▁difficult 100
▁central 100
.7 100
bel 100
▁above 100
▁Inde 100
▁enter 100
▁rail 100
ery 100
ogra 100
▁House 100
▁Hindu 100
▁knowledge 100
▁reports 100
bed 100
▁stars 100
▁Russ 100
▁seven 100
▁pray 100
▁forward 100
▁October 100
▁Bharat 100
▁review 100
hib 100
▁true 100
▁economy 100
aled 100
▁attended 100
ateg 100
▁temple 100
▁Can 100
emic 100
phone 100
olk 100
rab 100
▁capacity 100
▁27 100
nding 100
▁expressed 100
▁Bill 100
▁Cabinet 100
▁host 100
▁hours 100
▁nor 100
▁Bangl 100
ami 100
▁hit 100
▁launch 100
▁Kan 100
rs 100
▁maintain 100
▁behind 100
.6 100
ication 100
elfare 100
▁benefit 100
▁suggest 100
vest 100
▁Israel 100
ops 100
▁super 100
▁purp 100
▁spread 100
▁history 100
▁tell 100
▁District 100
▁Public 100
▁nothing 100
21 100
▁himself 100
▁Pand 100
▁strengthen 100
ividual 100
for 100
▁Dis 100
▁ground 100
witter 100
ler 100
▁Feb 100
▁low 100
▁san 100
▁training 100
▁sil 100
▁mus 100
▁Lal 100
▁King 100
▁Art 100
▁Islam 100
▁poor 100
▁reach 100
▁sum 100
▁town 100
▁Cup 100
▁really 100
erve 100
uck 100
▁single 100
▁Sush 100
▁Vijay 100
▁civil 100
▁answ 100
▁vac 100
▁Dev 100
aul 100
▁Bal 100
ier 100
ped 100
▁board 100
▁Also 100
▁Wom 100
▁Sena 100
▁spokes 100
▁Deep 100
▁emer 100
▁Many 100
▁dies 100
▁quality 100
▁request 100
▁infl 100
▁Des 100
▁inaug 100
▁parents 100
ators 100
AP 100
▁relationship 100
▁films 100
▁August 100
▁identified 100
▁happened 100
▁murder 100
ousand 100
jit 100
▁dra 100
▁check 100
rish 100
abh 100
char 100
▁candidate 100
irm 100
▁Under 100
▁required 100
ots 100
▁199 100
jan 100
▁mer 100
vey 100
▁Ay 100
▁Adv 100
▁recovered 100
▁committee 100
▁Institute 100
▁something 100
▁pun 100
▁largest 100
▁research 100
▁wrote 100
▁management 100
▁whether 100
▁Stud 100
▁assembly 100
▁successful 100
▁agree 100
ruary 100
▁Bangladesh 100
▁miss 100
nath 100
▁stay 100
▁happy 100
▁Rel 100
▁fav 100
ji 100
▁positive 100
▁manufact 100
▁cred 100
▁age 100
ection 100
▁abs 100
▁Yog 100
ilt 100
ike 100
▁improve 100
▁online 100
▁income 100
▁individual 100
▁2014 100
achal 100
▁once 100
▁threat 100
▁Sar 100
▁Constitution 100
▁dam 100
▁pot 100
▁cast 100
uries 100
▁though 100
▁norm 100
▁violence 100
▁petition 100
▁po 100
▁fast 100
▁sources 100
▁dise 100
▁signific 100
▁Nadu 100
▁thought 100
igarh 100
ocu 100
MP 100
ead 100
▁Who 100
▁dr 100
.8 100
▁passed 100
▁secretary 100
▁except 100
▁Gods 100
▁themselves 100
year 100
▁application 100
▁words 100
▁Hospital 100
▁grant 100
sequ 100
DA 100
▁mater 100
verage 100
acy 100
earch 100
▁works 100
pir 100
▁conduct 100
reg 100
▁Jud 100
▁whole 100
▁admitted 100
▁Rohit 100
▁early 100
▁personnel 100
rand 100
ark 100
▁Inst 100
add 100
rop 100
derabad 100
▁recommend 100
▁37 100
most 100
▁Sanjay 100
▁categ 100
ns 100
▁Chh 100
▁Ahmed 100
▁cooperation 100
▁mot 100
▁begin 100
▁Cont 100
▁game 100
ga 100
▁ban 100
▁seat 100
▁hous 100
▁ap 100
formation 100
▁driver 100
▁personal 100
uled 100
erman 100
pecial 100
▁object 100
▁Brit 100
▁subject 100
▁Twitter 100
▁Var 100
▁allowed 100
▁School 100
▁ye 100
▁sat 100
▁environment 100
cri 100
▁ey 100
▁teams 100
▁February 100
▁consum 100
▁Priy 100
▁thing 100
▁raised 100
▁ball 100
oon 100
eds 100
onse 100
▁force 100
het 100
ills 100
2, 100
▁2015 100
▁Colle 100
▁Hyderabad 100
▁opt 100
▁players 100
ammad 100
▁access 100
▁tele 100
estic 100
omes 100
ened 100
▁course 100
▁investment 100
oice 100
▁teac 100
SC 100
mony 100
▁Pras 100
apan 100
▁Nit 100
ety 100
▁department 100
DP 100
▁charge 100
atural 100
▁anything 100
ta 100
▁Chen 100
▁Nar 100
▁terms 100
▁products 100
down 100
▁Not 100
▁recogn 100
▁accom 100
icial 100
▁Ak 100
emor 100
▁banks 100
odies 100
▁achieve 100
▁neg 100
▁Ministers 100
ems 100
▁z 100
▁Sche 100
AT 100
▁deep 100
▁joint 100
ici 100
▁polls 100
▁Patel 100
▁Iran 100
▁value 100
▁IPL 100
▁immediately 100
▁search 100
▁Now 100
▁"""" 100
▁rights 100
▁aim 100
aly 100
ivity 100
▁infrastructure 100
▁included 100
▁Arun 100
▁introdu 100
▁mean 100
▁partners 100
▁shoot 100
▁29 100
▁Railways 100
▁followed 100
▁Governor 100
dra 100
ortem 100
▁often 100
bit 100
ying 100
▁similar 100
▁patients 100
▁Lt 100
▁ten 100
jri 100
▁lod 100
angana 100
▁belong 100
▁language 100
▁Bar 100
▁unto 100
ulated 100
▁lat 100
▁deg 100
▁challeng 100
▁Jag 100
▁Bab 100
▁mag 100
▁Jos 100
▁resident 100
going 100
▁probe 100
isha 100
▁letter 100
abor 100
MC 100
utive 100
ids 100
▁necessary 100
▁tri 100
▁friends 100
▁schools 100
AI 100
igation 100
▁display 100
▁Super 100
▁Rajya 100
▁Az 100
▁sust 100
▁Roy 100
.201 100
▁Africa 100
▁Pad 100
▁upcoming 100
ech 100
▁term 100
▁command 100
▁Jehovahs 100
▁docu 100
▁heavy 100
▁rushed 100
▁shi 100
▁Law 100
▁mom 100
He 100
▁story 100
pecially 100
▁examination 100
▁Cap 100
▁construction 100
ald 100
atic 100
▁sister 100
▁quar 100
▁families 100
▁hands 100
▁affected 100
▁democ 100
▁dig 100
▁focus 100
▁institutions 100
▁Trans 100
▁fell 100
▁Priyanka 100
ja 100
vind 100
▁began 100
ological 100
▁includes 100
▁reserv 100
▁active 100
▁cou 100
▁Euro 100
▁paid 100
▁gener 100
▁resign 100
▁message 100
nai 100
▁imm 100
ograph 100
▁Group 100
▁Kejri 100
▁material 100
▁clean 100
oul 100
▁playing 100
▁mention 100
▁km 100
evers 100
gu 100
▁governments 100
▁inaugur 100
▁thousand 100
ilater 100
▁Every 100
▁recent 100
▁create 100
▁developed 100
▁charges 100
▁line 100
▁highest 100
work 100
ukh 100
urance 100
iah 100
▁deter 100
vision 100
oms 100
ER 100
▁coronavirus 100
▁Int 100
▁population 100
▁engine 100
▁trying 100
ghan 100
▁Her 100
▁transf 100
▁prim 100
▁worth 100
▁appointed 100
pper 100
▁Assam 100
▁season 100
▁ODI 100
▁cities 100
▁appre 100
▁MLAs 100
▁Technology 100
unic 100
▁pow 100
▁strate 100
▁offer 100
aper 100
▁wickets 100
▁guid 100
yal 100
▁bench 100
▁inte 100
▁aware 100
▁IC 100
▁Earlier 100
quir 100
▁FIR 100
▁wa 100
▁Cons 100
▁ministry 100
▁Of 100
▁named 100
omb 100
▁Japan 100
▁SP 100
▁hope 100
▁East 100
▁living 100
▁Ban 100
ories 100
▁little 100
joy 100
▁Kejriwal 100
arsh 100
▁Soc 100
▁leave 100
vere 100
▁instru 100
▁defe 100
▁doub 100
▁bad 100
▁warn 100
▁Corporation 100
clud 100
uru 100
▁involved 100
▁reject 100
▁politics 100
▁thank 100
▁legisl 100
▁charact 100
oved 100
range 100
▁ris 100
▁Don 100
▁pub 100
▁steps 100
▁huge 100
▁Prasad 100
▁Dal 100
▁popular 100
▁produced 100
▁experience 100
▁Chennai 100
▁orig 100
▁exec 100
▁smartphone 100
inese 100
hood 100
val 100
change 100
pendent 100
▁Research 100
▁mass 100
riday 100
iber 100
▁German 100
▁outside 100
▁ahead 100
atform 100
▁Deputy 100
▁especially 100
▁GST 100
▁IN 100
▁session 100
ilateral 100
▁UN 100
rin 100
It 100
▁measures 100
ams 100
▁Gl 100
▁Indians 100
aging 100
▁Chairman 100
▁eight 100
ita 100
▁opportunity 100
▁Ben 100
▁actress 100
▁responsibility 100
▁More 100
▁Section 100
▁either 100
▁wind 100
▁ded 100
fall 100
iers 100
mo 100
▁until 100
ksh 100
▁concerned 100
▁response 100
▁cut 100
enger 100
▁hearing 100
▁Afghan 100
ites 100
▁tweeted 100
▁foot 100
▁Europe 100
action 100
▁regarding 100
▁Dav 100
▁Sund 100
▁Pal 100
▁boy 100
olkata 100
oid 100
▁mobile 100
▁employees 100
▁Force 100
let 100
eous 100
▁Besides 100
ikh 100
II 100
▁require 100
▁vehicles 100
rance 100
▁appeal 100
▁leading 100
▁tw 100
▁Chinese 100
▁Off 100
▁providing 100
▁screen 100
▁administration 100
▁cal 100
▁rank 100
▁performance 100
lect 100
khand 100
.9 100
▁ill 100
▁2, 100
▁Commissioner 100
▁Road 100
▁significant 100
orters 100
▁jail 100
▁supply 100
based 100
▁enhan 100
▁ones 100
▁creat 100
▁er 100
▁completed 100
▁committed 100
icated 100
▁approved 100
▁morning 100
▁observ 100
CCI 100
▁Joh 100
▁aud 100
▁lodged 100
▁song 100
▁pain 100
▁gone 100
▁fel 100
▁ministers 100
▁considered 100
▁TV 100
▁Em 100
▁bodies 100
▁religious 100
co 100
▁rural 100
▁establish 100
estival 100
gn 100
▁blood 100
icro 100
dd 100
▁Associ 100
▁vol 100
▁prior 100
▁roles 100
▁indeed 100
▁Monday 100
▁Kolkata 100
▁reli 100
▁Nath 100
▁dece 100
new 100
▁Sim 100
▁Special 100
▁scient 100
▁Ste 100
▁express 100
aily 100
ohar 100
▁authorities 100
▁Friday 100
▁border 100
▁Railway 100
ze 100
ague 100
▁ang 100
▁Bach 100
▁trust 100
▁comb 100
cement 100
aching 100
hips 100
▁Amb 100
▁35 100
▁connect 100
▁Fil 100
iple 100
agram 100
80 100
▁Will 100
▁presented 100
▁consider 100
riage 100
oni 100
▁punish 100
orrow 100
▁Medical 100
▁pat 100
1, 100
cle 100
▁space 100
▁encoura 100
▁facilities 100
3, 100
▁Chandigarh 100
▁nom 100
utes 100
▁phys 100
▁complet 100
▁Cricket 100
AS 100
▁60 100
▁govern 100
▁Other 100
▁Pakistani 100
▁English 100
▁challen 100
imate 100
▁ess 100
8, 100
▁Most 100
iful 100
pite 100
ras 100
▁ut 100
rog 100
▁military 100
▁distrib 100
raj 100
▁enjoy 100
▁Met 100
stant 100
▁questions 100
rem 100
anda 100
▁sought 100
▁groups 100
IS 100
illed 100
▁squ 100
▁cash 100
▁movement 100
▁wanted 100
▁Mand 100
▁judge 100
▁regular 100
▁giving 100
ruption 100
▁Security 100
▁platform 100
dy 100
reedom 100
CT 100
▁Exp 100
▁attempt 100
ably 100
▁propos 100
▁defence 100
▁lower 100
▁religion 100
▁whose 100
▁recorded 100
▁32 100
▁Your 100
▁operation 100
▁alleg 100
ris 100
craft 100
▁Ur 100
vent 100
▁conference 100
▁sex 100
ming 100
▁exerc 100
▁looking 100
▁conditions 100
▁saw 100
road 100
▁electric 100
▁subs 100
"", 100
▁Instagram 100
▁cere 100
▁Rajnath 100
▁domestic 100
▁Here 100
▁additional 100
▁$ 100
▁qual 100
▁Pet 100
body 100
▁ready 100
30 100
▁doctors 100
▁Asia 100
rief 100
▁prime 100
▁addition 100
irst 100
▁Ter 100
▁apply 100
9, 100
▁increasing 100
▁temper 100
▁wis 100
▁acqu 100
▁tit 100
▁earn 100
-2 100
▁transport 100
▁hy 100
▁-- 100
▁By 100
mortem 100
▁compr 100
▁cover 100
▁anti 100
▁Gang 100
▁cross 100
▁complete 100
dict 100
cribed 100
▁vers 100
ighb 100
▁custom 100
load 100
▁legal 100
jun 100
▁clos 100
▁ran 100
▁revealed 100
▁half 100
▁therefore 100
▁billion 100
irmed 100
icide 100
book 100
▁compared 100
ira 100
ED 100
▁Jhar 100
▁Anil 100
ene 100
hel 100
▁located 100
▁Ver 100
▁bar 100
sc 100
▁Invest 100
▁anyone 100
▁worked 100
▁needed 100
opal 100
bh 100
adha 100
▁joined 100
▁Od 100
RD 100
ray 100
▁RAM 100
attis 100
cast 100
▁Three 100
▁sports 100
▁evidence 100
▁ask 100
▁IT 100
▁shar 100
nam 100
▁operations 100
▁cy 100
▁Adity 100
▁makes 100
▁opposition 100
▁Tha 100
hy 100
▁Tal 100
▁impact 100
miss 100
tery 100
bir 100
▁Follow 100
▁Republic 100
▁Rec 100
lied 100
quiry 100
▁expect 100
chay 100
▁round 100
de 100
oted 100
itude 100
iant 100
▁Foreign 100
▁moment 100
▁Wed 100
▁quite 100
▁Mot 100
▁Tri 100
▁agency 100
▁purpose 100
▁Krish 100
▁(2 100
▁bur 100
▁Those 100
▁itself 100
aught 100
▁Paul 100
▁potential 100
▁Muslims 100
▁Econom 100
▁culture 100
▁passengers 100
▁pen 100
iab 100
7, 100
▁separ 100
▁protect 100
▁king 100
▁proposed 100
▁deploy 100
▁HD 100
attle 100
▁talks 100
▁constituency 100
▁SC 100
iminal 100
▁Sin 100
▁prepared 100
▁Ltd 100
▁closed 100
ows 100
PF 100
▁wel 100
▁strength 100
light 100
sec 100
PC 100
▁minor 100
▁carried 100
▁century 100
▁watch 100
▁Jharkhand 100
▁justice 100
▁custody 100
▁provisions 100
▁wal 100
▁vehicle 100
ires 100
▁safe 100
▁histor 100
▁rupe 100
4, 100
▁talk 100
▁kept 100
▁implementation 100
▁Women 100
▁British 100
▁safety 100
▁phase 100
▁rise 100
inary 100
racy 100
▁innov 100
▁neighb 100
▁Gupt 100
▁Aksh 100
India 100
▁speed 100
▁Senior 100
▁Bachchan 100
▁worship 100
▁investigating 100
▁0. 100
▁IS 100
▁bats 100
urt 100
uesday 100
▁opportunities 100
▁respectively 100
▁Civil 100
▁status 100
▁Child 100
▁hol 100
attisgarh 100
▁Article 100
▁Author 100
▁undert 100
int 100
▁speak 100
▁Information 100
after 100
asons 100
▁modern 100
oting 100
achin 100
▁ton 100
▁Services 100
merce 100
▁Paw 100
5, 100
6, 100
undred 100
▁staff 100
▁below 100
▁changes 100
▁Nep 100
▁model 100
▁cultural 100
apur 100
▁organised 100
FC 100
uel 100
cipal 100
▁credit 100
▁prevent 100
▁Nag 100
▁lock 100
▁gets 100
▁leadership 100
inated 100
▁Dhoni 100
▁takes 100
▁Tuesday 100
▁pil 100
▁deceased 100
▁adop 100
▁Scheme 100
▁built 100
▁Over 100
▁terrorists 100
hai 100
usion 100
▁Apart 100
▁firm 100
▁College 100
▁Mess 100
▁proceed 100
▁rules 100
▁mil 100
ruit 100
▁198 100
back 100
rant 100
▁seeking 100
▁CE 100
enced 100
bar 100
▁spokesperson 100
▁houses 100
▁alliance 100
▁drug 100
ening 100
▁deaths 100
▁Mission 100
▁fulf 100
▁Kul 100
▁funds 100
▁Chop 100
▁picture 100
elines 100
▁late 100
know 100
▁underway 100
ursday 100
gment 100
▁signed 100
▁appreci 100
▁Christian 100
▁stake 100
oday 100
igg 100
▁manner 100
▁send 100
▁di 100
▁amend 100
▁employment 100
▁diesel 100
▁forg 100
▁notice 100
nesday 100
▁daily 100
▁wants 100
▁Kore 100
▁direction 100
▁presence 100
▁black 100
ampions 100
▁injuries 100
▁Sunday 100
▁Ge 100
▁fourth 100
▁Science 100
ora 100
▁suicide 100
▁estim 100
▁congrat 100
▁Di 100
elling 100
▁terrorism 100
▁freedom 100
▁Odisha 100
ique 100
kash 100
▁Election 100
▁Zeal 100
▁married 100
▁Let 100
▁viral 100
ott 100
▁formed 100
▁discussed 100
▁character 100
▁NE 100
▁Ins 100
▁established 100
▁Himachal 100
▁plant 100
▁journal 100
▁Power 100
▁ways 100
▁file 100
▁Association 100
▁repl 100
▁Thursday 100
▁Wednesday 100
▁demanded 100
▁Div 100
▁Following 100
9. 100
ades 100
▁Zealand 100
▁confirmed 100
▁laws 100
▁everyone 100
▁Water 100
ammed 100
▁Kam 100
▁exc 100
▁Students 100
pond 100
▁vs 100
▁Satur 100
▁anim 100
estern 100
▁disease 100
▁victory 100
▁respond 100
▁continued 100
▁profession 100
▁Trib 100
ixed 100
▁pros 100
hem 100
▁Chan 100
▁Akshay 100
▁appe 100
▁assistance 100
▁music 100
hawan 100
pping 100
▁relief 100
▁David 100
▁north 100
akhand 100
▁Service 100
▁Chhattisgarh 100
▁Organ 100
RC 100
▁arri 100
uter 100
ables 100
▁flood 100
▁70 100
▁specific 100
▁Sol 100
▁Chopra 100
▁schemes 100
▁traffic 100
▁Goa 100
▁commission 100
▁plans 100
▁votes 100
ask 100
▁average 100
▁answer 100
iy 100
▁197 100
▁Even 100
▁provision 100
ES 100
▁max 100
▁Sonia 100
alled 100
▁gas 100
▁Opp 100
▁Telangana 100
▁path 100
▁Shan 100
ternet 100
lymp 100
▁destro 100
▁assess 100
▁god 100
▁ste 100
▁caused 100
▁handed 100
▁pack 100
▁MS 100
▁Saturday 100
lear 100
▁stage 100
▁Tata 100
▁occur 100
▁Inf 100
▁everything 100
▁Since 100
▁shot 100
▁Lim 100
▁lif 100
▁Read 100
ault 100
ixel 100
▁American 100
▁ir 100
gram 100
▁expand 100
▁Uttarakhand 100
▁rates 100
mercial 100
▁seized 100
▁Later 100
▁site 100
▁Cr 100
tained 100
▁Olymp 100
▁Arvind 100
▁names 100
use 100
▁500 100
▁Arab 100
ester 100
▁pressure 100
▁Bhatt 100
ager 100
uv 100
▁Lanka 100
▁failed 100
▁demon 100
▁bi 100
▁sched 100
vention 100
▁marriage 100
▁evil 100
EL 100
▁allegedly 100
▁reform 100
ricke 100
This 100
atever 100
oo 100
pendence 100
▁3, 100
▁property 100
▁coal 100
▁ago 100
▁matches 100
uri 100
ovid 100
▁existing 100
▁Plan 100
▁Char 100
▁source 100
▁Tax 100
▁offered 100
▁influ 100
▁gives 100
▁referred 100
▁Naid 100
▁rally 100
umbers 100
▁Kal 100
As 100
▁agriculture 100
▁Fund 100
▁resc 100
▁Gh 100
▁importance 100
▁BCCI 100
everal 100
▁Tra 100
▁bilateral 100
▁arrange 100
▁moved 100
▁nations 100
▁Gupta 100
▁extended 100
▁Agriculture 100
ovind 100
ony 100
▁duty 100
▁mentioned 100
▁natural 100
▁promote 100
▁rule 100
▁latest 100
▁effective 100
▁aircraft 100
▁majority 100
▁participated 100
ector 100
NG 100
▁Rao 100
▁thou 100
itions 100
▁Per 100
▁heard 100
▁didnt 100
▁Net 100
▁Nagar 100
▁centre 100
pects 100
▁surely 100
▁Abd 100
▁changed 100
▁fig 100
▁link 100
▁Na 100
▁Ajay 100
▁Thak 100
▁inside 100
▁box 100
▁Afghanistan 100
▁Naidu 100
▁mand 100
▁pictures 100
▁tried 100
ental 100
▁provides 100
itial 100
pro 100
▁plea 100
▁almost 100
▁sides 100
RO 100
ressing 100
▁Russia 100
▁via 100
▁internal 100
▁denied 100
▁extrem 100
▁red 100
▁Several 100
▁Jay 100
▁pers 100
▁ceremony 100
▁alone 100
▁Book 100
▁purch 100
▁80 100
venue 100
▁villages 100
▁biggest 100
que 100
▁allegations 100
▁cop 100
osing 100
utions 100
▁First 100
▁petrol 100
istic 100
▁remained 100
▁turned 100
▁continu 100
rew 100
▁river 100
ondon 100
▁Nepal 100
▁bail 100
▁matters 100
ript 100
▁trains 100
▁Mukher 100
▁benefits 100
ME 100
▁bless 100
▁Bas 100
▁leav 100
▁CP 100
▁scored 100
▁programmes 100
▁forth 100
▁Face 100
▁roads 100
▁Gold 100
▁seek 100
▁student 100
▁Janata 100
▁scheduled 100
▁Bad 100
▁units 100
▁wid 100
▁Rukh 100
▁nearly 100
▁Management 100
,99 100
▁pand 100
▁Ashok 100
▁Speaking 100
chi 100
'. 100
▁punishment 100
HI 100
▁teachers 100
▁Welfare 100
▁reasons 100
▁cell 100
▁goods 100
▁shows 100
▁sym 100
▁tourn 100
▁rape 100
▁brothers 100
▁primary 100
▁accounts 100
▁fans 100
▁resources 100
▁crime 100
▁railway 100
phas 100
▁speech 100
2. 100
pri 100
▁Their 100
▁flow 100
▁users 100
▁category 100
▁hot 100
▁bill 100
▁unit 100
▁RBI 100
▁responsible 100
▁nature 100
▁published 100
▁south 100
▁budget 100
▁mark 100
▁try 100
though 100
icked 100
▁Officer 100
▁facing 100
▁sale 100
▁visited 100
ayan 100
anger 100
▁Sinha 100
▁counter 100
▁Prof 100
AD 100
ties 100
▁Today 100
▁drink 100
▁pra 100
▁critical 100
▁approach 100
▁challenges 100
▁girls 100
▁Donald 100
where 100
aches 100
▁normal 100
▁John 100
▁Inter 100
olution 100
▁easy 100
▁depart 100
▁democracy 100
▁| 100
▁From 100
▁digital 100
▁essential 100
▁Us 100
▁Tour 100
US 100
wat 100
▁vote 100
▁Op 100
gic 100
▁lin 100
▁appoint 100
rad 100
▁opening 100
▁Sector 100
▁suspend 100
ox 100
▁hundred 100
▁Sports 100
▁Sum 100
▁agreement 100
▁PTI 100
,"""" 100
▁greater 100
oper 100
▁couple 100
iddle 100
▁Neh 100
ously 100
▁disbel 100
▁receive 100
▁industrial 100
▁bal 100
▁growing 100
▁comment 100
▁esc 100
▁Jait 100
ex 100
▁eyes 100
▁cricke 100
▁initiative 100
▁hum 100
▁soldiers 100
gap 100
▁risk 100
▁contain 100
unt 100
▁reply 100
▁Are 100
▁maximum 100
▁BS 100
▁challenge 100
IP 100
▁64 100
▁silver 100
▁Deepika 100
deep 100
▁enough 100
osh 100
▁GB 100
▁ICC 100
standing 100
▁regul 100
▁Kingdom 100
▁Mukherjee 100
▁Aam 100
ball 100
ratic 100
anced 100
▁deleg 100
▁lockdown 100
▁War 100
oud 100
mohan 100
▁196 100
ricultural 100
▁Covid 100
▁urged 100
eness 100
▁Dhar 100
▁fre 100
▁evening 100
▁London 100
▁favour 100
▁numbers 100
▁career 100
▁soul 100
▁AI 100
▁Control 100
▁opened 100
igence 100
▁Qu 100
▁Cur 100
▁army 100
ping 100
ini 100
▁network 100
▁pandemic 100
▁Witness 100
ili 100
▁besides 100
▁Food 100
astern 100
▁Asian 100
stitutional 100
▁spiritual 100
▁range 100
ranch 100
▁text 100
JD 100
▁elected 100
▁NCP 100
▁save 100
▁rejected 100
▁Class 100
▁fine 100
rees 100
veer 100
▁attention 100
▁ordered 100
je 100
▁equal 100
▁player 100
▁markets 100
▁Program 100
otal 100
▁Anand 100
▁levels 100
uls 100
▁lay 100
▁innings 100
rovers 100
▁broad 100
MS 100
▁science 100
▁corruption 100
wide 100
▁urban 100
▁posted 100
edd 100
▁destroy 100
rep 100
▁Comp 100
▁prob 100
▁mount 100
isf 100
▁collabor 100
erjee 100
▁Film 100
▁Facebook 100
▁note 100
▁Bharati 100
CA 100
▁attacks 100
▁beat 100
▁consult 100
▁Arjun 100
▁knows 100
▁CEO 100
▁Thakur 100
▁hop 100
▁Conference 100
▁Chandra 100
▁crores 100
▁Compan 100
▁Project 100
▁prepar 100
▁chairman 100
▁celebrated 100
▁facilit 100
iversary 100
▁sections 100
▁temperature 100
arc 100
▁Leg 100
▁Office 100
rupt 100
gency 100
▁Authority 100
▁felt 100
▁adj 100
▁fif 100
▁Bhav 100
▁vision 100
▁Srin 100
▁withdra 100
▁UK 100
unicipal 100
▁setting 100
▁2013 100
▁exercise 100
▁break 100
▁sin 100
▁actually 100
▁hear 100
alse 100
▁agencies 100
▁thus 100
▁emp 100
▁eld 100
emy 100
▁proposal 100
▁spoke 100
▁strike 100
▁36 100
▁tom 100
ented 100
▁Christians 100
▁Sid 100
oured 100
▁bound 100
▁systems 100
▁fresh 100
▁monitor 100
▁log 100
▁events 100
▁Enter 100
▁goes 100
uddin 100
▁sons 100
▁Vik 100
respond 100
▁trial 100
▁quarter 100
▁Limited 100
▁dream 100
▁Vid 100
▁Jaitley 100
▁pred 100
▁ticket 100
anath 100
vt 100
anth 100
▁remains 100
▁Say 100
▁% 100
▁inquiry 100
▁annual 100
▁deployed 100
▁Express 100
▁victims 100
asi 100
▁Pran 100
▁Prin 100
▁City 100
▁minimum 100
▁festival 100
▁receiving 100
▁wish 100
va 100
▁Fl 100
▁Such 100
ethod 100
▁criminal 100
ny 100
▁Ac 100
▁Lad 100
▁Where 100
▁controvers 100
▁unf 100
oe 100
udi 100
▁Post 100
▁Governments 100
▁accepted 100
ciples 100
iles 100
gapixel 100
pat 100
▁Kare 100
▁fled 100
▁emphas 100
▁2011 100
▁Car 100
▁stations 100
icit 100
▁Award 100
▁payment 100
iled 100
ounter 100
▁Bus 100
▁rear 100
agh 100
▁depos 100
Ph 100
▁Elect 100
▁cert 100
▁Banerjee 100
▁interview 100
▁4, 100
▁parliament 100
irs 100
▁severe 100
▁Economic 100
▁Amitabh 100
▁Out 100
▁judicial 100
▁mission 100
▁exchange 100
▁capt 100
▁draw 100
▁shooting 100
yer 100
▁coach 100
▁airport 100
▁returned 100
▁Region 100
ensive 100
▁Up 100
BJP 100
▁shown 100
▁neither 100
yan 100
▁approval 100
AL 100
aken 100
▁vice 100
▁Bhag 100
ema 100
▁meetings 100
▁Krishna 100
▁sectors 100
▁flag 100
▁serve 100
▁grand 100
▁believed 100
vant 100
▁Kat 100
▁mut 100
▁critic 100
▁cris 100
▁loan 100
▁calls 100
▁tournament 100
▁sensor 100
., 100
▁hospitals 100
▁base 100
▁fully 100
inations 100
mendment 100
off 100
▁medic 100
▁authority 100
▁Thus 100
▁submitted 100
lip 100
▁48 100
▁il 100
▁cant 100
▁contribution 100
▁Amar 100
▁Ka 100
▁nine 100
▁fem 100
inch 100
▁agreed 100
▁protection 100
▁helped 100
RI 100
▁certainly 100
▁selected 100
▁Famil 100
500 100
▁orders 100
▁correspond 100
▁corpor 100
▁terrorist 100
hens 100
rative 100
▁colour 100
▁micro 100
▁Val 100
▁separate 100
ela 100
▁Prakash 100
▁territ 100
▁AAP 100
▁Rajput 100
▁Dem 100
▁Command 100
▁Hon 100
uclear 100
▁crisis 100
ju 100
▁discussion 100
▁33 100
▁liter 100
▁Yogi 100
eful 100
ashing 100
▁placed 100
▁bag 100
▁repe 100
▁Industry 100
▁feature 100
▁surv 100
▁facility 100
eshwar 100
vert 100
▁System 100
▁Mish 100
▁heavens 100
▁Patna 100
▁Sk 100
▁cru 100
ols 100
▁remember 100
▁concern 100
time 100
▁running 100
▁Additional 100
▁introduced 100
▁offers 100
▁initiatives 100
▁commercial 100
▁Imran 100
▁Gal 100
sequently 100
▁appeared 100
adhan 100
apt 100
▁photo 100
▁Thats 100
rel 100
"""" 100
▁Manmohan 100
▁contact 100
▁shares 100
▁Produ 100
acted 100
▁Sunil 100
▁partnership 100
▁sett 100
▁90 100
▁Ant 100
▁Kart 100
ores 100
▁accompan 100
▁prec 100
▁produce 100
CB 100
▁Pune 100
vendra 100
▁carry 100
▁granted 100
▁Sand 100
ils 100
▁tro 100
▁Dig 100
10 100
utt 100
▁Mor 100
▁reduce 100
▁Fed 100
leum 100
▁completely 100
rene 100
▁else 100
▁debut 100
under 100
▁rich 100
ila 100
▁vacc 100
▁Luck 100
▁initial 100
eks 100
▁ge 100
▁Candid 100
▁effort 100
▁: 100
▁initiated 100
▁manufacturing 100
▁righteous 100
fully 100
▁BSP 100
▁headed 100
▁Swar 100
fted 100
▁degree 100
ocks 100
alore 100
▁posts 100
izing 100
▁generation 100
ON 100
▁sense 100
▁Port 100
▁Tom 100
▁suspended 100
▁Transport 100
▁illeg 100
▁plays 100
ushka 100
▁score 100
▁false 100
▁Kareena 100
▁satisf 100
▁Gen 100
▁45 100
▁estimated 100
▁extremely 100
▁despite 100
megapixel 100
▁claims 100
▁Ro 100
iter 100
ashi 100
oming 100
▁journey 100
▁Sidd 100
▁Mishra 100
▁Bengaluru 100
▁Ed 100
▁confidence 100
▁physical 100
▁arrived 100
▁fair 100
▁refused 100
hal 100
▁device 100
AC 100
equ 100
quar 100
▁Family 100
AF 100
isc 100
▁signs 100
▁continues 100
▁Gad 100
▁page 100
▁Social 100
▁Best 100
▁idea 100
een 100
holders 100
▁method 100
▁resolution 100
▁particularly 100
esterday 100
▁Four 100
hara 100
▁Among 100
-0 100
▁195 100
▁indic 100
▁Further 100
▁instead 100
▁Germany 100
yle 100
▁room 100
▁NI 100
ume 100
▁purs 100
▁Whats 100
▁proc 100
▁Rajiv 100
cker 100
▁documents 100
▁battery 100
▁Vish 100
roid 100
▁Kaur 100
▁thee 100
ologies 100
▁ongoing 100
▁typ 100
▁Karan 100
▁Opposition 100
▁ant 100
▁ski 100
▁France 100
roleum 100
▁virus 100
atma 100
ocation 100
▁contract 100
PS 100
▁Actor 100
▁quick 100
wise 100
40 100
tty 100
CR 100
▁options 100
▁appropri 100
rated 100
▁Kapil 100
▁suffered 100
▁Sachin 100
▁someone 100
▁202 100
▁sacri 100
charge 100
▁Administ 100
iture 100
▁avoid 100
▁determin 100
cient 100
▁League 100
▁Farmers 100
che 100
▁Similar 100
▁Anushka 100
pid 100
▁laid 100
fect 100
ula 100
hammad 100
▁decisions 100
▁experi 100
▁Budget 100
▁lack 100
▁hearts 100
ni 100
▁News 100
▁Mam 100
▁ruling 100
▁motor 100
▁Real 100
▁York 100
▁type 100
▁Adityanath 100
▁implemented 100
ift 100
roud 100
▁becomes 100
▁Open 100
ane 100
chol 100
▁fra 100
▁La 100
rect 100
▁5, 100
ardhan 100
▁integr 100
▁sle 100
pal 100
hank 100
▁served 100
▁75 100
omet 100
▁Sushant 100
za 100
▁External 100
▁whatever 100
▁Witnesses 100
▁winning 100
▁greet 100
▁boost 100
pati 100
lands 100
▁regional 100
face 100
▁Head 100
▁Mohan 100
▁affect 100
▁Bah 100
viation 100
▁option 100
▁sea 100
▁danger 100
bl 100
reprene 100
rim 100
▁welfare 100
▁Ahmedabad 100
▁green 100
▁developing 100
pay 100
star 100
▁gather 100
arily 100
▁technical 100
▁associated 100
▁Bharatiya 100
▁Ranveer 100
▁weap 100
itable 100
▁centres 100
▁buy 100
▁Candidates 100
▁Boss 100
▁Step 100
▁depend 100
▁Kovind 100
▁partner 100
▁Reddy 100
▁Meh 100
▁Champions 100
▁eat 100
▁touch 100
EC 100
▁forest 100
NI 100
▁JD 100
▁Indies 100
▁basic 100
inate 100
▁Indeed 100
▁dismiss 100
▁Ven 100
▁books 100
▁Therefore 100
hab 100
▁CB 100
ievers 100
▁secret 100
▁Naw 100
▁awarded 100
▁defin 100
▁Vis 100
law 100
ulate 100
▁sustain 100
▁voice 100
▁anniversary 100
ogle 100
ese 100
▁competition 100
▁finance 100
▁Second 100
▁proced 100
▁jobs 100
▁2010 100
ocked 100
▁Ti 100
▁Dhawan 100
▁Energy 100
▁Person 100
▁marks 100
rugg 100
5. 100
▁Another 100
▁household 100
kari 100
▁transfer 100
pex 100
▁wedd 100
▁coast 100
▁consist 100
▁stock 100
agers 100
oples 100
▁assured 100
▁Fire 100
▁truck 100
▁Nitish 100
▁reporters 100
ugh 100
ahar 100
▁opin 100
▁Pawar 100
▁weeks 100
▁noted 100
lers 100
▁creation 100
▁languages 100
▁soft 100
▁directly 100
pic 100
▁batsman 100
▁Code 100
▁circum 100
▁organized 100
▁reward 100
set 100
▁inaugurated 100
▁testing 100
▁Mas 100
▁beginning 100
▁behalf 100
▁addressed 100
▁tonnes 100
▁throughout 100
▁verdict 100
▁deliver 100
stances 100
▁apost 100
▁organis 100
▁remar 100
run 100
▁mid 100
omi 100
▁Mant 100
▁honour 100
▁Samaj 100
▁Hard 100
▁immediate 100
▁Vin 100
Ch 100
eries 100
overy 100
▁chaired 100
▁upd 100
▁born 100
▁weak 100
▁RSS 100
▁Commerce 100
▁Redmi 100
▁rainfall 100
▁seriously 100
akers 100
▁ce 100
▁gri 100
▁Mahatma 100
▁proud 100
elligence 100
usive 100
▁Pradhan 100
▁yesterday 100
▁practice 100
alys 100
▁guest 100
▁incl 100
▁sound 100
▁carrying 100
▁planning 100
aji 100
oi 100
▁die 100
▁values 100
▁rob 100
▁congreg 100
ression 100
arya 100
▁goal 100
▁conclud 100
▁dispute 100
▁factor 100
▁condem 100
▁situ 100
DR 100
▁Bhavan 100
▁Team 100
▁tor 100
▁healthy 100
▁Pranab 100
lying 100
▁Ref 100
▁acad 100
▁invited 100
▁beaut 100
▁Manohar 100
▁Baj 100
ida 100
▁strugg 100
aman 100
idamb 100
▁Qual 100
rang 100
▁autom 100
▁univers 100
▁extra 100
▁34 100
▁litre 100
▁Ganga 100
▁Rai 100
▁observed 100
▁CA 100
▁delay 100
▁slow 100
rench 100
▁bit 100
▁limited 100
▁learning 100
▁Ann 100
riving 100
▁courts 100
▁equip 100
iya 100
▁submit 100
▁150 100
▁mechan 100
▁keeping 100
▁Know 100
▁sitting 100
▁Google 100
▁Tourism 100
▁Jav 100
khar 100
iger 100
▁Last 100
▁encounter 100
▁Yes 100
▁priority 100
▁birthday 100
▁pm 100
▁Engine 100
▁rather 100
▁ji 100
▁dial 100
icted 100
▁rains 100
▁polic 100
▁Policy 100
▁Games 100
▁fee 100
▁stands 100
▁2021 100
▁America 100
ullah 100
▁limit 100
▁register 100
▁fat 100
▁incidents 100
ona 100
▁cho 100
ashed 100
actions 100
▁battle 100
▁bra 100
alty 100
sy 100
▁managed 100
▁understanding 100
▁multiple 100
▁speaking 100
▁Pay 100
▁holding 100
▁Global 100
adium 100
▁ties 100
▁article 100
▁fram 100
▁gain 100
chayat 100
▁collect 100
▁remaining 100
iling 100
▁wedding 100
▁appropriate 100
▁paper 100
▁guidelines 100
araman 100
▁stra 100
-20 100
▁track 100
▁shifted 100
▁CR 100
▁skipper 100
▁Reliance 100
hary 100
ero 100
▁kg 100
▁flight 100
▁Youth 100
): 100
▁customers 100
oned 100
▁constant 100
▁constitut 100
aps 100
astic 100
▁wishes 100
ojana 100
▁Korea 100
▁beha 100
▁surpr 100
▁Paduk 100
▁double 100
▁thy 100
iction 100
BC 100
▁imposed 100
▁Train 100
▁Joint 100
reet 100
▁supported 100
Ah 100
▁Tem 100
aced 100
adra 100
▁Mir 100
▁stone 100
▁> 100
▁commitment 100
▁dro 100
▁Business 100
▁bey 100
▁Sind 100
hew 100
▁Nob 100
▁194 100
▁beyond 100
▁Cal 100
hat 100
▁Bigg 100
plom 100
haps 100
▁accord 100
▁mig 100
cipl 100
▁ast 100
▁tested 100
rits 100
urb 100
win 100
▁Nehru 100
▁Lucknow 100
▁und 100
▁Lo 100
well 100
▁squad 100
EN 100
▁Alia 100
uction 100
ogue 100
ply 100
ensation 100
▁Tend 100
▁Gov 100
▁wide 100
nces 100
▁fam 100
▁arch 100
▁Note 100
▁trading 100
▁DEL 100
▁killing 100
▁Mag 100
▁Padukone 100
Ts 100
▁Nirm 100
▁insurance 100
▁awareness 100
▁Sure 100
ape 100
with 100
▁Android 100
▁stood 100
▁CCT 100
▁Bra 100
▁college 100
da 100
oring 100
▁forms 100
HO 100
▁300 100
▁loans 100
dule 100
▁prison 100
adhaar 100
ushan 100
▁actors 100
▁showed 100
▁+ 100
▁doubt 100
▁entered 100
▁tomorrow 100
▁tim 100
wadi 100
▁Rana 100
▁thr 100
▁Bel 100
▁nuclear 100
▁ended 100
▁seem 100
ining 100
▁dedicated 100
▁notification 100
Is 100
▁Navy 100
▁views 100
apers 100
▁European 100
▁sharing 100
▁residence 100
▁Human 100
istics 100
▁advoc 100
▁meaning 100
▁foundation 100
▁(3 100
▁participation 100
60 100
▁independent 100
▁bond 100
▁Cro 100
oti 100
▁creating 100
▁beautiful 100
▁apex 100
▁residents 100
▁DELHI 100
van 100
idambaram 100
▁Prov 100
▁fighting 100
▁policies 100
▁Thacker 100
▁Nir 100
▁addressing 100
▁panel 100
▁Urban 100
11 100
▁cricketer 100
▁Stand 100
▁representatives 100
arth 100
▁faced 100
ronic 100
▁medal 100
▁Rem 100
▁games 100
▁Ob 100
▁heaven 100
vis 100
▁corresponding 100
▁Sad 100
NU 100
▁spent 100
▁blast 100
▁Srinagar 100
▁Rural 100
nav 100
lies 100
RB 100
▁relating 100
▁marg 100
rd 100
ancy 100
unal 100
▁amb 100
▁Ranbir 100
▁communication 100
▁fixed 100
▁Bangalore 100
ule 100
▁individuals 100
▁About 100
▁weather 100
ensions 100
▁x 100
▁CCTV 100
▁activity 100
▁liqu 100
PP 100
▁Sik 100
care 100
▁hurt 100
▁trou 100
itharaman 100
▁Has 100
▁Good 100
▁image 100
▁Tendul 100
uj 100
ima 100
▁document 100
▁Che 100
▁content 100
pura 100
▁sexual 100
▁Jew 100
▁protests 100
▁registration 100
▁NEW 100
ules 100
cks 100
▁reduced 100
▁suffering 100
▁2012 100
▁table 100
ervation 100
▁Lab 100
▁permission 100
▁worlds 100
▁block 100
▁waste 100
▁Citizens 100
riya 100
▁complex 100
▁postmortem 100
▁university 100
iff 100
▁unique 100
▁talking 100
▁Mohammad 100
▁demonst 100
▁variant 100
wd 100
▁reality 100
nic 100
▁mill 100
▁excell 100
alls 100
▁Suresh 100
▁nam 100
▁agg 100
▁Chidambaram 100
▁interests 100
▁none 100
▁brief 100
ota 100
▁fle 100
▁Sikh 100
IL 100
ET 100
▁convers 100
▁El 100
▁Only 100
▁affairs 100
▁prosper 100
▁Pandey 100
▁Rashtra 100
▁pollution 100
▁organisation 100
▁vent 100
quarters 100
fort 100
▁Mit 100
wari 100
nap 100
son 100
▁participate 100
▁Nitin 100
▁Jas 100
▁costs 100
▁Report 100
▁Secret 100
▁MPs 100
▁Thackeray 100
▁throw 100
▁Mamata 100
▁negative 100
aste 100
▁booked 100
▁looked 100
▁Eastern 100
▁strict 100
▁structure 100
▁cancell 100
▁rescue 100
PM 100
hern 100
▁Programme 100
▁argu 100
eed 100
▁coord 100
▁relevant 100
▁Gadkari 100
▁Aadhaar 100
And 100
CS 100
▁described 100
▁raise 100
▁treated 100
▁thinking 100
essions 100
4. 100
▁subsid 100
', 100
▁Ayod 100
penditure 100
▁Sitharaman 100
▁toll 100
ider 100
▁rupees 100
▁tourism 100
▁stopped 100
▁demands 100
▁requested 100
▁pleas 100
▁entry 100
▁Industries 100
▁guard 100
▁removed 100
▁simple 100
▁attacked 100
▁becoming 100
▁bul 100
▁guidance 100
▁knew 100
▁mach 100
imately 100
▁weight 100
enty 100
▁Sain 100
▁accompanied 100
▁believers 100
▁Environment 100
▁Ramesh 100
▁Legisl 100
▁virt 100
▁admit 100
▁illegal 100
▁electricity 100
▁gun 100
▁damage 100
▁priced 100
▁arrangements 100
▁mercy 100
▁doll 100
▁holds 100
arpur 100
wara 100
▁servants 100
▁manif 100
ilty 100
▁condol 100
▁female 100
▁title 100
▁Chou 100
▁Tur 100
▁Ayodhya 100
▁insp 100
▁profit 100
ole 100
▁overs 100
App 100
▁sell 100
▁educational 100
▁Lead 100
▁Tendulkar 100
▁overall 100
▁Yoga 100
ugu 100
▁Principal 100
iable 100
essor 100
▁Judge 100
ulations 100
▁traditional 100
▁middle 100
ults 100
ishing 100
oli 100
▁assets 100
▁Bomb 100
hana 100
▁Employ 100
known 100
▁delegation 100
▁OF 100
▁Moses 100
▁original 100
19 100
▁kil 100
▁Sharif 100
If 100
orthern 100
▁happiness 100
mier 100
▁Similarly 100
repreneurs 100
▁ign 100
▁abroad 100
▁French 100
▁respective 100
▁pending 100
▁revenue 100
▁disapp 100
wali 100
▁identify 100
ooth 100
▁exams 100
▁370 100
▁degrees 100
▁Rad 100
.) 100
▁highlight 100
▁standards 100
indra 100
▁mem 100
ivery 100
▁ancient 100
▁multi 100
▁NDA 100
▁colleges 100
▁brid 100
▁decide 100
▁drive 100
▁spend 100
oving 100
wor 100
urement 100
▁proceedings 100
▁export 100
yn 100
▁Yojana 100
▁Reserve 100
text 100
▁valid 100
▁Children 100
▁standard 100
kind 100
▁Rak 100
▁burn 100
▁guilty 100
▁opinion 100
▁Watch 100
▁Assist 100
▁Current 100
taining 100
amy 100
▁applications 100
12 100
comm 100
▁Joshi 100
▁achieved 100
oke 100
▁Govt 100
▁fuel 100
▁encourage 100
▁milk 100
▁countrys 100
▁clar 100
inals 100
erted 100
▁AT 100
▁monitoring 100
▁poet 100
6. 100
axy 100
▁CS 100
▁announcement 100
▁size 100
▁doesnt 100
▁difference 100
▁crowd 100
▁objective 100
▁powerful 100
▁Ang 100
▁Jal 100
hered 100
▁Av 100
▁lic 100
▁white 100
▁massive 100
▁collection 100
▁promise 100
▁brand 100
▁Islamic 100
ront 100
▁Ko 100
intend 100
▁happening 100
illing 100
▁confident 100
vious 100
avy 100
lict 100
▁scale 100
▁emb 100
▁Goyal 100
▁rad 100
▁Hindus 100
▁Telugu 100
▁suggested 100
▁joy 100
ube 100
▁sanction 100
▁circumstances 100
▁restrict 100
rival 100
▁Manoj 100
minent 100
▁missing 100
▁Supp 100
▁version 100
▁Advis 100
atra 100
▁sun 100
▁Mahe 100
▁advised 100
▁agricultural 100
ius 100
▁der 100
▁Verma 100
▁Mohammed 100
▁offering 100
▁defeat 100
▁Speaker 100
▁ED 100
▁Commun 100
▁Kings 100
cre 100
▁convey 100
▁sacrif 100
▁transp 100
▁kn 100
▁helps 100
▁recovery 100
▁powers 100
▁sn 100
▁survey 100
▁fellow 100
▁remarks 100
▁integ 100
▁Saif 100
rary 100
spe 100
▁comments 100
▁rapid 100
gon 100
keep 100
▁rising 100
▁Pul 100
▁diss 100
3. 100
▁climate 100
▁II 100
▁govt 100
▁desire 100
▁Hous 100
▁bringing 100
▁lies 100
▁Jon 100
▁128 100
▁DG 100
▁Tele 100
▁Five 100
▁Income 100
▁executive 100
▁Fa 100
▁engaged 100
▁computer 100
ecause 100
iveness 100
▁holy 100
▁Kamal 100
▁covered 100
▁discussions 100
▁Muhammad 100
itage 100
▁dign 100
▁Price 100
▁polling 100
▁Mantri 100
▁solution 100
▁mist 100
▁experts 100
▁injury 100
▁writing 100
hik 100
▁Have 100
▁Swaraj 100
▁Petroleum 100
▁investors 100
▁Found 100
▁promoting 100
▁fort 100
▁Steel 100
▁assign 100
▁studies 100
▁42 100
▁nearby 100
▁cards 100
▁Jio 100
▁util 100
▁sales 100
▁Capital 100
▁Sud 100
▁somet 100
▁Manipur 100
▁certific 100
There 100
▁items 100
▁cabinet 100
▁Aut 100
▁Brah 100
▁Aamir 100
itizen 100
▁connectivity 100
▁Devi 100
alm 100
▁wealth 100
▁equipment 100
mark 100
▁moving 100
▁declined 100
▁bab 100
▁manufacture 100
▁Pen 100
sp 100
▁44 100
▁plants 100
hir 100
▁Bu 100
▁Rat 100
▁distribution 100
aq 100
▁transl 100
8. 100
▁sisters 100
▁slog 100
▁SA 100
▁Financial 100
▁doctor 100
▁Raf 100
ception 100
phy 100
▁download 100
▁index 100
▁calling 100
gend 100
▁schol 100
RE 100
▁fit 100
ares 100
▁deeds 100
▁counsel 100
They 100
▁broke 100
▁homes 100
HE 100
ultan 100
▁Year 100
▁Yet 100
▁Shahid 100
urch 100
▁famous 100
▁oath 100
▁Memor 100
nagar 100
arti 100
▁lakhs 100
7. 100
▁Das 100
▁apart 100
▁Saudi 100
▁Russian 100
▁fifth 100
▁mere 100
SD 100
▁hath 100
▁Nations 100
▁concerns 100
▁longer 100
▁videos 100
▁task 100
bre 100
gar 100
▁IPC 100
▁prayer 100
▁congratulated 100
▁enable 100
▁manifest 100
Phone 100
lease 100
▁Well 100
▁sustained 100
▁Jaw 100
▁didn 100
▁Australian 100
hap 100
▁memor 100
▁strategy 100
▁quoted 100
▁reforms 100
hek 100
▁congregation 100
▁Count 100
▁Ir 100
▁Saf 100
gi 100
▁Make 100
▁balance 100
▁sam 100
tainment 100
hesh 100
▁cancer 100
▁organisations 100
efore 100
▁Chaud 100
▁feet 100
▁nar 100
▁Trade 100
▁user 100
▁starting 100
▁AM 100
▁balls 100
grad 100
▁patient 100
▁deputy 100
▁figh 100
▁detained 100
▁neighbour 100
▁Division 100
▁cult 100
-3 100
▁Mi 100
▁MoU 100
oute 100
▁advant 100
▁Company 100
overty 100
▁adding 100
▁Rashtrapati 100
▁Gul 100
▁promised 100
▁Nawaz 100
▁lines 100
▁Smt 100
▁Budd 100
▁occurred 100
▁industries 100
▁tests 100
▁Awards 100
ishan 100
▁origin 100
▁isol 100
▁seems 100
ken 100
▁cas 100
OS 100
▁BJPs 100
▁warm 100
mosp 100
abled 100
▁constituted 100
▁Prop 100
▁diplom 100
▁highly 100
ashington 100
bal 100
▁union 100
▁politic 100
▁Hel 100
▁symb 100
▁Akh 100
▁Media 100
enn 100
▁cold 100
ales 100
▁practices 100
uit 100
▁comprising 100
▁Sara 100
▁feed 100
▁elig 100
▁assault 100
▁write 100
▁delivery 100
▁Ve 100
▁harm 100
▁Bombay 100
▁strategic 100
▁aspects 100
▁destroyed 100
osite 100
▁resolve 100
▁Meet 100
arty 100
▁Ladakh 100
▁Dar 100
cap 100
▁Rom 100
▁attract 100
▁Kuldeep 100
▁awards 100
▁Ravi 100
esters 100
ourage 100
lines 100
ertil 100
▁scam 100
▁thousands 100
▁historic 100
▁bear 100
ureau 100
▁professional 100
▁Forest 100
▁Ajit 100
▁Member 100
raham 100
▁communities 100
member 100
▁occup 100
\"" 100
ancing 100
▁waiting 100
anta 100
▁Indira 100
inger 100
▁compensation 100
▁Acad 100
earing 100
▁Poll 100
ounder 100
▁rout 100
▁rose 100
▁stakeholders 100
icals 100
▁River 100
▁actions 100
akshi 100
▁television 100
▁Mer 100
itendra 100
▁daughters 100
▁IIT 100
▁veget 100
▁advis 100
Rs 100
sung 100
▁Exam 100
▁sleep 100
▁firing 100
▁Democ 100
▁enhance 100
▁exact 100
▁operational 100
▁looks 100
shi 100
▁Gan 100
▁appointment 100
▁reportedly 100
▁Shankar 100
apore 100
thern 100
▁Galaxy 100
1. 100
▁scientists 100
▁mankind 100
▁solar 100
▁amid 100
▁_ 100
▁identity 100
▁See 100
alt 100
▁welcome 100
▁dark 100
hishek 100
ength 100
▁dram 100
▁troops 100
uing 100
▁ult 100
ador 100
enant 100
▁minutes 100
▁technologies 100
▁mutual 100
istries 100
elled 100
▁benefici 100
section 100
▁planned 100
▁begun 100
▁militants 100
▁shut 100
▁id 100
▁Chouhan 100
▁recommended 100
▁usually 100
▁Dub 100
▁correct 100
▁advance 100
ground 100
▁chem 100
▁altern 100
▁behavi 100
▁overse 100
▁Sil 100
▁photos 100
▁Ba 100
▁debt 100
▁division 100
▁Nirmala 100
▁tradition 100
▁ec 100
▁loved 100
uting 100
▁connected 100
▁finally 100
▁departments 100
alysis 100
fficient 100
▁chance 100
▁Market 100
▁witnessed 100
▁clearly 100
▁Dhan 100
▁debate 100
chang 100
▁notes 100
▁scientific 100
grim 100
iders 100
▁operating 100
▁contesting 100
▁ideas 100
▁Amarinder 100
NA 100
▁glob 100
▁Territ 100
▁defeated 100
▁wonder 100
▁photograph 100
▁SBI 100
outhern 100
asw 100
▁af 100
▁Mat 100
▁improved 100
ivered 100
arant 100
▁trend 100
pass 100
▁Because 100
▁steel 100
▁defend 100
▁Mic 100
▁route 100
▁harass 100
▁Western 100
▁absol 100
▁records 100
▁concept 100
▁judgment 100
▁asking 100
ney 100
▁Abhishek 100
▁65 100
▁internet 100
▁fields 100
▁infection 100
aksh 100
uti 100
ocal 100
▁Washington 100
yl 100
▁Fad 100
eless 100
▁judges 100
Pak 100
htar 100
▁2009 100
izations 100
▁prem 100
▁Malik 100
▁atmosp 100
▁USD 100
▁Snap 100
▁quant 100
navis 100
▁mode 100
maker 100
▁Work 100
▁welcom 100
▁influence 100
▁Messenger 100
ster 100
▁Smith 100
nov 100
▁Singapore 100
▁flights 100
▁charged 100
▁facilitate 100
▁Ama 100
▁delivered 100
icate 100
▁Sard 100
▁du 100
▁skills 100
▁yourself 100
▁Din 100
▁stream 100
like 100
▁Temple 100
▁passing 100
▁compre 100
▁comfort 100
▁49 100
▁38 100
heast 100
▁8, 100
▁tree 100
▁suc 100
▁Courts 100
▁memory 100
▁discipl 100
ctoral 100
▁emergency 100
hensive 100
▁measure 100
▁transform 100
▁Jer 100
▁iPhone 100
▁audience 100
▁spokesman 100
▁adequ 100
▁voters 100
▁diseases 100
▁association 100
▁farm 100
imb 100
oto 100
ICI 100
lal 100
▁Life 100
▁Oper 100
owerment 100
▁improving 100
▁recommendations 100
▁Shak 100
hta 100
▁acting 100
▁tend 100
cious 100
▁collaboration 100
▁web 100
▁disbelie 100
unch 100
▁hom 100
▁nab 100
.' 100
▁processor 100
▁Sense 100
▁43 100
▁pit 100
obile 100
etic 100
▁RJD 100
OR 100
ockey 100
▁constituencies 100
▁performed 100
▁selection 100
▁Ap 100
▁statements 100
▁institution 100
▁Dil 100
intendent 100
den 100
▁diver 100
▁newsp 100
▁scene 100
▁afford 100
▁Turk 100
▁promotion 100
▁Warn 100
▁10, 100
▁Modis 100
▁Bureau 100
▁teach 100
▁serving 100
urre 100
▁Est 100
verse 100
▁const 100
▁expenditure 100
▁standing 100
▁resignation 100
▁hor 100
▁Foundation 100
▁context 100
▁skill 100
▁animals 100
▁Keep 100
▁ensuring 100
▁dual 100
▁namely 100
rav 100
▁Oil 100
▁lawyer 100
▁Fadnavis 100
▁possession 100
▁Ty 100
▁Summit 100
▁gram 100
▁Vardhan 100
usal 100
▁batting 100
fer 100
▁Sharad 100
▁White 100
▁reflect 100
ifty 100
▁transferred 100
IMS 100
cked 100
▁discl 100
▁leaving 100
▁window 100
▁retail 100
▁banking 100
▁damaged 100
▁Megh 100
▁55 100
▁happens 100
▁Gar 100
▁curren 100
▁Harsh 100
▁successfully 100
gent 100
▁Sen 100
▁Prom 100
▁Realme 100
▁questioned 100
▁busy 100
▁Industrial 100
harth 100
rants 100
▁purchase 100
ressive 100
▁Addressing 100
▁door 100
▁caught 100
St 100
board 100
▁innovation 100
▁Kir 100
▁Sensex 100
mal 100
▁elder 100
▁succeed 100
▁phones 100
umer 100
▁pie 100
▁hour 100
ilesh 100
▁Amendment 100
▁pa 100
▁Staff 100
▁Matt 100
▁decades 100
▁adopted 100
▁visiting 100
▁spoken 100
▁Prote 100
▁Municipal 100
IN 100
▁offices 100
▁weapons 100
gaon 100
▁exhib 100
▁detailed 100
▁Tej 100
▁Peter 100
-4 100
▁Jaipur 100
ww 100
▁Around 100
▁Ent 100
▁Prat 100
prises 100
▁returns 100
▁prominent 100
lick 100
▁ICICI 100
▁mas 100
right 100
▁remove 100
▁Maj 100
do 100
▁Gas 100
▁Hence 100
dden 100
▁constructed 100
rina 100
▁Varun 100
▁prevail 100
preet 100
▁showing 100
▁Parliamentary 100
▁lie 100
hans 100
▁citizen 100
▁JNU 100
▁strengthening 100
pector 100
▁wat 100
▁reb 100
▁Ms 100
▁# 100
▁compon 100
▁Bhopal 100
riti 100
▁Airport 100
▁sometimes 100
▁PS 100
▁Space 100
▁liber 100
▁youths 100
?""" 100
▁caste 100
When 100
▁Currently 100
▁Father 100
▁medium 100
arian 100
▁conven 100
▁400 100
ura 100
uris 100
70 100
▁drugs 100
All 100
cel 100
▁Sir 100
▁band 100
▁governance 100
DC 100
▁Cy 100
anasi 100
▁HC 100
▁gar 100
▁challenging 100
▁Park 100
DM 100
▁Sukh 100
▁crucial 100
▁6, 100
▁Station 100
▁Script 100
▁regions 100
▁skin 100
ruitment 100
▁Shetty 100
▁rupee 100
▁Mark 100
▁Tar 100
▁intend 100
▁Action 100
friend 100
▁choice 100
▁reference 100
▁Word 100
abilities 100
▁advice 100
▁fraud 100
▁willing 100
▁39 100
▁ST 100
▁Sang 100
▁excl 100
▁Mahendra 100
athan 100
iment 100
▁Canada 100
▁exports 100
▁Earth 100
▁Khar 100
▁academic 100
▁distance 100
▁drinking 100
level 100
EE 100
▁prove 100
▁opposed 100
▁Official 100
▁NH 100
eline 100
istans 100
▁length 100
ourses 100
▁Account 100
▁requirements 100
▁Olympic 100
▁Show 100
ashes 100
▁James 100
▁seed 100
▁Before 100
▁parliamentary 100
ework 100
▁Amaz 100
▁scen 100
oval 100
ba 100
▁mechanism 100
▁CRPF 100
▁wait 100
▁labour 100
▁eye 100
▁sad 100
▁shop 100
▁Samsung 100
▁HDFC 100
▁organization 100
▁Dutt 100
▁renew 100
▁designed 100
▁Rajesh 100
▁Vill 100
▁perman 100
▁Rajk 100
▁Katrina 100
▁load 100
rap 100
▁Jam 100
ava 100
teran 100
▁Members 100
▁meant 100
▁Prot 100
▁Yah 100
15 100
eum 100
▁rivers 100
▁dismissed 100
▁atmosphere 100
pet 100
ria 100
▁amongst 100
oes 100
▁east 100
▁supporting 100
▁demanding 100
OC 100
▁Theres 100
dev 100
irperson 100
▁principles 100
▁undergoing 100
▁< 100
▁kids 100
▁(4 100
imal 100
▁Dont 100
▁Exec 100
▁pilgrim 100
▁passenger 100
▁controversy 100
▁Tim 100
▁investigations 100
using 100
▁ability 100
▁secure 100
▁crops 100
▁Heavy 100
▁belief 100
▁gang 100
▁sort 100
▁Internet 100
▁powered 100
night 100
▁Arunachal 100
▁spin 100
▁strongly 100
▁frequ 100
▁Sant 100
▁peoples 100
roc 100
▁channel 100
▁Max 100
▁purposes 100
▁Mary 100
▁Ira 100
▁pension 100
forcement 100
▁conducting 100
▁Rawat 100
▁WhatsApp 100
▁deliber 100
25 100
▁Jagran 100
▁healthcare 100
▁Subh 100
▁crude 100
▁nut 100
inema 100
▁Though 100
▁shel 100
igen 100
▁Although 100
▁Swach 100
▁Br 100
ruits 100
▁novel 100
▁headquarters 100
▁aid 100
rer 100
sha 100
▁surround 100
hus 100
▁NRC 100
▁Stat 100
▁Play 100
▁cooper 100
ounded 100
▁mental 100
▁cancelled 100
cts 100
▁Ris 100
▁solid 100
DS 100
▁Diwali 100
▁perfect 100
▁relatives 100
▁trail 100
ifying 100
▁Desk 100
▁fruit 100
cha 100
▁Qur 100
▁conver 100
amental 100
▁investments 100
▁changing 100
▁walk 100
itect 100
▁appreciated 100
▁Agar 100
gypt 100
▁Abraham 100
▁Due 100
idden 100
▁myself 100
aduate 100
▁Jitendra 100
▁magn 100
▁teaching 100
▁2. 100
▁sport 100
▁grad 100
▁forced 100
▁Po 100
▁Samajwadi 100
▁Mahesh 100
endra 100
▁Set 100
▁straight 100
pa 100
▁easily 100
atures 100
▁stress 100
zil 100
▁Deepak 100
▁Sahib 100
▁Johar 100
▁clause 100
▁2008 100
gen 100
▁boys 100
▁approx 100
▁Varanasi 100
▁undertaken 100
▁Trust 100
-201 100
▁Bet 100
▁Nifty 100
▁contribute 100
▁consequ 100
eras 100
▁Broad 100
▁involve 100
BS 100
isher 100
▁Bharti 100
▁therein 100
▁Major 100
▁engineering 100
rison 100
▁Bhushan 100
▁poverty 100
erring 100
▁follows 100
▁1. 100
▁crop 100
▁Training 100
▁Tiwari 100
▁Band 100
▁faces 100
dragon 100
▁LO 100
cean 100
▁linked 100
▁Metro 100
Go 100
akar 100
itan 100
▁gat 100
▁surface 100
▁availability 100
▁Ham 100
▁GDP 100
▁arm 100
Ms 100
uz 100
wama 100
▁Tan 100
▁arms 100
pective 100
▁Royal 100
▁proof 100
▁Manish 100
▁Azad 100
▁types 100
▁Snapdragon 100
▁Mahindra 100
▁falls 100
▁conspir 100
▁Som 100
▁Gaut 100
assador 100
▁territory 100
▁Lakh 100
▁larger 100
▁7, 100
▁disput 100
▁possess 100
asa 100
isted 100
▁Recently 100
▁Investigation 100
▁Allahabad 100
▁IM 100
On 100
▁MSME 100
▁Egypt 100
▁Nan 100
kes 100
▁grief 100
▁script 100
▁alert 100
▁sudden 100
osop 100
▁ascer 100
long 100
▁feeling 100
ingu 100
▁dance 100
▁sustainable 100
porary 100
▁alongside 100
▁Kot 100
▁maintained 100
▁complaints 100
▁protesters 100
▁Sidhu 100
▁forget 100
▁Agree 100
mod 100
utta 100
▁Kaif 100
▁Kab 100
▁eligible 100
pter 100
soon 100
▁gathering 100
▁code 100
tenance 100
▁dialogue 100
▁THE 100
▁divided 100
▁principal 100
weh 100
▁11, 100
▁proved 100
▁filing 100
▁Devendra 100
▁Ren 100
▁Ki 100
▁phil 100
osen 100
▁Pulwama 100
oram 100
▁pace 100
▁collected 100
▁kid 100
▁listen 100
▁symbol 100
cont 100
▁cars 100
owed 100
▁jaw 100
▁Mur 100
lection 100
▁imag 100
fit 100
charged 100
▁reservo 100
▁sentence 100
▁mos 100
▁Olympics 100
gov 100
▁processing 100
mad 100
▁Sah 100
▁taught 100
▁causes 100
inent 100
▁friendly 100
▁lose 100
wing 100
▁satell 100
haz 100
▁aspir 100
▁sugar 100
▁Amazon 100
ief 100
ensus 100
▁lived 100
▁Any 100
▁prosec 100
▁welcomed 100
▁Rain 100
▁ship 100
Os 100
▁assessment 100
▁vari 100
▁samples 100
▁teacher 100
▁Organisation 100
▁administrative 100
eph 100
▁Emp 100
▁penalty 100
▁struggle 100
▁summit 100
▁prayers 100
▁input 100
orge 100
▁Ret 100
▁vital 100
▁gard 100
hot 100
▁participants 100
▁repeated 100
▁faithful 100
▁Ambani 100
▁install 100
▁iron 100
▁consideration 100
Pl 100
ruck 100
▁aims 100
▁procurement 100
term 100
▁eth 100
▁guide 100
▁songs 100
▁Aar 100
▁adopt 100
▁policemen 100
okes 100
▁Black 100
▁2000 100
▁numer 100
▁Xia 100
alaya 100
orders 100
▁whereas 100
▁Ji 100
▁Once 100
▁stories 100
▁awa 100
▁Sardar 100
▁Pakistans 100
▁error 100
ashtriya 100
▁marty 100
jection 100
▁ment 100
▁termin 100
ests 100
▁journalist 100
90 100
▁2020. 100
▁wins 100
▁substant 100
▁villagers 100
▁Each 100
▁bird 100
▁properties 100
▁46 100
▁Tripura 100
▁classes 100
▁spect 100
▁Shr 100
▁Jawahar 100
iscal 100
ibilities 100
▁Rav 100
▁Ranjan 100
▁installed 100
iciency 100
nels 100
▁Apple 100
onic 100
▁10,000 100
▁Indones 100
▁truly 100
▁starts 100
▁formation 100
eler 100
▁adequate 100
▁Dur 100
▁Common 100
▁Please 100
▁independence 100
▁gathered 100
▁47 100
istrate 100
match 100
ridor 100
▁wild 100
▁Willi 100
ij 100
▁Shivraj 100
▁extent 100
▁CBSE 100
▁cul 100
▁ruled 100
▁Guru 100
▁equity 100
▁Executive 100
uja 100
▁ep 100
▁begins 100
▁warning 100
abi 100
▁Noida 100
▁advantage 100
▁cra 100
], 100
▁Digital 100
▁ID 100
▁juris 100
bon 100
▁54 100
▁Gautam 100
▁banned 100
▁plus 100
▁cameras 100
▁expert 100
▁ourselves 100
▁specified 100
▁literature 100
▁princ 100
▁Society 100
▁Everyone 100
▁feels 100
▁unknown 100
▁Bro 100
▁Highways 100
▁fake 100
▁roll 100
▁courage 100
casting 100
▁pointed 100
▁List 100
▁Press 100
▁solutions 100
▁advanced 100
▁procedure 100
▁hur 100
▁Malays 100
was 100
rations 100
▁tribal 100
hane 100
▁Actress 100
▁Aad 100
▁Indo 100
▁slogans 100
▁acts 100
▁belongs 100
▁Valley 100
▁Federation 100
▁inspir 100
odh 100
▁apostle 100
tel 100
▁Att 100
▁mort 100
▁race 100
▁armed 100
lot 100
eor 100
▁campus 100
una 100
▁simply 100
▁Abdul 100
ansk 100
▁Yahweh 100
▁Independence 100
▁perhaps 100
ande 100
▁Pur 100
▁files 100
▁Brazil 100
▁51 100
▁clash 100
▁Sushma 100
▁concerning 100
▁unity 100
▁chosen 100
▁wisdom 100
▁obl 100
▁concl 100
harm 100
▁categories 100
▁Green 100
▁Abdullah 100
▁writer 100
▁unless 100
▁mainly 100
erciful 100
."" 100
aves 100
▁intens 100
▁CPI 100
▁analy 100
▁toward 100
othing 100
▁wont 100
▁Coronavirus 100
▁worst 100
▁elements 100
▁5- 100
▁Institut 100
itely 100
▁IAF 100
▁Priv 100
▁Iraq 100
▁prosperity 100
▁Stadium 100
▁millions 100
▁leaves 100
▁fed 100
▁brings 100
▁figure 100
payee 100
▁Sikk 100
▁remark 100
▁vaccine 100
▁handle 100
▁2: 100
▁tough 100
▁twice 100
▁Rafale 100
enses 100
▁Times 100
cheduled 100
▁opposite 100
▁portal 100
hajan 100
▁interesting 100
▁advocate 100
▁emerged 100
▁2017-1 100
▁appealed 100
▁celebrations 100
▁failure 100
▁Haz 100
▁retire 100
▁Rashtriya 100
65 100
▁wise 100
▁newly 100
▁assum 100
uff 100
▁instance 100
▁helping 100
had 100
urved 100
▁toss 100
▁stable 100
xic 100
▁male 100
▁Exchange 100
amin 100
otees 100
usted 100
▁193 100
isition 100
▁confirm 100
▁rum 100
▁dated 100
ritsar 100
▁Mukesh 100
lin 100
▁heat 100
▁Sandeep 100
▁Akhilesh 100
▁Ric 100
▁Vikas 100
75 100
▁refuge 100
▁3. 100
▁piv 100
▁theme 100
elsius 100
▁earned 100
▁schedule 100
▁Natural 100
▁generally 100
▁Rakesh 100
▁currency 100
ansion 100
▁Satan 100
▁Take 100
▁2019. 100
Pakistan 100
▁recover 100
▁Sea 100
▁Academy 100
▁1,000 100
▁Lalu 100
▁greetings 100
▁Citizenship 100
▁beneficiaries 100
▁heritage 100
▁bomb 100
▁Jain 100
▁hero 100
▁legend 100
▁trees 100
▁Engineering 100
PG 100
igil 100
▁Officers 100
▁Agra 100
▁Card 100
▁please 100
▁peaceful 100
▁sacrifice 100
▁style 100
▁9, 100
icip 100
▁Land 100
ua 100
▁Mun 100
▁Atal 100
▁council 100
▁3: 100
▁Friend 100
▁ven 100
▁outstanding 100
utin 100
▁Total 100
▁Gaur 100
▁Forces 100
▁stressed 100
▁situated 100
▁Sciences 100
▁west 100
▁pregn 100
▁copy 100
▁Directorate 100
▁emotion 100
▁closely 100
▁Arora 100
▁picked 100
▁Bhut 100
▁Excell 100
▁constitution 100
▁humans 100
▁software 100
▁movies 100
▁Premier 100
▁flu 100
▁LORD 100
▁followers 100
▁goals 100
ails 100
▁animal 100
▁distributed 100
▁seeing 100
▁relative 100
▁celebrate 100
▁greatest 100
▁sky 100
▁Surely 100
▁inspired 100
▁premises 100
ching 100
▁Gopal 100
▁species 100
▁lands 100
▁quickly 100
AB 100
▁centuries 100
▁showc 100
▁explos 100
▁TMC 100
▁intelligence 100
aland 100
▁Aviation 100
▁transactions 100
▁resigned 100
▁examples 100
▁Kann 100
▁Gree 100
captain 100
▁Vaj 100
▁Agency 100
▁41 100
anguly 100
▁although 100
▁\"" 100
▁believes 100
▁winners 100
ipped 100
▁interact 100
▁entrepreneurs 100
Sh 100
▁quit 100
▁incor 100
uties 100
▁directions 100
employ 100
room 100
▁Miz 100
▁Chat 100
▁baby 100
▁52 100
iyush 100
▁western 100
▁appears 100
▁bridge 100
▁Tests 100
▁Aj 100
yas 100
RS 100
atio 100
▁15, 100
▁notified 100
▁Shuk 100
▁Kaus 100
▁universities 100
▁producer 100
▁Main 100
▁functioning 100
An 100
▁casual 100
▁prepare 100
▁branch 100
aja 100
▁doesn 100
▁praise 100
▁possibility 100
▁Pass 100
aving 100
▁fruits 100
▁Time 100
▁reading 100
▁fought 100
▁Gor 100
▁Chall 100
athy 100
▁applied 100
▁Festival 100
▁regularly 100
▁distin 100
▁edition 100
Cong 100
▁jurisdict 100
▁120 100
▁Ish 100
▁select 100
▁participating 100
▁pivotal 100
▁Jad 100
▁permanent 100
▁external 100
▁belonging 100
-17 100
▁warned 100
▁soil 100
▁Sonam 100
redit 100
▁Legislative 100
▁Captain 100
▁2019: 100
▁offence 100
▁1: 100
ivek 100
▁Piyush 100
west 100
▁motiv 100
rigation 100
▁privile 100
▁Chak 100
▁stead 100
▁facts 100
▁formal 100
urrection 100
▁elim 100
▁farmer 100
▁Celsius 100
▁scholars 100
MK 100
▁clin 100
▁snow 100
▁master 100
oom 100
▁devices 100
▁Rand 100
▁angels 100
phones 100
▁Ambed 100
ography 100
▁Kha 100
aling 100
▁consumers 100
▁younger 100
▁Chaudhary 100
▁agend 100
▁Assistant 100
Ex 100
▁Did 100
▁Ganguly 100
▁philosop 100
▁Micro 100
▁abscond 100
▁Rash 100
▁Whe 100
▁voting 100
▁Labour 100
▁bowling 100
▁eastern 100
▁replace 100
▁tank 100
▁factors 100
▁investigated 100
▁fest 100
▁Arabia 100
▁allot 100
▁motorcy 100
▁imprison 100
▁reservoirs 100
oked 100
▁Xiaomi 100
▁divide 100
▁comprehensive 100
▁Puri 100
▁verily 100
FI 100
▁Start 100
▁improvement 100
NL 100
▁fiscal 100
iced 100
▁norms 100
▁corporate 100
▁Advani 100
▁Agreement 100
▁locations 100
▁electronic 100
▁dollar 100
▁approached 100
▁determined 100
▁Six 100
▁Housing 100
▁griev 100
▁courses 100
▁consec 100
▁listed 100
▁Sikkim 100
itors 100
▁sanctioned 100
▁core 100
▁Obama 100
▁choose 100
▁dropped 100
▁interested 100
aren 100
▁mal 100
▁inflation 100
▁@ 100
▁Tro 100
MT 100
▁dia 100
,999. 100
▁Motor 100
▁MT 100
▁NG 100
▁suffer 100
▁Grand 100
ertiliz 100
▁retired 100
jud 100
▁Ha 100
▁premi 100
▁prescribed 100
▁Cooperation 100
▁12, 100
▁conflict 100
▁Vivek 100
▁storm 100
▁Gard 100
▁heads 100
▁Indore 100
arm 100
▁honoured 100
▁pattern 100
▁establishment 100
oga 100
oda 100
iments 100
▁Mil 100
umble 100
▁Akhtar 100
▁requirement 100
▁sets 100
▁labor 100
▁Pas 100
CO 100
▁pure 100
▁Mc 100
▁draft 100
▁requires 100
▁architect 100
▁thats 100
▁Chris 100
▁Airtel 100
▁selfie 100
▁struct 100
▁papers 100
▁harmony 100
▁constitutional 100
▁contains 100
▁Non 100
▁Ek 100
hari 100
▁leads 100
▁completion 100
lets 100
hin 100
▁Despite 100
anskrit 100
oration 100
▁Udd 100
▁materials 100
▁toler 100
▁unbel 100
▁Chin 100
inance 100
▁probably 100
▁filled 100
▁figures 100
▁Mang 100
▁Shukla 100
▁advert 100
andum 100
nan 100
▁Meeting 100
OL 100
keeper 100
▁agenda 100
▁learned 100
▁driving 100
▁guided 100
▁fundamental 100
ilding 100
▁Maruti 100
▁(5 100
▁Narayan 100
▁organizations 100
▁democratic 100
64 100
▁jump 100
▁saved 100
▁Han 100
▁fighter 100
▁CAA 100
▁explained 100
▁Ros 100
▁convict 100
▁ODIs 100
▁theat 100
adekar 100
▁remand 100
▁(1) 100
eta 100
want 100
▁cat 100
▁aspect 100
▁PR 100
orter 100
ifications 100
▁labou 100
▁Japanese 100
▁Aditya 100
▁singer 100
▁Jerusal 100
struction 100
▁Rules 100
▁conspiracy 100
lex 100
alam 100
▁thoughts 100
-- 100
lights 100
▁Innov 100
▁promises 100
eria 100
▁explain 100
▁expression 100
▁club 100
▁aimed 100
▁decline 100
▁citizenship 100
▁dates 100
oles 100
▁involving 100
But 100
▁channels 100
▁highway 100
%), 100
▁African 100
▁Badal 100
▁Right 100
▁location 100
▁Click 100
▁describ 100
▁interrog 100
eg 100
aces 100
▁regime 100
▁jun 100
eav 100
▁Process 100
▁Great 100
onom 100
umber 100
▁Joseph 100
cend 100
▁mishap 100
▁Administration 100
▁obey 100
▁plane 100
ham 100
▁Insurance 100
▁Huss 100
▁maintenance 100
▁travelling 100
ups 100
▁Shim 100
▁Amritsar 100
▁Agarwal 100
▁violation 100
▁trouble 100
▁owner 100
visional 100
rown 100
▁guarant 100
anti 100
▁Dinesh 100
▁reaching 100
kaiah 100
nu 100
▁hotel 100
▁effic 100
ashion 100
▁bron 100
▁bid 100
▁Lah 100
▁Superintendent 100
▁mouth 100
▁ease 100
▁alt 100
HA 100
▁Gog 100
▁cells 100
▁revel 100
▁56 100
▁hang 100
▁jew 100
ronics 100
▁Muz 100
▁Happ 100
▁Jun 100
▁football 100
▁accompl 100
▁Cust 100
▁concluded 100
▁Id 100
▁SMS 100
▁BR 100
iring 100
CI 100
▁Om 100
rives 100
TE 100
▁Electric 100
▁53 100
▁owners 100
▁province 100
▁bott 100
▁Coal 100
▁dangerous 100
▁Sindhu 100
ampur 100
▁Soon 100
▁percentage 100
aiah 100
xy 100
▁ANI 100
▁toil 100
yers 100
▁raising 100
▁ath 100
▁Uddhav 100
▁AP 100
▁Sit 100
▁Centres 100
▁cum 100
awati 100
rers 100
kha 100
▁thanked 100
▁functions 100
▁UPA 100
▁fan 100
▁manager 100
DRF 100
aria 100
▁format 100
▁resulted 100
▁wake 100
▁negoti 100
ander 100
▁historical 100
▁Jac 100
▁apolog 100
My 100
▁Da 100
▁selling 100
▁governor 100
lu 100
▁Abb 100
▁models 100
▁attitude 100
17 100
ibly 100
.30 100
▁witnesses 100
▁hat 100
▁tot 100
▁expansion 100
▁fathers 100
▁Ayush 100
▁Nobody 100
▁Ambedkar 100
▁trailer 100
▁Elections 100
%. 100
bo 100
▁Sr 100
▁reduction 100
▁discharged 100
▁floor 100
▁Mizoram 100
▁exped 100
▁Jerusalem 100
▁excellent 100
▁Marat 100
▁temples 100
▁tear 100
▁Petrol 100
▁Jadhav 100
ieties 100
edy 100
▁housing 100
▁marketing 100
▁alloc 100
▁mix 100
▁Kangana 100
▁hundreds 100
oves 100
▁Gir 100
▁Chow 100
▁upto 100
▁tourists 100
▁250 100
▁suit 100
▁friendship 100
cription 100
uhan 100
▁arbit 100
▁Verily 100
▁suggestions 100
anj 100
▁medals 100
▁Disaster 100
▁sufficient 100
▁losses 100
▁indu 100
▁Marsh 100
▁indigen 100
▁Secondary 100
▁unve 100
▁applicable 100
▁reiter 100
wala 100
▁Crore 100
▁Naval 100
▁Jawaharlal 100
▁Applic 100
▁cinema 100
▁Ser 100
▁threatened 100
▁72 100
adda 100
▁deny 100
▁Men 100
ariat 100
▁framework 100
▁Ev 100
AY 100
▁Bench 100
▁jointly 100
▁Resources 100
addha 100
▁furn 100
▁seeks 100
▁trained 100
▁stre 100
▁highlighted 100
▁represented 100
IG 100
▁EV 100
▁Ru 100
utely 100
Our 100
▁Star 100
▁widely 100
▁buses 100
▁lear 100
▁blessings 100
▁shops 100
98 100
-21 100
▁Mehta 100
▁charging 100
▁endeav 100
▁XI 100
▁85 100
▁10. 100
▁learnt 100
▁consumption 100
bi 100
AE 100
▁Swachh 100
▁founder 100
▁jurisdiction 100
▁Buddh 100
▁hyd 100
▁sight 100
▁Protection 100
▁numerous 100
rier 100
▁gains 100
▁Pres 100
▁finished 100
▁Camp 100
▁duties 100
▁cook 100
▁push 100
▁bowler 100
▁Teh 100
▁Smart 100
iar 100
odia 100
▁Banks 100
▁Regional 100
▁fill 100
▁Ashwin 100
▁Hood 100
cluding 100
▁PG 100
uses 100
▁IAS 100
ocking 100
▁Check 100
rine 100
▁Gram 100
▁instructions 100
eorological 100
▁Hussain 100
▁bagged 100
▁resolved 100
▁subsequently 100
▁store 100
sych 100
▁Meghalaya 100
▁prohib 100
▁4: 100
MR 100
▁counterpart 100
▁drop 100
▁Change 100
▁substantial 100
▁reviewed 100
▁Raja 100
▁condolences 100
▁Javadekar 100
inda 100
▁hair 100
▁effects 100
ola 100
▁Patil 100
▁discount 100
SI 100
▁bronze 100
▁Hand 100
35 100
▁cry 100
▁Vide 100
▁Infrastructure 100
▁missile 100
▁Sanskrit 100
▁rice 100
itime 100
▁expanded 100
▁NS 100
just 100
▁Geh 100
▁pride 100
▁entit 100
▁announce 100
▁sixth 100
▁wasnt 100
▁concent 100
▁messages 100
▁Aay 100
▁Polit 100
attar 100
▁Adam 100
▁Bag 100
▁buildings 100
▁causing 100
▁Swami 100
▁Kanpur 100
▁wheat 100
▁worshi 100
mas 100
ki 100
▁Private 100
▁felicit 100
▁recognised 100
▁medicines 100
▁mandatory 100
▁Prophet 100
▁mostly 100
▁decre 100
▁payments 100
▁isnt 100
▁AB 100
TA 100
▁Gre 100
issions 100
aughter 100
uters 100
gs 100
▁resist 100
▁magaz 100
▁Ahmad 100
▁ratio 100
▁Scheduled 100
▁Coast 100
▁putting 100
▁Nagpur 100
onda 100
ellow 100
▁outl 100
uration 100
▁burden 100
odi 100
▁revised 100
▁environmental 100
▁exceed 100
▁Moreover 100
▁compar 100
▁row 100
▁coin 100
▁consumer 100
▁consecutive 100
You 100
▁imper 100
▁talked 100
▁researc 100
▁wicked 100
▁alive 100
▁Survey 100
▁municipal 100
ading 100
▁revolution 100
▁impl 100
ctive 100
ribution 100
▁certificate 100
ND 100
▁herself 100
▁Nagaland 100
▁reservation 100
▁arg 100
-16 100
abu 100
▁Khanna 100
kg 100
aked 100
askar 100
▁Pil 100
▁managing 100
▁Cell 100
▁worksh 100
▁loving 100
uki 100
▁deeply 100
rum 100
ellect 100
▁sessions 100
▁panchayat 100
▁Sav 100
▁differences 100
▁discrim 100
pert 100
▁2018-19 100
raid 100
acific 100
▁2020, 100
▁conscious 100
apse 100
adise 100
▁Line 100
▁Indonesia 100
▁) 100
▁Democratic 100
▁Skill 100
▁acknow 100
▁stability 100
och 100
▁kingdom 100
▁vast 100
▁condemned 100
▁Hindust 100
▁58 100
▁Fort 100
▁Sign 100
▁unable 100
▁variety 100
▁thereafter 100
IV 100
ipt 100
▁Rights 100
▁Thereafter 100
▁Devgn 100
president 100
▁uncle 100
▁Pratap 100
▁restrictions 100
▁Mos 100
▁AIIMS 100
▁74 100
▁sep 100
200 100
quake 100
▁semi 100
▁imports 100
▁accordance 100
▁experienced 100
▁Va 100
ptoms 100
▁worldwide 100
wah 100
urities 100
▁Desh 100
▁yield 100
Man 100
▁Bhup 100
▁print 100
▁touc 100
▁accidents 100
gery 100
▁dealing 100
▁sevent 100
▁withdraw 100
▁coalition 100
▁sensitive 100
▁thereof 100
▁machine 100
▁Flip 100
▁analysis 100
▁targeted 100
▁fold 100
▁hect 100
▁chain 100
▁covering 100
Wh 100
▁devotees 100
appa 100
▁obtained 100
iban 100
▁exchang 100
▁Ministries 100
orted 100
▁Mayawati 100
▁? 100
▁integrity 100
▁otherwise 100
▁Gehlot 100
▁cow 100
ilitation 100
▁spotted 100
kart 100
▁remind 100
▁shift 100
▁womens 100
▁northern 100
tees 100
Congress 100
▁escape 100
▁Myan 100
▁drawn 100
▁comprises 100
▁allocation 100
▁Italy 100
▁lad 100
▁fulfilled 100
▁Minor 100
▁Investment 100
VP 100
▁Inc 100
▁disaster 100
▁interaction 100
▁Trin 100
▁termed 100
▁convention 100
▁Jack 100
▁considering 100
▁Justices 100
▁Plus 100
▁Steve 100
▁Scient 100
▁sovere 100
field 100
rators 100
▁sites 100
▁firms 100
▁allows 100
▁tells 100
▁NC 100
▁enemy 100
▁wall 100
45 100
▁Hooda 100
▁crossed 100
▁5. 100
▁2017, 100
▁pilot 100
▁useful 100
▁package 100
heet 100
▁anger 100
▁supports 100
cles 100
▁broken 100
IF 100
eer 100
▁1.5 100
▁platforms 100
▁Bob 100
▁Culture 100
▁Madh 100
▁approximately 100
▁Nand 100
▁contra 100
▁existence 100
▁principle 100
▁southern 100
▁63 100
esty 100
▁achievement 100
▁Guard 100
▁activists 100
▁ISRO 100
▁Like 100
▁TO 100
▁absence 100
▁absconding 100
gra 100
▁murd 100
▁Muzaff 100
?" 100
▁bowlers 100
▁exception 100
▁efficiency 100
▁14, 100
▁yourselves 100
▁Suz 100
▁uses 100
▁unfortun 100
salm 100
▁whoever 100
▁Pandya 100
▁supporters 100
Com 100
▁thereby 100
▁Ghaz 100
▁Dubai 100
▁Credit 100
▁Hig 100
▁Vajpayee 100
▁reducing 100
▁recruitment 100
▁Trophy 100
▁Prabh 100
▁USA 100
▁Along 100
▁uns 100
▁presently 100
▁sick 100
pol 100
▁afraid 100
▁Consumer 100
hard 100
▁capable 100
▁definitely 100
▁contributed 100
▁thanks 100
ilas 100
▁Padma 100
▁forever 100
▁Flipkart 100
▁Matthew 100
▁prize 100
inating 100
▁settled 100
▁mining 100
▁integrated 100
▁calc 100
▁actual 100
▁falling 100
For 100
▁auction 100
▁Planning 100
▁Hardik 100
▁suspected 100
▁4. 100
▁promot 100
▁postp 100
▁Love 100
hvi 100
▁plot 100
met 100
▁floods 100
ishad 100
icks 100
▁cultiv 100
asc 100
▁vegetables 100
▁Armed 100
▁Tomar 100
▁Bum 100
place 100
▁emerging 100
▁Prem 100
ortheast 100
▁conservation 100
▁drama 100
▁talent 100
▁Malaysia 100
▁Ravind 100
igious 100
▁demise 100
▁innovative 100
▁Unt 100
▁forb 100
▁lying 100
▁alternative 100
▁borrow 100
▁Subhash 100
olid 100
▁brain 100
▁Ber 100
▁beneficial 100
▁nav 100
▁Pant 100
▁diet 100
ulam 100
dess 100
isan 100
▁intention 100
▁Lat 100
▁extension 100
▁Abhi 100
▁paying 100
▁wherein 100
▁admission 100
herry 100
▁segment 100
▁relation 100
▁73 100
▁focused 100
▁harassment 100
▁Local 100
▁losing 100
▁Interest 100
▁implementing 100
othes 100
▁Anur 100
▁plastic 100
▁positions 100
▁Jade 100
▁2018, 100
▁electoral 100
▁effectively 100
ux 100
▁reserved 100
▁enhanced 100
▁commence 100
word 100
▁Chem 100
▁venture 100
▁delight 100
▁tickets 100
gam 100
auty 100
▁grat 100
▁asserted 100
▁NIA 100
break 100
▁Laksh 100
▁Qualcomm 100
▁constantly 100
Mo 100
18 100
Un 100
▁Um 100
▁Was 100
▁competitive 100
▁Gogoi 100
aksha 100
▁MC 100
NS 100
▁Top 100
▁separat 100
assion 100
▁Pa 100
uma 100
▁amaz 100
iciary 100
▁Bhutan 100
▁Friends 100
▁Dan 100
▁Teac 100
▁hike 100
▁Mother 100
▁ic 100
▁illust 100
▁questioning 100
▁divor 100
NC 100
▁cad 100
▁moral 100
▁communal 100
hit 100
▁depth 100
▁2007 100
▁nomination 100
ayam 100
cher 100
lected 100
▁Through 100
▁gained 100
▁medicine 100
▁tribute 100
▁letters 100
▁margin 100
▁conversation 100
▁initially 100
▁Ans 100
▁Myanmar 100
▁mountain 100
ulty 100
▁Honble 100
▁Based 100
Plus 100
▁achievements 100
▁dry 100
▁auto 100
▁titled 100
▁grew 100
▁pron 100
▁motion 100
arnath 100
▁125 100
Us 100
arency 100
picious 100
▁batsmen 100
▁rare 100
atar 100
▁Yuv 100
▁partys 100
▁KL 100
▁Mart 100
▁enthus 100
▁stayed 100
ateful 100
▁Nadda 100
▁Jews 100
▁fired 100
▁Leader 100
▁Er 100
▁favor 100
▁contem 100
▁67 100
aration 100
95 100
▁5: 100
▁Chandr 100
ips 100
▁bed 100
▁funding 100
xis 100
▁blind 100
▁fielded 100
▁Det 100
▁Khattar 100
▁struck 100
▁Conf 100
▁Univers 100
bur 100
poll 100
▁Bur 100
▁fix 100
▁dim 100
▁Bumrah 100
▁wearing 100
▁Je 100
ailed 100
weets 100
▁Pawan 100
▁rememb 100
ifies 100
▁Sheikh 100
identified 100
▁preparations 100
erved 100
▁liquid 100
▁Ravindra 100
▁Mobile 100
▁triple 100
▁tenure 100
▁torment 100
▁conferred 100
UV 100
NB 100
osure 100
lihood 100
▁Warner 100
ications 100
▁Resource 100
▁searching 100
▁meets 100
▁68 100
ocol 100
antic 100
▁replied 100
from 100
osis 100
▁Panch 100
▁Mis 100
▁veteran 100
▁Stock 100
▁Which 100
▁borders 100
Amendment 100
▁gift 100
▁maintaining 100
▁era 100
▁Islamabad 100
▁returning 100
▁visits 100
▁Ayushman 100
▁pac 100
▁hits 100
▁businesses 100
▁Look 100
▁Nick 100
liness 100
▁imprisonment 100
▁66 100
▁opens 100
▁5,000 100
ANS 100
▁Dec 100
▁Jadeja 100
yam 100
opic 100
▁setup 100
▁Selection 100
▁challenged 100
▁Text 100
▁starred 100
hani 100
▁tack 100
TC 100
oking 100
▁grown 100
izes 100
asan 100
rian 100
cro 100
wani 100
▁efficient 100
hotra 100
elt 100
▁monthly 100
▁tourist 100
▁shape 100
▁Jin 100
▁Tw 100
▁moon 100
noon 100
▁stronger 100
uka 100
▁cord 100
▁legislation 100
▁prophe 100
▁sharp 100
▁protesting 100
rates 100
isement 100
oba 100
▁Championship 100
cers 100
▁kinds 100
▁processes 100
▁Sources 100
▁newspaper 100
▁57 100
▁nod 100
▁Sushil 100
▁secured 100
▁labourers 100
▁nominated 100
emies 100
▁institute 100
▁sem 100
]. 100
▁Gurd 100
▁Paris 100
▁Tiger 100
▁totally 100
CM 100
▁Quran 100
New 100
▁Bagh 100
100 100
▁2019, 100
▁secondary 100
ii 100
▁footage 100
▁Index 100
licop 100
▁Tribunal 100
raf 100
▁Baba 100
▁excess 100
▁tension 100
▁blue 100
▁Managing 100
▁craft 100
▁continuing 100
▁overt 100
▁households 100
agues 100
aution 100
▁fly 100
▁Never 100
▁Naik 100
▁Panchay 100
▁eventually 100
▁significantly 100
ampion 100
coh 100
▁amendment 100
14 100
▁Hot 100
▁jewell 100
▁consultation 100
▁Vol 100
erate 100
'' 100
▁Ib 100
rition 100
▁champions 100
ym 100
▁Irani 100
▁helicop 100
▁increases 100
▁upper 100
▁examinations 100
▁loy 100
▁rom 100
▁owned 100
2) 100
inar 100
▁subjects 100
▁Care 100
▁Anant 100
life 100
▁Small 100
▁Yash 100
▁Punjabi 100
▁Hist 100
▁Maur 100
▁Regist 100
▁Woman 100
▁stones 100
▁equipped 100
UR 100
▁watching 100
▁disciples 100
▁OnePlus 100
ario 100
▁grounds 100
▁Ved 100
▁Forum 100
▁disrupt 100
▁experiences 100
tra 100
▁sins 100
▁difficulties 100
.... 100
▁Nam 100
▁Vinod 100
▁Nation 100
▁Math 100
▁methods 100
cohol 100
▁keeps 100
▁Border 100
▁Malhotra 100
▁Nay 100
▁CH 100
▁dwell 100
uded 100
▁anywhere 100
▁coverage 100
▁overseas 100
▁visible 100
▁Deb 100
▁instrument 100
▁destination 100
▁aug 100
orious 100
▁pleasure 100
▁transmission 100
inner 100
iform 100
otton 100
▁2020: 100
▁Professor 100
▁Employment 100
core 100
▁Dom 100
▁producing 100
eft 100
▁resource 100
▁recognized 100
▁journalists 100
chell 100
▁ends 100
▁Mount 100
▁limits 100
▁LED 100
▁sole 100
▁monsoon 100
▁Fac 100
▁obvious 100
▁symptoms 100
▁immense 100
▁affordable 100
▁stret 100
hael 100
▁Prab 100
▁keen 100
▁merely 100
▁convicted 100
▁2014, 100
▁conce 100
▁prompt 100
▁2017-18 100
▁crew 100
▁50,000 100
▁62 100
▁Akbar 100
▁argument 100
▁Clim 100
▁Ranaut 100
▁sanitation 100
omen 100
▁bowl 100
gments 100
▁turns 100
▁deposit 100
▁disbelieve 100
▁absolutely 100
bu 100
▁attached 100
▁integral 100
▁associate 100
hand 100
▁mir 100
speed 100
fl 100
▁Jai 100
▁Jonas 100
▁phases 100
▁previously 100
ICS 100
haraoh 100
▁globally 100
▁Jy 100
▁hyp 100
▁exem 100
▁Taliban 100
ulating 100
▁Penal 100
▁square 100
ighty 100
Th 100
▁sed 100
▁towns 100
▁Hol 100
▁Mul 100
▁Mitchell 100
▁combat 100
▁inher 100
▁Suzuki 100
▁sending 100
uster 100
▁feelings 100
stood 100
▁networ 100
▁evol 100
▁Memorial 100
▁Heb 100
▁smaller 100
▁telecom 100
▁Bay 100
▁Bhat 100
artments 100
▁spreading 100
▁honor 100
▁replaced 100
▁acted 100
force 100
▁Shraddha 100
▁premium 100
▁fish 100
▁nobody 100
▁glad 100
▁violent 100
▁culp 100
▁aside 100
▁retirement 100
heb 100
▁Tir 100
▁humanity 100
▁Panchayat 100
ulative 100
▁coaches 100
▁Vikram 100
PA 100
▁links 100
▁engage 100
▁BSF 100
▁emotional 100
more 100
▁taxes 100
▁Shami 100
rick 100
▁isolated 100
▁background 100
▁Veh 100
endar 100
▁color 100
lis 100
▁pick 100
okh 100
idelines 100
▁Aayog 100
▁Back 100
▁sequ 100
cellor 100
▁Vadra 100
▁rang 100
▁2,000 100
▁factory 100
unk 100
▁spending 100
alu 100
▁tributes 100
etary 100
▁forgive 100
▁attempts 100
▁encouraged 100
▁unidentified 100
▁smartphones 100
▁surve 100
mine 100
iability 100
▁Williams 100
▁behaviour 100
ugg 100
▁Corona 100
otic 100
▁joining 100
▁farming 100
▁impart 100
▁appearing 100
▁generations 100
▁Again 100
▁commod 100
▁crash 100
▁poster 100
jeet 100
▁Does 100
▁Journ 100
▁spl 100
▁sheet 100
▁Rani 100
▁satellite 100
▁sac 100
▁hill 100
▁variants 100
SR 100
▁13, 100
▁Lank 100
▁bigger 100
▁coastal 100
▁Corporate 100
▁ble 100
▁intellect 100
▁rid 100
▁asks 100
▁Nor 100
▁smooth 100
jot 100
▁wave 100
▁pair 100
▁captured 100
fare 100
▁attending 100
▁Higher 100
oso 100
▁RRB 100
▁Britain 100
▁Meteorological 100
▁Merciful 100
▁Anurag 100
▁apparent 100
ENT 100
▁featured 100
orough 100
▁Lahore 100
ferences 100
ynam 100
▁Use 100
▁cool 100
▁pill 100
▁pul 100
▁judgement 100
mAh 100
▁Inspector 100
▁diagn 100
▁Alex 100
randed 100
▁receipt 100
▁Subsequently 100
▁tea 100
▁Mill 100
▁Youn 100
oa 100
▁Sl 100
icky 100
)." 100
▁Mult 100
antly 100
dh 100
▁fashion 100
▁wonderful 100
▁Relations 100
▁vess 100
▁plain 100
ishw 100
▁remote 100
▁approves 100
▁treas 100
▁fulfill 100
ibrary 100
iland 100
▁Hall 100
giving 100
▁portion 100
▁permitted 100
DF 100
▁vul 100
▁Girl 100
▁performing 100
▁69 100
▁metal 100
▁pal 100
▁prest 100
▁entitled 100
▁sixes 100
▁Turkey 100
itya 100
class 100
▁closer 100
▁engagement 100
▁habit 100
▁images 100
alities 100
akha 100
▁Blue 100
TION 100
▁statue 100
▁latter 100
emed 100
liminary 100
▁Wind 100
▁59 100
▁zone 100
▁accur 100
pher 100
▁ships 100
▁neighbours 100
▁valu 100
▁winner 100
▁proposals 100
▁Viv 100
alling 100
▁beauty 100
16 100
makers 100
▁Peace 100
mun 100
▁permit 100
▁Aaron 100
▁output 100
▁passes 100
▁servant 100
house 100
ystem 100
apuram 100
▁Aadmi 100
▁mineral 100
,999 100
▁Roshan 100
▁grateful 100
13 100
fti 100
▁Motors 100
▁pilgrims 100
free 100
▁fab 100
▁bike 100
ovenant 100
▁Mall 100
▁upgrad 100
▁investigate 100
▁Annual 100
▁Hell 100
▁involvement 100
Do 100
▁FY 100
irect 100
▁worse 100
▁height 100
%) 100
▁wished 100
No 100
▁Vas 100
▁makers 100
▁acquisition 100
▁Parri 100
▁Kannada 100
▁pip 100
▁Kath 100
▁Madras 100
▁recon 100
lor 100
ruction 100
▁Kim 100
▁camps 100
▁Phil 100
▁Climate 100
▁hence 100
▁responded 100
EA 100
di 100
fan 100
▁mountains 100
▁Michael 100
▁hub 100
owing 100
▁Rev 100
asting 100
iri 100
▁hosted 100
▁1000 100
▁tally 100
▁displayed 100
▁institutional 100
organ 100
▁Talking 100
▁astray 100
▁entering 100
▁inclusive 100
▁wives 100
▁generate 100
▁attrib 100
▁Poon 100
apped 100
▁Charge 100
▁patri 100
▁gods 100
▁allowing 100
▁2019-20 100
▁liquor 100
▁knowing 100
▁achieving 100
▁PV 100
▁cycl 100
▁angry 100
▁Pud 100
▁Dam 100
utation 100
▁suspect 100
1) 100
▁IR 100
▁Bengali 100
▁answered 100
oph 100
▁Secretariat 100
anand 100
▁wear 100
▁articles 100
▁Que 100
▁suitable 100
▁researchers 100
▁transparency 100
▁Mald 100
▁YouT 100
▁mixed 100
vir 100
▁99 100
chand 100
▁Pict 100
▁Thir 100
▁waters 100
▁Gr 100
▁minds 100
▁infected 100
LD 100
▁simpl 100
UTs 100
▁MW 100
▁worker 100
▁31, 100
▁Lax 100
▁decade 100
▁locals 100
▁pled 100
itaries 100
▁conveyed 100
▁Ocean 100
etisation 100
▁recognition 100
▁Job 100
▁lawyers 100
unications 100
ridge 100
▁Miss 100
▁pion 100
▁aband 100
▁amended 100
▁Ghosh 100
▁glory 100
▁finger 100
▁combined 100
22 100
inking 100
▁attra 100
adur 100
▁glass 100
▁Examination 100
▁characters 100
▁interim 100
▁RE 100
▁mAh 100
▁earthquake 100
▁rival 100
▁radio 100
egr 100
born 100
rence 100
▁marked 100
▁generated 100
▁Cle 100
related 100
aswamy 100
▁Nic 100
vation 100
▁duo 100
▁athlet 100
USH 100
▁Viet 100
▁zero 100
mentation 100
▁pronoun 100
▁Mel 100
ilipp 100
▁folk 100
▁AY 100
▁cloud 100
▁hun 100
▁worried 100
owered 100
▁preaching 100
▁elders 100
She 100
▁Left 100
▁accommod 100
▁16, 100
rif 100
▁burning 100
▁controlled 100
▁regulations 100
▁IG 100
▁defined 100
▁railways 100
▁Agricultural 100
MB 100
▁transportation 100
▁gate 100
▁volume 100
▁painful 100
▁coordination 100
▁Happy 100
▁bright 100
▁prophet 100
▁contained 100
soever 100
enth 100
▁Sonakshi 100
▁Safety 100
ato 100
▁000 100
▁Death 100
rie 100
akumar 100
▁consists 100
ureshi 100
▁excited 100
▁distingu 100
wahati 100
▁Bhawan 100
▁irrigation 100
▁Spain 100
▁Marathi 100
▁bought 100
atically 100
roff 100
▁equival 100
▁contributions 100
▁Thar 100
▁controversial 100
atab 100
▁afternoon 100
▁Expl 100
▁incorpor 100
▁YouTube 100
encing 100
▁visa 100
▁Mufti 100
▁sav 100
▁crimes 100
▁significance 100
▁manage 100
.25 100
77 100
▁wing 100
▁Number 100
What 100
aying 100
venues 100
▁raped 100
▁consequences 100
aceut 100
▁Ambassador 100
▁Kong 100
achinery 100
▁fitness 100
▁traders 100
▁swit 100
ishankar 100
▁AD 100
▁neighbouring 100
▁expenses 100
▁Big 100
▁Free 100
harmaceut 100
▁Ive 100
▁poly 100
▁Sunny 100
▁acid 100
▁Cert 100
▁Shroff 100
▁discipline 100
▁salary 100
▁worry 100
▁employee 100
▁blessed 100
cket 100
▁cattle 100
▁Companies 100
▁understood 100
▁Malay 100
lad 100
rith 100
▁600 100
▁Benef 100
▁Ast 100
▁innoc 100
▁enemies 100
▁enjoyed 100
▁Philipp 100
▁30. 100
▁Parrikar 100
andal 100
▁Resp 100
▁microSD 100
▁Revenue 100
▁rescued 100
▁launches 100
▁editor 100
▁continuous 100
▁Hong 100
▁trip 100
▁Results 100
ndering 100
▁rapidly 100
▁assigned 100
▁2018. 100
▁appearance 100
▁valley 100
▁epis 100
▁metro 100
▁surre 100
▁solve 100
ishwarya 100
▁inspiration 100
▁Raut 100
▁deals 100
▁2016, 100
alle 100
days 100
▁forgiveness 100
iabet 100
▁destruction 100
cture 100
▁psych 100
▁primarily 100
▁ascertained 100
▁birds 100
▁Shikhar 100
▁evac 100
▁anybody 100
▁qualified 100
▁ambit 100
▁Shiva 100
▁Anup 100
▁Rishi 100
▁Venkaiah 100
▁Technical 100
▁flat 100
▁Support 100
▁trials 100
▁reiterated 100
▁Ext 100
▁Khans 100
▁Paswan 100
▁hall 100
▁Syria 100
▁Mexic 100
▁alcohol 100
▁dignitaries 100
▁Intelligence 100
▁relax 100
habilitation 100
-10 100
▁12. 100
▁secular 100
▁personally 100
▁disbelievers 100
agra 100
▁Harb 100
▁BRICS 100
▁Integr 100
osal 100
▁older 100
▁unbelievers 100
▁Working 100
▁preparing 100
▁Tru 100
▁Session 100
▁touched 100
▁criticism 100
▁Kashmiri 100
▁78 100
▁stocks 100
iman 100
▁exactly 100
mukh 100
▁Phase 100
rorism 100
▁arrangement 100
▁fees 100
▁unjust 100
▁Rober 100
▁incent 100
ganj 100
▁answers 100
▁eg 100
▁powder 100
india 100
▁targets 100
▁Aishwarya 100
▁objectives 100
▁commissioner 100
mendra 100
zes 100
▁outcome 100
▁{ 100
agon 100
▁covenant 100
▁acres 100
▁customer 100
▁AK 100
▁van 100
▁Gow 100
▁Kish 100
▁Hindustan 100
▁Innovation 100
▁shock 100
▁Bihari 100
▁center 100
2020 100
rator 100
▁couldnt 100
▁Rajendra 100
▁professor 100
▁Aur 100
▁catch 100
▁opener 100
cript 100
ulses 100
▁Were 100
odhpur 100
▁vacant 100
▁conclusion 100
inter 100
▁Mandi 100
NT 100
wicket 100
▁NITI 100
▁united 100
▁acquired 100
▁Guwahati 100
▁Mally 100
▁abuse 100
▁breath 100
▁removal 100
▁email 100
sters 100
▁Name 100
▁cli 100
▁continuously 100
weep 100
▁element 100
▁studied 100
▁Bul 100
▁Personnel 100
▁Kris 100
▁Order 100
▁Eff 100
▁dreams 100
How 100
▁representing 100
▁95 100
▁streets 100
omic 100
alpur 100
▁Gamb 100
▁Pank 100
▁lens 100
▁Shimla 100
▁Enterprises 100
▁6. 100
▁properly 100
▁Production 100
▁Yam 100
▁cleared 100
▁praised 100
▁AYUSH 100
▁Partners 100
▁Standard 100
▁tremend 100
▁shortage 100
haw 100
▁declare 100
stream 100
itt 100
▁arrival 100
▁minority 100
▁Rath 100
gies 100
▁festiv 100
▁ideal 100
▁Kes 100
ultaneous 100
lete 100
yap 100
oral 100
▁hockey 100
▁Johns 100
▁sear 100
▁careful 100
▁explo 100
inks 100
▁SSP 100
▁studying 100
▁gear 100
acting 100
ourable 100
▁Consult 100
▁Sidharth 100
▁Hold 100
▁Raman 100
▁Bre 100
claim 100
▁repent 100
▁Azhar 100
unte 100
ointing 100
ossible 100
adh 100
▁71 100
ucherry 100
▁livelihood 100
▁Broadcasting 100
▁gap 100
▁subsidy 100
acc 100
24 100
itary 100
▁Greek 100
▁allocated 100
ranches 100
resents 100
▁pretty 100
▁stages 100
▁shortly 100
▁programs 100
▁agitation 100
itra 100
▁legislative 100
▁Light 100
▁Emer 100
▁exit 100
teen 100
▁offences 100
▁Thailand 100
▁portf 100
▁paise 100
SM 100
▁street 100
▁Calc 100
▁Khur 100
▁pump 100
▁DC 100
▁UAE 100
▁nurs 100
▁Front 100
▁finding 100
▁... 100
85 100
illance 100
PR 100
udhi 100
▁Mehbo 100
▁unemploy 100
▁Azam 100
athi 100
berg 100
▁childhood 100
▁inaugurate 100
▁eating 100
-15 100
▁Mala 100
▁divine 100
▁metres 100
aved 100
▁Case 100
▁bapt 100
▁rein 100
▁legislators 100
▁dust 100
▁operate 100
water 100
▁comprom 100
reme 100
▁deterior 100
▁franch 100
▁turning 100
▁deposits 100
▁Hem 100
▁wrest 100
rahim 100
▁shelter 100
▁dil 100
▁seeds 100
▁carbon 100
▁Prevention 100
anes 100
▁membership 100
riev 100
▁protected 100
▁Joe 100
▁preparation 100
▁Chauhan 100
amation 100
▁pleased 100
▁diplomatic 100
zy 100
▁composed 100
▁Equ 100
▁Whether 100
▁Territories 100
▁minus 100
▁Qureshi 100
▁institutes 100
▁gross 100
▁artist 100
▁indigenous 100
achi 100
▁lowest 100
▁enhancing 100
▁Had 100
▁hopes 100
▁tong 100
▁wood 100
-5 100
olen 100
▁Sangh 100
▁voted 100
▁tur 100
▁Dharmendra 100
▁Silver 100
iny 100
▁NT 100
▁Xi 100
▁mine 100
▁developments 100
▁Gorakh 100
▁slight 100
▁Represent 100
▁Path 100
▁Korean 100
▁harvest 100
▁strengthened 100
▁Magistrate 100
asts 100
▁Dani 100
FP 100
▁Move 100
minton 100
▁6: 100
▁reveal 100
ertilizers 100
▁Puducherry 100
▁Jodhpur 100
▁Ansari 100
▁purchased 100
zen 100
▁scope 100
▁distan 100
▁machines 100
▁190 100
▁appreciation 100
▁Saj 100
▁faster 100
▁jawans 100
▁examined 100
▁motorcycle 100
▁2017. 100
▁taste 100
▁Nirav 100
▁pist 100
▁resulting 100
lit 100
▁BSE 100
▁overcome 100
.12 100
▁Naz 100
anation 100
▁reaction 100
▁Ray 100
▁satisfaction 100
▁scenario 100
▁represents 100
▁Sis 100
▁Down 100
▁commanded 100
▁mortem 100
▁judiciary 100
▁IPS 100
▁yoga 100
portion 100
▁vulner 100
So 100
▁riots 100
▁directors 100
guard 100
▁reasonable 100
▁situations 100
▁corner 100
▁congratulate 100
▁colleagues 100
▁Ri 100
▁exhibition 100
▁Soura 100
▁pages 100
▁intended 100
olic 100
puri 100
▁17, 100
uke 100
▁string 100
▁biopic 100
▁anx 100
▁SIT 100
igade 100
▁Data 100
▁activist 100
▁Secretaries 100
BA 100
▁Aud 100
nect 100
ependent 100
▁survived 100
▁Officials 100
▁18, 100
▁Tag 100
▁outbreak 100
rithik 100
▁addresses 100
aped 100
▁champion 100
▁Bose 100
▁Ragh 100
▁marry 100
umn 100
▁lev 100
▁uniform 100
iala 100
▁ensured 100
▁acquit 100
▁Pric 100
▁Till 100
▁George 100
OP 100
pes 100
▁Rup 100
▁refers 100
▁Beh 100
▁Rashid 100
▁illness 100
▁mistake 100
▁chast 100
undering 100
▁Basket 100
▁stranded 100
▁ok 100
▁Museum 100
▁invite 100
▁strikes 100
▁fabric 100
arer 100
▁Near 100
▁Trinam 100
▁Journal 100
ls 100
power 100
▁vigil 100
▁Ked 100
▁summer 100
▁enrol 100
▁update 100
▁reaches 100
km 100
fe 100
▁clothes 100
▁surprised 100
▁Organization 100
▁amazing 100
23 100
▁examine 100
▁aw 100
▁encouraging 100
▁airports 100
▁Convention 100
ishe 100
▁Gill 100
iabetes 100
▁sacred 100
▁batt 100
▁grace 100
▁quarant 100
▁fulfil 100
▁compassion 100
uram 100
▁equivalent 100
▁traditions 100
tha 100
▁Auto 100
▁Himal 100
▁cart 100
▁Roman 100
ilitary 100
▁IANS 100
▁park 100
▁Ayurved 100
▁sentenced 100
arliest 100
atics 100
▁cricketers 100
▁emphasized 100
pathi 100
rank 100
▁parame 100
▁Islands 100
▁threats 100
.11 100
▁eve 100
▁bullet 100
▁Pharaoh 100
▁visitors 100
▁practical 100
▁Manj 100
osystem 100
sequent 100
▁luck 100
▁tool 100
LC 100
ford 100
▁pertaining 100
itha 100
▁Janhvi 100
▁larg 100
▁sanct 100
▁capabilities 100
▁SS 100
RDO 100
box 100
▁bbl 100
▁personality 100
lar 100
▁Hebrew 100
▁backed 100
operative 100
yo 100
▁Squ 100
uous 100
▁colon 100
▁relationships 100
nis 100
▁earliest 100
▁Fran 100
▁Ach 100
▁unfortunate 100
▁chapter 100
▁Creat 100
▁Jagan 100
▁Raksha 100
▁Hrithik 100
aming 100
▁Kabir 100
▁Video 100
fast 100
▁upload 100
▁acceler 100
inity 100
▁maid 100
▁Prabhu 100
▁empowerment 100
isi 100
▁Smriti 100
▁Jaishankar 100
▁Fate 100
atories 100
▁components 100
▁Rupe 100
▁indul 100
Pro 100
.50 100
iation 100
GA 100
▁Than 100
▁regret 100
▁whenever 100
▁Mayor 100
▁rej 100
▁winter 100
▁tight 100
▁inhab 100
▁likes 100
nty 100
▁expectations 100
▁UT 100
▁rub 100
feren 100
▁representative 100
ica 100
▁occasions 100
▁chose 100
▁magazine 100
dis 100
▁masks 100
▁civilian 100
▁easier 100
▁delayed 100
▁diverse 100
acing 100
▁Northern 100
▁Medic 100
▁Shakti 100
UT 100
▁professionals 100
wag 100
▁Pers 100
ifically 100
▁Thom 100
▁chemical 100
print 100
DT 100
▁righteousness 100
▁burnt 100
▁256 100
▁Hereafter 100
akrish 100
▁Alliance 100
▁mm 100
▁supplies 100
▁Jail 100
▁fastest 100
▁Trinamool 100
93 100
▁Abbas 100
▁timely 100
anga 100
▁Maldives 100
▁seventh 100
▁supposed 100
▁Network 100
utch 100
▁sincere 100
▁Brother 100
▁greatly 100
▁tools 100
▁Taking 100
▁aer 100
▁Tribal 100
▁mosque 100
▁rankings 100
EF 100
▁alias 100
▁Pension 100
▁Entertainment 100
addy 100
▁Saw 100
▁'% 100
▁claiming 100
jj 100
▁combination 100
assy 100
▁Bid 100
▁Self 100
▁Solar 100
▁hosts 100
▁colours 100
China 100
udhiana 100
▁suspects 100
zer 100
▁driven 100
▁commemor 100
▁contested 100
63 100
▁autonom 100
▁Manufact 100
provisional 100
▁holid 100
▁77 100
▁twenty 100
▁indicated 100
▁branches 100
▁7. 100
▁laundering 100
▁chairperson 100
▁22, 100
▁Center 100
▁universal 100
▁rock 100
▁Mallya 100
▁transparent 100
▁Chahal 100
▁screening 100
▁Electronics 100
▁SE 100
▁flesh 100
▁rumours 100
▁stun 100
▁trigg 100
▁routes 100
▁arrive 100
Al 100
▁Wi 100
▁click 100
▁island 100
▁diversity 100
▁Ibrahim 100
▁Mehbooba 100
▁machinery 100
▁PAN 100
▁stab 100
▁emphasis 100
▁Promotion 100
▁LPG 100
wealth 100
▁ju 100
▁raw 100
▁flash 100
ndered 100
▁intent 100
▁largely 100
▁execution 100
97 100
inton 100
▁File 100
▁kilomet 100
▁releases 100
▁uncon 100
▁honest 100
▁forecast 100
▁withdrawal 100
▁presentation 100
▁Live 100
point 100
▁Nanak 100
▁Navjot 100
▁Photo 100
▁panic 100
▁Review 100
▁stolen 100
▁Jaish 100
▁celebrities 100
▁14. 100
▁precious 100
oist 100
▁Syed 100
▁Institutions 100
ignty 100
▁immig 100
▁desires 100
▁satisfied 100
67 100
▁Shipping 100
▁equality 100
▁peak 100
▁Bajaj 100
▁Ken 100
▁volunt 100
▁Acts 100
▁observe 100
▁disputes 100
alli 100
vijay 100
▁(201 100
▁Kaly 100
▁criticised 100
rible 100
▁booth 100
▁Tripathi 100
▁Lot 100
▁Money 100
▁Pop 100
▁19, 100
ques 100
▁Direct 100
▁Middle 100
▁mothers 100
▁transaction 100
▁speaks 100
▁summon 100
▁philosophy 100
▁specifications 100
28 100
▁Ga 100
▁2006 100
▁Surat 100
CE 100
writ 100
▁pull 100
▁sees 100
▁Richard 100
▁Dalit 100
▁entirely 100
▁rent 100
▁30, 100
▁Cam 100
▁verses 100
▁silent 100
▁Swed 100
▁nomine 100
▁quantity 100
asp 100
oining 100
▁genu 100
ician 100
▁exists 100
acle 100
▁assemb 100
jid 100
▁2- 100
▁moves 100
▁Bhagat 100
▁Series 100
▁Bahadur 100
▁asset 100
▁politicians 100
xygen 100
awn 100
arshan 100
▁Vietnam 100
orne 100
▁Presidents 100
▁dynam 100
▁evident 100
▁Rab 100
▁designated 100
▁Den 100
▁fallen 100
▁susp 100
▁Psalm 100
▁equally 100
ferencing 100
bing 100
▁exempt 100
▁religions 100
Modi 100
▁Gorakhpur 100
▁PDP 100
▁predict 100
nag 100
▁anticip 100
▁filmmaker 100
estyle 100
aran 100
alted 100
▁20, 100
▁cogn 100
▁blame 100
▁drivers 100
▁hide 100
Fi 100
▁Could 100
▁Rama 100
▁bread 100
▁Calcutta 100
▁productivity 100
▁connections 100
▁8. 100
▁amendments 100
▁Os 100
▁Application 100
▁intervention 100
▁presidential 100
▁transformation 100
produ 100
▁Kapur 100
preced 100
▁hidden 100
▁hell 100
▁Choud 100
▁Ranchi 100
▁stadium 100
▁Model 100
-12 100
▁shell 100
▁temporary 100
▁130 100
ether 100
▁semin 100
▁hate 100
conomic 100
▁pregnant 100
▁settlement 100
ocon 100
qual 100
▁Cham 100
▁Brahm 100
▁Strate 100
▁persec 100
precedented 100
▁transg 100
▁FDI 100
▁blamed 100
▁chart 100
▁settle 100
▁workshop 100
▁jewellery 100
▁containing 100
▁Rag 100
iabad 100
▁phen 100
ificial 100
▁Country 100
▁explore 100
utory 100
avati 100
▁KK 100
▁Urdu 100
▁thorough 100
▁renewable 100
mail 100
▁dignity 100
state 100
anagar 100
▁Saina 100
▁minorities 100
tax 100
▁Ord 100
▁blocks 100
▁invitation 100
▁pool 100
▁Royals 100
▁extensive 100
▁tremendous 100
▁preliminary 100
▁ending 100
▁IB 100
▁arrang 100
Moh 100
▁2005 100
▁assistant 100
▁chargesheet 100
atri 100
UP 100
▁surprise 100
▁Integrated 100
hr 100
▁gender 100
▁intellectual 100
inc 100
▁144 100
▁2015. 100
▁wounded 100
zz 100
68 100
▁1999 100
▁flee 100
▁11. 100
▁Blu 100
Indian 100
iverse 100
▁Khal 100
actor 100
▁clashes 100
▁Nothing 100
▁propag 100
illa 100
crore 100
▁mighty 100
▁Ju 100
▁Jha 100
▁Kartik 100
wer 100
MI 100
wad 100
▁empt 100
▁salt 100
▁maritime 100
▁Clean 100
▁2016-17 100
irty 100
▁heed 100
▁rounds 100
▁descend 100
finals 100
▁migrant 100
▁Deshmukh 100
▁corridor 100
prit 100
▁Taj 100
▁obtain 100
▁Enforcement 100
▁Anti 100
▁empower 100
jah 100
▁Vivo 100
▁cotton 100
pret 100
▁faculty 100
▁Ku 100
▁consent 100
▁01 100
ishermen 100
oja 100
▁Nov 100
▁distress 100
▁procedures 100
edi 100
▁EU 100
▁Truth 100
▁urge 100
▁Young 100
▁default 100
▁800 100
urned 100
▁abund 100
ections 100
▁NDRF 100
▁theory 100
▁Instead 100
▁performances 100
▁inaugural 100
ancies 100
▁weapon 100
▁2016. 100
▁Gro 100
anship 100
▁everybody 100
▁Sourav 100
▁Peoples 100
▁blocked 100
▁unveiled 100
▁nationals 100
iesel 100
▁chop 100
▁disturb 100
▁intim 100
▁Empowerment 100
ker 100
▁Memorandum 100
▁Mac 100
▁shout 100
▁estate 100
▁dear 100
▁advers 100
iences 100
▁celebration 100
▁Seh 100
▁affili 100
▁culprits 100
Del 100
▁EC 100
hent 100
▁RTI 100
ounds 100
Independent 100
▁map 100
▁Thank 100
▁gratitude 100
▁hrs 100
▁Rajan 100
▁slammed 100
▁superstar 100
▁dispers 100
sil 100
▁Writ 100
▁envis 100
▁savings 100
▁federal 100
▁Cast 100
▁entertainment 100
▁2018: 100
▁viz 100
▁Comple 100
▁Jasprit 100
▁tie 100
▁preced 100
▁momentum 100
▁Crime 100
▁Political 100
▁agreements 100
▁bonds 100
▁Phys 100
▁cycle 100
▁ranked 100
44 100
aded 100
amond 100
▁ecosystem 100
▁Result 100
▁cleanliness 100
essed 100
▁INDI 100
▁introduction 100
▁EPF 100
▁Club 100
▁Shashi 100
▁probing 100
enture 100
▁oblig 100
▁kit 100
▁insult 100
▁Angel 100
▁inputs 100
▁Malayalam 100
▁Compet 100
▁Gandhis 100
▁Bans 100
▁Online 100
▁beaten 100
▁covers 100
▁walking 100
▁Others 100
▁UTs 100
▁rol 100
has 100
▁Get 100
winder 100
▁divers 100
▁consolid 100
▁petitions 100
▁Palest 100
▁undertake 100
▁Owa 100
owned 100
▁flagship 100
▁difficulty 100
▁discrimination 100
▁elabor 100
▁handling 100
mat 100
▁circuit 100
▁Employees 100
▁component 100
▁24, 100
▁telling 100
itis 100
▁grass 100
SA 100
▁acknowled 100
▁Commonwealth 100
inik 100
▁HRD 100
▁Gay 100
▁pref 100
▁chances 100
rich 100
▁DMK 100
▁Jason 100
▁Vinay 100
utenant 100
▁MG 100
▁virtual 100
▁IF 100
ords 100
▁piece 100
▁succumb 100
▁Master 100
▁immun 100
▁firmly 100
De 100
▁ren 100
▁Pandit 100
▁presided 100
▁registering 100
▁2015, 100
▁Satish 100
▁Long 100
▁Teachers 100
eev 100
▁tweets 100
▁depends 100
▁Sride 100
unar 100
▁flo 100
▁ranks 100
▁venue 100
▁officially 100
▁demonetisation 100
▁Farid 100
▁Traffic 100
▁vend 100
▁tender 100
▁arguments 100
▁privilege 100
▁sentiments 100
gence 100
▁bills 100
ESID 100
▁Griev 100
limited 100
▁territories 100
▁pieces 100
▁publication 100
▁audio 100
▁gif 100
▁unprecedented 100
▁church 100
▁retali 100
▁2.5 100
missions 100
▁airline 100
▁Ganesh 100
▁manual 100
▁complic 100
▁devotion 100
▁recalled 100
▁Kartarpur 100
▁repeatedly 100
▁Asked 100
▁embar 100
▁Rio 100
ixels 100
▁84 100
▁buying 100
▁predicted 100
▁Langu 100
▁allies 100
Ar 100
ested 100
▁convin 100
▁revelations 100
27 100
▁Nad 100
▁ash 100
itate 100
▁Vict 100
▁Scriptures 100
▁Durga 100
▁kills 100
▁utter 100
ught 100
pread 100
▁Sultan 100
▁password 100
upt 100
▁eager 100
▁prosecution 100
▁wr 100
▁resum 100
▁undertaking 100
▁deficit 100
▁MD 100
▁refer 100
GC 100
held 100
▁ric 100
▁volunte 100
umin 100
▁25, 100
▁Ank 100
▁Alok 100
▁Digvijay 100
▁Circ 100
▁dedication 100
▁supre 100
rome 100
▁regulatory 100
WC 100
▁Deol 100
▁disob 100
▁Resurrection 100
37 100
oys 100
▁Hans 100
▁pursue 100
▁priest 100
▁scan 100
abling 100
▁Admir 100
olio 100
▁boundaries 100
▁Full 100
atern 100
▁Drug 100
PL 100
▁LRB 100
▁backward 100
gil 100
umi 100
▁root 100
▁zones 100
▁Omar 100
▁abrog 100
▁Kaushal 100
▁impossible 100
▁simultaneous 100
▁Babu 100
▁estimates 100
To 100
▁Fe 100
▁Ludhiana 100
▁Hen 100
▁forum 100
▁Commander 100
ingly 100
▁Hill 100
▁raids 100
▁sovereignty 100
300 100
▁ordinary 100
▁economies 100
▁2014. 100
how 100
beat 100
ogether 100
▁contrast 100
ujan 100
▁Nat 100
▁Faroo 100
▁Dab 100
▁sli 100
▁split 100
ugram 100
▁DSP 100
▁Rang 100
▁Beg 100
harma 100
▁retain 100
duct 100
isal 100
utor 100
▁suddenly 100
cill 100
▁PMO 100
▁Axis 100
▁introduce 100
▁Honda 100
including 100
▁9. 100
iques 100
▁Level 100
▁analyst 100
▁eminent 100
▁innocent 100
▁doubles 100
mates 100
▁native 100
▁condemn 100
jeev 100
▁garden 100
org 100
▁residential 100
▁crim 100
▁arrests 100
▁Mulayam 100
▁corrupt 100
storm 100
▁Street 100
▁guests 100
▁wage 100
▁shrine 100
NCR 100
▁theft 100
airy 100
alal 100
▁Shast 100
▁cured 100
▁misle 100
▁sheep 100
▁collective 100
/- 100
awa 100
▁symp 100
▁bio 100
▁lamp 100
▁clarified 100
▁15. 100
▁nep 100
▁hards 100
▁Ary 100
▁Thou 100
▁mandate 100
Hind 100
▁Prince 100
/2 100
▁Drav 100
▁Govind 100
irt 100
hend 100
▁Yuvraj 100
▁staying 100
▁Church 100
▁Goddess 100
▁vit 100
doers 100
osoever 100
▁cup 100
tings 100
▁Unit 100
▁compuls 100
▁murdered 100
▁PRESID 100
▁Bhuv 100
▁collision 100
▁rall 100
▁flying 100
▁enquiry 100
▁6- 100
rows 100
▁Iranian 100
eti 100
▁upset 100
▁futures 100
Allah 100
▁subsequent 100
▁Avoid 100
lasting 100
▁Randeep 100
▁76 100
▁domain 100
▁commend 100
▁Territory 100
▁Schedule 100
▁Stokes 100
▁Various 100
father 100
▁urgent 100
▁soldier 100
▁Owaisi 100
▁calm 100
▁operated 100
idav 100
▁Mexico 100
▁surveillance 100
iro 100
ichand 100
▁compliance 100
▁Renew 100
▁tensions 100
omon 100
ananda 100
▁Mirza 100
▁valuable 100
▁BSNL 100
▁escal 100
rating 100
erving 100
▁Robert 100
▁darkness 100
▁ally 100
▁dress 100
▁Paradise 100
oub 100
bhar 100
▁conting 100
▁Challengers 100
odaf 100
▁hes 100
ayaan 100
▁organic 100
▁cargo 100
▁forgot 100
▁Saty 100
▁Saeed 100
▁frame 100
▁Pankaj 100
▁Ghaziabad 100
▁determine 100
▁remembered 100
ffee 100
▁Roht 100
▁Yed 100
▁Birth 100
▁counting 100
SCO 100
▁ward 100
achment 100
▁celebrating 100
▁Cum 100
oning 100
▁Noah 100
▁sweet 100
▁entrance 100
▁saving 100
▁yes 100
▁Excellency 100
▁capability 100
88 100
▁Fern 100
iva 100
▁rebel 100
▁launching 100
▁appreciate 100
▁militant 100
▁creative 100
▁apostles 100
OU 100
▁Dera 100
▁Radha 100
▁dealt 100
▁20,000 100
▁tariff 100
▁outfit 100
▁divorce 100
▁patience 100
▁meat 100
▁Patiala 100
▁construct 100
juven 100
▁Thousand 100
▁calendar 100
ustice 100
▁socio 100
▁signing 100
idespread 100
▁qualities 100
▁realise 100
▁allotted 100
▁aspirations 100
▁Vire 100
▁gradually 100
▁Dip 100
▁DGP 100
▁MSP 100
▁troub 100
andi 100
Delhi 100
▁2004 100
▁refund 100
Americ 100
lo 100
▁Kane 100
fi 100
ometimes 100
Pe 100
▁PRESIDENT 100
▁carefully 100
▁franchise 100
▁mac 100
▁recip 100
▁81 100
▁DNA 100
▁Judges 100
▁Pacific 100
▁subscrib 100
▁petitioner 100
▁league 100
▁Championships 100
▁royal 100
▁robust 100
▁End 100
▁discovered 100
▁SUV 100
▁sand 100
▁Sisodia 100
▁INS 100
▁incur 100
▁convicts 100
▁13. 100
▁Lie 100
▁passion 100
▁starrer 100
400 100
▁idol 100
▁8- 100
active 100
▁seemed 100
▁partial 100
▁prestigious 100
certain 100
▁grave 100
▁Kisan 100
▁Manager 100
▁poetry 100
▁athletes 100
GS 100
▁radi 100
▁Andaman 100
▁Doctors 100
▁Building 100
▁teen 100
▁Chairperson 100
odes 100
▁breaking 100
▁cumulative 100
.75 100
▁Chet 100
ricted 100
▁Thomas 100
▁adjoining 100
▁objection 100
▁involves 100
▁financing 100
!""" 100
urappa 100
▁Sagar 100
economic 100
▁History 100
▁wherever 100
▁Disc 100
▁Gambhir 100
▁Jo 100
aze 100
adhy 100
▁Vodaf 100
prise 100
▁Masjid 100
▁Martin 100
etooth 100
▁Gra 100
▁stamp 100
▁realize 100
▁everywhere 100
.05 100
.2017 100
▁shocked 100
▁Pray 100
▁narrow 100
▁Gurugram 100
▁Box 100
▁affair 100
▁inclusion 100
.10 100
rounder 100
▁strive 100
▁architecture 100
▁Proced 100
▁Tharoor 100
▁arrives 100
ania 100
aza 100
▁Chinas 100
▁Daniel 100
▁collaps 100
▁suspension 100
will 100
▁theres 100
▁spectrum 100
▁enforcement 100
LE 100
waj 100
▁Bip 100
▁Cop 100
94 100
▁Hasan 100
▁Umesh 100
▁Bat 100
▁ramp 100
▁4,000 100
▁Goods 100
▁Eli 100
▁graph 100
GST 100
▁Advisor 100
▁Johnson 100
wami 100
ocket 100
being 100
▁Radio 100
whe 100
▁28, 100
▁apps 100
▁artists 100
▁actively 100
▁Saur 100
▁extreme 100
▁Military 100
▁vulnerable 100
▁hatred 100
▁Bhupinder 100
upp 100
iously 100
▁portray 100
▁affidav 100
▁indirect 100
?"" 100
▁Deh 100
▁dog 100
▁Siddharth 100
▁Understanding 100
SEAN 100
▁Bhans 100
33 100
26 100
▁badly 100
▁hasnt 100
▁Departments 100
▁recommendation 100
▁forthcoming 100
rime 100
▁Kalyan 100
▁Maharaj 100
▁complained 100
▁Key 100
Raj 100
▁26, 100
▁explosion 100
▁61 100
igor 100
▁marginal 100
▁museum 100
▁enterprises 100
▁Telecom 100
▁Mid 100
East 100
▁Kher 100
▁surgery 100
▁expensive 100
igned 100
▁employed 100
▁Kail 100
▁span 100
▁favourite 100
▁instructed 100
▁greeted 100
▁festivals 100
▁announces 100
▁avo 100
▁Moto 100
▁tied 100
▁perpet 100
▁publish 100
iary 100
▁submission 100
▁surrounding 100
▁lesson 100
ustain 100
▁Bis 100
any 100
▁recording 100
▁bin 100
▁clim 100
rivals 100
▁hoped 100
▁Mandir 100
▁deemed 100
▁Whatever 100
▁nationwide 100
haran 100
▁administered 100
inding 100
▁TDP 100
▁sworn 100
▁ranking 100
▁Ambala 100
▁Chandrayaan 100
▁kindness 100
▁Haf 100
▁Area 100
▁3,000 100
▁Short 100
▁entities 100
▁(2) 100
▁Seng 100
▁breaks 100
▁havent 100
▁enabled 100
astava 100
estion 100
▁Bluetooth 100
ayana 100
acharya 100
▁tackle 100
▁ultra 100
▁Arch 100
▁traged 100
▁certificates 100
▁ly 100
mins 100
▁inse 100
▁bowled 100
▁Register 100
cession 100
Ds 100
▁lifted 100
▁weakness 100
// 100
▁miles 100
General 100
▁Parishad 100
▁identification 100
stan 100
icing 100
▁politician 100
▁Kumaraswamy 100
▁Universities 100
si 100
▁Ta 100
▁Educational 100
ighth 100
▁Farooq 100
▁produces 100
▁cyber 100
▁Van 100
▁scared 100
▁unlimited 100
▁23, 100
▁brill 100
▁bottom 100
IB 100
▁fool 100
ingh 100
▁elderly 100
▁worshipped 100
▁Schools 100
▁Ghulam 100
▁Judicial 100
▁Next 100
▁Kumari 100
▁AIR 100
▁Ire 100
▁sor 100
▁Dilip 100
▁aviation 100
▁severely 100
▁notices 100
▁restaur 100
▁beds 100
▁frequently 100
▁WHO 100
▁tas 100
estone 100
▁Seven 100
ache 100
Say 100
rific 100
▁resort 100
▁disposal 100
▁Hockey 100
▁27, 100
▁NSE 100
▁behold 100
▁determination 100
▁Rish 100
▁converted 100
▁Neer 100
▁Swit 100
▁cops 100
▁finish 100
IA 100
▁laugh 100
▁2020-21 100
▁needy 100
▁Javed 100
▁anointed 100
▁specifically 100
▁ports 100
bum 100
hea 100
▁Nok 100
▁rat 100
bound 100
▁pulses 100
▁vo 100
▁Mans 100
▁21, 100
▁Kad 100
▁Pilot 100
▁promoted 100
▁Saini 100
▁(6 100
▁casualties 100
▁83 100
▁adds 100
issa 100
▁pic 100
▁Vodafone 100
▁Leela 100
chnology 100
OT 100
▁holders 100
▁interpret 100
▁remarkable 100
▁withdrawn 100
alla 100
▁Rajeev 100
▁authent 100
▁Sections 100
rage 100
▁disqual 100
▁episode 100
▁Disha 100
▁Imple 100
▁Rupee 100
▁automatic 100
▁guarantee 100
iforn 100
▁Nabi 100
▁infections 100
▁speedy 100
▁brave 100
GAR 100
lif 100
▁Kaj 100
▁Lets 100
▁batch 100
▁Village 100
RL 100
ikar 100
▁ammun 100
▁rough 100
▁toilets 100
▁ideology 100
litre 100
▁finds 100
▁Projects 100
▁Old 100
▁Connect 100
JI 100
akk 100
whel 100
▁kings 100
struct 100
▁Putin 100
ios 100
riyal 100
▁sanctions 100
▁Jama 100
▁Upon 100
▁Wise 100
agan 100
▁Treat 100
▁referring 100
stance 100
▁wages 100
▁silence 100
▁moderate 100
▁prevailing 100
▁protecting 100
▁Ground 100
▁que 100
▁Grover 100
▁postponed 100
God 100
hiv 100
▁105 100
neshwar 100
▁fib 100
grade 100
▁portfolio 100
acco 100
ordinary 100
▁Trad 100
cience 100
atabase 100
radun 100
▁Town 100
▁Customs 100
othe 100
▁Sib 100
:// 100
▁Gav 100
▁Raina 100
esha 100
▁sends 100
▁mathem 100
CTC 100
ipe 100
▁Haj 100
▁fault 100
▁gardens 100
▁perspective 100
▁Advoc 100
▁Celeb 100
▁dollars 100
,' 100
▁Alm 100
▁walked 100
▁considerable 100
:% 100
▁aus 100
▁brut 100
▁contempt 100
▁summ 100
▁observation 100
▁Administrative 100
var 100
▁16. 100
▁brigade 100
▁Prices 100
DG 100
▁Import 100
▁Chandrab 100
▁10: 100
▁Malaika 100
▁technological 100
▁Community 100
▁disclosed 100
▁AS 100
elve 100
▁speaker 100
▁competitions 100
RA 100
▁outs 100
▁Amrit 100
▁96 100
▁91 100
▁dow 100
aryan 100
▁Queen 100
▁Ireland 100
▁structures 100
persons 100
▁tort 100
▁Californ 100
▁annually 100
occ 100
▁oldest 100
▁companys 100
NCP 100
dar 100
ishes 100
▁mail 100
▁negl 100
▁Nearly 100
▁widespread 100
▁Tai 100
▁neck 100
itionally 100
ML 100
▁Match 100
▁Should 100
▁definition 100
▁tag 100
▁Gowda 100
▁Distribution 100
▁kidna 100
▁Tagore 100
▁surf 100
▁criminals 100
▁excellence 100
▁parking 100
ino 100
▁profits 100
▁Relief 100
▁700 100
▁MoS 100
▁empty 100
▁boundary 100
▁SHO 100
▁Web 100
inikanth 100
igent 100
▁Bhai 100
ros 100
ortic 100
▁originally 100
▁manufacturers 100
onso 100
▁Sher 100
▁revol 100
▁Sridevi 100
▁Pvt 100
▁fray 100
▁kilometres 100
▁manufactured 100
▁Being 100
▁Hollywood 100
▁risks 100
▁diabetes 100
▁Desai 100
▁tracks 100
▁declaration 100
▁AC 100
▁wash 100
▁optim 100
▁Partnership 100
▁III 100
▁Lear 100
▁None 100
▁imagine 100
▁proportion 100
rics 100
▁souls 100
▁founded 100
▁warrant 100
▁Canad 100
▁12: 100
▁29, 100
▁Highway 100
▁Tok 100
ventions 100
ARC 100
▁connecting 100
▁parameters 100
NE 100
▁Kishan 100
ewise 100
▁rational 100
▁hopeful 100
anna 100
▁Nokia 100
▁Ball 100
ago 100
▁Log 100
▁Vad 100
ulatory 100
▁stores 100
▁JEE 100
▁tall 100
▁comedy 100
▁genuine 100
▁cyl 100
▁Reform 100
▁techniques 100
▁caut 100
▁grains 100
▁supreme 100
▁reporting 100
bour 100
▁Israeli 100
.01 100
▁Bib 100
▁tennis 100
▁interven 100
▁Holy 100
▁Kush 100
▁loves 100
▁magic 100
▁ambitious 100
▁Bo 100
▁Hari 100
▁alleging 100
anim 100
▁conviction 100
▁Pooja 100
arers 100
▁Goel 100
▁mit 100
▁Design 100
▁establishing 100
gical 100
▁PO 100
87 100
RP 100
▁MSMEs 100
▁prisoners 100
▁Moon 100
▁Export 100
▁roof 100
▁networks 100
▁constitute 100
96 100
:- 100
riers 100
▁inspe 100
▁exposed 100
▁acquitted 100
oult 100
▁Bath 100
▁writes 100
▁starring 100
▁recognize 100
.15 100
ibet 100
▁Bik 100
ipat 100
▁Admiral 100
▁protein 100
ulous 100
▁Rahman 100
▁telephone 100
ratri 100
▁enabling 100
▁restored 100
▁Marg 100
▁reveals 100
▁temperatures 100
▁Shastri 100
▁Without 100
▁intense 100
▁Beij 100
▁CSIR 100
▁Solomon 100
▁uncertain 100
ulla 100
arest 100
final 100
▁safeguard 100
▁inner 100
▁argued 100
▁Jewish 100
Mus 100
▁Dehradun 100
▁regarded 100
▁detention 100
month 100
▁Farhan 100
▁Bhagwat 100
▁Rajinikanth 100
▁confirmation 100
lock 100
▁Rest 100
onym 100
▁Hes 100
▁Emergency 100
▁oxygen 100
▁globe 100
▁pulled 100
▁JP 100
▁Legal 100
▁breed 100
▁slave 100
▁Gardens 100
pled 100
obar 100
▁97 100
▁Would 100
BT 100
▁110 100
▁torque 100
▁doors 100
▁prizes 100
▁amounts 100
900 100
chen 100
▁Pokh 100
▁kmph 100
▁restore 100
▁California 100
inde 100
▁meal 100
▁grain 100
▁quiet 100
eling 100
▁arising 100
▁engines 100
▁prevention 100
▁87 100
▁depending 100
Ad 100
bery 100
▁Lar 100
crete 100
▁Marshal 100
▁integration 100
riors 100
usting 100
▁interrogation 100
auc 100
▁knock 100
▁operators 100
▁heavily 100
▁Date 100
▁DRDO 100
▁acceptable 100
▁Rob 100
▁desired 100
▁constable 100
▁GS 100
▁SSC 100
itarian 100
▁rehabilitation 100
▁Gujar 100
▁Nave 100
▁Jacob 100
▁incon 100
▁resistance 100
▁Mann 100
▁Madan 100
pers 100
▁highways 100
%, 100
▁impressive 100
▁Tah 100
▁Wal 100
arkar 100
▁Certific 100
▁statutory 100
bul 100
▁usage 100
▁tragedy 100
▁discharge 100
▁Ital 100
▁Kailash 100
rutin 100
▁Music 100
▁Bhuvneshwar 100
adeep 100
orney 100
▁websites 100
▁180 100
▁Securities 100
making 100
▁oppon 100
▁wills 100
▁Ever 100
▁winds 100
▁tongue 100
▁accordingly 100
800 100
▁www 100
arents 100
▁indicate 100
▁86 100
▁Kas 100
▁Cultural 100
▁Abhiyan 100
▁overwhel 100
▁hik 100
▁ceas 100
▁Films 100
▁Sanjeev 100
arted 100
▁exchanges 100
▁oct 100
olence 100
▁Ratna 100
▁thrown 100
▁isolation 100
▁Jat 100
gium 100
lessly 100
▁stating 100
isive 100
▁grants 100
▁Greater 100
▁rallies 100
kula 100
▁surge 100
▁Harbhajan 100
▁scoring 100
orthy 100
▁Federal 100
▁comfortable 100
▁Puj 100
▁tun 100
▁Mass 100
▁Siddiqu 100
▁contend 100
▁Wing 100
▁Patnaik 100
▁Cre 100
▁Kaz 100
▁Nobel 100
▁clinical 100
▁Chandrababu 100
▁Nal 100
patnam 100
▁Dravid 100
▁inherit 100
▁Corridor 100
▁edge 100
▁deadly 100
▁premier 100
▁vacancies 100
▁Maul 100
▁Sikhs 100
▁punished 100
▁establishments 100
▁Still 100
▁grams 100
▁maiden 100
▁Capt 100
▁79 100
▁11: 100
▁Nis 100
▁OBC 100
▁Initi 100
▁quad 100
▁complim 100
▁obed 100
▁ammunition 100
▁Proper 100
▁licence 100
▁Sometimes 100
▁Tor 100
▁maybe 100
▁2.0 100
▁tap 100
▁2022 100
▁Messengers 100
83 100
far 100
▁Jet 100
▁Tay 100
▁Sank 100
▁Select 100
▁13: 100
ewala 100
▁yellow 100
▁Ath 100
▁quarantine 100
▁rans 100
andhar 100
▁findings 100
▁Scindia 100
▁Independent 100
▁restricted 100
BP 100
orty 100
▁Womens 100
▁provin 100
few 100
▁Ul 100
idhi 100
▁mega 100
▁Remember 100
▁validity 100
Me 100
▁mol 100
▁str 100
▁item 100
▁lift 100
usively 100
arb 100
▁Zone 100
ropol 100
▁Isaiah 100
▁exh 100
▁tab 100
▁Shil 100
▁Fateh 100
▁Chakrab 100
▁photographs 100
.45 100
▁Block 100
▁Diesel 100
▁supplied 100
▁brilliant 100
▁retained 100
▁SH 100
▁rot 100
▁Entrepreneurs 100
log 100
▁Indus 100
▁reviews 100
▁attendance 100
▁350 100
aspur 100
▁Cath 100
▁commonly 100
▁producers 100
600 100
▁Mund 100
▁slated 100
After 100
▁bes 100
▁94 100
▁Medium 100
▁lights 100
▁contrary 100
▁Everything 100
▁agit 100
▁proclaim 100
▁tune 100
▁advisory 100
▁clearance 100
agg 100
▁appr 100
▁Spirit 100
▁nabbed 100
▁ASEAN 100
▁domin 100
Mu 100
isheries 100
▁relatively 100
▁Dad 100
urally 100
▁exclusive 100
▁Golden 100
▁Singhs 100
MM 100
▁jet 100
▁Harish 100
▁convert 100
▁heavenly 100
inth 100
▁specially 100
▁landsl 100
▁injustice 100
▁chastisement 100
▁agent 100
▁joins 100
▁Thousands 100
▁Launch 100
▁hectares 100
BSP 100
▁MI 100
▁Kon 100
▁theatre 100
▁Branch 100
▁solved 100
▁fishermen 100
▁82 100
aser 100
▁Bin 100
▁minute 100
▁jets 100
▁profile 100
ih 100
▁Resident 100
▁absolute 100
▁newspapers 100
jiju 100
▁Gauri 100
▁Gurgaon 100
▁updates 100
efire 100
▁onion 100
▁Subram 100
▁Criminal 100
▁pacer 100
▁negotiations 100
oomi 100
▁10- 100
anian 100
▁blessing 100
apping 100
▁Iss 100
▁Asad 100
▁Aurang 100
▁3.5 100
▁Aware 100
▁updated 100
▁executed 100
▁consensus 100
▁invested 100
▁distancing 100
▁Communications 100
▁Knight 100
▁qualify 100
▁distinguished 100
▁Construction 100
orable 100
▁earnings 100
▁Naq 100
▁grab 100
▁spouse 100
▁civilians 100
▁%1 100
West 100
▁Grievances 100
▁auspicious 100
rig 100
▁junior 100
▁ministerial 100
-14 100
▁walls 100
▁drought 100
▁arranged 100
reci 100
▁Kargil 100
▁taxpay 100
▁dividend 100
ky 100
rar 100
▁surviv 100
▁objects 100
▁instruments 100
Pre 100
▁Kiran 100
▁demol 100
▁bearing 100
▁nominee 100
▁contacted 100
iven 100
▁Tre 100
▁beings 100
▁suggests 100
etime 100
▁Ill 100
▁ori 100
▁Sania 100
▁lend 100
commerce 100
rolog 100
▁cutting 100
akhapatnam 100
84 100
▁semif 100
▁Rishabh 100
▁rooms 100
▁Marketing 100
▁Jab 100
▁spar 100
▁legislature 100
▁Sep 100
which 100
▁2002 100
DE 100
▁Vilas 100
▁allegation 100
Mumbai 100
▁Portug 100
▁communications 100
▁Nax 100
▁Gandhiji 100
▁belonged 100
▁dependent 100
▁Exc 100
▁golden 100
▁Siddiqui 100
▁1,0 100
▁Asif 100
▁shoulder 100
▁Bare 100
▁poison 100
▁believing 100
Acc 100
hee 100
▁17. 100
▁htt 100
▁Foot 100
▁normally 100
▁superior 100
-11 100
▁sealed 100
▁restrain 100
look 100
▁Chapter 100
▁Advisory 100
▁adoption 100
umes 100
▁Ped 100
▁Sanj 100
▁visual 100
▁KV 100
isans 100
▁Rawal 100
▁Rather 100
▁Procedure 100
uated 100
▁disin 100
▁Lankan 100
uzvendra 100
FT 100
.09 100
▁macro 100
▁accorded 100
▁opposing 100
iest 100
iram 100
▁fare 100
menting 100
▁Beijing 100
▁Raju 100
▁lots 100
▁Prize 100
▁Williamson 100
▁Ud 100
comes 100
▁flour 100
▁Nathan 100
▁prayed 100
▁rating 100
cur 100
nah 100
▁Buddhist 100
▁Lieutenant 100
▁fet 100
▁fours 100
▁trace 100
▁Minority 100
▁Kochi 100
▁irres 100
uance 100
▁turb 100
▁cooperative 100
eve 100
rmal 100
▁Search 100
▁qualification 100
enary 100
▁Grow 100
irmanship 100
▁Week 100
▁entity 100
▁Eight 100
risers 100
▁landing 100
▁Prag 100
▁Nether 100
iasm 100
▁labs 100
▁Studies 100
outs 100
no 100
▁Rate 100
nowned 100
AG 100
bhadra 100
▁Chowk 100
itual 100
▁Surj 100
panish 100
▁locked 100
▁commenced 100
President 100
▁(7 100
▁Ayurveda 100
▁targeting 100
▁Kashyap 100
wi 100
oman 100
▁Sustain 100
▁Referring 100
▁drawing 100
▁Constitu 100
▁passport 100
▁Israelites 100
oria 100
▁Crude 100
▁helpl 100
▁Americans 100
onsored 100
▁Nicobar 100
HS 100
▁sadd 100
▁Rohtak 100
▁escaped 100
▁indicates 100
▁creates 100
▁succumbed 100
▁Isha 100
attered 100
▁interacted 100
.07 100
▁commodities 100
▁Gate 100
▁Sale 100
▁mens 100
▁consisting 100
At 100
▁Panchkula 100
55 100
▁pilots 100
▁attackers 100
verbs 100
▁Birl 100
▁wars 100
▁segments 100
▁youngsters 100
ille 100
▁loyal 100
▁Processing 100
▁comparison 100
NER 100
▁bom 100
▁supremo 100
juvenation 100
▁Yuzvendra 100
▁expertise 100
▁elev 100
▁assass 100
▁mistakes 100
▁delegates 100
▁enthusiasm 100
!" 100
▁loot 100
▁terrible 100
urd 100
▁Prior 100
▁planet 100
▁passage 100
▁summoned 100
▁Sunrisers 100
▁Rank 100
.03 100
apa 100
asters 100
▁fever 100
▁testim 100
▁assessee 100
mm 100
ette 100
▁Eid 100
▁risen 100
▁Leaders 100
pm 100
igin 100
▁Mahajan 100
ilal 100
ints 100
othy 100
▁bold 100
▁Houses 100
RBI 100
▁Ky 100
▁monu 100
▁98 100
regular 100
▁concrete 100
▁inauguration 100
▁affidavit 100
ylon 100
▁thankful 100
WD 100
▁Santosh 100
▁imported 100
ethi 100
▁Vishnu 100
▁Clear 100
▁crack 100
▁legs 100
▁Bhansali 100
▁Movement 100
▁cited 100
▁highlights 100
▁messengers 100
ropri 100
ographical 100
▁teachings 100
acles 100
▁Rijiju 100
▁disputed 100
▁Madhav 100
iaz 100
▁lessons 100
▁` 100
▁multip 100
▁env 100
▁isn 100
▁shed 100
▁Chaut 100
▁Persons 100
▁Netherlands 100
▁Communication 100
eron 100
▁affection 100
▁ceasefire 100
▁violations 100
▁zeal 100
ographic 100
UI 100
avi 100
▁Cant 100
▁Come 100
▁tonne 100
▁Medal 100
▁dw 100
▁bidd 100
▁accurate 100
▁Surjewala 100
▁expanding 100
ivic 100
▁Shre 100
perture 100
▁adverse 100
▁Response 100
▁refugees 100
▁SAW 100
▁perce 100
▁react 100
▁server 100
key 100
TH 100
▁191 100
▁laying 100
▁gall 100
hetic 100
▁mobil 100
▁ignor 100
▁thick 100
▁Mohali 100
▁hotels 100
▁liberal 100
div 100
urns 100
▁Rahim 100
▁posed 100
▁staged 100
▁Ron 100
▁Gil 100
▁Butt 100
▁Tech 100
▁2013. 100
▁Naqvi 100
▁quota 100
▁Ishant 100
▁hanging 100
▁respected 100
.08 100
▁PNB 100
▁Hit 100
▁Twenty 100
▁Bor 100
▁1990 100
▁Prith 100
▁cater 100
▁closing 100
▁Birla 100
▁gradu 100
agi 100
ulates 100
▁Commercial 100
▁prefer 100
▁ministries 100
MA 100
▁lake 100
▁ambul 100
▁chest 100
▁customs 100
▁20. 100
mood 100
▁Sadar 100
▁Vicky 100
▁flowers 100
▁Jalandhar 100
▁ing 100
rapy 100
▁neut 100
▁stir 100
▁Jog 100
▁Pot 100
▁Same 100
▁album 100
▁audit 100
▁routine 100
▁realised 100
-19. 100
▁Delhis 100
▁scrutin 100
▁respects 100
▁criteria 100
▁Leh 100
▁Third 100
▁annum 100
▁endeavour 100
▁Italian 100
▁tid 100
▁jack 100
State 100
National 100
▁heading 100
▁priests 100
▁emerge 100
▁Renewable 100
▁Philippines 100
▁PP 100
liant 100
▁drag 100
▁voter 100
▁Having 100
▁Shivaji 100
▁renowned 100
▁Choudhary 100
▁Raipur 100
▁Cost 100
▁paddy 100
▁Medicine 100
▁Emb 100
cul 100
ayas 100
itored 100
▁Judah 100
▁Consider 100
▁consistent 100
made 100
▁Akali 100
▁behavior 100
chers 100
▁Body 100
▁Rule 100
▁AND 100
▁bact 100
▁Prash 100
▁Ye 100
ouch 100
▁Kol 100
theless 100
▁ritual 100
▁airlines 100
His 100
iren 100
▁Lake 100
▁Jinping 100
▁defamation 100
osys 100
▁Obs 100
outheast 100
▁corporation 100
▁Bhand 100
▁bount 100
ads 100
OLED 100
▁weigh 100
▁Karachi 100
▁balanced 100
▁extending 100
▁representation 100
▁recall 100
osers 100
▁nephew 100
▁rulers 100
▁Pradeep 100
fortun 100
▁Exper 100
▁valued 100
▁Cer 100
▁Dix 100
inthi 100
hinagar 100
▁memorial 100
▁SAD 100
En 100
.04 100
▁Ly 100
With 100
▁Kant 100
nao 100
▁Srik 100
ribe 100
▁mad 100
▁Vidya 100
▁Uk 100
▁singing 100
May 100
iece 100
▁pixels 100
▁inhabit 100
orship 100
▁citing 100
▁truthful 100
▁bot 100
asion 100
▁hypoc 100
Re 100
olf 100
▁nice 100
▁stuck 100
▁Aligarh 100
▁reflected 100
▁chat 100
▁appeals 100
▁Corinthi 100
▁giant 100
▁breach 100
▁Systems 100
▁disappointed 100
ett 100
▁Mike 100
▁influenced 100
▁Amethi 100
▁Finally 100
▁functional 100
ING 100
▁7: 100
▁Sham 100
▁unbeat 100
▁persist 100
▁Creator 100
aba 100
rape 100
▁ring 100
▁distinct 100
▁Nik 100
▁vib 100
▁Shop 100
▁2009, 100
▁Vidhan 100
▁preparedness 100
▁acquire 100
▁payable 100
▁humili 100
▁lauded 100
▁DD 100
▁Hu 100
▁Garden 100
▁oppose 100
▁caution 100
▁aperture 100
▁chips 100
national 100
eches 100
▁NA 100
▁explains 100
▁Finch 100
▁Chakraborty 100
bhai 100
soft 100
▁Liber 100
▁Sriniv 100
▁Thiruv 100
▁Forgiving 100
iche 100
▁whosoever 100
▁Karun 100
▁recomp 100
▁phenomen 100
▁triggered 100
inite 100
▁Mahab 100
▁admon 100
▁depression 100
▁separately 100
▁88 100
▁Kak 100
ogram 100
▁Jim 100
▁Cycl 100
▁Sehwag 100
▁pistol 100
▁Chancellor 100
▁emphasised 100
▁Spec 100
▁Proverbs 100
▁Rave 100
▁Ayushmann 100
▁committees 100
▁unanim 100
▁noticed 100
▁reserves 100
bers 100
▁forming 100
▁vary 100
▁contracts 100
▁committing 100
aments 100
▁graduate 100
▁Aw 100
amar 100
▁Arm 100
chant 100
▁bath 100
▁Perhaps 100
▁martyrs 100
▁remanded 100
▁universe 100
▁unemployment 100
▁Bish 100
▁slightly 100
.06 100
.40 100
▁pitch 100
▁conferencing 100
rive 100
▁Infosys 100
▁selfies 100
▁viewed 100
▁movements 100
▁arts 100
▁Arabic 100
3) 100
▁midst 100
▁owing 100
▁colourful 100
aning 100
8) 100
▁Biote 100
▁AMOLED 100
▁partition 100
▁increasingly 100
▁Implementation 100
▁Turn 100
▁Orissa 100
▁forests 100
▁Southern 100
▁cleaning 100
▁abandoned 100
▁voluntary 100
▁attractive 100
elect 100
▁chill 100
▁agents 100
▁centers 100
▁Statistics 100
▁ambassador 100
▁Masood 100
▁aggressive 100
▁helicopter 100
▁associations 100
▁simultaneously 100
▁92 100
▁hunger 100
▁Revel 100
▁beating 100
▁singles 100
▁stepped 100
▁lifestyle 100
orial 100
nsic 100
▁blow 100
▁critics 100
▁Language 100
▁Jord 100
▁Pain 100
▁Gandhinagar 100
▁NCR 100
▁developmental 100
Spe 100
top 100
▁Incre 100
TP 100
▁frust 100
hor 100
▁Irr 100
▁ice 100
▁INDIA 100
HP 100
▁Unnao 100
inn 100
uda 100
weight 100
▁BE 100
▁adapt 100
▁chair 100
TS 100
NRE 100
▁Sem 100
▁arise 100
▁preferred 100
Bs 100
▁Labor 100
▁commerce 100
▁Pokhriyal 100
▁reck 100
▁terminal 100
iraj 100
▁boat 100
graduate 100
▁Against 100
what 100
47 100
▁Gulf 100
▁Plant 100
▁survive 100
▁typically 100
▁MU 100
▁fingerprint 100
xual 100
atha 100
meet 100
▁homage 100
▁vessels 100
▁petroleum 100
can 100
▁entr 100
▁Island 100
Muhammad 100
▁forbidden 100
ogen 100
4) 100
onal 100
▁50- 100
allel 100
▁Autom 100
▁hailed 100
▁personalities 100
fting 100
▁Raje 100
▁ethnic 100
▁preserve 100
▁button 100
▁contemporary 100
▁witnessing 100
▁Bhub 100
▁Ident 100
▁library 100
achel 100
▁pays 100
▁Sibal 100
▁snowfall 100
One 100
ppa 100
▁Jayanti 100
Why 100
▁BCM 100
▁Hamid 100
umph 100
▁Sriv 100
▁2008, 100
▁Knowing 100
▁sacrifices 100
▁mild 100
icious 100
▁Dalits 100
▁18. 100
▁PGI 100
▁Iyer 100
▁detected 100
▁duration 100
▁Bansal 100
▁AL 100
mand 100
▁wasn 100
▁extraordinary 100
▁rises 100
▁Canadian 100
▁exclusively 100
▁93 100
▁Type 100
▁collapse 100
▁Rhea 100
nut 100
ppers 100
▁strictly 100
▁supplement 100
emia 100
urban 100
▁2013, 100
▁Shahe 100
▁Details 100
▁database 100
▁manufacturer 100
▁impose 100
uli 100
▁Institutes 100
▁Abh 100
▁Ess 100
▁Fat 100
▁magistrate 100
pring 100
▁Umar 100
▁writers 100
▁bestowed 100
▁Loc 100
▁fifty 100
▁Li 100
▁tons 100
▁islands 100
▁reverse 100
▁192 100
▁embra 100
▁showcase 100
▁manifesto 100
CD 100
▁19. 100
erves 100
▁Koch 100
ordinate 100
▁Tell 100
▁fears 100
▁Chautala 100
\' 100
▁Cond 100
▁Maulana 100
▁migrants 100
kan 100
▁Hass 100
▁Rahane 100
▁breast 100
zing 100
rogen 100
▁Niger 100
▁humble 100
▁skilled 100
▁revenues 100
▁Hyd 100
▁puts 100
zerland 100
▁Babylon 100
▁attempted 100
omin 100
▁legacy 100
▁cautious 100
▁sacrific 100
▁exciting 100
▁fighters 100
▁Corinthians 100
▁Anupam 100
▁Argent 100
akrishnan 100
▁reception 100
': 100
▁succeeded 100
Co 100
▁rif 100
▁fost 100
▁lady 100
jections 100
IPL 100
▁Buddha 100
araj 100
rass 100
isite 100
▁Mines 100
▁slain 100
▁stretch 100
▁nominations 100
▁True 100
▁everyday 100
▁Directors 100
▁plun 100
▁column 100
86 100
zo 100
▁irregular 100
▁ma 100
▁Sus 100
astra 100
▁Hundred 100
▁unbeaten 100
▁impressed 100
▁myth 100
▁Dixit 100
▁hug 100
▁commander 100
▁Pom 100
▁educated 100
▁apologise 100
show 100
▁flex 100
▁Corps 100
ishment 100
▁Zak 100
▁liability 100
step 100
▁incom 100
▁slowly 100
▁NO 100
▁Tokyo 100
▁inconven 100
▁160 100
▁Maha 100
▁Perform 100
▁estimate 100
▁desp 100
▁Highlights 100
▁fant 100
▁absor 100
▁buyers 100
▁awaited 100
angle 100
alalitha 100
▁swearing 100
▁lecture 100
▁grievances 100
edia 100
▁Fer 100
▁IMD 100
▁adult 100
▁angel 100
▁copies 100
▁romantic 100
▁speeches 100
▁messenger 100
ccess 100
ummar 100
▁Flag 100
▁Garg 100
▁Hyund 100
▁Tribes 100
▁weaker 100
onds 100
▁Gaj 100
▁Yatra 100
▁Faridabad 100
▁Airways 100
▁couples 100
▁whatsoever 100
ieves 100
▁lending 100
▁physically 100
▁prost 100
▁compete 100
▁basically 100
▁Amid 100
▁scal 100
▁Yamuna 100
ichandran 100
▁Iq 100
▁topic 100
▁repair 100
▁weekend 100
▁listening 100
▁ISIS 100
▁opted 100
▁evolution 100
▁Es 100
▁Naveen 100
NGC 100
▁USB 100
holding 100
▁Irrfan 100
▁Voting 100
utosh 100
asaheb 100
▁freight 100
▁associates 100
▁Camb 100
▁Timothy 100
▁formally 100
hid 100
▁merit 100
▁Ashish 100
▁angle 100
▁aggreg 100
▁bypoll 100
Am 100
▁* 100
▁kin 100
▁sake 100
▁undergo 100
▁Neeraj 100
▁Riders 100
▁interior 100
▁hab 100
▁devast 100
▁Muzaffarpur 100
▁everlasting 100
▁lest 100
▁cooperate 100
rapped 100
▁broadcast 100
▁deployment 100
▁protestors 100
▁strategies 100
mind 100
▁framed 100
▁Hardeep 100
▁convinced 100
▁Revelation 100
odhi 100
antry 100
▁Jagd 100
▁calam 100
▁meters 100
▁Prashant 100
▁fog 100
▁meanwhile 100
TO 100
▁Misra 100
▁masses 100
▁Airlines 100
These 100
▁epic 100
▁serves 100
▁Pink 100
▁familiar 100
▁conversion 100
▁priorities 100
▁translation 100
▁89 100
▁stim 100
▁Bipin 100
▁Rathore 100
rana 100
,000. 100
▁Jind 100
▁Gurdaspur 100
▁reputation 100
▁possibly 100
CAA 100
▁martyred 100
▁projected 100
aga 100
▁Visit 100
▁dissem 100
▁accepting 100
▁Hyundai 100
▁OP 100
oshi 100
plus 100
▁engineers 100
▁carries 100
▁completing 100
▁translated 100
▁FA 100
asty 100
▁categor 100
▁suggestion 100
▁NGOs 100
▁NTPC 100
otics 100
▁Pathan 100
▁Shinde 100
▁interventions 100
ae 100
utva 100
▁nan 100
screen 100
▁Shekhar 100
▁Help 100
aluation 100
▁smugg 100
▁Jamia 100
▁Workers 100
▁nearest 100
CH 100
lier 100
▁resume 100
▁enjoying 100
▁Ahead 100
compass 100
unction 100
▁cement 100
▁fatalities 100
▁alar 100
▁layer 100
▁Jayant 100
▁bags 100
▁pledge 100
▁exposure 100
KS 100
ricks 100
▁Kang 100
▁Bobde 100
covery 100
ortion 100
▁Registration 100
▁PMs 100
▁Mahal 100
▁Banking 100
▁queries 100
chest 100
▁diff 100
▁inspire 100
ellate 100
▁instant 100
▁innovations 100
owal 100
▁kms 100
otions 100
arity 100
▁repay 100
stable 100
▁Anderson 100
▁engineer 100
▁possibilities 100
▁Ep 100
▁SR 100
osit 100
▁SDM 100
▁Jahan 100
▁Textiles 100
▁Ravichandran 100
front 100
hera 100
UL 100
ansh 100
▁Pie 100
▁foods 100
hibition 100
▁substance 100
post 100
▁ears 100
▁pronounced 100
▁attain 100
▁Kishore 100
that 100
▁twin 100
▁arrog 100
▁Electricity 100
harraf 100
hua 100
abha 100
▁2012, 100
mn 100
▁sung 100
▁Henry 100
▁monitored 100
▁115 100
▁2012. 100
▁Vishal 100
▁2015-16 100
▁Bahujan 100
▁businessman 100
▁Give 100
aditya 100
▁Kiara 100
brid 100
ffron 100
▁signal 100
jal 100
▁Hanuman 100
▁Gun 100
▁resurrection 100
▁Tibet 100
▁closure 100
▁artisans 100
▁occupied 100
▁Jayalalitha 100
▁quarters 100
afar 100
▁sty 100
▁receives 100
▁abide 100
▁Contin 100
▁disag 100
▁reign 100
▁unions 100
▁exemption 100
▁releasing 100
▁Governance 100
▁Sony 100
▁Efforts 100
▁testimony 100
▁Win 100
▁legislator 100
▁wai 100
▁Reports 100
Prime 100
▁wine 100
▁hardly 100
rats 100
▁Ten 100
▁ignored 100
III 100
▁Mittal 100
▁Clinton 100
ds 100
▁Unto 100
▁motivated 100
▁popularity 100
▁mainstream 100
▁Additionally 100
OM 100
isa 100
▁Syd 100
chief 100
polit 100
▁Atomic 100
▁horse 100
▁barrel 100
▁distinction 100
▁PC 100
▁Vit 100
▁Tand 100
▁liked 100
▁accessible 100
▁TB 100
▁Luke 100
▁abol 100
uds 100
▁flows 100
▁acknowledged 100
▁"( 100
▁privacy 100
▁northeast 100
▁curb 100
▁IRCTC 100
▁ocean 100
▁disperse 100
▁focusing 100
▁Switzerland 100
▁Pon 100
.2016 100
▁Patani 100
▁affects 100
▁apparently 100
gl 100
▁Cook 100
▁scientist 100
▁Gop 100
▁Iqbal 100
▁alter 100
▁Sengar 100
▁Rajkummar 100
felt 100
hankot 100
▁evalu 100
▁Modern 100
▁decor 100
▁literary 100
▁Christmas 100
▁SIM 100
▁Strategic 100
▁subsidiary 100
▁commissioned 100
ilee 100
▁ransom 100
▁Initial 100
▁levelled 100
▁Table 100
▁Download 100
▁Accordingly 100
▁Certain 100
▁apology 100
▁critically 100
VA 100
ials 100
▁Meer 100
▁flowing 100
▁Presently 100
▁consciousness 100
▁assumed 100
▁monetary 100
▁featuring 100
.10. 100
ouri 100
▁Pujara 100
▁invent 100
▁regards 100
▁drew 100
▁dues 100
▁scores 100
▁hire 100
▁Junior 100
▁Et 100
▁Gos 100
▁enorm 100
▁Bhumi 100
▁Morgan 100
▁adjust 100
According 100
▁Root 100
External 100
▁Catholic 100
▁debit 100
▁expecting 100
▁Sindh 100
redible 100
▁Acharya 100
▁helpful 100
▁Eve 100
▁2001 100
▁competent 100
▁Assistance 100
▁Sch 100
▁Sai 100
antra 100
▁thinks 100
rea 100
▁Bri 100
▁Abu 100
▁smoke 100
▁collapsed 100
orticulture 100
ste 100
▁Gujarati 100
▁conclude 100
▁wors 100
▁volunteers 100
▁coffee 100
agraph 100
▁councill 100
vo 100
uber 100
▁auth 100
▁penal 100
▁6.5 100
▁Error 100
▁minim 100
▁composition 100
thy 100
▁pushed 100
▁Vehicles 100
▁feedback 100
▁Panchayats 100
kumar 100
reens 100
▁Virender 100
▁briefed 100
▁Sessions 100
▁legendary 100
▁milestone 100
▁Ide 100
▁stick 100
▁Sydney 100
▁enters 100
▁experiment 100
ropolitan 100
▁violated 100
▁pharmaceut 100
tr 100
▁Madhuri 100
▁complainant 100
▁108 100
▁Laun 100
▁dict 100
▁Bajwa 100
▁Colomb 100
▁assure 100
▁finals 100
▁tractor 100
▁Doval 100
▁Hotel 100
▁adjud 100
▁dozen 100
election 100
ugopal 100
▁Kriti 100
▁Lalit 100
▁Governors 100
PT 100
▁prejud 100
▁radical 100
Photo 100
people 100
▁hills 100
▁chiefs 100
▁Cummins 100
▁providers 100
aternity 100
▁enacted 100
▁moments 100
▁Capitals 100
▁pursuing 100
▁Himalayan 100
gal 100
shad 100
▁104 100
▁Lock 100
ferent 100
▁publicly 100
ASA 100
oty 100
▁Holi 100
▁delighted 100
▁deposited 100
▁octa 100
▁minerals 100
▁Pollution 100
▁subscribers 100
.02 100
▁Way 100
▁Very 100
▁printed 100
▁describe 100
▁Musharraf 100
▁societies 100
uba 100
▁aged 100
Hz 100
cow 100
▁Dra 100
▁tasks 100
ologist 100
▁treasure 100
▁forwarded 100
▁scholar 100
▁offend 100
▁fer 100
▁wheel 100
▁Collector 100
▁pregnancy 100
rived 100
▁Decl 100
▁swing 100
▁travelled 100
▁Regulatory 100
▁bull 100
ureauc 100
ann 100
▁gorge 100
▁nutrition 100
▁girlfriend 100
▁openly 100
▁heights 100
▁neutral 100
▁baptized 100
▁Television 100
ANDI 100
▁Comb 100
▁remake 100
▁Arabian 100
issue 100
▁idols 100
▁Shilpa 100
▁module 100
▁Heritage 100
▁Northeast 100
▁verification 100
▁Hope 100
usters 100
▁Heres 100
▁Amrita 100
▁issuing 100
▁generating 100
umal 100
▁hast 100
uels 100
▁tempt 100
▁Directed 100
▁Chemicals 100
▁50% 100
▁cooking 100
▁16- 100
allist 100
▁obviously 100
tage 100
quest 100
▁Venk 100
▁surprising 100
▁Mach 100
▁Liter 100
▁occurs 100
▁2003 100
▁Quality 100
▁ranging 100
▁gro 100
▁Tihar 100
▁Minimum 100
▁cashback 100
▁deadline 100
asim 100
▁drow 100
▁Guest 100
▁Husband 100
▁technique 100
▁Gayle 100
▁swift 100
▁eighth 100
▁baseless 100
▁laboratory 100
cest 100
▁Shw 100
▁100% 100
▁dele 100
▁cadre 100
▁autonomous 100
IMIM 100
▁tact 100
▁Pompe 100
▁Address 100
▁separated 100
▁Upadhy 100
▁Adviser 100
▁poems 100
▁Ujj 100
▁gifts 100
▁exclud 100
asha 100
ients 100
▁Excise 100
▁reserve 100
▁Products 100
▁formula 100
▁shocking 100
▁Kedarnath 100
▁dub 100
▁thieves 100
▁Computer 100
▁Task 100
▁reop 100
▁Sanitation 100
▁Vo 100
Then 100
▁cous 100
▁sample 100
lik 100
iser 100
▁cab 100
▁bones 100
▁devoted 100
▁Panchayati 100
▁contributing 100
amba 100
Chief 100
author 100
American 100
▁derived 100
▁dynamic 100
▁talented 100
▁turnover 100
▁compromise 100
▁accum 100
artered 100
▁subjected 100
cis 100
▁syn 100
▁config 100
▁sidelines 100
▁MA 100
▁tob 100
▁Hafiz 100
▁Rajkot 100
▁Dutta 100
▁pel 100
▁holiday 100
▁tidings 100
▁finalised 100
▁Srivastava 100
.35 100
▁sq 100
ensity 100
▁circular 100
▁threatening 100
▁Tik 100
▁Jyot 100
▁2011, 100
▁Dubey 100
▁Rit 100
lawful 100
▁investing 100
▁celebrates 100
aun 100
iga 100
▁Krishan 100
▁artificial 100
▁leak 100
▁infilt 100
▁trillion 100
▁Polling 100
UN 100
▁ventil 100
▁requests 100
▁Anj 100
▁Wild 100
▁couns 100
▁bik 100
▁abdu 100
▁Jordan 100
▁Rajkumar 100
▁initiate 100
▁'' 100
▁Bij 100
▁Lik 100
▁Cross 100
▁Bha 100
▁Personal 100
▁searches 100
▁confusion 100
Cap 100
▁Inaug 100
▁Barack 100
▁Hash 100
▁spinner 100
▁ultimately 100
-7 100
bage 100
owers 100
▁maker 100
▁felicitations 100
CSO 100
▁merger 100
▁Navratri 100
▁incurred 100
kal 100
judge 100
▁pocket 100
▁discussing 100
urse 100
▁FIRs 100
▁realized 100
▁Communist 100
▁countrymen 100
veen 100
isting 100
▁Final 100
▁CJI 100
tical 100
idences 100
▁ascertain 100
▁lux 100
▁Frank 100
▁Param 100
▁civic 100
▁fails 100
fection 100
cum 100
ailable 100
▁accusing 100
ori 100
▁stal 100
▁accountability 100
Fs 100
Ram 100
▁Bol 100
imala 100
▁applying 100
▁Venugopal 100
avan 100
September 100
▁forgotten 100
seen 100
oviet 100
▁boyc 100
▁kilome 100
▁instruction 100
▁neighbourhood 100
▁amen 100
▁investor 100
▁procured 100
▁usual 100
▁apprised 100
▁Microsoft 100
eding 100
▁tragic 100
▁weekly 100
▁diamond 100
▁affecting 100
▁Mith 100
also 100
▁Paper 100
▁140 100
ewari 100
▁Hour 100
ye 100
AIL 100
eni 100
▁missed 100
▁tobacco 100
▁pione 100
▁cheaper 100
▁Bai 100
▁Mrs 100
▁beliefs 100
▁assurance 100
▁landed 100
▁trends 100
▁cheating 100
▁Standards 100
Min 100
map 100
▁ruler 100
▁Sweden 100
▁Monitor 100
▁description 100
▁Kotak 100
▁(200 100
▁fate 100
▁Certificate 100
col 100
▁Niz 100
▁2022. 100
▁honey 100
erer 100
▁Nair 100
▁Deve 100
▁View 100
▁hygi 100
▁Hinduism 100
▁surrounded 100
▁Sustainable 100
HU 100
▁gest 100
▁adults 100
▁dinner 100
▁ATM 100
▁Fre 100
▁wre 100
athon 100
▁Animal 100
▁posting 100
▁seconds 100
▁rendered 100
▁Operation 100
▁ore 100
▁Spanish 100
▁emotions 100
▁Bedi 100
▁Rampur 100
anthapuram 100
▁Complex 100
▁somewhere 100
▁destinations 100
▁Hindutva 100
▁2021. 100
▁Travel 100
▁feared 100
▁strange 100
▁demonstration 100
▁Mural 100
▁Shweta 100
▁Parents 100
▁crossing 100
▁badminton 100
▁campaigning 100
▁inhabitants 100
laim 100
▁Vij 100
entle 100
▁Legislature 100
▁Lit 100
▁UPSC 100
▁saffron 100
-6 100
rik 100
▁YSR 100
rolled 100
▁Abhin 100
▁ancest 100
▁assail 100
▁tribes 100
▁CD 100
▁1980 100
▁rush 100
▁boards 100
▁Buttler 100
▁virtually 100
▁Harid 100
istical 100
▁attacking 100
▁NEET 100
▁Vall 100
▁spell 100
aneswar 100
▁Kumble 100
▁Campaign 100
▁revision 100
▁eliminate 100
▁Operations 100
ture 100
▁coupled 100
▁Active 100
▁Protest 100
▁lighting 100
▁Authorities 100
▁stip 100
listed 100
▁gates 100
▁threw 100
▁Rejuvenation 100
ayed 100
▁eleph 100
▁Keshav 100
▁electrical 100
ulum 100
▁Palestin 100
▁youngest 100
▁Pathankot 100
▁Persian 100
▁Sax 100
▁Sky 100
▁Factor 100
▁handled 100
▁MB 100
heer 100
udes 100
▁wire 100
▁license 100
▁TR 100
ding 100
uity 100
▁185 100
▁cuts 100
▁tran 100
PO 100
ivest 100
▁cave 100
cessary 100
▁doubts 100
▁guides 100
CBI 100
▁Thiruvan 100
iel 100
wart 100
tower 100
▁Arts 100
▁Hero 100
▁blasts 100
▁creatures 100
angg 100
▁seam 100
▁stringent 100
▁Committees 100
▁swim 100
▁contingent 100
43 100
▁21. 100
▁orbit 100
▁Excellence 100
▁prohibited 100
▁Akash 100
▁commencement 100
▁vaccination 100
ervice 100
▁proceeding 100
▁Cooperative 100
hika 100
▁garn 100
▁Activ 100
▁regulation 100
▁EPFO 100
▁Squad 100
▁couldn 100
▁Scientific 100
▁00 100
yang 100
▁14: 100
▁Dim 100
▁5000 100
▁stro 100
▁Custom 100
▁Visakhapatnam 100
anya 100
▁ham 100
▁Categ 100
▁Colin 100
▁pillars 100
▁felicitated 100
-19, 100
▁1.2 100
▁Shab 100
atched 100
▁publications 100
ulf 100
▁9: 100
▁ber 100
▁satellites 100
pora 100
▁Vaish 100
▁lashed 100
▁Taylor 100
▁booking 100
▁enterprise 100
▁uploaded 100
▁Hir 100
▁ump 100
▁legit 100
▁thirty 100
▁Kor 100
▁sorrow 100
▁Congrat 100
iox 100
▁husbands 100
▁empowered 100
eda 100
quer 100
itius 100
▁Subs 100
▁detect 100
PI 100
GARH 100
▁mask 100
▁Thane 100
▁Tejash 100
▁ration 100
▁Dik 100
▁sporting 100
▁ON 100
adia 100
▁Advocate 100
▁protocol 100
▁violating 100
▁Asaduddin 100
▁steady 100
▁rejects 100
FS 100
▁Kend 100
▁bureauc 100
▁confessed 100
▁Fertilizers 100
udra 100
▁literal 100
▁expressing 100
▁Wel 100
▁Pensions 100
▁presents 100
▁disbelieved 100
▁dating 100
▁disclose 100
▁expelled 100
▁benefited 100
▁incorporated 100
▁GPS 100
▁recognise 100
▁Nawazuddin 100
AAP 100
▁jawan 100
▁handic 100
▁Mathura 100
▁Virbhadra 100
▁authorised 100
▁Store 100
odder 100
▁Kochhar 100
▁anxiety 100
otism 100
▁Sach 100
▁ownership 100
▁Pompeo 100
▁RCB 100
▁Cases 100
▁folder 100
▁parallel 100
ridi 100
▁Los 100
▁ONGC 100
▁Ramp 100
▁haven 100
▁cancel 100
▁onwards 100
June 100
▁UGC 100
otive 100
▁sexually 100
Muslim 100
▁commits 100
▁Advanced 100
▁delivering 100
▁Vs 100
▁Kav 100
party 100
▁exempl 100
ais 100
▁Impro 100
▁roots 100
▁Neither 100
▁cyclone 100
▁checking 100
kin 100
▁sweep 100
▁comeback 100
essing 100
▁reliable 100
▁FI 100
▁instances 100
cking 100
lined 100
▁Swamy 100
government 100
91 100
ointment 100
▁laboratories 100
▁RS 100
pendra 100
▁sensit 100
▁Turkish 100
imp 100
▁Appro 100
▁trophy 100
▁interpretation 100
▁Marc 100
▁Nehwal 100
-13 100
BCCI 100
▁$1 100
drop 100
▁tears 100
oser 100
▁heartfelt 100
happ 100
▁Oppo 100
5) 100
▁outcomes 100
▁mole 100
▁transition 100
rell 100
▁Siv 100
▁iOS 100
oop 100
esis 100
reach 100
▁harmful 100
▁Dise 100
▁Nirbh 100
▁Soviet 100
▁memorandum 100
mate 100
▁Romans 100
▁JK 100
▁Parv 100
▁Baloch 100
▁parade 100
▁err 100
▁2011. 100
▁allied 100
onia 100
▁capac 100
▁ceremon 100
▁stunning 100
▁HIV 100
▁Vlad 100
▁Hassan 100
▁Veteran 100
▁Commissioners 100
▁obst 100
▁indef 100
▁displ 100
▁disrupted 100
▁onto 100
▁condoled 100
▁Knowledge 100
▁upro 100
▁Things 100
▁failing 100
▁Pictures 100
osa 100
udh 100
▁Upd 100
▁todays 100
"""".""" 100
agn 100
asy 100
ooter 100
▁bridges 100
▁deduction 100
www 100
▁Yeddy 100
▁screens 100
▁Isa 100
▁shad 100
▁Works 100
▁Naresh 100
▁Whoever 100
▁reflects 100
▁entrusted 100
▁DM 100
arnagar 100
▁decent 100
▁denies 100
▁publishing 100
▁demonstrated 100
▁Eat 100
▁Wood 100
▁Mohit 100
▁Mayank 100
▁beef 100
riages 100
▁Tejashwi 100
700 100
des 100
▁rolled 100
▁Engineer 100
▁Marriage 100
▁comprised 100
▁conventional 100
▁wond 100
▁Faith 100
oaib 100
ported 100
▁salaries 100
▁commented 100
rocities 100
▁Puja 100
▁menace 100
▁elsewhere 100
▁transgress 100
Ab 100
▁Tab 100
▁mel 100
▁bitter 100
▁Competition 100
isance 100
▁decree 100
▁enthusi 100
▁seminar 100
▁statistics 100
▁fo 100
▁hardship 100
▁elaborate 100
That 100
▁NCC 100
▁Oft 100
▁outlook 100
9) 100
harat 100
▁march 100
mediate 100
▁Bhubaneswar 100
▁Pram 100
▁tense 100
▁slowdown 100
▁inspection 100
▁nat 100
▁plenty 100
aimur 100
▁Fair 100
▁bare 100
▁raping 100
▁riding 100
▁amounting 100
▁regulator 100
isma 100
intal 100
▁containment 100
AV 100
Dep 100
▁canal 100
▁carrier 100
▁outrage 100
▁ride 100
▁Kharge 100
▁somebody 100
▁falsehood 100
▁abrogation 100
▁breat 100
▁Afridi 100
▁Growth 100
▁Terror 100
▁contacts 100
▁assignment 100
Rah 100
▁hind 100
▁Scripture 100
▁progressive 100
FA 100
ien 100
▁EVMs 100
ourned 100
▁jumped 100
▁crown 100
▁erupt 100
▁2011-12 100
▁Janm 100
ineeti 100
▁triumph 100
▁politically 100
po 100
uts 100
▁drain 100
itch 100
child 100
▁Honor 100
▁Morcha 100
▁buried 100
▁crafts 100
▁iconic 100
▁safely 100
minister 100
▁Watchtower 100
▁odd 100
▁Analysis 100
ouses 100
▁Hars 100
▁Picture 100
oya 100
▁wrath 100
▁Schemes 100
▁Sut 100
▁Khand 100
▁Angeles 100
▁Yus 100
igare 100
▁desert 100
▁lawful 100
▁checked 100
ushi 100
▁Run 100
▁Must 100
▁outer 100
▁decrease 100
▁supervision 100
▁15,000 100
▁sword 100
ANDIGARH 100
▁surgical 100
shit 100
▁Gavaskar 100
▁helicopters 100
cr 100
▁Imp 100
atter 100
▁unus 100
enance 100
ige 100
▁preval 100
▁prevented 100
▁taxpayers 100
66 100
▁Analy 100
▁utmost 100
ADMK 100
▁vain 100
▁Francis 100
lings 100
▁kick 100
▁Aaryan 100
▁applies 100
GP 100
ffici 100
▁Multi 100
▁Meerut 100
▁earning 100
▁hosting 100
illy 100
▁12- 100
▁Haasan 100
▁Sundar 100
▁toilet 100
▁Rajinder 100
▁Guidelines 100
▁obligation 100
▁Headquarters 100
uct 100
▁24. 100
▁2010, 100
▁scenes 100
zar 100
▁Ut 100
March 100
amboo 100
ubble 100
▁glor 100
▁Lib 100
▁offs 100
▁Mauritius 100
Tr 100
▁McC 100
haiya 100
▁Says 100
▁kidney 100
▁longest 100
▁governing 100
▁Recruitment 100
▁buff 100
▁twelve 100
▁protested 100
▁cheap 100
▁Sawant 100
aint 100
▁fasc 100
▁landmark 100
MW 100
ded 100
▁Shang 100
▁Shoaib 100
▁cordoned 100
▁exercises 100
▁Chok 100
▁crashed 100
▁discover 100
▁Push 100
▁Doing 100
▁mines 100
▁intimid 100
amilitary 100
▁hospitalised 100
▁automatically 100
ston 100
▁ISI 100
utors 100
▁query 100
▁Kajol 100
▁Chavan 100
▁acceptance 100
▁exceptional 100
▁grade 100
▁Chandrach 100
eri 100
hah 100
▁cheque 100
▁secretaries 100
▁Point 100
▁swear 100
▁Termin 100
▁helmed 100
icular 100
▁Glenn 100
viously 100
▁Baroda 100
▁granting 100
ARD 100
▁Chaw 100
▁noise 100
▁awaiting 100
rous 100
▁Manu 100
▁Kalam 100
▁Lakshmi 100
▁= 100
▁PU 100
▁blog 100
ablish 100
▁Suhana 100
▁circle 100
▁confront 100
▁Parineeti 100
▁AR 100
▁wider 100
▁gearbox 100
▁periods 100
▁Andrew 100
Speaking 100
▁Shreyas 100
92 100
Nm 100
▁Tam 100
▁Laxman 100
▁patrol 100
gree 100
▁Accounts 100
▁Republican 100
▁FC 100
akti 100
▁Bhan 100
arding 100
ensely 100
▁Flood 100
▁plate 100
▁rocket 100
bbl 100
anki 100
▁explanation 100
urbed 100
▁wards 100
▁cultures 100
▁misleading 100
▁chemicals 100
▁collections 100
▁Sukhbir 100
▁compulsory 100
▁probed 100
▁wronged 100
▁replacement 100
bhp 100
aramaiah 100
igilance 100
▁credited 100
▁organism 100
yc 100
▁Ear 100
▁Naj 100
▁fame 100
▁Bridge 100
▁curfew 100
▁recompense 100
HD 100
▁INX 100
affected 100
▁Dial 100
▁Moscow 100
▁organizing 100
▁pilgrimage 100
▁107 100
▁Khurrana 100
oors 100
umbent 100
▁charity 100
▁sequence 100
IDS 100
Jan 100
SEs 100
▁voc 100
▁nodal 100
▁Gab 100
igate 100
raine 100
▁removing 100
rist 100
▁25. 100
▁Freedom 100
▁organising 100
▁bon 100
▁sham 100
fitting 100
▁Fans 100
▁incentives 100
ums 100
▁Drinking 100
cor 100
▁deliberations 100
▁(10 100
nekar 100
vency 100
▁Daily 100
▁missiles 100
bek 100
▁Put 100
▁suspic 100
▁eternal 100
▁musical 100
▁thunder 100
▁shopping 100
▁CHANDIGARH 100
who 100
ange 100
▁Bhim 100
▁Chir 100
▁stern 100
▁formats 100
▁mindset 100
▁Yeddyurappa 100
tm 100
omach 100
▁slams 100
▁deserve 100
▁Haridwar 100
▁Revolution 100
arcane 100
▁6,000 100
▁Jyoti 100
▁curric 100
▁comprise 100
▁apprehend 100
▁evaluation 100
ologists 100
▁glorious 100
▁myst 100
(1) 100
▁IV 100
▁bere 100
idency 100
▁Portal 100
▁pioneer 100
lipse 100
contin 100
▁waiver 100
afe 100
▁Ox 100
▁lung 100
▁accus 100
▁spite 100
ipality 100
▁trapped 100
▁consultations 100
cons 100
▁Poor 100
▁wholes 100
▁lasting 100
▁relates 100
▁approaches 100
rafts 100
▁Dhaka 100
▁taluka 100
▁compound 100
▁theatres 100
Tal 100
rait 100
▁Kaul 100
▁census 100
▁funeral 100
▁concentration 100
usse 100
▁irre 100
▁Inder 100
▁Latin 100
▁conscience 100
▁TRS 100
▁backs 100
▁corona 100
▁paired 100
▁chipset 100
▁Argentina 100
otes 100
yard 100
▁molec 100
▁stored 100
ographer 100
▁tolerance 100
▁Aurangabad 100
▁Chandrachud 100
▁tow 100
▁rect 100
ensing 100
ponding 100
▁Testing 100
▁Hundreds 100
▁Jayalalithaa 100
PCL 100
vals 100
▁13- 100
▁Jaya 100
▁Tandon 100
▁hoping 100
▁Present 100
▁restoration 100
▁FIF 100
However 100
citation 100
▁painting 100
▁foreigners 100
▁CSK 100
isers 100
▁hung 100
▁cruel 100
▁basket 100
▁Reforms 100
overs 100
▁Electoral 100
▁logistics 100
▁mortality 100
▁ABVP 100
queline 100
▁doubling 100
▁tribunal 100
▁sorry 100
▁Sudhir 100
▁astron 100
▁conflic 100
ensed 100
▁Ashw 100
▁Maurya 100
▁kilogram 100
iba 100
rey 100
▁ped 100
alia 100
▁Access 100
▁capture 100
▁inconvenience 100
▁Muker 100
▁shells 100
▁virtue 100
▁inspector 100
rus 100
▁Ratan 100
▁naval 100
▁quintal 100
▁vacation 100
▁amenities 100
▁8: 100
▁Gaz 100
▁Jak 100
▁Kom 100
acher 100
▁kits 100
▁throne 100
▁vaccines 100
▁designs 100
32 100
herent 100
▁reminded 100
▁negligence 100
▁arbitration 100
▁compare 100
▁Kun 100
▁Stan 100
▁cluster 100
▁extends 100
▁Connectivity 100
▁consistently 100
bank 100
▁sar 100
oward 100
▁Vers 100
▁loud 100
▁losers 100
▁printing 100
▁treating 100
▁preventive 100
6) 100
▁08 100
▁Rupani 100
▁Bair 100
irbhar 100
▁holistic 100
▁affiliated 100
iso 100
▁Fut 100
▁Saxena 100
friendly 100
▁Ministerial 100
▁essentially 100
▁Presidential 100
▁para 100
▁Qatar 100
▁Roads 100
vernight 100
icity 100
▁fortun 100
▁Bathinda 100
▁campaigns 100
▁Oman 100
ressal 100
likely 100
▁Provided 100
ao 100
gor 100
▁31. 100
▁liberty 100
▁Nevertheless 100
▁erad 100
▁deity 100
▁linking 100
▁Attorney 100
▁presenting 100
20, 100
rama 100
▁Boy 100
▁Rub 100
▁Shyam 100
▁prophets 100
▁Neha 100
▁Leone 100
▁William 100
▁pleasant 100
▁solidarity 100
IDAI 100
atta 100
▁Karthik 100
arsi 100
▁cultivation 100
▁6.3 100
▁Cities 100
▁banner 100
▁Standing 100
▁Sabar 100
▁Unity 100
▁Embassy 100
▁hitting 100
▁watched 100
▁applicant 100
su 100
ibe 100
▁classical 100
Act 100
December 100
▁Ashutosh 100
▁briefing 100
▁encompass 100
▁prosperous 100
▁facilitating 100
ulpt 100
▁spo 100
▁Wire 100
▁palm 100
▁coaching 100
orse 100
▁Josh 100
?' 100
▁Yusuf 100
▁dairy 100
▁castes 100
▁allowance 100
▁Electronic 100
▁450 100
People 100
▁combine 100
unicipality 100
icon 100
▁freely 100
▁orp 100
▁Mugh 100
▁Zafar 100
▁wings 100
ivestock 100
▁Veer 100
▁productive 100
▁responding 100
▁Dif 100
▁Adil 100
▁Mani 100
walior 100
▁hiked 100
▁habits 100
▁matern 100
▁repeat 100
▁accommodation 100
▁Ross 100
▁exha 100
▁resil 100
▁interface 100
▁prospects 100
▁Coun 100
▁Mong 100
▁enormous 100
▁presidents 100
ugs 100
angal 100
▁Users 100
▁Berlin 100
▁Taimur 100
▁Maxwell 100
▁surrender 100
▁trem 100
▁Sanju 100
▁Keeping 100
▁Tit 100
eevan 100
▁haz 100
▁Prim 100
▁Khadi 100
▁Corruption 100
acts 100
▁Gaurav 100
Oct 100
rec 100
▁eggs 100
▁Starc 100
▁Pednekar 100
▁breathing 100
▁LoC 100
▁Netaji 100
inh 100
▁unne 100
▁Girls 100
▁borne 100
▁colleague 100
▁1.3 100
hansi 100
▁Filmfare 100
▁defeating 100
,... 100
fits 100
▁Soha 100
▁TCS 100
▁spots 100
olvency 100
▁raises 100
▁filling 100
▁differently 100
▁(3) 100
aware 100
▁Siddaramaiah 100
▁Category 100
▁describes 100
hag 100
bind 100
oric 100
wada 100
▁dish 100
▁thro 100
▁prepaid 100
▁mutually 100
▁economically 100
▁observations 100
non 100
▁23. 100
▁Rif 100
▁pink 100
▁teleph 100
▁reminder 100
holder 100
▁mentally 100
▁bulk 100
▁Kiren 100
▁dealers 100
▁insisted 100
▁fulfilling 100
▁Vivekananda 100
EM 100
iac 100
quire 100
▁assume 100
▁shalt 100
itative 100
▁fodder 100
▁Wa 100
▁Strict 100
▁Brothers 100
▁Field 100
▁Nature 100
▁Prepar 100
▁extrad 100
▁fibre 100
building 100
▁Windows 100
▁enables 100
▁22. 100
agarh 100
▁Bills 100
▁palace 100
▁sew 100
▁Menon 100
▁Chaudh 100
▁Vehicle 100
▁emissions 100
reek 100
▁Thr 100
▁Bhoj 100
▁Call 100
▁bribe 100
November 100
▁Savarkar 100
▁Subramanian 100
▁1950 100
garwal 100
▁25,000 100
▁hostel 100
▁Football 100
▁locality 100
opsy 100
▁188 100
▁Ton 100
▁abst 100
▁persu 100
▁Belgium 100
▁anonym 100
aras 100
▁spring 100
▁decides 100
▁Jacqueline 100
-8 100
▁trop 100
▁casualty 100
▁poem 100
▁betray 100
▁revival 100
▁Domestic 100
▁Transfer 100
▁installation 100
Shiv 100
▁lyn 100
▁spr 100
▁Jere 100
▁mans 100
▁Balak 100
▁AIADMK 100
▁refuse 100
▁thrust 100
▁aver 100
▁operates 100
door 100
▁Sonu 100
▁cows 100
abaddi 100
▁Jackie 100
▁spiritually 100
▁Representatives 100
inkya 100
▁yours 100
▁salute 100
▁securities 100
▁Phot 100
▁SAARC 100
▁deleted 100
▁gearing 100
▁Kanhaiya 100
▁Ranjit 100
▁persecution 100
▁Ce 100
▁RK 100
▁Ara 100
▁adm 100
▁bars 100
▁30,000 100
▁deprived 100
▁examining 100
▁Indi 100
▁Lash 100
▁Osc 100
▁mood 100
▁neighbor 100
File 100
▁2007, 100
▁vitamin 100
▁computed 100
CL 100
Sec 100
bad 100
▁pipeline 100
▁multilateral 100
▁900 100
▁SCO 100
▁corre 100
▁Mandal 100
▁Prabhas 100
▁rejoice 100
third 100
▁tail 100
▁stuff 100
▁05 100
umps 100
▁Vig 100
▁Ekta 100
▁Pack 100
▁Villiers 100
▁lob 100
▁Resc 100
▁2010. 100
▁adul 100
▁guys 100
▁hydro 100
▁attributed 100
rane 100
▁Need 100
▁Large 100
▁obligations 100
▁shareholders 100
▁Waq 100
▁Parkash 100
▁Protests 100
▁interfere 100
▁Hal 100
▁Biden 100
▁doers 100
▁Sabarimala 100
▁5.5 100
Asked 100
icitor 100
▁tribe 100
▁nurt 100
▁evacuated 100
▁Atul 100
▁Taran 100
▁Vigilance 100
▁capacities 100
oconut 100
ranath 100
▁Range 100
▁antib 100
▁trucks 100
▁accomplish 100
comp 100
ierce 100
▁leaf 100
ighter 100
▁Ajinkya 100
▁Student 100
▁profound 100
▁meaningful 100
opp 100
▁PPP 100
▁climb 100
▁Gwalior 100
▁panchay 100
▁departed 100
▁KKR 100
stone 100
▁Exerc 100
▁Bodies 100
▁informal 100
▁departure 100
▁1.4 100
▁Ghat 100
▁attracted 100
▁perception 100
▁Ker 100
▁Heat 100
licted 100
▁Nanda 100
▁Taiwan 100
▁Vijayan 100
▁females 100
▁saddened 100
▁Districts 100
▁prophecy 100
34 100
▁Jhansi 100
▁Within 100
▁accounting 100
▁30- 100
▁Castes 100
▁titles 100
▁avoided 100
▁(1% 100
▁Lee 100
▁Kumb 100
▁depict 100
▁reduces 100
▁upgrade 100
▁ordinance 100
oler 100
▁Sandhu 100
▁HP 100
▁Corp 100
▁Ramdev 100
▁NASA 100
▁lord 100
▁reads 100
▁clothing 100
▁Technologies 100
ISF 100
▁Soft 100
repreneur 100
▁decreased 100
▁corporations 100
unals 100
▁Nine 100
▁Spokes 100
▁measured 100
▁advertise 100
▁circulation 100
▁Ni 100
▁Hom 100
irpur 100
rekar 100
▁revive 100
imir 100
▁caption 100
▁Monitoring 100
▁companions 100
BSE 100
▁FOR 100
▁synt 100
▁frequent 100
▁topics 100
etu 100
▁Save 100
aining 100
▁Poonam 100
▁Scientists 100
▁expandable 100
▁spons 100
▁miscon 100
Pacific 100
largest 100
▁donated 100
▁variable 100
forced 100
▁Property 100
bsp 100
rior 100
▁org 100
▁PSUs 100
▁desir 100
▁liable 100
▁Dikshit 100
Le 100
arna 100
vement 100
▁Million 100
▁Il 100
▁Weather 100
▁Muzaffarnagar 100
▁cried 100
▁Records 100
▁salvation 100
Pad 100
▁1961 100
▁Mata 100
▁treaty 100
▁posters 100
▁quantum 100
▁Tus 100
▁shame 100
Ma 100
▁Karti 100
ertilizer 100
▁confined 100
▁benchmark 100
▁detection 100
▁superintendent 100
▁cos 100
▁Hemant 100
▁contrad 100
▁Aggarwal 100
kel 100
▁Khel 100
▁Sheh 100
▁2014-15 100
▁Shanghai 100
Shri 100
▁170 100
▁ideals 100
▁expects 100
▁Payments 100
jar 100
ainted 100
▁Karisma 100
▁hygiene 100
▁overnight 100
▁lyrics 100
▁vibrant 100
▁assaulted 100
▁mechanisms 100
▁exploration 100
.65 100
▁Radh 100
▁Chawla 100
▁hypocrit 100
▁incumbent 100
▁applicants 100
Gs 100
gin 100
▁Ananya 100
▁Estate 100
▁missions 100
▁Anniversary 100
VC 100
▁ITC 100
iller 100
▁Anna 100
Captain 100
▁desper 100
▁Chatter 100
)- 100
▁Ford 100
▁lunar 100
▁ft 100
▁Emir 100
▁spir 100
▁blank 100
division 100
▁embarrass 100
▁precaution 100
def 100
.2015 100
▁Ship 100
▁02 100
▁onions 100
▁icon 100
▁motive 100
aki 100
▁124 100
net 100
▁Ras 100
▁sib 100
rained 100
▁favourable 100
▁Lady 100
▁noble 100
assi 100
▁Nich 100
▁diverted 100
avat 100
ovic 100
▁Coord 100
▁vessel 100
▁varieties 100
rix 100
▁merged 100
▁inaugurates 100
pad 100
mother 100
▁Nizam 100
icating 100
▁accomplished 100
▁Answ 100
▁Digvijaya 100
▁substantially 100
hiya 100
▁fishing 100
▁classified 100
▁Narm 100
▁ought 100
▁Cancer 100
▁AN 100
▁unex 100
▁worthy 100
▁06 100
onel 100
While 100
▁bears 100
▁ridic 100
▁bounty 100
▁merciful 100
▁Kur 100
▁vel 100
▁owns 100
▁alarming 100
▁befitting 100
▁illegally 100
.60 100
iana 100
▁Neel 100
▁summons 100
▁sedition 100
awe 100
▁Story 100
▁lesser 100
▁teh 100
▁Paras 100
▁revelation 100
▁Hab 100
Harsh 100
fight 100
hetra 100
▁tables 100
▁dancing 100
▁immunity 100
▁intensity 100
azar 100
▁Nirbhaya 100
▁litigation 100
clave 100
▁Scot 100
bourne 100
retion 100
▁refin 100
▁Making 100
▁lifetime 100
▁maturity 100
▁envisaged 100
▁PRO 100
▁inducted 100
orest 100
▁Scott 100
ikarjun 100
▁exporters 100
▁CG 100
hang 100
▁Charan 100
irsa 100
▁boun 100
▁Wasim 100
▁fairly 100
-30 100
inem 100
ubilee 100
▁unfair 100
▁recoveries 100
▁Eden 100
vinder 100
▁enact 100
▁Groups 100
▁defect 100
▁nationalism 100
Who 100
▁Cad 100
engue 100
▁Library 100
▁computers 100
▁dominated 100
▁sir 100
▁epid 100
▁Trumps 100
▁copper 100
EP 100
car 100
▁bore 100
▁influential 100
sore 100
▁Jul 100
▁Nas 100
▁Dwar 100
▁abode 100
▁fluid 100
▁analys 100
▁funded 100
▁ignore 100
▁Narmada 100
▁disabled 100
▁deliberate 100
▁meals 100
Cor 100
rao 100
▁Pract 100
▁tempor 100
▁Masters 100
▁streams 100
▁Physical 100
▁structural 100
▁Padm 100
lation 100
▁cancellation 100
▁Uz 100
▁Grant 100
▁Senate 100
▁slaves 100
▁surpass 100
abwe 100
.2014 100
▁Shane 100
▁tries 100
October 100
▁varied 100
cam 100
▁Ask 100
▁nose 100
▁Terrorism 100
▁policeman 100
▁03 100
etus 100
phal 100
▁FIFA 100
▁Rece 100
▁Kunal 100
▁unlikely 100
▁Manufacturing 100
quiring 100
▁Pragya 100
▁Mallikarjun 100
Cha 100
▁512 100
▁upgradation 100
asth 100
iances 100
▁thoroughly 100
bus 100
▁10% 100
Rahul 100
odara 100
▁irrespective 100
stri 100
▁Rock 100
▁chopped 100
▁controlling 100
▁VP 100
▁dyn 100
▁hav 100
▁Study 100
▁partnerships 100
▁09 100
▁humb 100
▁shots 100
▁sab 100
acked 100
▁Fram 100
▁obser 100
▁preach 100
▁prolong 100
atre 100
▁clouds 100
▁crying 100
▁Amarnath 100
▁urges 100
autions 100
▁Palace 100
▁directorial 100
IMD 100
▁Pauls 100
NH 100
▁Norm 100
▁pose 100
▁Jyotir 100
▁paramilitary 100
▁Empire 100
▁Thanks 100
▁Vallabh 100
▁FM 100
ocity 100
▁intr 100
▁Bhard 100
▁parks 100
▁resumed 100
▁somewhat 100
▁versions 100
▁thermal 100
but 100
eath 100
▁Season 100
▁sculpt 100
▁recharge 100
▁spinners 100
▁187 100
▁endure 100
▁Message 100
▁Nishank 100
▁manpower 100
▁prevailed 100
▁Initiative 100
▁shr 100
▁Pramod 100
Mohammed 100
gradation 100
▁championship 100
▁Ok 100
▁Sel 100
▁oun 100
▁Saul 100
▁misuse 100
▁topped 100
▁intensified 100
▁Stu 100
accept 100
▁Schol 100
▁Choksi 100
▁miscre 100
▁similarly 100
▁assailants 100
▁1996 100
urshid 100
uctions 100
▁autopsy 100
/201 100
▁(19 100
▁Uma 100
gone 100
▁175 100
▁Rap 100
atoes 100
▁loses 100
▁Vladimir 100
asin 100
irms 100
▁Kev 100
▁mock 100
▁defending 100
▁kilometers 100
erk 100
▁ox 100
olved 100
▁Lashkar 100
haring 100
▁voices 100
▁GP 100
Islam 100
▁veter 100
▁overwhelming 100
LV 100
Mar 100
ithm 100
peror 100
▁Ober 100
▁shooter 100
▁stomach 100
▁3- 100
uits 100
▁Laws 100
▁vandal 100
▁Gurdwara 100
▁beside 100
▁flagged 100
▁DS 100
burg 100
oren 100
▁landsc 100
▁switch 100
▁genetic 100
▁refresh 100
▁clusters 100
Te 100
SBI 100
kara 100
▁Gita 100
▁inch 100
icians 100
▁hospitality 100
sa 100
▁alike 100
heastern 100
▁refuses 100
▁steadfast 100
Add 100
urg 100
▁112 100
ignment 100
▁identifying 100
▁Dia 100
▁Musa 100
▁angu 100
▁pour 100
▁Bhardwaj 100
▁VV 100
▁NGO 100
▁Seva 100
▁Vidyal 100
▁pricing 100
▁Dw 100
astar 100
itudes 100
▁Ajmer 100
list 100
ograp 100
onder 100
urvedi 100
▁eagerly 100
▁juice 100
▁Goswami 100
▁rightly 100
▁smoking 100
▁proposes 100
▁ambulance 100
▁struggling 100
▁dip 100
▁Vigyan 100
▁rendering 100
▁IIM 100
▁eco 100
▁Aziz 100
▁excise 100
▁suspicion 100
▁mills 100
▁levied 100
▁ASI 100
▁appointments 100
▁interference 100
roll 100
▁employer 100
erts 100
▁Dos 100
▁Karnal 100
▁IST 100
▁cub 100
▁Zimb 100
▁doct 100
through 100
▁circulated 100
▁Age 100
irts 100
▁Units 100
▁Diljit 100
▁ceiling 100
46 100
ova 100
▁Toy 100
▁slot 100
adeshi 100
erting 100
marked 100
▁stray 100
▁Crores 100
▁Dabangg 100
▁resigns 100
▁trusted 100
▁oral 100
▁rivals 100
▁operator 100
.85 100
iki 100
▁Kabul 100
.10.201 100
▁instal 100
▁Ashwini 100
▁successive 100
▁bids 100
▁Behold 100
▁captaincy 100
▁petitioners 100
▁congregations 100
▁Saha 100
▁walks 100
▁onboard 100
▁naturally 100
▁NB 100
▁Krishn 100
▁Samuel 100
▁bereaved 100
▁disagree 100
▁wildlife 100
grains 100
▁Rohan 100
▁godly 100
▁Discuss 100
▁Monsoon 100
▁Ol 100
ailing 100
▁steal 100
hearted 100
▁wholly 100
▁Nuclear 100
▁vendors 100
▁objected 100
▁surfaced 100
▁silk 100
▁Vihar 100
▁reacted 100
MoU 100
▁RT 100
▁SO 100
Moses 100
▁4000 100
▁burst 100
▁assert 100
▁slaughter 100
▁ung 100
▁bone 100
▁nerv 100
stituted 100
▁offspring 100
▁Kos 100
▁Cere 100
▁Commissions 100
▁CN 100
▁DCP 100
▁armies 100
▁considers 100
▁concession 100
▁PF 100
Cent 100
emen 100
ishi 100
▁Sales 100
▁Bandra 100
▁Shivpal 100
▁Constable 100
▁Amir 100
▁Late 100
▁dying 100
▁Commod 100
▁Rescue 100
▁forensic 100
▁modified 100
▁suspicious 100
▁Ho 100
▁Hur 100
▁airb 100
▁backing 100
▁bacteria 100
▁magnitude 100
▁sentiment 100
▁irregularities 100
▁crem 100
▁talaq 100
▁amidst 100
▁choices 100
▁Chandras 100
▁guardian 100
▁Alt 100
▁Mob 100
▁ferv 100
▁Meena 100
omy 100
▁hails 100
▁waves 100
▁Melbourne 100
atan 100
space 100
▁Radhika 100
▁Ravinder 100
▁exchanged 100
▁Nationalist 100
▁NAB 100
▁Core 100
▁dogs 100
▁plug 100
▁Swiss 100
▁Bhattacharya 100
▁Bop 100
▁gym 100
▁ATMs 100
▁IITs 100
▁Cyber 100
▁lunch 100
▁stabil 100
▁characteristics 100
▁Roll 100
▁repentance 100
ocus 100
waja 100
▁Find 100
▁Shaw 100
▁ages 100
▁chase 100
▁cousin 100
Con 100
bes 100
eka 100
▁Lin 100
ideen 100
▁Acting 100
itorious 100
▁inviting 100
▁processed 100
Sa 100
Ass 100
DMA 100
develop 100
▁literacy 100
▁paragraph 100
▁NRI 100
ursed 100
▁Anne 100
▁strain 100
▁upheld 100
▁searched 100
▁demonstrate 100
venge 100
▁cher 100
venile 100
▁Jeevan 100
▁07 100
▁Color 100
▁Mujah 100
▁Signs 100
stwhile 100
▁Dhumal 100
▁constrain 100
ahu 100
▁Harry 100
▁screened 100
iate 100
odal 100
▁Overse 100
▁seasons 100
▁disposed 100
▁engaging 100
▁NSG 100
▁Elig 100
▁Rome 100
▁Basic 100
▁Regulation 100
▁Navdeep 100
▁Particip 100
▁dwelling 100
▁allotment 100
▁forgiving 100
▁lovers 100
wk 100
▁04 100
▁dump 100
▁Mighty 100
▁guards 100
HF 100
▁BBC 100
▁spare 100
▁Course 100
ensively 100
▁shepher 100
▁Regulations 100
July 100
▁Wales 100
▁Bajrang 100
▁Jagdish 100
conf 100
▁Sood 100
▁Stuart 100
▁afflict 100
▁introducing 100
▁Constitutional 100
.70 100
Ven 100
▁Tahir 100
▁Maharaja 100
▁advantages 100
▁curriculum 100
▁commemorate 100
▁Oh 100
▁Nut 100
▁hail 100
▁Hearing 100
▁adopting 100
▁Chaturvedi 100
▁flower 100
▁theirs 100
▁sleeping 100
▁fantastic 100
▁opponents 100
▁complement 100
▁territorial 100
lix 100
rified 100
▁resent 100
lessness 100
▁Hebrews 100
▁Judgment 100
▁Hina 100
▁Male 100
▁slogan 100
▁contempl 100
▁untoward 100
▁complicated 100
▁ICMR 100
fortunately 100
abil 100
atti 100
stow 100
▁Uda 100
▁clip 100
▁beneath 100
inga 100
cribe 100
▁AICC 100
▁Estim 100
▁volumes 100
▁unc 100
▁Soni 100
▁Anantapur 100
▁preventing 100
36 100
esar 100
inator 100
▁draws 100
▁Mechan 100
▁opinions 100
loom 100
▁Bir 100
plete 100
▁Early 100
▁Except 100
▁speculation 100
tes 100
▁reass 100
▁respir 100
▁Days 100
▁luxury 100
▁themes 100
▁hectare 100
▁Worksh 100
▁Maritime 100
▁residing 100
▁obtaining 100
withstanding 100
abs 100
▁MO 100
▁chrom 100
eworthy 100
▁conced 100
iang 100
▁Jong 100
▁unusual 100
▁memories 100
▁ultimate 100
▁calculated 100
▁Tak 100
▁Prog 100
▁pursued 100
▁precautions 100
▁advertisements 100
▁Atl 100
▁intell 100
▁elevated 100
▁discovery 100
▁lok 100
isons 100
▁beach 100
▁client 100
▁planes 100
▁submar 100
▁reprodu 100
▁Zimbabwe 100
▁economics 100
▁sovereign 100
riy 100
-200 100
ulent 100
▁Coll 100
▁seal 100
aswati 100
▁Event 100
▁necessarily 100
Bh 100
amber 100
▁Surendra 100
▁Initially 100
LP 100
gas 100
▁Ori 100
▁Trent 100
▁medallist 100
leep 100
▁Faz 100
▁Adarsh 100
.80 100
emon 100
ichever 100
▁Oberoi 100
▁disobed 100
▁contents 100
arni 100
▁Mut 100
▁Jair 100
▁Tabu 100
▁Mysore 100
Laughter 100
▁contestants 100
▁geographical 100
vin 100
Bang 100
algam 100
▁Paytm 100
▁define 100
▁hasten 100
▁Product 100
▁sharply 100
▁divisions 100
▁acknowledge 100
Every 100
▁tunnel 100
▁windows 100
▁impacted 100
▁reactions 100
▁belt 100
▁visas 100
isations 100
▁decisive 100
this 100
▁Nig 100
▁ninth 100
▁brands 100
▁fraternity 100
▁Jh 100
▁Sakshi 100
▁Si 100
).""" 100
essment 100
uan 100
ampa 100
▁guns 100
thanol 100
▁Anantnag 100
▁Bairstow 100
▁exemplary 100
▁hors 100
▁mini 100
▁Kashmiris 100
▁commodity 100
▁anch 100
teries 100
spinner 100
.17 100
2), 100
▁rely 100
▁Manjrekar 100
▁4- 100
▁lets 100
▁Chatterjee 100
▁touching 100
▁inspiring 100
▁acute 100
▁brown 100
▁reaff 100
ocols 100
▁Bilas 100
▁berth 100
▁nurses 100
▁advisor 100
▁Vadodara 100
▁UNE 100
anshi 100
▁bell 100
▁dhar 100
▁lucky 100
▁sounds 100
▁Ukraine 100
▁scrutiny 100
▁accountable 100
zed 100
▁LMT 100
aters 100
▁hasn 100
▁ounce 100
▁2009-10 100
HC 100
999 100
▁litres 100
▁traveling 100
▁Manufacture 100
▁interactions 100
▁impe 100
▁entrepreneur 100
ayi 100
ubar 100
▁chol 100
▁Taxes 100
▁independ 100
acre 100
▁Drugs 100
▁mobility 100
▁excessive 100
▁utilization 100
▁Instru 100
▁rubber 100
▁consequence 100
▁chains 100
▁Sak 100
▁Shub 100
▁whats 100
▁Confed 100
▁Return 100
▁evolved 100
▁nervous 100
▁curse 100
▁utility 100
elections 100
▁adorable 100
▁paintings 100
WE 100
▁Basu 100
▁Expo 100
ending 100
▁Oli 100
ublished 100
▁backdrop 100
▁killings 100
▁accelerate 100
▁CAG 100
rooms 100
▁Faiz 100
▁lists 100
▁tracking 100
mu 100
chal 100
▁126 100
▁certification 100
▁Month 100
▁crush 100
▁modes 100
changed 100
▁immune 100
emi 100
ifer 100
▁CWC 100
▁prede 100
▁Khalid 100
appropri 100
▁Furthermore 100
▁Conservation 100
▁Asht 100
▁Marcus 100
▁Panipat 100
▁existed 100
▁lawmakers 100
▁unanimously 100
▁pairs 100
▁implications 100
▁Sew 100
liers 100
▁Ahuja 100
▁outfits 100
▁miscreants 100
▁1970 100
▁okay 100
▁Expressing 100
▁propaganda 100
▁Performance 100
yar 100
▁Mumb 100
▁Devil 100
▁arriving 100
▁grievous 100
▁Everybody 100
▁Pannu 100
▁Kazakh 100
▁102 100
▁Sons 100
▁deaf 100
▁fertil 100
▁leaked 100
▁bidding 100
▁securing 100
▁sugarcane 100
▁announcing 100
▁Nil 100
upied 100
▁pushing 100
▁revoked 100
fire 100
pose 100
▁Fit 100
▁pard 100
▁Future 100
ciliation 100
▁Economics 100
▁Hiz 100
▁Sac 100
▁factories 100
▁Za 100
mans 100
urious 100
▁fleet 100
▁horiz 100
▁richest 100
▁objections 100
eem 100
▁cure 100
▁disobey 100
das 100
inely 100
▁rand 100
▁Chowdh 100
▁Subhas 100
▁cylinder 100
▁indicators 100
▁encouragement 100
uis 100
avari 100
ollar 100
▁Lif 100
onment 100
quired 100
▁Bhatia 100
▁relate 100
▁motorcycles 100
ATE 100
▁harmon 100
▁taxation 100
▁extensively 100
▁ki 100
idar 100
▁CMs 100
ennis 100
▁argue 100
▁cloth 100
▁intensive 100
▁panchayats 100
anis 100
▁Dream 100
chester 100
▁Statement 100
cribing 100
31 100
▁fierce 100
missible 100
▁exempted 100
▁striking 100
▁LG 100
▁render 100
▁Payment 100
▁Overseas 100
▁audiences 100
Res 100
▁grid 100
▁unhapp 100
▁restraint 100
▁114 100
▁Ranji 100
▁lease 100
▁garbage 100
▁collector 100
▁Chandrashe 100
▁photography 100
▁Mak 100
▁raid 100
▁Place 100
▁arent 100
▁equals 100
▁collecting 100
anjh 100
atia 100
▁fro 100
▁Docu 100
icking 100
▁Census 100
▁Shaikh 100
▁fearing 100
▁typical 100
▁declaring 100
andez 100
▁Aman 100
▁humanitarian 100
▁ener 100
rieved 100
▁notable 100
▁Agencies 100
▁underlined 100
dul 100
join 100
rint 100
chair 100
itated 100
▁Gurmeet 100
▁consuming 100
▁ail 100
▁feas 100
actory 100
▁Compl 100
▁arises 100
▁disgra 100
terrorism 100
▁Hospitals 100
▁HS 100
▁li 100
Tech 100
ersey 100
▁bombs 100
▁Rajouri 100
▁insight 100
▁Shivakumar 100
rup 100
▁Hop 100
▁Kund 100
▁syner 100
▁Boards 100
▁doubled 100
▁textiles 100
.14 100
atile 100
▁1984 100
▁warner 100
cium 100
▁ICU 100
▁Crit 100
▁desk 100
▁Michel 100
▁directing 100
▁disability 100
▁AG 100
▁Hai 100
▁2016-1 100
▁comply 100
▁incorrect 100
▁automobile 100
▁formulated 100
▁magnetic 100
rons 100
▁Kota 100
▁1,500 100
▁Bobby 100
▁boats 100
starrer 100
▁Archer 100
▁Balakot 100
▁outlets 100
▁scandal 100
▁Exercise 100
▁showcased 100
▁fertilizers 100
UC 100
▁unp 100
ridges 100
rology 100
▁40,000 100
▁strang 100
▁(8 100
▁unw 100
acular 100
rification 100
▁Expenditure 100
MBAI 100
uria 100
▁2030 100
▁Usman 100
▁Paresh 100
▁damages 100
▁YS 100
▁gut 100
▁2009. 100
▁Jyotiraditya 100
apati 100
▁lapt 100
▁tanks 100
▁verse 100
▁County 100
▁Poland 100
ella 100
▁Baram 100
▁outlay 100
▁marriages 100
▁harn 100
atively 100
/1 100
onna 100
▁halt 100
▁Tower 100
▁cease 100
▁peacefully 100
eroz 100
baz 100
▁Vot 100
-2018 100
▁queues 100
▁Inaugur 100
▁loyalty 100
▁designer 100
▁paradise 100
▁Pharmaceut 100
▁immensely 100
▁Heart 100
▁Hisar 100
▁density 100
▁prospect 100
uni 100
arai 100
▁Reh 100
ifier 100
▁IFFI 100
▁Iron 100
▁deepen 100
▁random 100
▁Framework 100
▁Cho 100
▁quake 100
▁penned 100
▁Dosanjh 100
▁adversely 100
see 100
orer 100
▁deed 100
▁Apost 100
▁harsh 100
▁Poonch 100
akings 100
▁beneficiary 100
South 100
andeep 100
▁Areas 100
▁offerings 100
▁coordinated 100
▁dan 100
▁Supri 100
▁Demand 100
WS 100
atin 100
▁Dou 100
▁Sudan 100
▁Knower 100
▁inmates 100
apsee 100
▁eclipse 100
▁entertain 100
▁indicating 100
▁Hum 100
▁Mix 100
▁Shat 100
▁Saraswati 100
▁semifinals 100
▁Ml 100
▁28. 100
▁Idea 100
▁surplus 100
▁dominant 100
▁brotherhood 100
▁collectively 100
▁IMF 100
▁packs 100
▁Tehsil 100
▁Mineral 100
▁planted 100
▁captains 100
▁incredible 100
▁SK 100
note 100
▁warns 100
▁Streng 100
▁Vasund 100
▁consumed 100
▁impression 100
49 100
Dr 100
▁Ts 100
amese 100
▁Nain 100
▁sewage 100
▁counted 100
▁speakers 100
idity 100
▁Kenya 100
▁literally 100
▁workshops 100
▁references 100
Aug 100
Reg 100
rani 100
▁Cash 100
eff 100
▁Vib 100
asted 100
▁patent 100
▁immigrants 100
dig 100
▁moist 100
▁deeper 100
▁distant 100
▁upgraded 100
▁stipulated 100
kot 100
▁Til 100
▁Dush 100
▁Isaac 100
▁Merkel 100
▁sustenance 100
▁gentle 100
▁Scotland 100
LTE 100
▁NPR 100
April 100
▁AIMIM 100
▁Kendra 100
▁drowned 100
▁sciences 100
▁Responding 100
▁inheritance 100
doing 100
▁insects 100
▁Jabalpur 100
▁Kashmirs 100
▁Chandrase 100
▁Funds 100
▁knife 100
▁shouted 100
▁Establish 100
▁erstwhile 100
57 100
▁DV 100
▁Dj 100
▁algor 100
▁taluk 100
▁Allahs 100
▁Balochistan 100
oz 100
▁SD 100
▁Lev 100
▁IndiGo 100
▁unauthor 100
▁Sop 100
▁Dass 100
▁remed 100
▁Sonali 100
rose 100
tering 100
▁Primary 100
▁robbery 100
▁Surinder 100
▁GO 100
aneous 100
▁Nawab 100
▁cryst 100
▁Oxford 100
▁patron 100
▁dad 100
▁Emirates 100
lend 100
▁Imam 100
▁Shopian 100
▁broader 100
▁northwest 100
human 100
▁Ease 100
ovable 100
▁unlike 100
▁womans 100
▁offline 100
▁controls 100
▁patterns 100
▁Something 100
▁Notification 100
▁deteriorated 100
▁functionaries 100
▁Dipak 100
▁dowry 100
▁advertisement 100
▁230 100
atore 100
▁Stay 100
▁Given 100
century 100
▁washed 100
▁restruct 100
▁defense 100
▁Province 100
▁donation 100
▁mathematics 100
ocratic 100
▁Living 100
▁Denmark 100
▁settings 100
▁writings 100
▁Fernandez 100
▁tent 100
▁mixture 100
eded 100
nected 100
▁Tyagi 100
▁classification 100
▁1998 100
▁Sita 100
▁UNESCO 100
▁MM 100
▁4.5 100
▁fond 100
▁Sport 100
▁textile 100
▁Ez 100
▁dawn 100
▁Blood 100
quarter 100
▁Economy 100
▁embassy 100
▁responses 100
aph 100
▁Enc 100
▁NPS 100
winning 100
▁proven 100
▁Graduate 100
▁certified 100
▁restaurant 100
anas 100
▁holder 100
▁Nigeria 100
▁crushed 100
alin 100
ungal 100
▁nursing 100
▁workforce 100
ags 100
▁RR 100
kins 100
▁MHA 100
▁Think 100
▁Dharam 100
▁Trains 100
▁JN 100
▁135 100
▁foret 100
▁Attack 100
▁worldly 100
▁narrated 100
▁communicate 100
isht 100
them 100
▁3000 100
▁Arms 100
▁unre 100
SO 100
▁""% 100
▁29. 100
ubali 100
▁Status 100
▁execute 100
▁sacrificed 100
yaan 100
▁steep 100
▁Almighty 100
about 100
▁Irfan 100
▁differ 100
▁beloved 100
▁abundance 100
.18 100
▁15- 100
▁Ari 100
Union 100
▁Spice 100
▁assisted 100
▁humility 100
▁protocols 100
▁exploitation 100
hie 100
olas 100
▁Wang 100
▁shoes 100
▁teeth 100
▁stance 100
▁Benefits 100
▁vigilant 100
▁Chowdhury 100
▁assembled 100
▁Ec 100
achand 100
▁Kashi 100
▁livestock 100
LF 100
▁Rog 100
▁Manik 100
▁Satya 100
▁Surya 100
▁hiding 100
▁phr 100
▁Solicitor 100
▁justified 100
▁Km 100
▁Lew 100
▁Lic 100
▁tech 100
▁enjoys 100
▁Saurabh 100
▁resorted 100
▁signature 100
path 100
▁chit 100
ellite 100
▁transformed 100
andan 100
▁sheets 100
▁tabled 100
Ur 100
▁hunt 100
orient 100
▁cough 100
▁Tushar 100
▁Guarant 100
▁velocity 100
▁counterparts 100
▁Pow 100
▁curs 100
▁thin 100
During 100
adweep 100
ridors 100
▁Honey 100
▁recur 100
▁revers 100
▁tissue 100
▁Chander 100
▁analysts 100
▁adjourned 100
▁considerably 100
alion 100
▁Asha 100
▁Mukul 100
▁Giriraj 100
▁Syrian 100
▁Shaheen 100
aner 100
mity 100
asure 100
▁compens 100
▁switched 100
▁intervene 100
▁Richardson 100
)? 100
▁vic 100
omever 100
▁fined 100
▁Toyota 100
▁equation 100
▁founding 100
▁Rampal 100
▁Cameron 100
▁erupted 100
▁Appellate 100
▁Vasundhara 100
awar 100
▁Fig 100
▁Bopanna 100
▁slipped 100
▁specify 100
▁Whenever 100
▁offensive 100
even 100
flix 100
▁Base 100
clusive 100
▁partly 100
▁availed 100
▁quoting 100
▁Awareness 100
▁Expressway 100
.16 100
plant 100
▁Sana 100
pending 100
▁alumin 100
▁entries 100
▁Likewise 100
▁emission 100
▁Irrigation 100
omed 100
▁EMI 100
tered 100
▁Nana 100
called 100
▁willed 100
▁kitchen 100
▁linkages 100
▁Provident 100
scale 100
▁Seth 100
▁angles 100
▁ingred 100
▁enrolled 100
38 100
▁Classes 100
▁26. 100
odaya 100
▁Stop 100
▁duly 100
▁nutri 100
▁mosques 100
▁Upadhyay 100
ohra 100
▁chant 100
bhushan 100
▁Giving 100
▁spared 100
▁readers 100
▁imperative 100
utra 100
mandu 100
▁Coastal 100
▁Mukhtar 100
▁conceal 100
▁survival 100
enge 100
urai 100
▁119 100
▁Nirmal 100
▁shield 100
▁robbers 100
miah 100
▁Pent 100
turned 100
igating 100
▁Sanjiv 100
▁Strong 100
▁Huawe 100
▁Cannot 100
▁Dawood 100
▁consume 100
▁leather 100
▁gh 100
▁Much 100
▁clock 100
▁successor 100
▁7.5 100
▁Bali 100
▁recited 100
▁Offices 100
▁Cheteshwar 100
▁improvements 100
▁Jinnah 100
▁Lokpal 100
children 100
▁pensioners 100
▁CNG 100
▁Lak 100
adhya 100
ounding 100
▁scalped 100
▁Entrance 100
▁exercised 100
▁Uday 100
▁2006, 100
▁coins 100
▁males 100
forming 100
▁therapy 100
▁tribals 100
▁Registrar 100
▁occupation 100
▁preference 100
▁trafficking 100
VPAT 100
termin 100
▁drops 100
▁Learning 100
▁advances 100
▁steadily 100
▁approaching 100
▁Uri 100
▁Krishi 100
▁roadmap 100
▁shipping 100
acceptable 100
▁legitimate 100
▁mechanical 100
▁OS 100
▁18: 100
▁Greece 100
▁Tribune 100
▁expedit 100
▁disbelief 100
▁Yo 100
▁dense 100
▁dread 100
igorous 100
▁Editor 100
▁Hasina 100
▁torture 100
WA 100
▁PCB 100
uffle 100
works 100
▁Tejas 100
▁freed 100
▁2008-0 100
▁streaming 100
NRC 100
appro 100
▁sewer 100
▁Supply 100
▁Asthana 100
▁Experts 100
▁upright 100
▁oriented 100
▁advocates 100
▁unchanged 100
▁instituted 100
BD 100
.1, 100
cost 100
▁Varma 100
▁repro 100
▁tired 100
▁Mangal 100
▁aerial 100
▁Between 100
▁electronics 100
▁provisional 100
▁hurd 100
▁Naxal 100
▁saith 100
▁Almost 100
▁dimension 100
▁necessity 100
▁aggression 100
▁fulfillment 100
▁Opt 100
auses 100
imrat 100
▁Kutch 100
▁Pathak 100
▁outreach 100
▁advertising 100
▁186 100
▁Undert 100
▁enmity 100
▁spaces 100
▁302 100
▁550 100
ional 100
table 100
ortium 100
▁Reacting 100
▁Governing 100
▁sponsored 100
▁victorious 100
,990. 100
▁Vaid 100
aundering 100
▁Alam 100
▁Chic 100
border 100
opathy 100
▁Universal 100
▁declining 100
▁employers 100
▁temporarily 100
oma 100
ghar 100
page 100
▁20- 100
▁ups 100
amper 100
▁mayor 100
▁Fortun 100
▁commands 100
▁chairmanship 100
norm 100
▁Kem 100
▁Tun 100
▁Soren 100
▁Uzbek 100
istence 100
▁Jamaat 100
▁heated 100
▁uphold 100
▁viewers 100
▁Scholars 100
▁foodgrains 100
▁Ward 100
▁plural 100
▁Fernand 100
▁southwest 100
▁Manchester 100
Kash 100
▁122 100
urthi 100
▁warnings 100
▁preceding 100
▁5% 100
idan 100
▁Hub 100
▁Brad 100
▁respite 100
▁ND 100
olia 100
▁1993 100
▁Gall 100
▁Kand 100
origin 100
▁Karim 100
▁Question 100
▁tolerate 100
▁atrocities 100
ANI 100
▁JS 100
▁rig 100
▁ours 100
ictory 100
oubted 100
▁thras 100
▁infant 100
▁dimensions 100
-) 100
TV 100
▁BMW 100
ruled 100
▁Nase 100
ruptcy 100
▁Hillary 100
▁whichever 100
▁discretion 100
▁requesting 100
spec 100
▁Abe 100
▁Bhi 100
▁goddess 100
eva 100
ellion 100
▁Moeen 100
▁Sanon 100
ificent 100
▁Mahmood 100
▁Narasim 100
drew 100
emale 100
▁READ 100
▁improves 100
▁disturbed 100
▁BJD 100
oultry 100
▁grieve 100
▁heroes 100
▁Udaipur 100
▁Jeremiah 100
▁utilised 100
▁promising 100
▁revolutionary 100
.77 100
oeing 100
ostic 100
▁Until 100
▁marvel 100
▁Taapsee 100
▁anticipatory 100
OA 100
▁15: 100
panch 100
usions 100
▁coinc 100
▁renewed 100
▁Fisheries 100
▁BC 100
Russ 100
mila 100
karni 100
▁clubs 100
▁roughly 100
▁Badminton 100
▁scholarship 100
▁unite 100
▁clarity 100
▁gesture 100
▁Healthcare 100
▁Haq 100
iaspora 100
▁impetus 100
▁organise 100
▁deliberately 100
atal 100
▁CSR 100
▁Dum 100
▁Achie 100
▁focuss 100
▁abundant 100
▁convened 100
▁immigration 100
▁106 100
▁Charles 100
▁clay 100
▁mate 100
August 100
▁drives 100
▁excluded 100
▁frontline 100
uzz 100
▁Carl 100
▁Host 100
▁Chair 100
▁serial 100
▁avenues 100
▁hardware 100
▁inserted 100
▁withdrew 100
▁indulging 100
▁attraction 100
▁Palestinian 100
▁Congratulations 100
▁keys 100
▁shadow 100
▁Netflix 100
▁guy 100
offic 100
▁gren 100
▁flags 100
▁Winter 100
▁scattered 100
▁wrongdoers 100
▁municipality 100
▁24: 100
▁Mao 100
▁Jonny 100
▁jihad 100
▁separation 100
SIT 100
isp 100
▁117 100
▁lays 100
▁Sajid 100
▁forty 100
▁martyr 100
▁anymore 100
▁Hamirpur 100
▁attained 100
▁convenience 100
▁0.5 100
▁Dha 100
▁mart 100
▁20: 100
▁expir 100
▁earthly 100
▁disasters 100
▁procession 100
▁Environmental 100
vance 100
▁Daman 100
▁Saheb 100
▁VoLTE 100
▁muscle 100
▁Genesis 100
▁tolerated 100
▁phenomenon 100
esc 100
Some 100
leys 100
▁Loh 100
▁Champ 100
▁publis 100
▁Russell 100
▁accepts 100
ION 100
▁1960 100
▁broadband 100
Don 100
cho 100
eved 100
wait 100
▁Shas 100
imbatore 100
▁Diplom 100
essional 100
▁dramatic 100
▁wrestler 100
Government 100
▁109 100
▁Hay 100
▁colonial 100
▁shameful 100
▁attempting 100
▁GT 100
▁Rite 100
▁spear 100
reliant 100
▁booths 100
▁Metropolitan 100
▁BB 100
▁befall 100
▁tournaments 100
dire 100
▁http 100
▁feeding 100
▁benefitted 100
▁Qualification 100
.63 100
▁Sym 100
ambers 100
▁shaped 100
oubtedly 100
▁Sonowal 100
▁managers 100
abhoomi 100
FCs 100
▁Christs 100
▁earnest 100
▁magazines 100
▁apprehended 100
▁750 100
▁Quest 100
vernance 100
▁pursuit 100
▁Godavari 100
▁harvesting 100
▁Lakshadweep 100
7) 100
▁Night 100
▁POCSO 100
▁Sarkar 100
▁Satans 100
▁Recovery 100
▁Violence 100
▁earmarked 100
Eng 100
▁grows 100
▁tiger 100
service 100
▁finest 100
▁legally 100
.19 100
pons 100
▁Baat 100
▁MBBS 100
▁deriv 100
istrates 100
▁Shardul 100
▁denying 100
▁disorder 100
▁siblings 100
▁conflicts 100
.33 100
▁Sheila 100
▁2013-14 100
▁Py 100
▁TH 100
▁Cold 100
▁Purn 100
▁yatra 100
▁Dialogue 100
dep 100
▁aide 100
formed 100
▁teaser 100
▁gusting 100
oded 100
▁Bund 100
▁Wrest 100
▁Stations 100
▁Kathmandu 100
▁navigation 100
aeda 100
▁27. 100
▁rebu 100
▁helper 100
▁lasted 100
▁Edition 100
▁twitter 100
▁justices 100
▁Certainly 100
▁publicity 100
99. 100
▁Try 100
▁foster 100
▁calcium 100
▁purchasing 100
Be 100
udu 100
▁Maybe 100
▁widow 100
▁climbed 100
AME 100
▁disb 100
▁Lords 100
▁paste 100
▁refrain 100
▁sensors 100
▁Entry 100
▁Jindal 100
▁unrest 100
▁neglect 100
▁unaware 100
▁Forests 100
▁restaurants 100
.90 100
▁ow 100
▁plains 100
▁alternate 100
▁ES 100
▁VI 100
▁synd 100
▁Suraj 100
▁companion 100
▁headlines 100
▁liquidity 100
▁psychological 100
DPS 100
▁wet 100
adequ 100
▁Lyon 100
▁Round 100
▁penet 100
▁remun 100
▁Antony 100
▁barred 100
▁molest 100
▁superv 100
▁imitate 100
fficiency 100
▁Glob 100
▁acre 100
▁cable 100
▁liver 100
Venkaiah 100
▁fortnight 100
"") 100
▁101 100
▁Tob 100
ulars 100
effect 100
▁Sirsa 100
▁Harris 100
▁reviewing 100
▁Unfortunately 100
▁assassination 100
▁BH 100
▁grey 100
▁fract 100
▁Prayag 100
▁Conduct 100
▁Accident 100
▁adventure 100
▁unnecessary 100
ayal 100
priv 100
amped 100
▁Screen 100
▁calamity 100
▁preserved 100
▁Declaration 100
Chan 100
ouni 100
ospace 100
▁Colony 100
▁Notice 100
▁versus 100
▁casting 100
▁enforce 100
▁disappear 100
gers 100
▁Bhu 100
▁hal 100
rakash 100
Kashmir 100
▁mature 100
▁Chaudhry 100
▁formulation 100
▁Mela 100
▁pics 100
▁texts 100
48 100
▁103 100
▁Bush 100
▁Dead 100
▁unle 100
▁Coimbatore 100
▁enhancement 100
LR 100
urches 100
▁Holder 100
▁Record 100
▁barrier 100
▁Believers 100
▁! 100
RJD 100
▁ME 100
▁intra 100
respect 100
▁urging 100
▁survivor 100
ilm 100
▁ax 100
▁label 100
▁tower 100
▁fiction 100
▁whomever 100
▁inception 100
▁TRI 100
breaking 100
tains 100
▁Jais 100
▁unders 100
▁2010-11 100
▁prolonged 100
▁constructive 100
Ret 100
saf 100
arbha 100
closed 100
▁Shram 100
▁advise 100
▁Kaushik 100
▁Contract 100
Provisional 100
▁deliveries 100
▁Christianity 100
laws 100
▁XII 100
▁Years 100
▁poses 100
▁loaded 100
▁resemb 100
▁intends 100
▁teaches 100
vas 100
yant 100
▁IOC 100
▁tum 100
▁euro 100
▁relent 100
▁dissent 100
▁Manpreet 100
▁spy 100
▁Race 100
▁Sexual 100
▁expedite 100
▁requisite 100
▁grandfather 100
.95 100
RSS 100
lie 100
▁Bahrain 100
▁Zero 100
▁Samiti 100
▁tenders 100
▁waterlog 100
▁145 100
▁inev 100
▁sail 100
▁Allow 100
▁queen 100
▁specs 100
▁landslides 100
cca 100
▁bund 100
▁Rajap 100
▁Teams 100
▁Riteish 100
▁shouldnt 100
▁commitments 100
NO 100
.55 100
aval 100
▁Arya 100
▁knot 100
▁Lottery 100
▁altogether 100
▁Lan 100
▁bottles 100
▁Interior 100
▁disabilities 100
aro 100
uce 100
thal 100
▁Haw 100
criber 100
▁Baghel 100
▁Geeta 100
▁authors 100
▁gaining 100
▁Confederation 100
▁NIT 100
inders 100
▁Crown 100
▁Maneka 100
▁troubled 100
▁warriors 100
▁resentment 100
▁Pixel 100
▁cogniz 100
▁furnish 100
▁evolving 100
▁Ordinance 100
opol 100
oding 100
▁Gunt 100
▁Nurs 100
▁Wall 100
▁Bhart 100
▁inequ 100
▁Ananth 100
▁clarify 100
▁Protocol 100
▁commuters 100
ortheastern 100
▁Divisional 100
▁17: 100
▁39, 100
omination 100
▁Kulbhushan 100
▁remembrance 100
▁Adani 100
▁Admit 100
▁Priya 100
▁safer 100
▁floral 100
▁binding 100
▁exceeding 100
▁hypocrites 100
▁respiratory 100
▁Lou 100
▁Mughal 100
▁alerted 100
▁voltage 100
▁elevation 100
▁BMC 100
▁Ephes 100
▁Howrah 100
▁Unlike 100
▁graced 100
sen 100
kant 100
aviya 100
▁enjoin 100
▁naught 100
▁depreci 100
▁helpline 100
▁practition 100
hire 100
▁Gross 100
esterol 100
▁delays 100
▁viable 100
▁airspace 100
▁frequency 100
▁narrative 100
▁Balbir 100
▁solemn 100
▁destroying 100
DU 100
etta 100
▁Pati 100
▁rifle 100
▁Hazare 100
▁regulate 100
▁drast 100
▁Cinema 100
▁Chamber 100
▁Messiah 100
▁Portugal 100
▁concluding 100
▁specialist 100
▁sustainability 100
ko 100
hies 100
▁egg 100
achar 100
rughan 100
▁contam 100
▁circles 100
▁essence 100
▁biological 100
▁PA 100
jung 100
▁obedient 100
▁Regarding 100
▁sentences 100
vak 100
▁Khe 100
▁Upper 100
▁indices 100
▁authorized 100
▁Eligibility 100
▁unacceptable 100
Mah 100
ICMR 100
bert 100
▁elite 100
▁stays 100
▁Fellow 100
▁dharna 100
NREGA 100
atson 100
odium 100
▁Feroz 100
▁marine 100
▁pillar 100
▁Launched 100
▁deciding 100
▁abilities 100
▁Commanding 100
▁internationally 100
cedes 100
▁Agni 100
▁infect 100
▁Vidarbha 100
▁182 100
▁Conv 100
▁Weve 100
itement 100
▁hybrid 100
▁networking 100
▁contributes 100
Form 100
▁Heg 100
▁sparked 100
▁thrashed 100
▁credibility 100
▁203 100
▁Raghav 100
▁adviser 100
▁illicit 100
▁provider 100
▁Guarantee 100
▁landscape 100
▁extradition 100
"""", 100
Hindi 100
acent 100
▁Jaff 100
▁wore 100
▁Rohing 100
▁traced 100
▁enlight 100
▁uncertainty 100
▁Spokesperson 100
MCG 100
▁DIG 100
▁Ded 100
▁Respons 100
▁rituals 100
▁configuration 100
.67 100
inf 100
▁Hou 100
▁manip 100
▁garlic 100
▁Boney 100
▁Boeing 100
▁Praveen 100
▁ashamed 100
▁augment 100
▁eliminated 100
▁qualifying 100
▁Udh 100
▁Hema 100
▁corp 100
▁Neetu 100
▁polar 100
▁absent 100
▁dubbed 100
▁flames 100
▁Billion 100
▁Raveesh 100
▁Ramayana 100
▁Workshop 100
▁fielding 100
▁descendants 100
eli 100
▁Bond 100
theists 100
▁traded 100
▁Waqf 100
teenth 100
▁Huawei 100
▁Advance 100
▁expresses 100
▁documentary 100
▁administrator 100
Now 100
▁NF 100
▁Bio 100
ermanent 100
▁Darshan 100
▁Cru 100
archy 100
▁Babri 100
▁forged 100
▁Teacher 100
▁issuance 100
UNI 100
▁Dance 100
▁culmin 100
▁Counter 100
▁Backward 100
▁barriers 100
▁Democracy 100
▁civilization 100
aksa 100
▁1,5 100
▁RIL 100
▁Stone 100
▁Safdar 100
▁Himalayas 100
▁restriction 100
▁subscription 100
chae 100
mita 100
overe 100
▁Anth 100
▁cope 100
▁Alwar 100
▁Ashraf 100
▁sinners 100
ictionary 100
▁provincial 100
Im 100
idas 100
zech 100
▁Mega 100
hankar 100
▁partially 100
▁Radhakrishnan 100
she 100
again 100
▁Panjab 100
▁Singer 100
▁plaint 100
▁alleges 100
▁vegetable 100
communications 100
ender 100
▁Said 100
▁capita 100
▁Singhvi 100
▁privileges 100
ihar 100
▁CEOs 100
▁bride 100
▁brows 100
▁flock 100
▁poets 100
ometric 100
▁Bhaskar 100
▁promoters 100
▁afterwards 100
.44 100
▁PPE 100
wayam 100
▁Loan 100
▁Mahav 100
▁Bibles 100
TT 100
▁Mouni 100
▁wheels 100
▁baptism 100
▁imposition 100
▁118 100
▁Shin 100
▁bypolls 100
▁mandated 100
▁enjoyment 100
▁obedience 100
▁disciplines 100
▁288 100
▁Mont 100
▁2005, 100
▁Build 100
▁spike 100
▁Chanda 100
▁Kharif 100
▁transit 100
ca 100
four 100
▁grav 100
▁recite 100
▁Agrawal 100
▁slapped 100
▁Conclave 100
▁ignorance 100
Pat 100
▁DU 100
central 100
▁Grants 100
▁ginger 100
▁nights 100
▁tips 100
▁fires 100
▁dedicate 100
▁remarked 100
▁provinces 100
▁Glass 100
▁Value 100
olation 100
▁Shivam 100
▁acclaim 100
▁maternal 100
▁Shatrughan 100
▁Sap 100
▁Fast 100
▁Kuru 100
utives 100
▁gonna 100
▁Dushyant 100
▁Kazakhstan 100
▁111 100
ioxide 100
rupted 100
▁Apply 100
▁Raghuram 100
▁Countries 100
▁Investors 100
Pun 100
▁perish 100
▁Risk 100
lining 100
▁Mehul 100
▁Girish 100
▁mantra 100
▁clients 100
▁rewarded 100
▁Explanation 100
▁pharmaceutical 100
▁Aer 100
emics 100
▁Nigam 100
▁tranqu 100
▁Chicago 100
▁Birthday 100
▁intelligent 100
.74 100
week 100
allow 100
venth 100
▁tbsp 100
▁Harman 100
▁grandson 100
▁NP 100
▁Low 100
▁trap 100
▁Kangra 100
▁brutal 100
▁Cyclone 100
quisition 100
▁altitude 100
avil 100
▁1-0 100
▁SoC 100
▁biod 100
▁Lewis 100
▁UIDAI 100
▁cardiac 100
▁praying 100
▁admonition 100
▁commendable 100
ulus 100
▁Fif 100
▁Answer 100
▁Stalin 100
▁dialog 100
San 100
▁MK 100
▁Mathur 100
▁Norway 100
▁Player 100
▁organs 100
▁governed 100
▁Otherwise 100
▁predecess 100
▁wicketkeeper 100
▁PIL 100
▁riot 100
Mohammad 100
itization 100
▁Platform 100
▁Padmavati 100
Feb 100
▁KC 100
▁hi 100
▁14- 100
▁376 100
▁48- 100
▁PSU 100
▁bol 100
▁Abhay 100
▁Wildlife 100
▁Tex 100
essis 100
▁horn 100
▁Failed 100
▁intoler 100
▁selectors 100
USU 100
▁Batt 100
▁expectation 100
▁interactive 100
kars 100
▁650 100
▁lingu 100
▁vocal 100
chandra 100
▁honours 100
▁resolutions 100
iyar 100
opard 100
▁MUMBAI 100
▁connects 100
▁goodwill 100
▁lightning 100
▁surrendered 100
▁underground 100
▁Rifles 100
▁mounted 100
▁perpetrators 100
Chand 100
▁slip 100
icides 100
▁psalm 100
▁Bachel 100
▁sanctuary 100
▁precautionary 100
29 100
▁lovely 100
▁Defense 100
▁Majesty 100
▁suburban 100
▁radiation 100
▁traditionally 100
▁Flor 100
▁Mira 100
▁pious 100
▁Watson 100
▁apprehens 100
uta 100
▁je 100
aine 100
▁Diu 100
▁gamb 100
advant 100
▁Kirti 100
▁meter 100
ilation 100
▁Ashram 100
▁Bethel 100
▁renamed 100
▁Councils 100
▁DY 100
Mahar 100
▁Phul 100
▁Unable 100
▁Mujahideen 100
ERT 100
pent 100
▁Eoin 100
▁garments 100
▁possesses 100
▁'. 100
▁AV 100
▁Inv 100
eared 100
▁AIDS 100
ganwadi 100
▁Ronald 100
▁Jubilee 100
▁boycott 100
▁margins 100
▁concepts 100
▁proceeds 100
▁desirable 100
▁rebellion 100
▁describing 100
tar 100
▁drone 100
entials 100
▁Arjuna 100
▁Population 100
▁189 100
▁CPM 100
ankind 100
▁scriptures 100
indi 100
▁nick 100
▁custod 100
▁Apostle 100
▁Sitaram 100
▁guiding 100
▁DK 100
▁Kag 100
▁Len 100
▁Dayal 100
▁Finland 100
▁boyfriend 100
▁kidnapping 100
Gov 100
aira 100
kers 100
▁1500 100
▁naming 100
▁timing 100
▁Stephen 100
▁Warning 100
manirbhar 100
▁evidences 100
▁Scriptural 100
obi 100
▁drunk 100
▁Speech 100
▁confused 100
▁Exhibition 100
▁respondents 100
," 100
oping 100
▁denial 100
▁Articles 100
▁guaranteed 100
▁preservation 100
▁DI 100
▁ruin 100
▁Boxing 100
▁ethanol 100
▁Shashank 100
▁utilized 100
▁Pin 100
▁trek 100
▁ware 100
▁lender 100
▁Plessis 100
▁imposing 100
▁workplace 100
▁Hi 100
auge 100
offs 100
▁Sug 100
▁Hath 100
▁boss 100
▁Batra 100
▁Kulkarni 100
▁conducts 100
▁verified 100
ims 100
proof 100
ervices 100
▁equitable 100
▁strengths 100
▁unemployed 100
▁cruise 100
▁eligibility 100
▁Benj 100
▁rejo 100
▁pumps 100
▁horses 100
▁scooter 100
▁setback 100
▁unhappy 100
Tok 100
full 100
▁116 100
▁loose 100
current 100
▁dengue 100
▁thresh 100
▁Kabaddi 100
▁inadequ 100
▁troubles 100
▁directive 100
san 100
sub 100
▁SCC 100
▁tsp 100
▁errors 100
▁scuffle 100
▁Yashwant 100
▁PK 100
baaz 100
▁presum 100
▁Gurpreet 100
▁Internal 100
▁Xin 100
▁mile 100
▁Indra 100
▁alien 100
▁thread 100
▁deities 100
▁portrait 100
▁Activities 100
▁indication 100
▁1,4 100
▁Dutch 100
▁Hills 100
▁arose 100
▁sinful 100
▁goodness 100
▁Satellite 100
ooting 100
▁Bassi 100
▁Kumbh 100
▁digit 100
▁unseen 100
▁Colombo 100
▁Khawaja 100
▁computing 100
urc 100
fold 100
lift 100
▁1992 100
▁ICAR 100
▁pave 100
▁Dharma 100
▁saints 100
▁Estimates 100
▁ITI 100
▁Kala 100
▁void 100
imental 100
▁Gazette 100
▁chamber 100
▁pressed 100
▁Permanent 100
▁incomplete 100
ho 100
.13 100
▁Kod 100
▁Malini 100
▁Netany 100
▁153 100
▁bases 100
▁Srikanth 100
wheel 100
▁cess 100
▁lone 100
▁Ports 100
▁Theyre 100
,- 100
▁CII 100
ospel 100
stein 100
▁guess 100
▁defended 100
▁cholesterol 100
Af 100
heed 100
izer 100
oven 100
Those 100
steps 100
▁Jeff 100
▁NHAI 100
▁2008. 100
▁Nodal 100
▁debris 100
▁inherent 100
▁SG 100
▁lal 100
igion 100
▁Deleg 100
▁Noble 100
▁Channel 100
▁somehow 100
▁container 100
▁travellers 100
Day 100
Ter 100
▁Preet 100
oresaid 100
▁Consid 100
vestment 100
▁monuments 100
vard 100
ayanad 100
▁Oscar 100
▁Athlet 100
Air 100
▁Mig 100
▁Sas 100
▁Neil 100
▁Chadha 100
▁organize 100
▁1,3 100
▁VAT 100
▁gorgeous 100
alid 100
▁Dri 100
▁MiG 100
▁Leave 100
▁Kumars 100
▁Vallabhbhai 100
ERS 100
mic 100
rack 100
▁Jams 100
▁seiz 100
jender 100
▁unlawful 100
▁transported 100
NR 100
Pol 100
▁Dib 100
awada 100
▁Arth 100
▁Boult 100
▁Yemen 100
ahubali 100
keepers 100
▁inaugurating 100
▁repo 100
▁tone 100
Bengal 100
▁bamboo 100
▁compliment 100
▁50, 100
▁raj 100
▁Saint 100
▁Columb 100
▁Retail 100
occupied 100
▁Aircraft 100
▁inclined 100
▁Questions 100
▁interviews 100
.26 100
.83 100
prof 100
▁("" 100
▁Guptill 100
▁Success 100
▁signals 100
▁observing 100
fa 100
.64 100
marks 100
.47 100
▁phosp 100
▁marking 100
bps 100
ipher 100
▁1080 100
▁recre 100
▁Effect 100
▁vested 100
▁Rajputs 100
▁Software 100
▁Victoria 100
▁autonomy 100
▁developers 100
.76 100
▁CAP 100
▁Suk 100
uding 100
▁Gates 100
▁Posts 100
▁Factory 100
▁listing 100
▁purported 100
▁Strengthen 100
▁collaborative 100
NP 100
▁Las 100
▁burd 100
▁scra 100
▁2021: 100
▁motivate 100
▁landslide 100
▁Interestingly 100
▁PhD 100
Today 100
▁caps 100
▁corn 100
▁sect 100
▁Czech 100
▁Parties 100
▁anguish 100
▁Incident 100
exp 100
▁CT 100
angi 100
▁ITBP 100
▁chap 100
▁Hizbul 100
▁limitations 100
▁conversations 100
attan 100
their 100
▁Sovere 100
▁resurre 100
▁aforesaid 100
▁competing 100
Sub 100
▁Bud 100
seeds 100
▁dose 100
▁smile 100
▁Divine 100
▁endors 100
▁exhorted 100
▁directives 100
ubhai 100
▁lect 100
▁Murli 100
▁MediaT 100
▁Sameer 100
▁Houston 100
▁19: 100
▁sour 100
▁Madhu 100
▁Wuhan 100
▁chick 100
▁facie 100
▁Flight 100
▁butter 100
quet 100
▁LIC 100
▁1997 100
market 100
inarayi 100
▁SM 100
oons 100
▁121 100
▁miser 100
▁harder 100
▁colonies 100
▁disqualified 100
YC 100
.24 100
odox 100
▁Gol 100
▁NDT 100
▁Archae 100
▁Saharan 100
▁listened 100
▁admissions 100
.37 100
▁login 100
▁shirt 100
▁Faisal 100
▁locally 100
▁webinar 100
▁licences 100
▁intensify 100
▁() 100
▁7- 100
ISRO 100
entions 100
▁stroke 100
▁throat 100
▁envisages 100
▁empowering 100
▁intentions 100
▁sportspersons 100
WF 100
▁youre 100
IIT 100
giya 100
▁174 100
.2013 100
▁Clar 100
▁mamm 100
▁Phone 100
kshetra 100
▁Maidan 100
▁hanged 100
▁likewise 100
BO 100
ede 100
atham 100
▁1991 100
▁trick 100
▁Joshua 100
▁monument 100
▁Laboratory 100
▁relaxation 100
gage 100
uese 100
▁seize 100
▁coconut 100
▁smashed 100
▁Bhojpuri 100
▁aggregate 100
▁rejection 100
▁Consequently 100
▁Sharing 100
▁choosing 100
▁underlying 100
uh 100
▁nit 100
aired 100
▁CPSEs 100
entation 100
▁praises 100
▁Mercedes 100
▁furniture 100
▁convergence 100
ulc 100
bean 100
▁hungry 100
▁Wayanad 100
▁prevalent 100
▁pin 100
▁1971 100
▁Pinarayi 100
▁maintains 100
▁Bangladeshi 100
▁quarterfinals 100
lime 100
▁Gaya 100
▁dishon 100
▁modest 100
▁festive 100
▁permits 100
▁predomin 100
cive 100
▁Announ 100
▁inflamm 100
employment 100
▁disappointment 100
aire 100
▁Bap 100
▁gam 100
▁Guntur 100
▁Mosque 100
▁Netanyahu 100
ksha 100
▁EVM 100
▁IDBI 100
▁Brand 100
▁Sumit 100
▁hazard 100
▁postal 100
▁Fle 100
▁Using 100
▁celebrity 100
▁disadvant 100
▁identical 100
▁protective 100
oqu 100
▁Yech 100
isible 100
lay 100
▁Asaram 100
▁washing 100
▁replacing 100
▁businessmen 100
hom 100
▁NSS 100
▁eman 100
ugitive 100
▁Tennis 100
▁cadets 100
▁IndusInd 100
▁Warriors 100
▁assuming 100
▁offenders 100
▁Bell 100
▁Balan 100
▁Kedar 100
▁tehsil 100
▁conducive 100
▁redressal 100
▁Uzbekistan 100
▁32, 100
▁Bhandari 100
▁arrogant 100
▁Lav 100
COVID 100
▁brass 100
ourning 100
▁dressed 100
▁garnered 100
▁40- 100
▁LJP 100
▁Pall 100
▁reluct 100
▁judgments 100
▁Saurashtra 100
▁counselling 100
.32 100
▁umb 100
thren 100
▁Mehra 100
▁Vitamin 100
▁swimming 100
▁undergone 100
▁coordinate 100
rue 100
alog 100
▁Anton 100
▁Shekha 100
▁Colonel 100
▁procure 100
▁deserves 100
▁threaten 100
▁prejudice 100
▁Fox 100
▁Cards 100
▁Heads 100
▁purely 100
▁Himself 100
Narendra 100
▁Chhatra 100
▁refuted 100
▁turnout 100
▁boosting 100
▁Engineers 100
▁Treatment 100
▁convenient 100
▁imagination 100
▁Disabilities 100
ifurc 100
▁Wash 100
irming 100
romani 100
▁pledged 100
▁disgrace 100
▁magnificent 100
MD 100
Even 100
▁Pap 100
▁sna 100
▁Vidy 100
▁Laxmi 100
▁Nadal 100
▁recru 100
▁renov 100
▁Vision 100
▁parked 100
▁complimented 100
▁congratulations 100
▁metals 100
▁Benjamin 100
▁Residents 100
[...]
