<s>	0
<pad>	0
</s>	0
<unk>	0
▁क	-0
▁स	-1
▁ह	-2
▁म	-3
▁प	-4
्र	-5
▁के	-6
ार	-7
ें	-8
ने	-9
▁है	-10
या	-11
▁ब	-12
▁ज	-13
▁अ	-14
ों	-15
▁व	-16
▁में	-17
▁द	-18
▁र	-19
▁ल	-20
▁की	-21
▁न	-22
र्	-23
▁उ	-24
ान	-25
▁को	-26
▁औ	-27
▁और	-28
▁कि	-29
ता	-30
▁कर	-31
▁आ	-32
▁इ	-33
▁ग	-34
्य	-35
▁त	-36
▁भ	-37
िक	-38
▁से	-39
▁का	-40
▁प्र	-41
ना	-42
▁ने	-43
▁पर	-44
स्	-45
▁ए	-46
ाल	-47
▁श	-48
िल	-49
क्	-50
ित	-51
▁य	-52
▁च	-53
▁इस	-54
हा	-55
ही	-56
▁हैं	-57
िए	-58
िय	-59
न्	-60
त्र	-61
िया	-62
▁हो	-63
वा	-64
ड़	-65
▁वि	-66
ाम	-67
▁फ	-68
▁थ	-69
ति	-70
ेश	-71
▁जा	-72
▁ख	-73
▁सं	-74
▁स्	-75
के	-76
ते	-77
▁लिए	-78
ाज	-79
▁एक	-80
ती	-81
ला	-82
से	-83
ंग	-84
हीं	-85
▁भी	-86
ले	-87
▁(	-88
्या	-89
री	-90
ोग	-91
▁सम	-92
रा	-93
सी	-94
▁सा	-95
▁किया	-96
▁नहीं	-97
▁बा	-98
त्	-99
क्ष	-100
िस	-101
्ट	-102
▁अप	-103
नी	-104
कार	-105
▁मु	-106
▁कहा	-107
कि	-108
गा	-109
का	-110
▁यह	-111
▁नि	-112
▁ट	-113
ंत्र	-114
▁1	-115
▁हु	-116
▁भार	-117
▁हम	-118
्व	-119
कर	-120
ली	-121
्री	-122
▁2	-123
ाय	-124
्म	-125
▁ड	-126
▁दे	-127
ुल	-128
न्ह	-129
ुर	-130
▁करने	-131
ंद	-132
ियों	-133
▁उन	-134
▁गया	-135
ां	-136
ाह	-137
की	-138
▁अध	-139
▁कार	-140
▁ले	-141
▁उन्ह	-142
▁राज	-143
ारी	-144
▁पह	-145
▁था	-146
▁अन	-147
▁रह	-148
ास	-149
ैं	-150
▁जो	-151
▁उस	-152
▁साथ	-153
▁ही	-154
दी	-155
मा	-156
्‍	-157
रे	-158
▁सि	-159
िन	-160
सा	-161
ष्ट	-162
▁घ	-163
दा	-164
▁तो	-165
ारा	-166
देश	-167
ंत्री	-168
▁या	-169
ुम	-170
भा	-171
▁लोग	-172
ल्	-173
ंड	-174
▁पू	-175
ोंने	-176
िव	-177
▁भारत	-178
द्	-179
िला	-180
▁सु	-181
िर	-182
ढ़	-183
ओं	-184
▁दो	-185
स्त	-186
्ष	-187
्रे	-188
तर	-189
गी	-190
▁सक	-191
था	-192
गे	-193
पी	-194
▁दिया	-195
▁वाल	-196
भी	-197
▁सर	-198
▁सी	-199
▁रा	-200
में	-201
्त	-202
स्ट	-203
▁उप	-204
वि	-205
▁उन्होंने	-206
""	-207
▁।	-208
ोज	-209
च्	-210
धान	-211
▁20	-212
ेल	-213
▁अपने	-214
टी	-215
▁वह	-216
▁ध	-217
ारे	-218
जी	-219
▁मह	-220
ंच	-221
▁बाद	-222
रो	-223
▁सरकार	-224
▁आप	-225
▁छ	-226
वी	-227
▁तक	-228
▁रहे	-229
▁पा	-230
▁अधिक	-231
▁ला	-232
पा	-233
ंध	-234
▁बी	-235
▁कु	-236
नों	-237
िश	-238
▁दी	-239
▁पुल	-240
▁हुए	-241
▁प्रति	-242
ेट	-243
▁ऐ	-244
ूप	-245
जा	-246
▁पुलिस	-247
▁गई	-248
▁थी	-249
ार्	-250
▁चु	-251
▁थे	-252
ये	-253
ौर	-254
▁वे	-255
▁मो	-256
गर	-257
▁माम	-258
▁जिस	-259
▁मे	-260
ीन	-261
▁मा	-262
▁मौ	-263
▁मिल	-264
र्व	-265
▁लोगों	-266
▁चाह	-267
मंत्री	-268
▁विश	-269
▁जी	-270
▁निर्	-271
▁क्ष	-272
▁बना	-273
▁देश	-274
ूर	-275
टर	-276
▁द्व	-277
▁रहा	-278
ानी	-279
▁जब	-280
ाना	-281
खा	-282
▁जाए	-283
ुप	-284
▁राज्य	-285
िम	-286
तीय	-287
▁स्थ	-288
▁रूप	-289
00	-290
ज़	-291
▁कुछ	-292
▁‘	-293
बंध	-294
क्र	-295
▁रही	-296
▁इन	-297
▁कोई	-298
को	-299
▁करते	-300
द्ध	-301
्रीय	-302
▁वर्	-303
बी	-304
▁मैं	-305
एस	-306
▁कार्य	-307
▁बात	-308
▁कम	-309
▁उत्	-310
▁अं	-311
▁सब	-312
▁फिल	-313
ड़ा	-314
क्षा	-315
▁तर	-316
वर	-317
स्थ	-318
▁गए	-319
▁पी	-320
कों	-321
ंह	-322
▁बह	-323
वं	-324
द्र	-325
बर	-326
▁तुम	-327
▁द्वारा	-328
▁3	-329
आई	-330
मान	-331
ाइ	-332
▁बढ़	-333
ूल	-334
क्त	-335
शन	-336
▁अनु	-337
▁विक	-338
▁इसके	-339
▁उनके	-340
ड़ी	-341
र्ट	-342
▁भा	-343
ेत्र	-344
▁भारतीय	-345
▁पहले	-346
▁हि	-347
योग	-348
▁सिंह	-349
िंग	-350
▁मुख	-351
र्म	-352
िका	-353
ंप	-354
्स	-355
▁बता	-356
▁राष्ट	-357
▁दिल	-358
किन	-359
▁क्षेत्र	-360
▁श्री	-361
▁किसी	-362
▁ऑ	-363
च्च	-364
▁साम	-365
चार	-366
धार	-367
▁अपनी	-368
िप	-369
ूस	-370
डी	-371
ोक	-372
▁201	-373
हां	-374
▁अम	-375
▁ओ	-376
▁लेकिन	-377
▁ये	-378
▁वाले	-379
▁तथा	-380
ब्	-381
▁रुप	-382
ाप	-383
ुत	-384
▁फिल्म	-385
िट	-386
▁व्य	-387
हर	-388
▁बे	-389
▁काम	-390
▁लगा	-391
▁एवं	-392
ेंगे	-393
▁जान	-394
▁'	-395
्यों	-396
▁होने	-397
ार्ट	-398
▁कै	-399
ोट	-400
ोल	-401
ोड़	-402
्रेस	-403
▁टी	-404
एम	-405
▁क्या	-406
▁कह	-407
वे	-408
▁सभी	-409
▁हाल	-410
▁मंत्री	-411
्यू	-412
▁करना	-413
बा	-414
द्य	-415
▁उन्हें	-416
िज	-417
ड़े	-418
▁प्रधान	-419
▁हुई	-420
र्थ	-421
सर	-422
ेर	-423
ुन	-424
▁खिला	-425
▁रख	-426
▁मामले	-427
्ली	-428
▁हुआ	-429
▁मुख्य	-430
▁सह	-431
ष्	-432
▁तरह	-433
▁अव	-434
वाल	-435
▁शाम	-436
▁सू	-437
जे	-438
▁जै	-439
▁5	-440
▁शुर	-441
▁सो	-442
▁मोदी	-443
च्छ	-444
म्म	-445
र्ज	-446
▁अभ	-447
▁मै	-448
ाई	-449
▁""	-450
▁समय	-451
▁देख	-452
▁बै	-453
▁दिन	-454
▁4	-455
्ल	-456
ंट	-457
वार	-458
▁लिया	-459
▁होगा	-460
▁दिल्ली	-461
ूर्	-462
्ञ	-463
▁शामिल	-464
दान	-465
▁स्ट	-466
▁हर	-467
यर	-468
ृत	-469
▁कांग	-470
▁पहु	-471
▁आई	-472
लों	-473
▁प्रधानमंत्री	-474
▁सकता	-475
▁दौर	-476
गत	-477
▁चाहिए	-478
श्	-479
▁आय	-480
▁मान	-481
ोजना	-482
मी	-483
▁कांग्रेस	-484
धी	-485
▁कई	-486
न्न	-487
ंस	-488
चा	-489
▁आरो	-490
▁बहुत	-491
▁अन्य	-492
▁ई	-493
ून	-494
▁किए	-495
▁फिर	-496
▁ज़	-497
▁बीच	-498
▁बार	-499
▁-	-500
▁संबंध	-501
▁रुपये	-502
▁उसके	-503
▁केंद	-504
ुख	-505
▁दोनों	-506
▁पि	-507
▁हू	-508
▁जाता	-509
▁ना	-510
दि	-511
▁बताया	-512
ियम	-513
▁गु	-514
▁दौरान	-515
ालय	-516
▁पूर्व	-517
एं	-518
जू	-519
▁जन	-520
दार	-521
▁पास	-522
▁वर्ष	-523
▁जाने	-524
▁क्र	-525
▁दूस	-526
▁खु	-527
▁शिक	-528
▁सकते	-529
▁करता	-530
झे	-531
▁मंत्र	-532
जन	-533
नाव	-534
लय	-535
ंक	-536
▁बारे	-537
▁ता	-538
▁उनकी	-539
स्प	-540
▁पहुंच	-541
भाव	-542
▁कप	-543
▁पै	-544
स्तान	-545
▁प्रदेश	-546
दर्	-547
▁खिलाफ	-548
्‍य	-549
▁वा	-550
▁क्यों	-551
ोर	-552
क्ति	-553
वन	-554
णा	-555
्यक्ष	-556
▁नाम	-557
▁बि	-558
▁विकास	-559
क्रम	-560
▁शुरू	-561
▁लग	-562
▁न्या	-563
▁इं	-564
ग्र	-565
ोन	-566
फी	-567
▁राष्ट्र	-568
▁सबसे	-569
स्‍	-570
ीड	-571
▁सुर	-572
ज्ञ	-573
▁उसे	-574
िति	-575
▁परिव	-576
र्स	-577
शी	-578
▁दि	-579
▁लि	-580
पति	-581
▁6	-582
टना	-583
ाने	-584
पर	-585
▁जारी	-586
दे	-587
▁ख़	-588
▁करोड़	-589
▁फै	-590
हत	-591
ताओं	-592
▁जु	-593
▁लेकर	-594
आर	-595
म्	-596
चित	-597
त्व	-598
चना	-599
▁नी	-600
ाजपा	-601
▁जर	-602
वाद	-603
रण	-604
▁जि	-605
प्र	-606
क्स	-607
क्ट	-608
ूम	-609
▁पाकि	-610
ेष	-611
▁चल	-612
▁स्व	-613
▁पार्ट	-614
कारी	-615
▁होता	-616
▁गां	-617
▁हा	-618
▁ठ	-619
▁कंप	-620
▁टीम	-621
▁इंड	-622
▁बन	-623
ोध	-624
▁आज	-625
▁कारण	-626
▁जांच	-627
▁देने	-628
▁पु	-629
▁परि	-630
ानों	-631
सार	-632
▁दर्ज	-633
▁भाजपा	-634
ंब	-635
वाई	-636
▁जाएगा	-637
▁करें	-638
ुक	-639
्ड	-640
ेड	-641
्रा	-642
20	-643
▁यु	-644
▁चुनाव	-645
▁बैं	-646
ेज	-647
▁झ	-648
वास	-649
▁“	-650
र्ड	-651
ोष	-652
▁महिला	-653
▁हूं	-654
▁सद	-655
ोर्ट	-656
▁इससे	-657
सभा	-658
▁वाली	-659
▁मंत्रालय	-660
▁निक	-661
्ह	-662
िये	-663
स्था	-664
▁अधिकार	-665
▁पार्टी	-666
▁19	-667
▁बद	-668
▁ग्र	-669
▁"	-670
▁अब	-671
जर	-672
नि	-673
▁आरोप	-674
▁डॉ	-675
शत	-676
ध्य	-677
न्‍	-678
▁तीन	-679
ैन	-680
ोह	-681
▁करे	-682
▁बैठ	-683
ाली	-684
▁ऐसा	-685
▁अध्यक्ष	-686
ियां	-687
▁स्वा	-688
▁प्रा	-689
▁मुझे	-690
▁अच्छ	-691
▁ट्र	-692
▁साल	-693
▁इसमें	-694
त्म	-695
▁तै	-696
माण	-697
मत	-698
▁विध	-699
करण	-700
..	-701
ेंद्र	-702
▁हमारे	-703
▁कॉ	-704
▁7	-705
ीस	-706
▁एस	-707
▁अल	-708
पूर्	-709
▁यू	-710
▁वै	-711
▁आधार	-712
द्योग	-713
्यादा	-714
ीर	-715
▁हों	-716
ुक्त	-717
मुख	-718
▁पाकिस्तान	-719
▁बच्च	-720
▁10	-721
▁बो	-722
तिक	-723
▁योजना	-724
फ़	-725
ेशन	-726
▁अपना	-727
▁प्रतिशत	-728
▁जिन	-729
▁मुख्यमंत्री	-730
▁लोक	-731
▁किस	-732
धिक	-733
ष्ठ	-734
▁सेवा	-735
ची	-736
ियो	-737
िकी	-738
▁गिर	-739
ुमार	-740
ंत	-741
▁समझ	-742
दन	-743
▁विश्व	-744
▁विशेष	-745
▁ओर	-746
भाग	-747
▁वित	-748
▁ऐसे	-749
▁जैसे	-750
▁तुम्ह	-751
-1	-752
पूर्ण	-753
▁मन	-754
▁8	-755
▁गो	-756
▁इसे	-757
िता	-758
▁प्रश	-759
पुर	-760
ूत	-761
▁बु	-762
हम	-763
▁लाख	-764
▁एन	-765
दों	-766
टा	-767
▁पिछ	-768
▁यहां	-769
▁अमेर	-770
▁घटना	-771
▁मौत	-772
▁इस्	-773
▁ऊ	-774
▁हमें	-775
यी	-776
▁आर	-777
ाप्त	-778
धा	-779
▁टे	-780
▁ली	-781
▁होगी	-782
▁मार्	-783
एल	-784
वल	-785
लाह	-786
▁अग	-787
ीय	-788
▁अभी	-789
ांकि	-790
स्ता	-791
▁जबकि	-792
▁अंतर	-793
▁राष्ट्रीय	-794
ुनिया	-795
म्मी	-796
त्रा	-797
▁राह	-798
▁सच	-799
सं	-800
▁”	-801
▁हालांकि	-802
▁सुरक्षा	-803
ैंड	-804
▁पं	-805
वर्	-806
▁सुन	-807
▁अला	-808
▁राष्ट्रपति	-809
▁दा	-810
▁आए	-811
क़	-812
▁क्योंकि	-813
▁उम्मी	-814
▁उठ	-815
▁विभ	-816
▁प्रमुख	-817
▁काफी	-818
श्य	-819
▁अगर	-820
▁ऑफ	-821
ख्या	-822
▁कुमार	-823
▁जिसमें	-824
▁शिक्ष	-825
▁उम्मीद	-826
▁अलावा	-827
▁मद	-828
▁नई	-829
▁बैंक	-830
ताल	-831
एन	-832
▁खान	-833
यन	-834
ियन	-835
हार	-836
फ्त	-837
▁केंद्र	-838
▁तैय	-839
▁पद	-840
▁मौजू	-841
लिए	-842
),	-843
धि	-844
▁गांधी	-845
▁घर	-846
▁ज्यादा	-847
क्षण	-848
ांच	-849
ायर	-850
▁:	-851
▁ची	-852
▁छा	-853
न्द	-854
▁स्प	-855
▁महा	-856
श्म	-857
▁दु	-858
▁कार्यक्रम	-859
▁जानकारी	-860
▁मांग	-861
्यालय	-862
▁होती	-863
बाज	-864
एफ	-865
वेश	-866
लो	-867
▁कृ	-868
▁डी	-869
▁तहत	-870
ेंट	-871
▁फैस	-872
▁पिछले	-873
इन	-874
▁ब्र	-875
▁सदस	-876
▁न्याया	-877
क्‍	-878
▁करेंगे	-879
▁उसकी	-880
▁आगे	-881
▁वहीं	-882
▁व्या	-883
▁उपल	-884
▁ख़ु	-885
▁नेता	-886
िले	-887
▁मदद	-888
▁बैठक	-889
▁प्रदर्	-890
▁परिवार	-891
▁दर	-892
▁डि	-893
▁बल्	-894
तों	-895
▁हिस्	-896
▁खा	-897
▁पूरी	-898
ार्थ	-899
िन्न	-900
▁स्क	-901
▁पुर	-902
र्ष	-903
▁चे	-904
▁कान	-905
▁9	-906
त्य	-907
▁बनाने	-908
ंबर	-909
▁अनुसार	-910
णी	-911
ाया	-912
▁12	-913
पाल	-914
▁मूल	-915
▁भाग	-916
▁खेल	-917
▁अस्प	-918
▁पर्	-919
▁अधिकारी	-920
▁सम्म	-921
▁इंडिया	-922
▁नर	-923
बाद	-924
▁आयोज	-925
त्या	-926
▁उत्तर	-927
्ला	-928
ाला	-929
ताब	-930
▁इसका	-931
ेन	-932
▁घोष	-933
▁हमने	-934
▁विभाग	-935
▁कंपनी	-936
▁रो	-937
▁अस	-938
▁निय	-939
▁बॉ	-940
रि	-941
▁भूम	-942
तम	-943
▁चौ	-944
▁इसलिए	-945
इट	-946
कृत	-947
क्टर	-948
▁उनका	-949
▁तब	-950
▁मैच	-951
▁एम	-952
▁बड़ी	-953
तन	-954
▁योग	-955
▁चार	-956
▁परी	-957
तार	-958
▁सीट	-959
▁व्यक्ति	-960
लि	-961
▁आव	-962
▁दूसरे	-963
▁अर	-964
तु	-965
▁सकती	-966
▁स्‍	-967
▁शर्	-968
ियर	-969
▁विचार	-970
▁बेह	-971
ूट	-972
▁प्राप्त	-973
▁प्रो	-974
।"	-975
न्द्र	-976
▁शु	-977
फल	-978
000	-979
▁उपलब्	-980
▁केंद्रीय	-981
▁मिले	-982
ेंस	-983
▁मत	-984
▁तैयार	-985
▁कुल	-986
यान	-987
▁रिप	-988
शल	-989
प्	-990
▁मेरे	-991
श्च	-992
दारी	-993
▁गिरफ्त	-994
र्क	-995
▁अभि	-996
शा	-997
▁सूचना	-998
▁दिखा	-999
▁तौर	-1000
▁ख़ुदा	-1001
▁संग	-1002
▁जीत	-1003
ामी	-1004
▁कल	-1005
▁ढ	-1006
िकेट	-1007
▁विदेश	-1008
▁जहां	-1009
▁उसने	-1010
▁करी	-1011
▁स्थिति	-1012
ंगे	-1013
▁अल्	-1014
श्मीर	-1015
in	-1016
▁रेल	-1017
▁फ़	-1018
▁दुनिया	-1019
टन	-1020
▁पत्र	-1021
▁आत	-1022
▁जीवन	-1023
▁आने	-1024
बल	-1025
यास	-1026
▁मामला	-1027
ोवा	-1028
▁संख्या	-1029
ूरत	-1030
जब	-1031
▁दिए	-1032
▁उत्पा	-1033
▁मीड	-1034
▁याद	-1035
▁संय	-1036
मेश	-1037
▁अस्पताल	-1038
▁पहली	-1039
चे	-1040
▁प्रभाव	-1041
▁उच्च	-1042
ज्ञान	-1043
▁अवसर	-1044
▁सर्व	-1045
▁शाह	-1046
▁राम	-1047
▁लिये	-1048
स्थ्य	-1049
▁शा	-1050
िश्	-1051
▁पो	-1052
▁विभिन्न	-1053
दम	-1054
▁अलग	-1055
▁मीडिया	-1056
▁नए	-1057
गार	-1058
▁शे	-1059
▁उपयोग	-1060
▁मौके	-1061
धन	-1062
रिक	-1063
▁प्रदान	-1064
▁सामने	-1065
▁लॉ	-1066
▁आम	-1067
▁उपलब्ध	-1068
▁पार	-1069
▁15	-1070
▁पढ़	-1071
▁पूरा	-1072
वान	-1073
▁प्रकार	-1074
▁बड़ा	-1075
▁आस	-1076
ासन	-1077
▁होंगे	-1078
▁पेश	-1079
▁रिपोर्ट	-1080
▁बंद	-1081
ंबई	-1082
▁स्वास्थ्य	-1083
▁पंजा	-1084
ायल	-1085
▁जल	-1086
▁देशों	-1087
▁व्यव	-1088
्वी	-1089
हाय	-1090
▁सहयोग	-1091
▁क़	-1092
▁फीस	-1093
▁इसी	-1094
▁कीमत	-1095
▁जाना	-1096
रल	-1097
▁वाला	-1098
ूह	-1099
श्यक	-1100
▁आपको	-1101
मेंट	-1102
स्थान	-1103
▁शिक्षा	-1104
▁इसकी	-1105
▁महत्व	-1106
▁जग	-1107
▁केवल	-1108
▁प्रदर्शन	-1109
ेक	-1110
▁पता	-1111
ष्ट्र	-1112
▁निर्माण	-1113
▁कोर्ट	-1114
▁पड़	-1115
▁करती	-1116
▁बाज	-1117
▁लड़	-1118
जय	-1119
▁क्रिकेट	-1120
▁श्र	-1121
श्व	-1122
on	-1123
▁यहोवा	-1124
काश	-1125
▁पांच	-1126
त्रों	-1127
▁हे	-1128
▁शर्मा	-1129
▁स्थित	-1130
▁200	-1131
▁अधिकारियों	-1132
▁नजर	-1133
▁नरेंद्र	-1134
माल	-1135
▁आवश्यक	-1136
वाह	-1137
जेपी	-1138
▁मौजूद	-1139
र्फ	-1140
क्रिया	-1141
▁जाती	-1142
▁कभी	-1143
ायत	-1144
▁‘‘	-1145
ेस	-1146
▁पंजाब	-1147
▁यदि	-1148
▁विधान	-1149
▁सौ	-1150
ाइल	-1151
▁सहाय	-1152
▁भर	-1153
▁निर्देश	-1154
ल्ड	-1155
▁मुंबई	-1156
▁बढ़ा	-1157
▁होते	-1158
भव	-1159
▁गै	-1160
▁शहर	-1161
टक	-1162
हाँ	-1163
जार	-1164
यू	-1165
कृ	-1166
नाथ	-1167
▁कर्म	-1168
पित	-1169
▁स्तर	-1170
▁आया	-1171
▁ते	-1172
त्री	-1173
▁वो	-1174
▁अनुम	-1175
▁’	-1176
▁सचिव	-1177
▁नौ	-1178
▁समर्थ	-1179
▁सेना	-1180
लर	-1181
▁डे	-1182
डा	-1183
▁मिला	-1184
▁आग	-1185
▁अंत	-1186
▁राजनी	-1187
्यान	-1188
▁उद्	-1189
▁व्याप	-1190
▁लाभ	-1191
वरी	-1192
काल	-1193
▁सके	-1194
▁बस	-1195
हन	-1196
▁अद	-1197
▁चि	-1198
ुट	-1199
▁राहुल	-1200
षा	-1201
▁गिरफ्तार	-1202
▁अमेरिका	-1203
▁11	-1204
▁ऐसी	-1205
▁स्म	-1206
▁नागर	-1207
▁कौ	-1208
▁मुद्	-1209
▁बड़े	-1210
कर्	-1211
▁दक्ष	-1212
▁बीजेपी	-1213
ियोजना	-1214
▁कपूर	-1215
▁प्रयास	-1216
षण	-1217
▁स्थान	-1218
भार	-1219
▁जवा	-1220
ठन	-1221
▁शी	-1222
▁अफ	-1223
▁परियोजना	-1224
▁दर्	-1225
बंधन	-1226
▁हमारी	-1227
▁न्यायालय	-1228
ंगा	-1229
▁दिव	-1230
षि	-1231
तंत्र	-1232
an	-1233
ष्‍	-1234
यों	-1235
▁जाएगी	-1236
डे	-1237
मता	-1238
ृह	-1239
▁माल	-1240
ग्रह	-1241
▁मही	-1242
द्धि	-1243
▁जल्	-1244
जह	-1245
▁भे	-1246
▁मध्य	-1247
▁बाहर	-1248
ूरी	-1249
ायक	-1250
भग	-1251
▁न्यू	-1252
▁पूछ	-1253
▁मामलों	-1254
▁बर	-1255
▁सदस्य	-1256
हरा	-1257
▁फोन	-1258
▁पत्	-1259
वीर	-1260
▁.	-1261
▁छोड़	-1262
▁करके	-1263
▁देते	-1264
▁प्रक्रिया	-1265
▁परमेश	-1266
▁गा	-1267
▁न्याय	-1268
्ले	-1269
,000	-1270
▁नागरिक	-1271
लिया	-1272
ुष	-1273
ुद	-1274
▁क्षेत्रों	-1275
▁वीड	-1276
इस	-1277
▁बयान	-1278
▁उसका	-1279
ालन	-1280
ंका	-1281
▁वृ	-1282
▁जिसके	-1283
▁अति	-1284
ष्ट्रीय	-1285
▁कैसे	-1286
▁चला	-1287
▁करेगा	-1288
▁चर्	-1289
▁ताकि	-1290
नल	-1291
▁विरो	-1292
श्चिम	-1293
▁मैंने	-1294
ेंद	-1295
तेमाल	-1296
▁ध्यान	-1297
▁गं	-1298
ुआ	-1299
▁वजह	-1300
▁आतंक	-1301
▁S	-1302
र्थिक	-1303
▁तरफ	-1304
▁जे	-1305
▁रहने	-1306
▁संप	-1307
ात	-1308
▁राज्यों	-1309
▁गयी	-1310
▁पीएम	-1311
▁करीब	-1312
▁दक्षि	-1313
ांत	-1314
्‍वर	-1315
▁लगभग	-1316
ंदी	-1317
▁चीन	-1318
▁लेने	-1319
गू	-1320
▁फैसला	-1321
गढ़	-1322
er	-1323
▁जिले	-1324
्प	-1325
▁भूमिका	-1326
▁संबंधित	-1327
▁वीडियो	-1328
▁प्रण	-1329
सम	-1330
▁स्कूल	-1331
▁तेल	-1332
▁कार्र	-1333
▁उम्मीदवार	-1334
▁अल्लाह	-1335
ैल	-1336
▁विधानसभा	-1337
▁होना	-1338
मिक	-1339
▁फर	-1340
▁रोक	-1341
▁धारा	-1342
▁रे	-1343
तना	-1344
िशा	-1345
▁आयोग	-1346
▁परीक्षा	-1347
रात	-1348
▁दूर	-1349
▁निवेश	-1350
▁जगह	-1351
▁संघ	-1352
▁मिली	-1353
▁शेयर	-1354
बार	-1355
▁नियम	-1356
▁स्था	-1357
िक्ष	-1358
▁लिख	-1359
▁कार्रवाई	-1360
▁आदेश	-1361
▁सहित	-1362
व्य	-1363
▁कोवि	-1364
ar	-1365
▁महत्वपूर्ण	-1366
▁14	-1367
▁मं	-1368
▁फीसदी	-1369
▁पानी	-1370
▁सीमा	-1371
▁इस्तेमाल	-1372
▁आर्थिक	-1373
ल्प	-1374
▁दिनों	-1375
▁रखा	-1376
▁रक्षा	-1377
▁आरोपी	-1378
▁13	-1379
▁कृषि	-1380
ुड	-1381
भीर	-1382
▁जिसे	-1383
▁कानून	-1384
al	-1385
▁कोश	-1386
▁मिश	-1387
▁मृत	-1388
▁घायल	-1389
▁पूर्	-1390
▁सफल	-1391
म्मू	-1392
फा	-1393
▁मजब	-1394
▁चुके	-1395
▁इला	-1396
▁माध्य	-1397
शु	-1398
द्यालय	-1399
चान	-1400
▁वरि	-1401
▁आद	-1402
▁जवाब	-1403
▁शिव	-1404
▁महारा	-1405
▁वित्त	-1406
▁अर्थ	-1407
▁I	-1408
▁रन	-1409
▁सुवि	-1410
शि	-1411
िक्स	-1412
▁उद्योग	-1413
ित्र	-1414
ंदर	-1415
▁तरी	-1416
त्‍	-1417
▁बाजार	-1418
▁टेस्ट	-1419
▁दल	-1420
▁खे	-1421
▁अहम	-1422
▁पश्चिम	-1423
ताबिक	-1424
▁18	-1425
▁रखने	-1426
▁मुताबिक	-1427
▁अदाल	-1428
▁गति	-1429
▁कर्	-1430
त्ता	-1431
▁हाथ	-1432
▁खुद	-1433
्टी	-1434
▁बनाए	-1435
▁सिर्फ	-1436
▁हिस्सा	-1437
▁समूह	-1438
▁जम्मू	-1439
▁जनता	-1440
▁विष	-1441
▁बनाया	-1442
▁कश्मीर	-1443
न्होंने	-1444
िनियम	-1445
▁बच्चों	-1446
▁लगाया	-1447
▁जिससे	-1448
र्च	-1449
▁परमेश्‍वर	-1450
▁अभिने	-1451
▁वहां	-1452
ोस	-1453
तियों	-1454
सेना	-1455
जों	-1456
▁डाल	-1457
▁हास	-1458
▁बेट	-1459
त्मक	-1460
▁C	-1461
▁बोर्ड	-1462
बीआई	-1463
क्षित	-1464
ख़	-1465
▁गंभीर	-1466
▁चाहते	-1467
ग्	-1468
▁खरी	-1469
▁गृह	-1470
▁रुपए	-1471
▁आयोजित	-1472
▁सुधार	-1473
▁सामान	-1474
▁एज	-1475
▁सड़	-1476
▁P	-1477
▁R	-1478
▁चर्चा	-1479
▁यात्रा	-1480
सल	-1481
▁रोज	-1482
▁जाते	-1483
▁चुन	-1484
▁पूरे	-1485
at	-1486
▁जरूरत	-1487
▁समा	-1488
▁समिति	-1489
ॉल	-1490
हरी	-1491
▁बिल	-1492
▁25	-1493
▁मेरी	-1494
रों	-1495
...	-1496
▁ट्रे	-1497
स्थित	-1498
▁सार	-1499
▁धन	-1500
▁बंग	-1501
िस्ट	-1502
▁अधिनियम	-1503
▁मार	-1504
▁संयुक्त	-1505
िरा	-1506
▁थीं	-1507
▁देता	-1508
▁समर्थन	-1509
िटी	-1510
▁गुज	-1511
हास	-1512
▁सुविधा	-1513
▁वरिष्ठ	-1514
झा	-1515
▁हासिल	-1516
ील	-1517
▁शिकायत	-1518
▁एयर	-1519
▁अच्छा	-1520
ष्‍ट	-1521
मे	-1522
▁महाराष्ट्र	-1523
▁"""	-1524
स्या	-1525
▁पक्ष	-1526
ेट्र	-1527
▁वाप	-1528
▁सांस	-1529
▁A	-1530
ंभ	-1531
▁कदम	-1532
▁दौ	-1533
▁लिखा	-1534
हाल	-1535
▁अदालत	-1536
▁लागू	-1537
वरण	-1538
र्जी	-1539
▁रस	-1540
▁दक्षिण	-1541
▁कहना	-1542
भर	-1543
▁स्वी	-1544
▁वायर	-1545
वादी	-1546
▁बल्कि	-1547
▁संस	-1548
ानि	-1549
▁पोस्ट	-1550
▁डा	-1551
▁धर्म	-1552
▁लक्ष	-1553
प्री	-1554
▁जल्द	-1555
िम्म	-1556
▁तुम्हारे	-1557
ियान	-1558
▁जिला	-1559
उन	-1560
▁दृ	-1561
ज़ा	-1562
▁बज	-1563
▁१	-1564
ियाणा	-1565
▁दें	-1566
सत	-1567
कट	-1568
▁किसानों	-1569
ांस	-1570
्तान	-1571
▁संभाव	-1572
-19	-1573
▁16	-1574
"""	-1575
ीक	-1576
▁फ्र	-1577
▁लोकसभा	-1578
धिकार	-1579
▁घोषणा	-1580
▁इंटर	-1581
टे	-1582
िवार	-1583
▁नीति	-1584
ण्ड	-1585
▁2019	-1586
▁रण	-1587
▁कोशिश	-1588
▁महीने	-1589
▁सरकारी	-1590
▁अप्र	-1591
▁समस्या	-1592
क्ता	-1593
▁सहायता	-1594
▁हत्या	-1595
तिम	-1596
▁माध्यम	-1597
▁2020	-1598
▁हजार	-1599
र्गत	-1600
▁हरियाणा	-1601
▁प्रकाश	-1602
ंडी	-1603
वुड	-1604
तरी	-1605
र्जा	-1606
्क	-1607
es	-1608
▁प्रौ	-1609
ष्टि	-1610
ॉन	-1611
▁पिता	-1612
▁बेहतर	-1613
▁व्यक्त	-1614
देशक	-1615
बू	-1616
मु	-1617
तिहास	-1618
▁सवाल	-1619
्‍या	-1620
राज	-1621
त्ति	-1622
▁कैम	-1623
लाई	-1624
▁बल	-1625
▁पैदा	-1626
▁उल्	-1627
▁अन्	-1628
बे	-1629
▁संब	-1630
स्ताव	-1631
▁तम	-1632
ांति	-1633
▁30	-1634
वेदन	-1635
▁बदल	-1636
▁प्रौद्योग	-1637
▁यही	-1638
िश्चित	-1639
▁बिहार	-1640
मन	-1641
▁समाज	-1642
▁ज़र	-1643
▁बचा	-1644
▁तीस	-1645
▁देखा	-1646
काब	-1647
▁भेज	-1648
▁प्रस्ताव	-1649
णाम	-1650
▁गेंद	-1651
▁दूसरी	-1652
▁विरोध	-1653
▁लगे	-1654
▁गुजरात	-1655
ेम	-1656
▁तस्	-1657
▁पहचान	-1658
▁आपके	-1659
▁सें	-1660
कल	-1661
र्ग	-1662
▁चुकी	-1663
▁बदला	-1664
ल्स	-1665
▁कोविड	-1666
▁निर्ण	-1667
▁युवा	-1668
ंद्र	-1669
▁कहते	-1670
नीय	-1671
विद्यालय	-1672
वीं	-1673
▁क्षमता	-1674
▁उठा	-1675
▁सै	-1676
कृति	-1677
अप	-1678
▁मंद	-1679
गल	-1680
एच	-1681
▁गये	-1682
लीवुड	-1683
ंडल	-1684
ोप	-1685
▁यून	-1686
▁सम्मान	-1687
▁एंड	-1688
▁गल	-1689
ांड	-1690
▁उनसे	-1691
▁संर	-1692
▁करो	-1693
स्ट्रे	-1694
▁विप	-1695
विष	-1696
▁भाई	-1697
▁मार्ग	-1698
▁परिणाम	-1699
▁50	-1700
▁ट्वी	-1701
स्तव	-1702
न्हें	-1703
ूर्ति	-1704
▁प्रयोग	-1705
▁अच्छी	-1706
िकल	-1707
स्कार	-1708
▁सोशल	-1709
तरा	-1710
ेशा	-1711
▁मी	-1712
▁वृद्धि	-1713
पन	-1714
▁ठीक	-1715
▁कंपन	-1716
▁पर्या	-1717
▁पुन	-1718
▁शुरुआ	-1719
▁B	-1720
▁पीछ	-1721
▁गांव	-1722
शोध	-1723
▁सही	-1724
▁सैन	-1725
▁अमेरिकी	-1726
मर	-1727
चन	-1728
▁वेब	-1729
▁भारी	-1730
ग्री	-1731
▁24	-1732
लू	-1733
▁पे	-1734
▁0	-1735
▁देना	-1736
▁पट	-1737
▁रै	-1738
▁वाय	-1739
ेद	-1740
▁एक्स	-1741
▁अतिरिक	-1742
▁ट्वीट	-1743
▁मुकाब	-1744
▁वी	-1745
▁गुर	-1746
▁भु	-1747
▁महिलाओं	-1748
▁रि	-1749
ब्द	-1750
▁बिना	-1751
तृ	-1752
ानीय	-1753
िम्मे	-1754
▁आदि	-1755
▁सार्व	-1756
▁व्यवस्था	-1757
स्ट्रेलिया	-1758
▁लगता	-1759
▁हूँ	-1760
99	-1761
or	-1762
▁पत्नी	-1763
▁कोरो	-1764
▁प्रशासन	-1765
ायी	-1766
▁हमले	-1767
▁रिक	-1768
▁उद	-1769
सीसी	-1770
▁मंदिर	-1771
▁निश	-1772
▁जय	-1773
वाले	-1774
▁—	-1775
▁वन	-1776
▁M	-1777
▁भविष	-1778
ंसा	-1779
▁हमेशा	-1780
▁एल	-1781
▁17	-1782
▁खबर	-1783
शिया	-1784
▁चुका	-1785
.5	-1786
▁बंगाल	-1787
▁प्रौद्योगिकी	-1788
नेट	-1789
▁उससे	-1790
▁उसी	-1791
▁लगातार	-1792
▁2018	-1793
▁राजनीतिक	-1794
▁भाषा	-1795
▁कमी	-1796
चीत	-1797
▁चिक	-1798
ाजिक	-1799
▁सल	-1800
▁अर्	-1801
▁बने	-1802
en	-1803
▁पहला	-1804
▁2017	-1805
▁सिद्ध	-1806
सान	-1807
खंड	-1808
▁बातचीत	-1809
▁दिशा	-1810
शनल	-1811
एँ	-1812
▁ईमान	-1813
▁बिज	-1814
ंगल	-1815
▁वाह	-1816
▁अवधि	-1817
▁अगले	-1818
किंग	-1819
मो	-1820
▁स्पष्ट	-1821
▁नियंत्र	-1822
▁सुनिश्चित	-1823
चल	-1824
▁ऊर्जा	-1825
▁बाइ	-1826
चिका	-1827
साह	-1828
रिया	-1829
ारोह	-1830
▁हाई	-1831
▁संगठन	-1832
िली	-1833
▁रेलवे	-1834
ुओं	-1835
▁समुद	-1836
▁प्रत्य	-1837
▁इनमें	-1838
▁भाव	-1839
▁नोट	-1840
जनिक	-1841
▁कोह	-1842
अल	-1843
▁मॉ	-1844
▁कोरोना	-1845
▁विमान	-1846
▁समारोह	-1847
▁मजबूत	-1848
बाजी	-1849
▁विषय	-1850
र्ती	-1851
▁सलाह	-1852
▁ज्ञ	-1853
▁किये	-1854
▁बॉलीवुड	-1855
▁आधारित	-1856
▁लाल	-1857
▁बल्ले	-1858
▁शि	-1859
ार्म	-1860
▁ऋ	-1861
▁भू	-1862
▁तेज	-1863
▁सामाजिक	-1864
उस	-1865
▁भविष्य	-1866
सित	-1867
लब	-1868
▁चाल	-1869
ूब	-1870
▁बच	-1871
▁निजी	-1872
▁विधायक	-1873
▁सड़क	-1874
▁चाहता	-1875
▁डॉलर	-1876
ार्ड	-1877
▁छोट	-1878
तमान	-1879
ेलन	-1880
▁वास्तव	-1881
फोन	-1882
ेत	-1883
ेंड	-1884
न्म	-1885
लाइन	-1886
▁अंतिम	-1887
▁यादव	-1888
▁स्थानीय	-1889
▁बाल	-1890
▁सार्वजनिक	-1891
▁निर्णय	-1892
▁क्ल	-1893
▁उद्देश	-1894
▁छात्रों	-1895
▁प्रतिनि	-1896
▁ती	-1897
▁खास	-1898
▁नगर	-1899
▁हाद	-1900
▁याचिका	-1901
▁कराया	-1902
▁लौ	-1903
चर	-1904
मैं	-1905
क्शन	-1906
राब	-1907
▁विस्त	-1908
रीज	-1909
▁वालों	-1910
नर	-1911
▁अभियान	-1912
▁शव	-1913
▁सुप्री	-1914
▁विद्य	-1915
▁प्रणाली	-1916
▁समझौ	-1917
▁चुनौ	-1918
▁प्रभावित	-1919
▁एफ	-1920
विध	-1921
घा	-1922
्ब	-1923
▁संस्	-1924
▁तस्वीर	-1925
निर्	-1926
▁सामान्य	-1927
▁भर्ती	-1928
▁संभावना	-1929
कृतिक	-1930
ंख	-1931
▁व्यापार	-1932
पू	-1933
▁विश्वविद्यालय	-1934
▁समान	-1935
▁अतिरिक्त	-1936
▁चिकित	-1937
पट	-1938
▁केस	-1939
▁मना	-1940
▁हिंद	-1941
▁गठ	-1942
▁विरा	-1943
▁एड	-1944
▁पीछे	-1945
ड्ड	-1946
▁तुल	-1947
फ्	-1948
मित	-1949
▁राजस्थान	-1950
▁अपरा	-1951
▁करा	-1952
▁चा	-1953
▁जम	-1954
▁विकेट	-1955
▁कार्ड	-1956
▁N	-1957
वें	-1958
डल	-1959
▁(1	-1960
▁दुर्	-1961
फर	-1962
ic	-1963
ामीण	-1964
▁मेरा	-1965
▁चरण	-1966
▁पस	-1967
▁वर्तमान	-1968
▁मिलने	-1969
▁विज्ञान	-1970
▁तला	-1971
शील	-1972
सि	-1973
▁प्रशिक्ष	-1974
▁पुरस्कार	-1975
▁साह	-1976
ॉय	-1977
▁कप्तान	-1978
दीप	-1979
ब्ल	-1980
▁सित	-1981
▁तेजी	-1982
सू	-1983
▁कोहली	-1984
जल	-1985
▁मुला	-1986
▁वर्ग	-1987
ौल	-1988
▁100	-1989
▁रसूल	-1990
▁स्मार्ट	-1991
▁नेताओं	-1992
ाज़	-1993
▁फोट	-1994
▁बच्चे	-1995
तः	-1996
▁संबोध	-1997
▁वापस	-1998
▁शरी	-1999
▁,	-2000
किल	-2001
▁निभा	-2002
और	-2003
▁फिलहाल	-2004
▁सुप्रीम	-2005
साइट	-2006
▁अंग	-2007
▁ग्रामीण	-2008
ंज	-2009
तक	-2010
▁पर्य	-2011
▁कौन	-2012
▁जिसका	-2013
न्‍ह	-2014
▁प्रबंधन	-2015
ोजन	-2016
▁गण	-2017
है	-2018
▁नया	-2019
▁उनमें	-2020
▁मानव	-2021
म्प	-2022
▁उत्पादन	-2023
ड़ों	-2024
▁मोह	-2025
मार	-2026
▁धो	-2027
▁सांसद	-2028
▁मि	-2029
ियल	-2030
सन	-2031
▁वक्त	-2032
▁अमित	-2033
▁परिवर्	-2034
▁एक्ट	-2035
ट्ट	-2036
बह	-2037
लैंड	-2038
▁हमला	-2039
▁संशोध	-2040
▁नेतृ	-2041
करी	-2042
पना	-2043
▁मर	-2044
▁देव	-2045
लेख	-2046
▁पेट्र	-2047
▁शै	-2048
▁आवश्यकता	-2049
▁इल	-2050
राष्ट्रीय	-2051
▁मगर	-2052
▁मंजू	-2053
वासी	-2054
▁बढ़ाने	-2055
नाटक	-2056
▁श्रे	-2057
▁मल	-2058
.0	-2059
▁आध	-2060
▁लॉन्	-2061
▁बोल	-2062
▁अप्रैल	-2063
▁शीर्ष	-2064
▁वार	-2065
▁राय	-2066
▁मार्च	-2067
▁जून	-2068
▁प्रत्येक	-2069
ंगी	-2070
▁दिवस	-2071
▁तकनी	-2072
▁सूची	-2073
गम	-2074
▁जमा	-2075
▁वही	-2076
▁परिष	-2077
▁ब्ल	-2078
र्न	-2079
यक	-2080
▁शांति	-2081
त्त	-2082
▁गिरा	-2083
▁अली	-2084
▁तुलना	-2085
बद्ध	-2086
▁कारो	-2087
▁पाया	-2088
▁पृ	-2089
ेंसी	-2090
▁त्र	-2091
▁सामना	-2092
राह	-2093
▁प्रव	-2094
यह	-2095
▁तू	-2096
िद	-2097
▁आयोजन	-2098
▁संस्था	-2099
ॉप	-2100
▁देखते	-2101
▁विश्	-2102
▁आन	-2103
न्स	-2104
▁दावा	-2105
क्‍त	-2106
▁रिज	-2107
▁गुण	-2108
▁अंक	-2109
▁विवाद	-2110
▁एच	-2111
▁कर्नाटक	-2112
▁राशि	-2113
▁मंजूरी	-2114
▁सात	-2115
▁21	-2116
▁दिख	-2117
▁कंपनियों	-2118
▁शुरुआत	-2119
▁विकसित	-2120
कात	-2121
▁पड़ा	-2122
▁करेगी	-2123
ॉर्ड	-2124
ंदा	-2125
▁आरोपियों	-2126
▁नुक	-2127
▁विन	-2128
▁प्रत	-2129
▁निर्धार	-2130
र्य	-2131
ित्य	-2132
▁शो	-2133
▁सोच	-2134
▁आवेदन	-2135
▁स्वीकार	-2136
▁जिम्मे	-2137
▁पेट्रोल	-2138
यात	-2139
▁कला	-2140
▁विश्वास	-2141
▁शादी	-2142
▁जुड़े	-2143
▁संबंधी	-2144
▁संच	-2145
▁खरीद	-2146
▁यी	-2147
ब्र	-2148
▁सदस्यों	-2149
▁नेतृत्व	-2150
201	-2151
▁जाएंगे	-2152
क्षी	-2153
फ्ट	-2154
खिल	-2155
▁तुम्हें	-2156
▁ड्र	-2157
वधान	-2158
▁पक	-2159
▁बेटे	-2160
.1	-2161
ियाँ	-2162
ोरे	-2163
▁तय	-2164
▁जता	-2165
▁वेबसाइट	-2166
▁फैसले	-2167
वाला	-2168
मारी	-2169
्यु	-2170
▁तरीके	-2171
ंतर	-2172
▁अध्य	-2173
▁घोषित	-2174
▁आतंकवाद	-2175
▁देखने	-2176
▁सीटों	-2177
▁अनुमति	-2178
▁जरिए	-2179
▁निदेशक	-2180
▁छात्र	-2181
न्तु	-2182
▁बदलाव	-2183
वस्था	-2184
▁बनी	-2185
▁संसद	-2186
▁राज्‍य	-2187
▁सम्मेलन	-2188
ुस	-2189
▁यीशु	-2190
▁तमिल	-2191
▁आख	-2192
▁समी	-2193
▁मां	-2194
▁फाइ	-2195
▁लेख	-2196
▁संसा	-2197
▁उन्‍ह	-2198
▁ति	-2199
▁नंबर	-2200
▁रहते	-2201
▁संवि	-2202
▁खिलाड़ी	-2203
▁घंट	-2204
स्ल	-2205
▁शान	-2206
▁बारिश	-2207
▁अने	-2208
▁समेत	-2209
▁ऊपर	-2210
ैक	-2211
▁लॉन्च	-2212
▁हमारा	-2213
▁अपराध	-2214
तान	-2215
ित्व	-2216
ठी	-2217
▁सीबीआई	-2218
कर्ता	-2219
▁आत्म	-2220
लेज	-2221
▁स्वतंत्र	-2222
▁नरे	-2223
▁यहाँ	-2224
▁स्थापित	-2225
▁अच्छे	-2226
▁छह	-2227
▁शक्ति	-2228
▁विदेशी	-2229
श्विक	-2230
डु	-2231
▁लगाने	-2232
ग़	-2233
ion	-2234
▁नुकसान	-2235
▁रात	-2236
धीश	-2237
▁जन्म	-2238
▁अनुर	-2239
▁अथ	-2240
साथ	-2241
▁आंक	-2242
▁निकाल	-2243
▁लो	-2244
▁कार्यालय	-2245
it	-2246
रीब	-2247
▁मूल्य	-2248
▁अंतर्गत	-2249
▁मुक	-2250
▁कैमरा	-2251
▁किलो	-2252
स्क	-2253
▁पड़े	-2254
▁प्राथ	-2255
ॉक	-2256
▁रंग	-2257
▁जिनमें	-2258
कत	-2259
संधान	-2260
रु	-2261
▁विश्‍	-2262
▁फॉ	-2263
▁ब्रिट	-2264
फे	-2265
कर्म	-2266
▁इंग	-2267
▁उनको	-2268
▁जेल	-2269
ोत्	-2270
▁सच्च	-2271
▁वैश्विक	-2272
▁समुदाय	-2273
▁पहल	-2274
▁मसी	-2275
▁कराने	-2276
▁चीज़	-2277
▁रोह	-2278
▁लक्ष्य	-2279
▁रखते	-2280
▁ट्रंप	-2281
▁प्रेर	-2282
▁दोष	-2283
▁रेड	-2284
▁मुलाकात	-2285
▁युद्ध	-2286
▁अनुसंधान	-2287
▁केन्द्र	-2288
▁ऑन	-2289
ूबर	-2290
▁भेजा	-2291
▁अंतर्रा	-2292
▁अरब	-2293
▁कोल	-2294
िमिट	-2295
▁पाए	-2296
▁22	-2297
ॉट	-2298
वै	-2299
▁ऑस्ट्रेलिया	-2300
▁इतिहास	-2301
▁बेहद	-2302
▁माना	-2303
▁पहुंचे	-2304
▁उपस्थित	-2305
▁अनेक	-2306
▁जैसी	-2307
▁संक्रम	-2308
▁परिषद	-2309
वट	-2310
िकों	-2311
्‍त	-2312
▁हादसे	-2313
ूं	-2314
▁राष्‍ट	-2315
▁पूर्ण	-2316
स्त्र	-2317
▁जनवरी	-2318
▁लाने	-2319
्यता	-2320
▁दिस	-2321
ट्र	-2322
▁नीचे	-2323
▁बध	-2324
▁एशिया	-2325
▁जैसा	-2326
यं	-2327
▁भुगत	-2328
ामा	-2329
तनी	-2330
▁संस्थान	-2331
▁जानते	-2332
पोर्ट	-2333
▁नियंत्रण	-2334
ंघ	-2335
▁अधीन	-2336
▁बेटी	-2337
▁मुद्दे	-2338
▁केरल	-2339
न्व	-2340
ाहरण	-2341
स्ते	-2342
▁किताब	-2343
▁प्रार	-2344
st	-2345
▁हार	-2346
एसटी	-2347
▁अंतरराष्ट्रीय	-2348
▁बिजली	-2349
▁मेगा	-2350
ूक	-2351
▁बढ़ावा	-2352
एक	-2353
▁उम	-2354
▁होकर	-2355
िमिटेड	-2356
▁रोग	-2357
▁टै	-2358
्वर	-2359
▁क्व	-2360
▁वर्षों	-2361
▁मिलेगा	-2362
▁चलते	-2363
▁किसान	-2364
▁प्ल	-2365
र्श	-2366
▁साइ	-2367
▁विराट	-2368
▁संविधान	-2369
▁पंच	-2370
▁संबोधित	-2371
▁सभा	-2372
▁मौजूदा	-2373
▁तारी	-2374
▁अध्ययन	-2375
कारा	-2376
्तीय	-2377
▁अक्ष	-2378
▁सोन	-2379
▁इले	-2380
ताह	-2381
▁वायरस	-2382
▁इंस्ट	-2383
पक	-2384
▁–	-2385
िटल	-2386
▁बधाई	-2387
▁कहीं	-2388
▁हित	-2389
▁माह	-2390
▁दूसरा	-2391
▁पीड़	-2392
▁पति	-2393
कर्ताओं	-2394
▁योगदान	-2395
▁रज	-2396
▁इलाज	-2397
▁उत्पाद	-2398
म्मद	-2399
▁नव	-2400
▁नम	-2401
▁ठा	-2402
.2	-2403
▁कट	-2404
व्यवस्था	-2405
▁प्य	-2406
पूर्व	-2407
▁फोटो	-2408
▁केन्द	-2409
▁गैर	-2410
▁वायु	-2411
बाइल	-2412
मार्	-2413
▁T	-2414
▁न्यायाधीश	-2415
di	-2416
▁करवा	-2417
▁मू	-2418
▁उद्देश्य	-2419
▁प्रशिक्षण	-2420
▁जोर	-2421
▁सर्	-2422
▁सफलता	-2423
▁सलमान	-2424
▁फाय	-2425
▁लगी	-2426
▁मई	-2427
▁लड़ा	-2428
▁उदाहरण	-2429
▁छोटे	-2430
▁प्रिय	-2431
.3	-2432
मीटर	-2433
▁युव	-2434
▁प्रवेश	-2435
जूद	-2436
▁निकल	-2437
▁प्रतिक	-2438
▁सत्र	-2439
▁बिक	-2440
ज़र	-2441
▁तत्	-2442
▁अभिनेता	-2443
▁आश	-2444
▁मिस	-2445
▁गौर	-2446
▁वित्तीय	-2447
▁उसमें	-2448
▁प्रचार	-2449
▁केन्द्रीय	-2450
स्व	-2451
ष्ण	-2452
▁इंग्ल	-2453
.4	-2454
सों	-2455
▁2016	-2456
▁परेश	-2457
▁अपील	-2458
▁चयन	-2459
चारियों	-2460
▁उत्‍	-2461
▁कठ	-2462
▁रु	-2463
काम	-2464
▁अग्र	-2465
▁फी	-2466
▁प्रतिनिध	-2467
िड	-2468
दू	-2469
▁डेट	-2470
▁वोट	-2471
▁प्रस्त	-2472
▁भूमि	-2473
ोद	-2474
▁परिवर्तन	-2475
▁भुगतान	-2476
▁सां	-2477
GB	-2478
भाल	-2479
▁प्रभ	-2480
▁सुना	-2481
▁जुलाई	-2482
▁दू	-2483
-2	-2484
ड़ने	-2485
▁अनुभव	-2486
फ्र	-2487
▁पहुंची	-2488
▁संपर्क	-2489
▁निर	-2490
▁साफ	-2491
▁सीरीज	-2492
ाइम	-2493
▁गलत	-2494
▁संदेश	-2495
▁पहुँ	-2496
▁संभव	-2497
कश्मीर	-2498
ड़ियों	-2499
टल	-2500
▁40	-2501
म्बर	-2502
बि	-2503
▁मिलकर	-2504
▁जिन्होंने	-2505
▁23	-2506
जो	-2507
▁जरूरी	-2508
▁सुनवाई	-2509
▁खुश	-2510
जरी	-2511
▁घा	-2512
बीर	-2513
नियर	-2514
▁वस्त	-2515
गो	-2516
▁कथ	-2517
जीत	-2518
▁बाइबल	-2519
▁इनकार	-2520
▁चिं	-2521
▁भ्र	-2522
▁लिमिटेड	-2523
▁31	-2524
50	-2525
▁जित	-2526
▁असम	-2527
▁रिली	-2528
▁अफ्री	-2529
▁अनुमान	-2530
▁28	-2531
धिकारिक	-2532
▁बाव	-2533
▁निपट	-2534
▁हवाई	-2535
▁विजय	-2536
्याण	-2537
क्ट्र	-2538
प्ताह	-2539
कारों	-2540
▁इन्	-2541
▁बांग	-2542
▁नेट	-2543
कम	-2544
▁कर्मचारियों	-2545
क्षक	-2546
▁1,	-2547
साय	-2548
▁हिस्से	-2549
▁जस्ट	-2550
▁डाय	-2551
▁स्मार्टफोन	-2552
▁प्रवक्ता	-2553
▁छो	-2554
▁राजनीति	-2555
▁जाये	-2556
▁उपाय	-2557
इड	-2558
▁सत	-2559
▁पढ़ें	-2560
▁आधिकारिक	-2561
▁प्ले	-2562
▁सुरक्षित	-2563
स्लिम	-2564
▁प्रग	-2565
▁मोबाइल	-2566
▁G	-2567
कु	-2568
▁प्राथमिक	-2569
▁बजट	-2570
.7	-2571
le	-2572
।"""	-2573
त्मा	-2574
▁जिसने	-2575
यल	-2576
ंकी	-2577
केट	-2578
▁कल्याण	-2579
▁धर	-2580
राबाद	-2581
▁इलाके	-2582
▁इका	-2583
िरी	-2584
▁महान	-2585
▁परिज	-2586
तने	-2587
▁ग़	-2588
▁आईपी	-2589
▁डर	-2590
▁शुभ	-2591
▁आठ	-2592
ँव	-2593
▁विधे	-2594
▁मिशन	-2595
▁अर्थव्यवस्था	-2596
▁विल	-2597
▁उल्लेख	-2598
रेलू	-2599
▁रोजगार	-2600
▁बावजूद	-2601
ोम	-2602
▁बल्लेबाज	-2603
▁शानदार	-2604
▁ट्रेन	-2605
साद	-2606
▁सुबह	-2607
दर्भ	-2608
▁सीएम	-2609
▁लागत	-2610
▁मुकाबले	-2611
▁पसंद	-2612
▁विस्तार	-2613
▁जिन्हें	-2614
त्रियों	-2615
ख्त	-2616
▁लें	-2617
▁मेड	-2618
▁रहेगा	-2619
ांक	-2620
▁राजा	-2621
▁प्रेम	-2622
थम	-2623
▁परीक्षण	-2624
▁अथवा	-2625
▁कारोबार	-2626
वत	-2627
▁दिखाई	-2628
▁परवर	-2629
▁चुनौती	-2630
ार्ज	-2631
▁बजे	-2632
▁हालत	-2633
▁जनरल	-2634
गन	-2635
▁निर्धारित	-2636
▁घरेलू	-2637
्रिय	-2638
▁चिकित्	-2639
ियार	-2640
त्ती	-2641
▁H	-2642
▁रू	-2643
▁इंग्लैंड	-2644
▁लंब	-2645
.6	-2646
सूस	-2647
▁स्वयं	-2648
▁हिंसा	-2649
ियोग	-2650
▁टा	-2651
▁बनने	-2652
▁26	-2653
▁डॉक्टर	-2654
ायद	-2655
उट	-2656
हान	-2657
▁संजय	-2658
▁खो	-2659
▁उन्‍होंने	-2660
ख्	-2661
▁समीक्षा	-2662
न्ध	-2663
ॉम	-2664
पान	-2665
▁साझा	-2666
क्षर	-2667
▁संग्रह	-2668
▁गैस	-2669
बित	-2670
▁पाठ	-2671
▁सुपर	-2672
▁हैद	-2673
दु	-2674
ro	-2675
▁भवन	-2676
▁जस्टिस	-2677
घाटन	-2678
खर	-2679
▁सारे	-2680
्रिया	-2681
▁अंतर्राष्ट्रीय	-2682
▁गठबंधन	-2683
मैन	-2684
ग्राम	-2685
ुल्क	-2686
▁खर्च	-2687
▁फरवरी	-2688
▁संशोधन	-2689
▁यूरो	-2690
▁शब्द	-2691
▁तु	-2692
रान	-2693
स्तानी	-2694
▁गतिविध	-2695
िको	-2696
▁ज्ञान	-2697
▁प्यार	-2698
▁अश	-2699
▁विधि	-2700
▁राहत	-2701
am	-2702
▁नदी	-2703
धे	-2704
बारी	-2705
▁आता	-2706
▁ऑनलाइन	-2707
▁२	-2708
▁पुरुष	-2709
थि	-2710
▁मिलेगी	-2711
▁समाधान	-2712
▁भावना	-2713
▁रहेंगे	-2714
▁दोस्त	-2715
.8	-2716
▁मुस्लिम	-2717
कर्ष	-2718
▁सप्ताह	-2719
▁अका	-2720
▁कानू	-2721
जु	-2722
▁खत्म	-2723
पु	-2724
ंजी	-2725
▁हिरा	-2726
▁आंध	-2727
▁विधेयक	-2728
▁रोहित	-2729
यु	-2730
दिगार	-2731
टरी	-2732
▁मश	-2733
▁किर	-2734
▁मौसम	-2735
प्त	-2736
▁तलाश	-2737
▁27	-2738
▁हिरासत	-2739
पे	-2740
उंट	-2741
▁वैज्ञान	-2742
▁पटेल	-2743
▁गिरावट	-2744
िलों	-2745
▁/	-2746
▁D	-2747
▁प्रगति	-2748
िक्सल	-2749
्लादेश	-2750
▁टिप	-2751
▁खूब	-2752
▁बढ़कर	-2753
▁पर्यावरण	-2754
▁परवरदिगार	-2755
▁चाहे	-2756
▁सक्रिय	-2757
िमंडल	-2758
▁अगस्त	-2759
राने	-2760
\\	-2761
▁खाद्य	-2762
▁कब्	-2763
स्ती	-2764
▁चुना	-2765
▁दिसंबर	-2766
ज्	-2767
▁अन्त	-2768
▁नार	-2769
▁चंद्र	-2770
वाही	-2771
्रो	-2772
ed	-2773
▁मुद्दों	-2774
▁माता	-2775
▁मतलब	-2776
ापन	-2777
उंड	-2778
▁मारे	-2779
▁पीठ	-2780
▁परिवहन	-2781
▁हॉ	-2782
▁बर्	-2783
उन्होंने	-2784
िफ	-2785
▁कॉलेज	-2786
▁उद्य	-2787
▁ज़्यादा	-2788
▁नेशनल	-2789
▁प्रसार	-2790
▁उद्घाटन	-2791
ेंज	-2792
मार्ट	-2793
▁माइ	-2794
ार्थियों	-2795
▁किलोमीटर	-2796
नाडु	-2797
▁महसूस	-2798
▁समाप्त	-2799
▁श्रद्ध	-2800
▁नवा	-2801
द्द	-2802
गु	-2803
▁करनी	-2804
▁मतदान	-2805
ंदगी	-2806
▁पालन	-2807
▁व्यापक	-2808
▁नरेन्द्र	-2809
्‍म	-2810
▁अभिनेत्री	-2811
▁सेवाओं	-2812
▁संत	-2813
▁37	-2814
िंट	-2815
वंबर	-2816
▁प्रियंका	-2817
्रीन	-2818
▁भरो	-2819
▁रिकॉर्ड	-2820
जरीवाल	-2821
▁सितंबर	-2822
▁खुला	-2823
▁चिकित्सा	-2824
▁फा	-2825
▁निष्	-2826
▁डिज	-2827
▁हट	-2828
▁निगम	-2829
▁तुर	-2830
▁रव	-2831
ामद	-2832
▁उम्मीदवारों	-2833
▁लं	-2834
▁आपकी	-2835
▁देंगे	-2836
▁हैदराबाद	-2837
▁प्रस्तुत	-2838
▁लै	-2839
▁टन	-2840
▁सुश	-2841
▁अध्यक्षता	-2842
▁चोट	-2843
▁शायद	-2844
▁इस्ल	-2845
▁पॉ	-2846
दर्श	-2847
▁संसाधन	-2848
▁अर्ज	-2849
▁प्रतिबंध	-2850
▁2014	-2851
ार्क	-2852
▁देगा	-2853
▁इच्छ	-2854
▁एजेंसी	-2855
▁बातें	-2856
▁इंडियन	-2857
▁जिसकी	-2858
▁केजरीवाल	-2859
▁परियोजनाओं	-2860
▁चिंता	-2861
▁संदर्भ	-2862
▁फ्ल	-2863
▁संरक्षण	-2864
▁री	-2865
▁प्रमाण	-2866
▁तीसरे	-2867
ोरी	-2868
▁तमिलनाडु	-2869
▁टिक	-2870
▁कैं	-2871
."	-2872
▁बांग्लादेश	-2873
▁खंड	-2874
▁आदमी	-2875
स्‍थ	-2876
▁नवंबर	-2877
▁दबा	-2878
▁सजा	-2879
▁खोज	-2880
▁भग	-2881
▁उपकरण	-2882
▁सूत्रों	-2883
न्‍न	-2884
▁परिस	-2885
▁भागी	-2886
▁गर्	-2887
पास	-2888
अलग	-2889
▁नो	-2890
▁s	-2891
▁गाँव	-2892
▁आइ	-2893
▁ऋण	-2894
पात	-2895
▁उत्तरा	-2896
कोर्ट	-2897
▁कड़ी	-2898
▁इस्ती	-2899
▁रहता	-2900
▁शहरी	-2901
घटना	-2902
▁202	-2903
▁अत्य	-2904
▁पुस्त	-2905
▁साबित	-2906
▁संगठ	-2907
▁थो	-2908
▁चले	-2909
िटर	-2910
त्साह	-2911
▁वाहन	-2912
▁स्थापना	-2913
ूंगा	-2914
▁भीतर	-2915
▁हस्ता	-2916
ताव	-2917
▁इंत	-2918
▁अफ्रीका	-2919
ारिज	-2920
▁पर्यटन	-2921
▁लगाए	-2922
▁ट्व	-2923
▁बरा	-2924
▁मृत्यु	-2925
विल	-2926
्रेट	-2927
पि	-2928
▁हथ	-2929
▁जिलों	-2930
▁शास	-2931
ब्ल्यू	-2932
▁उपभ	-2933
▁''	-2934
गाह	-2935
दारों	-2936
▁अंदर	-2937
▁कथित	-2938
ध्यक्ष	-2939
▁हेतु	-2940
फार	-2941
▁उचित	-2942
▁लेते	-2943
चारी	-2944
▁संवाद	-2945
▁प्रावधान	-2946
▁अमरी	-2947
▁2015	-2948
▁मज	-2949
▁प्रोत्साह	-2950
▁मुश्	-2951
जाम	-2952
▁जर्म	-2953
▁खुशी	-2954
▁प्रभा	-2955
▁पृथ	-2956
ंटी	-2957
▁शरीर	-2958
ेप	-2959
▁राजधान	-2960
▁सिल	-2961
ूड	-2962
▁नागरिकों	-2963
▁ताप	-2964
▁तैना	-2965
▁आंध्र	-2966
▁परिजनों	-2967
▁बरामद	-2968
क्सी	-2969
च्‍	-2970
▁प्री	-2971
▁प्रबंध	-2972
▁पुष्टि	-2973
▁मेडिकल	-2974
▁दुख	-2975
▁विकल्प	-2976
भारत	-2977
ुनिक	-2978
▁आवा	-2979
▁बनाई	-2980
▁दुर्घटना	-2981
▁वार्	-2982
▁इतना	-2983
▁दश	-2984
▁उड़	-2985
▁उत्प	-2986
सीआई	-2987
▁जीबी	-2988
▁बिक्री	-2989
▁निर्यात	-2990
धर	-2991
▁उपा	-2992
om	-2993
▁लौट	-2994
▁लाइ	-2995
▁प्रदर्श	-2996
▁रिलीज	-2997
▁टिप्प	-2998
ठा	-2999
▁प्रथम	-3000
ाब	-3001
▁दिला	-3002
▁हल	-3003
▁पदक	-3004
▁क्रम	-3005
▁डिग्री	-3006
णिज	-3007
▁गुप	-3008
▁झू	-3009
मीन	-3010
▁स्वच्छ	-3011
▁गोली	-3012
▁नवी	-3013
▁मस	-3014
▁घट	-3015
▁प्रतिक्रिया	-3016
▁यानी	-3017
▁F	-3018
िब	-3019
▁पारी	-3020
▁इलेक्ट्र	-3021
▁बें	-3022
▁सुल	-3023
▁राजधानी	-3024
▁आपूर्ति	-3025
▁खारिज	-3026
▁टीवी	-3027
▁पाकिस्तानी	-3028
▁कौशल	-3029
▁असर	-3030
▁संगी	-3031
▁उद्यम	-3032
▁पल	-3033
▁मैदान	-3034
▁शिवसेना	-3035
▁तत्काल	-3036
मोह	-3037
▁मोहम्मद	-3038
शाला	-3039
▁कोच	-3040
ैर	-3041
▁शासन	-3042
▁मॉडल	-3043
▁29	-3044
▁निधन	-3045
काता	-3046
▁निर्मा	-3047
▁शोध	-3048
ोलन	-3049
्रेड	-3050
▁(2	-3051
िल्म	-3052
▁गी	-3053
ांश	-3054
▁हरा	-3055
▁सश	-3056
वर्क	-3057
▁अरु	-3058
दर	-3059
ंखला	-3060
कू	-3061
माने	-3062
▁वकी	-3063
▁रखी	-3064
▁अनुप	-3065
▁निर्वा	-3066
▁मुश्किल	-3067
र्ण	-3068
▁स्वर	-3069
▁यूपी	-3070
▁पोर्ट	-3071
▁निगर	-3072
द्दी	-3073
देन	-3074
▁तुरंत	-3075
▁संबंधों	-3076
वालों	-3077
▁मक	-3078
्ति	-3079
▁राज्यपाल	-3080
▁फिल्मों	-3081
▁32	-3082
श्न	-3083
▁प्रसाद	-3084
▁सोम	-3085
▁नै	-3086
राष्ट्र	-3087
▁199	-3088
▁नती	-3089
च्छेद	-3090
ंदन	-3091
▁दम	-3092
▁मेगाप	-3093
▁विशेषज्ञ	-3094
▁सीख	-3095
▁चालक	-3096
▁दस	-3097
ंडा	-3098
▁मात्रा	-3099
▁माँ	-3100
▁जेट	-3101
▁शुक्र	-3102
.9	-3103
▁गुरु	-3104
▁आते	-3105
▁पाने	-3106
▁हटा	-3107
▁निम्	-3108
्राम	-3109
▁गठन	-3110
▁रहती	-3111
re	-3112
▁गुणव	-3113
▁जानता	-3114
▁उपचार	-3115
▁अय	-3116
▁रूस	-3117
जिए	-3118
▁सहायक	-3119
▁उम्र	-3120
शिप	-3121
ज्ञा	-3122
▁निगरानी	-3123
▁दर्श	-3124
▁देकर	-3125
▁प्रेरित	-3126
टो	-3127
▁वाणिज	-3128
▁ओवर	-3129
▁रब	-3130
▁पूछता	-3131
पत्र	-3132
्ता	-3133
▁घंटे	-3134
▁चंडी	-3135
▁बुरा	-3136
ेह	-3137
श्चित	-3138
मण	-3139
▁सुझा	-3140
लंका	-3141
▁संके	-3142
▁भरोसा	-3143
▁मनो	-3144
ृंखला	-3145
▁शुल्क	-3146
ार्मिक	-3147
▁स्टेशन	-3148
▁कोलकाता	-3149
▁संस्कृति	-3150
▁स्वागत	-3151
▁ग्राह	-3152
▁आयु	-3153
क्षीय	-3154
▁बेश	-3155
▁धार्मिक	-3156
थी	-3157
श्‍	-3158
▁सिक	-3159
णे	-3160
▁हिंदू	-3161
स्टर	-3162
▁मुद्र	-3163
▁चेन्न	-3164
▁विशि	-3165
मार्ग	-3166
▁हालात	-3167
चु	-3168
▁चीनी	-3169
यम	-3170
▁E	-3171
▁मैचों	-3172
▁इलाकों	-3173
▁अंग्रे	-3174
▁नाय	-3175
▁बुनिया	-3176
▁सेट	-3177
▁प्रती	-3178
▁निम्न	-3179
▁प्रतियोग	-3180
▁जाय	-3181
▁देखें	-3182
फारिश	-3183
▁बैंकों	-3184
▁प्राधिक	-3185
क्षम	-3186
▁मनुष	-3187
▁बहु	-3188
द्व	-3189
▁c	-3190
▁तीनों	-3191
▁राजनाथ	-3192
▁’’	-3193
▁उसको	-3194
▁दौरे	-3195
▁तारीख	-3196
▁कब	-3197
मार्टम	-3198
▁हाईकोर्ट	-3199
िवर्स	-3200
▁आनंद	-3201
▁सकें	-3202
लेट	-3203
▁गेंदबाज	-3204
▁मेगापिक्सल	-3205
्डी	-3206
▁स्वतंत्रता	-3207
▁बाकी	-3208
▁in	-3209
▁आशा	-3210
▁आंद	-3211
▁चीज	-3212
▁रोकने	-3213
हरे	-3214
▁सिफारिश	-3215
स्टम	-3216
दाताओं	-3217
चीन	-3218
▁अनुरोध	-3219
▁गतिविधियों	-3220
▁उपभो	-3221
▁गौ	-3222
▁60	-3223
▁निश्चित	-3224
▁श्रीलंका	-3225
▁उल	-3226
्याज	-3227
▁हिंदी	-3228
शाली	-3229
▁दस्ता	-3230
▁किरदार	-3231
▁पहुंचा	-3232
नगर	-3233
▁K	-3234
▁35	-3235
धारा	-3236
▁आतंकी	-3237
ाचार	-3238
▁मौका	-3239
सगढ़	-3240
▁नियुक्त	-3241
ंतु	-3242
▁उठाए	-3243
▁शहरों	-3244
▁करार	-3245
▁सत्ता	-3246
▁खराब	-3247
▁समझौता	-3248
▁पोस्टमार्टम	-3249
▁चंडीगढ़	-3250
सिक	-3251
▁डिजिटल	-3252
एसपी	-3253
▁रखना	-3254
▁ठहरा	-3255
▁प्रयासों	-3256
दिन	-3257
▁देती	-3258
▁बातों	-3259
हो	-3260
▁समु	-3261
▁जीव	-3262
पथ	-3263
▁In	-3264
ेगा	-3265
▁गरीब	-3266
▁डो	-3267
▁आसान	-3268
▁टिकट	-3269
▁सीटें	-3270
दाता	-3271
▁दवा	-3272
▁औद्योग	-3273
ोरेज	-3274
▁स्थानों	-3275
▁सन्	-3276
▁संकट	-3277
▁आवास	-3278
▁वायरल	-3279
▁फुट	-3280
ंकर	-3281
▁जिम्मेदारी	-3282
▁पूछताछ	-3283
त्कार	-3284
▁क्षेत्रीय	-3285
्न	-3286
▁सुझाव	-3287
▁डेटा	-3288
▁इज	-3289
न्‍द्र	-3290
▁दीप	-3291
▁जिनके	-3292
मती	-3293
▁कहानी	-3294
▁घाय	-3295
▁ज़ि	-3296
▁रॉय	-3297
▁प्रभावी	-3298
▁मिलता	-3299
▁आपका	-3300
▁झार	-3301
ct	-3302
▁सक्षम	-3303
▁हिमा	-3304
▁पैसे	-3305
आईटी	-3306
▁जीएसटी	-3307
हित	-3308
▁इंजी	-3309
स्थिति	-3310
▁खोल	-3311
क्टूबर	-3312
कारात्मक	-3313
ra	-3314
▁शूट	-3315
वेद	-3316
स्थानों	-3317
▁मानना	-3318
डू	-3319
▁तकनीकी	-3320
▁जाति	-3321
युक्त	-3322
▁प्रारंभ	-3323
▁प्राकृतिक	-3324
वासियों	-3325
▁कहने	-3326
वाली	-3327
▁प्रतिबद्ध	-3328
ing	-3329
नतम	-3330
▁अफग	-3331
▁लड़ाई	-3332
▁घायलों	-3333
▁ऊंच	-3334
▁फरार	-3335
▁कार्यों	-3336
el	-3337
▁सुनी	-3338
▁बेशक	-3339
▁पव	-3340
▁पूर्वी	-3341
▁लेना	-3342
▁पर्याप्त	-3343
▁दाय	-3344
▁प्रकाशित	-3345
▁दायर	-3346
न्ना	-3347
▁पाल	-3348
▁अनिल	-3349
म्ब	-3350
▁O	-3351
िनी	-3352
▁दौरा	-3353
▁मुझ	-3354
▁बराबर	-3355
▁पीड़ित	-3356
▁होनी	-3357
▁इनके	-3358
▁बुला	-3359
प्ट	-3360
श्रे	-3361
▁अक्	-3362
लम	-3363
▁नियमों	-3364
▁संस्थानों	-3365
▁नेटवर्क	-3366
▁स्टोरेज	-3367
▁श्रेणी	-3368
▁रणनी	-3369
▁रहें	-3370
खित	-3371
▁अक्षय	-3372
▁अनुच्छेद	-3373
कल्प	-3374
▁चेन्नई	-3375
▁संगीत	-3376
सलमान	-3377
▁दस्तावे	-3378
प्रदेश	-3379
▁मंगल	-3380
▁छत्ती	-3381
▁मिलियन	-3382
ोषण	-3383
▁[	-3384
्यूट	-3385
▁स्टार	-3386
▁ग्राम	-3387
ज़ी	-3388
विंद	-3389
▁साझे	-3390
▁राजी	-3391
स्कृतिक	-3392
▁वाणिज्य	-3393
▁बुनियादी	-3394
▁नये	-3395
कता	-3396
बाल	-3397
्यो	-3398
▁कॉन्	-3399
▁ट्विटर	-3400
▁गुणवत्ता	-3401
▁L	-3402
▁व्यक्तियों	-3403
▁परन्तु	-3404
लंघ	-3405
▁अक्टूबर	-3406
▁औद्योगिक	-3407
▁फ़िल्म	-3408
ेड़	-3409
▁हथियार	-3410
▁कुर	-3411
▁सफ	-3412
▁लंबे	-3413
▁विधाय	-3414
▁मुखर्जी	-3415
▁इंस	-3416
▁संक्रमण	-3417
▁स्टी	-3418
▁बिग	-3419
▁खुदा	-3420
रिए	-3421
▁अपे	-3422
▁ब्रिटेन	-3423
धरी	-3424
वां	-3425
▁कर्मचारी	-3426
नाएं	-3427
▁जापान	-3428
िक्र	-3429
▁सरकारों	-3430
▁सामग्री	-3431
तीश	-3432
▁संगठनों	-3433
30	-3434
▁पाई	-3435
▁फाइनल	-3436
▁हिमाचल	-3437
नेस	-3438
▁रोल	-3439
▁मिन	-3440
▁वहाँ	-3441
कुर	-3442
▁इंद	-3443
▁गुना	-3444
फोट	-3445
▁विशिष्ट	-3446
▁समझौते	-3447
▁खिलाड़ियों	-3448
ेंशन	-3449
▁कार्या	-3450
th	-3451
▁सैन्य	-3452
▁सराह	-3453
▁वास्तविक	-3454
▁नयी	-3455
▁पूछा	-3456
▁परिच	-3457
▁पंजी	-3458
▁एक्सप	-3459
▁सृ	-3460
रीन	-3461
▁छत्तीसगढ़	-3462
▁कही	-3463
us	-3464
▁रोड	-3465
राष्ट्रपति	-3466
आईआर	-3467
▁दाम	-3468
▁तनाव	-3469
▁तापमान	-3470
ज़ाब	-3471
▁अज	-3472
▁आती	-3473
▁फायदा	-3474
▁टेली	-3475
सीय	-3476
▁प्रार्थ	-3477
▁यात्रियों	-3478
▁व्‍य	-3479
मूर्ति	-3480
लंघन	-3481
मति	-3482
▁आतंकवादी	-3483
▁रैम	-3484
▁आदित्य	-3485
कां	-3486
▁पड़ता	-3487
▁हस्ताक्षर	-3488
डीपी	-3489
▁मंच	-3490
▁U	-3491
▁ज़मीन	-3492
▁सौंप	-3493
एसएस	-3494
ol	-3495
▁दबाव	-3496
▁चाहती	-3497
▁भ्रष्ट	-3498
नाक	-3499
▁नक	-3500
सच	-3501
▁सांस्कृतिक	-3502
▁छूट	-3503
्वा	-3504
▁झारखंड	-3505
▁V	-3506
▁रद्द	-3507
अन	-3508
▁विजे	-3509
सव	-3510
सीपी	-3511
▁आजा	-3512
ल्ट	-3513
न्त	-3514
▁मुद्रा	-3515
▁महामारी	-3516
▁कहता	-3517
▁क्रिया	-3518
▁राव	-3519
▁डायरे	-3520
▁अध्या	-3521
▁जाकर	-3522
तें	-3523
▁श्रृंखला	-3524
200	-3525
तिहासिक	-3526
▁सिस्टम	-3527
▁दलों	-3528
▁भाषण	-3529
▁शुभकाम	-3530
▁तैनात	-3531
रद	-3532
क्‍ति	-3533
▁चै	-3534
▁आंदोलन	-3535
▁फेस	-3536
▁सेंसर	-3537
▁मसीह	-3538
▁जमीन	-3539
▁बनाना	-3540
▁सिर	-3541
▁वकील	-3542
▁चुनावों	-3543
▁महानि	-3544
संग	-3545
ंव	-3546
▁इमर	-3547
▁प्रार्थना	-3548
▁सर्वश्रे	-3549
▁मुकाबला	-3550
ूँ	-3551
▁जुड़ी	-3552
▁व्यवहार	-3553
▁आगामी	-3554
▁तुम्हारी	-3555
▁सहमति	-3556
▁बीमा	-3557
▁संचालन	-3558
ोग्राम	-3559
▁चैन	-3560
निस	-3561
र्प	-3562
▁फ्रांस	-3563
▁ग्रह	-3564
▁W	-3565
ौन	-3566
▁आलो	-3567
दाबाद	-3568
▁युवाओं	-3569
un	-3570
▁वॉ	-3571
▁रहना	-3572
▁मित्र	-3573
कीय	-3574
राव	-3575
▁टिप्पणी	-3576
▁सम्ब	-3577
▁सर्वे	-3578
as	-3579
▁भगवान	-3580
▁उल्लंघन	-3581
ंजन	-3582
▁मध	-3583
▁योजनाओं	-3584
मक	-3585
▁सोमवार	-3586
्रम	-3587
▁नही	-3588
▁70	-3589
▁प्रेस	-3590
ent	-3591
▁लड़की	-3592
▁शख	-3593
▁अन्तर्गत	-3594
भाष	-3595
▁मंत्रिमंडल	-3596
▁संघर्ष	-3597
▁धोनी	-3598
▁राज्यसभा	-3599
▁इस्तीफा	-3600
▁यूनिवर्स	-3601
▁आउट	-3602
▁जहाँ	-3603
▁जाएँ	-3604
कै	-3605
▁देर	-3606
▁समाचार	-3607
▁डीजल	-3608
▁मीटर	-3609
▁स्थिर	-3610
▁फल	-3611
▁आग्रह	-3612
▁दृष्ट	-3613
▁हस्त	-3614
्हा	-3615
▁दोषी	-3616
▁उच्चतम	-3617
▁जला	-3618
सीटी	-3619
▁198	-3620
▁मिट	-3621
▁वार्ता	-3622
▁तोड़	-3623
▁बचाव	-3624
ीप	-3625
ूद	-3626
▁चेयर	-3627
▁संकेत	-3628
ानिस्तान	-3629
▁बच्चन	-3630
लोड	-3631
▁पुस्तक	-3632
▁खुल	-3633
ाइड	-3634
▁बहन	-3635
▁सवार	-3636
▁जरूर	-3637
साइ	-3638
is	-3639
खी	-3640
▁चौधरी	-3641
▁सत्य	-3642
ैंप	-3643
िपक्षीय	-3644
णन	-3645
▁चढ़	-3646
▁शख्स	-3647
बुक	-3648
ियत	-3649
▁फंड	-3650
लिखित	-3651
▁वेस्ट	-3652
▁शपथ	-3653
▁छोड़कर	-3654
बत	-3655
▁निपटने	-3656
▁सारी	-3657
▁ऑफिस	-3658
ot	-3659
▁सेवाएं	-3660
नै	-3661
▁विवाह	-3662
▁सोनिया	-3663
धारण	-3664
▁धरती	-3665
दूर	-3666
▁अक	-3667
प्रिय	-3668
▁कंट	-3669
▁विधायकों	-3670
ड्डा	-3671
▁गोवा	-3672
▁निकट	-3673
▁80	-3674
िसू	-3675
रू	-3676
▁इंजीनियर	-3677
ब्‍	-3678
ंगाना	-3679
▁कानूनी	-3680
तरे	-3681
▁चोप	-3682
▁ईरान	-3683
▁लीटर	-3684
▁सिवा	-3685
▁वनडे	-3686
▁लाए	-3687
▁संपत्ति	-3688
▁कोरिया	-3689
▁दाखिल	-3690
▁लु	-3691
कोर	-3692
हाद	-3693
▁शही	-3694
▁आएंगे	-3695
▁प्राप	-3696
▁भागीदारी	-3697
▁खाते	-3698
▁युवक	-3699
▁बाढ़	-3700
▁राष्‍ट्रीय	-3701
▁आखिर	-3702
दीय	-3703
पाद	-3704
▁तैयारी	-3705
▁प्रश्न	-3706
▁नायडू	-3707
▁ऐतिहासिक	-3708
▁एक्ट्रेस	-3709
▁एप	-3710
गें	-3711
▁धी	-3712
ारों	-3713
▁सर्वश्रेष्ठ	-3714
▁जवान	-3715
▁कब्जे	-3716
्यास	-3717
वर्ती	-3718
▁परेशान	-3719
▁इकाई	-3720
▁जोड़	-3721
▁लॉक	-3722
▁न्यायमूर्ति	-3723
▁जानी	-3724
▁परमाण	-3725
▁चोपड़ा	-3726
▁झु	-3727
▁मस्	-3728
▁जहा	-3729
,5	-3730
▁इच्छा	-3731
शे	-3732
▁आकर्ष	-3733
▁नौसेना	-3734
सीए	-3735
दो	-3736
ाले	-3737
▁हाउस	-3738
▁कने	-3739
▁उठाया	-3740
▁अजय	-3741
▁सारा	-3742
▁आयात	-3743
▁गोल	-3744
et	-3745
ॉस	-3746
िश्ते	-3747
▁नियमित	-3748
▁2013	-3749
▁लेंगे	-3750
कूल	-3751
▁इन्हें	-3752
▁कराई	-3753
▁अक्सर	-3754
▁बलों	-3755
▁शब्	-3756
▁सम्मानित	-3757
▁सका	-3758
▁आधुनिक	-3759
▁आसपास	-3760
बान	-3761
जीलैंड	-3762
▁शूटिंग	-3763
▁रिट	-3764
ोने	-3765
घु	-3766
▁अभिन	-3767
▁स्टेट	-3768
श्चा	-3769
▁वैज्ञानिक	-3770
ch	-3771
जीव	-3772
▁ओड	-3773
बादी	-3774
▁पूंजी	-3775
▁घरों	-3776
िकोण	-3777
ोतरी	-3778
▁भोजन	-3779
▁चित्र	-3780
▁चीफ	-3781
▁रखता	-3782
मानत	-3783
▁अखिल	-3784
▁टूर्	-3785
सचिव	-3786
क्रो	-3787
▁एडम	-3788
▁ओल	-3789
▁तेलंगाना	-3790
▁शुक्रवार	-3791
नो	-3792
स्‍ट	-3793
▁नज़र	-3794
▁|	-3795
▁डाला	-3796
▁इंस्टा	-3797
▁कीमतों	-3798
बिनेट	-3799
▁पृथ्वी	-3800
▁आरोपों	-3801
▁लोकतंत्र	-3802
▁धार	-3803
▁राजीव	-3804
्षिक	-3805
आत	-3806
फ्रेंस	-3807
▁रोम	-3808
▁परमाणु	-3809
ँच	-3810
▁इरा	-3811
▁आखिरी	-3812
▁सीधे	-3813
▁प्रतिष्ठ	-3814
▁मुक्त	-3815
मोहन	-3816
▁मिलती	-3817
कुल	-3818
खन	-3819
▁किन	-3820
▁नेपाल	-3821
▁खड़े	-3822
▁बजाय	-3823
▁मरी	-3824
रिएंट	-3825
▁अनिवार	-3826
ुरु	-3827
▁जीता	-3828
नामेंट	-3829
▁डिजा	-3830
▁ठाकुर	-3831
▁सिविल	-3832
▁अशोक	-3833
▁द्विपक्षीय	-3834
▁डिप	-3835
लान	-3836
▁सेक्टर	-3837
बो	-3838
▁यूनिवर्सिटी	-3839
▁तुम्हारा	-3840
▁चर	-3841
फॉ	-3842
▁टाटा	-3843
▁पूजा	-3844
▁उन्	-3845
पादन	-3846
▁रखे	-3847
▁राजमार्ग	-3848
चि	-3849
एसई	-3850
ार्द	-3851
▁सुख	-3852
राज्य	-3853
▁सोने	-3854
डाउन	-3855
▁हवा	-3856
▁टूर्नामेंट	-3857
वर्धन	-3858
▁मिलते	-3859
▁नोटिस	-3860
इयों	-3861
▁सराहना	-3862
टका	-3863
▁कार्यक्रमों	-3864
वह	-3865
▁विनिर्	-3866
रुख	-3867
▁कार्यकर्ताओं	-3868
्‍ली	-3869
▁कक्षा	-3870
▁निर्वाचन	-3871
▁वितरण	-3872
▁छोटी	-3873
▁मनी	-3874
▁जेटली	-3875
▁तस्वीरें	-3876
▁दृष्टि	-3877
सीसीआई	-3878
▁अहमद	-3879
▁समक्ष	-3880
▁अधिकांश	-3881
▁बीमारी	-3882
▁मुसलमान	-3883
▁नियु	-3884
जोर	-3885
क्षेप	-3886
▁अरविंद	-3887
▁बेंगल	-3888
▁विवरण	-3889
डीए	-3890
▁वाहनों	-3891
▁रवि	-3892
▁दिखाया	-3893
▁फैला	-3894
ालित	-3895
▁दीपिका	-3896
▁शासित	-3897
डब्ल्यू	-3898
पीएफ	-3899
▁कोय	-3900
▁इंटरनेट	-3901
छा	-3902
▁अधिसू	-3903
-0	-3904
▁संसदीय	-3905
ul	-3906
डि	-3907
▁प्रदू	-3908
▁निशाना	-3909
क्कर	-3910
▁प्रतियोगिता	-3911
▁अंतरिक्ष	-3912
ंश	-3913
दृ	-3914
▁2012	-3915
▁प्रभु	-3916
▁रैली	-3917
▁इंस्टाग्राम	-3918
▁विश्‍वास	-3919
निक	-3920
ठे	-3921
▁विद्यार्थियों	-3922
▁दिये	-3923
श्वर	-3924
)।	-3925
▁बढ़ोतरी	-3926
▁कैबिनेट	-3927
भू	-3928
मह	-3929
▁खुलासा	-3930
▁पाक	-3931
टिंग	-3932
फान	-3933
▁500	-3934
▁इमरान	-3935
▁स्रो	-3936
खे	-3937
▁काउ	-3938
▁अब्द	-3939
▁योगी	-3940
▁पश्चिमी	-3941
▁कमांड	-3942
▁सौर	-3943
▁आरंभ	-3944
▁जागर	-3945
▁कॉल	-3946
▁सप	-3947
▁उत्पन्न	-3948
▁उठाने	-3949
ांज	-3950
▁कारणों	-3951
▁सेंटर	-3952
▁प्राधिकरण	-3953
▁प्रत्या	-3954
रुद्ध	-3955
▁निर्भर	-3956
द्दीन	-3957
▁इस्लाम	-3958
थे	-3959
▁भीड़	-3960
▁ग्रुप	-3961
▁जाह	-3962
▁रहेगी	-3963
▁शुभकामनाएं	-3964
▁पवित्र	-3965
▁पौ	-3966
ढ़ी	-3967
स्म	-3968
न्‍य	-3969
टिल	-3970
▁अज़ाब	-3971
▁योग्य	-3972
▁शाहरुख	-3973
▁महासचिव	-3974
बारा	-3975
▁गईं	-3976
▁2011	-3977
▁अके	-3978
▁अनिवार्य	-3979
ल्ल	-3980
▁अफगानिस्तान	-3981
देव	-3982
▁सेल	-3983
▁मूसा	-3984
▁सम्	-3985
▁चक्र	-3986
▁वार्षिक	-3987
▁बुध	-3988
MP	-3989
▁स्थल	-3990
▁पां	-3991
▁भट्ट	-3992
▁उत्पादों	-3993
▁काल	-3994
▁न्यायिक	-3995
il	-3996
▁जर्मनी	-3997
पूर्वक	-3998
▁p	-3999
▁विज्ञ	-4000
▁सूच	-4001
▁लाया	-4002
म्‍	-4003
▁जताई	-4004
▁ताकत	-4005
श्वास	-4006
▁राष्‍ट्र	-4007
न्या	-4008
स्‍त	-4009
ay	-4010
ार्थी	-4011
▁आकाश	-4012
▁पदार्थ	-4013
भाषा	-4014
▁लाइन	-4015
▁अधिकतम	-4016
▁बताते	-4017
▁J	-4018
▁निरा	-4019
,4	-4020
▁भ्रष्टाचार	-4021
▁चलता	-4022
ोत्तर	-4023
▁लोकप्रिय	-4024
▁व्यक्तिगत	-4025
▁मनुष्य	-4026
▁लीग	-4027
▁न्यूनतम	-4028
एमसी	-4029
दाय	-4030
▁64	-4031
▁तत्व	-4032
▁डिजाइन	-4033
▁गाय	-4034
▁न्यूजीलैंड	-4035
▁सलाहकार	-4036
फो	-4037
▁ड्राइ	-4038
▁बाय	-4039
▁आईटी	-4040
▁आह	-4041
▁उपराष्ट्रपति	-4042
▁36	-4043
▁आईपीएल	-4044
▁पहा	-4045
▁सिंध	-4046
्लो	-4047
▁गर्म	-4048
▁हिन्द	-4049
▁48	-4050
▁जाओ	-4051
▁मंगलवार	-4052
▁समृ	-4053
▁बेहत	-4054
००	-4055
▁होंगी	-4056
▁जीतने	-4057
ुरा	-4058
न्हा	-4059
▁बढ़ती	-4060
▁तथ	-4061
▁धन्य	-4062
▁जिम्मेदार	-4063
रत	-4064
▁रजिस्ट	-4065
▁पेंशन	-4066
▁परिवारों	-4067
▁छुट	-4068
जर्स	-4069
▁नौकरी	-4070
▁पारित	-4071
▁भंड	-4072
▁निश्च	-4073
.201	-4074
▁आपने	-4075
▁सीमित	-4076
▁सिंग	-4077
▁चेयरमैन	-4078
▁रखें	-4079
संख	-4080
▁आयुक्त	-4081
▁अंड	-4082
▁गिरफ्तारी	-4083
▁गुप्ता	-4084
▁कार्यकारी	-4085
न्वयन	-4086
वानों	-4087
ov	-4088
▁अल्प	-4089
ैट	-4090
▁फ्रंट	-4091
▁राजप	-4092
र्द	-4093
▁जरिये	-4094
▁कमा	-4095
ोसिए	-4096
▁ब्याज	-4097
▁विरोधी	-4098
▁चलने	-4099
ौती	-4100
▁मोटर	-4101
▁थाना	-4102
▁स्कूलों	-4103
ांतर	-4104
▁मैने	-4105
डर	-4106
▁दूरी	-4107
iv	-4108
xa	-4109
▁विज	-4110
,1	-4111
ाये	-4112
▁ओडिशा	-4113
▁प्राचीन	-4114
▁समस्याओं	-4115
▁श्रीमती	-4116
नाम	-4117
ंपिक	-4118
▁लॉकडाउन	-4119
▁सदन	-4120
▁मेह	-4121
िताभ	-4122
▁हफ्	-4123
▁विपक्ष	-4124
▁सख्त	-4125
रीय	-4126
▁वीर	-4127
▁निर्माता	-4128
▁शब्दों	-4129
▁पर्व	-4130
▁197	-4131
दूस	-4132
▁बीमार	-4133
विक	-4134
वाणी	-4135
▁आबादी	-4136
▁लिखित	-4137
नन	-4138
▁दया	-4139
▁पकड़	-4140
▁इतनी	-4141
▁अंब	-4142
▁अर्जुन	-4143
▁बुधवार	-4144
▁किंग	-4145
▁अर्था	-4146
▁औसत	-4147
▁अवै	-4148
ir	-4149
▁बुरी	-4150
▁छि	-4151
▁टाइ	-4152
▁वर्षीय	-4153
▁रिल	-4154
▁१९	-4155
▁पश्चा	-4156
्मा	-4157
▁प्लान	-4158
▁जमानत	-4159
्मी	-4160
▁बढ़ने	-4161
सिद्ध	-4162
▁यात्री	-4163
ाइन	-4164
पीसी	-4165
▁हिस्सों	-4166
▁विश्‍व	-4167
▁लंदन	-4168
सु	-4169
▁गोयल	-4170
▁आलोचना	-4171
▁मंत्रियों	-4172
तो	-4173
▁डाउन	-4174
▁लंबी	-4175
ur	-4176
▁शिखर	-4177
▁विस्तृत	-4178
▁देवी	-4179
▁ओपन	-4180
▁कवि	-4181
▁नागरिकता	-4182
▁खतरा	-4183
▁45	-4184
▁दृष्टिकोण	-4185
▁नाग	-4186
▁सर्वो	-4187
्कुल	-4188
क्का	-4189
▁उद्ध	-4190
▁रिस	-4191
▁गंगा	-4192
▁हिस	-4193
पीय	-4194
▁अब्दुल	-4195
मुझे	-4196
▁तंत्र	-4197
▁हफ्ते	-4198
▁ट्रै	-4199
▁v	-4200
▁दुक	-4201
रक	-4202
▁यक़	-4203
▁जाएं	-4204
▁पावर	-4205
भूत	-4206
गज	-4207
▁एजेंस	-4208
ृति	-4209
िना	-4210
▁बेच	-4211
▁निवासी	-4212
▁अकाउंट	-4213
मल	-4214
पो	-4215
दमा	-4216
▁विरुद्ध	-4217
कियों	-4218
▁बनर्जी	-4219
▁एचडी	-4220
▁ज़रूरत	-4221
▁गहरा	-4222
▁अमिताभ	-4223
नाल्ड	-4224
▁आकार	-4225
सेज	-4226
ation	-4227
वेट	-4228
’’	-4229
▁पुराने	-4230
▁बहुम	-4231
,99	-4232
आप	-4233
▁इंतजार	-4234
▁जल्दी	-4235
▁कमजोर	-4236
घ्र	-4237
जनक	-4238
वायु	-4239
ड्र	-4240
▁रिजर्व	-4241
▁संरचना	-4242
▁नित	-4243
तावनी	-4244
▁प्राथमिकता	-4245
▁शौ	-4246
▁मेट्र	-4247
-20	-4248
▁वस्तु	-4249
▁बल्लेबाजी	-4250
हे	-4251
▁आपदा	-4252
ाजन	-4253
▁कर्ज	-4254
मर्श	-4255
▁सिन्हा	-4256
▁अवैध	-4257
▁वापसी	-4258
▁चेतावनी	-4259
▁जाया	-4260
▁तट	-4261
▁फेसबुक	-4262
ाजी	-4263
▁निशान	-4264
निवार	-4265
▁बढ	-4266
▁मैन	-4267
▁फे	-4268
▁पहुंचने	-4269
▁उपाध्यक्ष	-4270
▁हर्ष	-4271
▁संह	-4272
▁बोले	-4273
रप	-4274
▁मिश्रा	-4275
▁विस्	-4276
▁अह	-4277
▁वेतन	-4278
▁दास	-4279
▁महि	-4280
▁दूसरों	-4281
▁स्क्रीन	-4282
▁चौहान	-4283
ad	-4284
▁बिल्कुल	-4285
▁स्वस्थ	-4286
हैया	-4287
▁शुरूआत	-4288
र्पित	-4289
स्ट्री	-4290
▁अनुसू	-4291
▁विशाल	-4292
ंपरा	-4293
▁बनाकर	-4294
▁हल्	-4295
▁एक्टर	-4296
▁रिजल्ट	-4297
▁चेक	-4298
▁दिल्‍ली	-4299
▁अरुण	-4300
▁महत्	-4301
▁अपेक्षा	-4302
▁रविवार	-4303
▁भेजे	-4304
▁ग्रहण	-4305
ण्डल	-4306
▁माहौल	-4307
▁रचना	-4308
खिम	-4309
▁मेल	-4310
लाइ	-4311
कंप	-4312
लीय	-4313
▁दंड	-4314
कप	-4315
▁खेला	-4316
▁पुनर्	-4317
▁वें	-4318
ॉजी	-4319
▁गड	-4320
▁नाइ	-4321
▁शाखा	-4322
ंद्रा	-4323
▁तह	-4324
▁उड़ान	-4325
▁मान्यता	-4326
▁सचिन	-4327
▁संहिता	-4328
▁ऐलान	-4329
▁33	-4330
देह	-4331
▁वेरिएंट	-4332
एफसी	-4333
▁अगली	-4334
्टर	-4335
▁संक्रमित	-4336
▁लगने	-4337
▁विश्ले	-4338
▁मिनट	-4339
▁मुहैया	-4340
▁सेंट	-4341
▁शनिवार	-4342
▁सकेगा	-4343
एससी	-4344
▁ब्रिटिश	-4345
▁मसीही	-4346
▁संचार	-4347
▁समुद्र	-4348
▁निकाय	-4349
▁वर्ल्ड	-4350
▁उत्तरी	-4351
▁सोना	-4352
▁90	-4353
▁परिसर	-4354
▁कहां	-4355
▁महीनों	-4356
▁मानते	-4357
▁मनाया	-4358
▁""""	-4359
▁सुनील	-4360
▁वचन	-4361
▁बौ	-4362
▁अंग्रेजी	-4363
चर्स	-4364
्यूटर	-4365
▁खाने	-4366
एगा	-4367
▁लगाई	-4368
कुमार	-4369
▁मरीजों	-4370
▁ऐप	-4371
▁एसोसिए	-4372
▁रैं	-4373
▁मुद्दा	-4374
▁ममता	-4375
▁धन्यवाद	-4376
▁तकनीक	-4377
▁रूपये	-4378
▁सैनिकों	-4379
▁महानिदेशक	-4380
करे	-4381
▁मेहन	-4382
▁ग्रे	-4383
▁साक्ष	-4384
▁मुकदमा	-4385
▁रिश	-4386
▁स्‍वा	-4387
▁जोखिम	-4388
▁t	-4389
▁सहयोगी	-4390
ट्स	-4391
▁प्रभार	-4392
▁खड़ा	-4393
▁साझेदारी	-4394
▁पेट्रोलियम	-4395
साई	-4396
▁थाने	-4397
▁मनमोहन	-4398
▁सुशांत	-4399
▁परंपरा	-4400
▁पदों	-4401
स्वा	-4402
थर	-4403
पिता	-4404
स्थल	-4405
▁किन्तु	-4406
▁2010	-4407
▁शहीद	-4408
▁प्रदूषण	-4409
and	-4410
▁सौं	-4411
▁बैटरी	-4412
▁विस्फोट	-4413
dia	-4414
▁आत्मा	-4415
ww	-4416
▁समर्पित	-4417
दर्शन	-4418
▁)	-4419
पै	-4420
▁आसमान	-4421
▁मालिक	-4422
id	-4423
▁दर्द	-4424
▁पूर्वोत्तर	-4425
चारिक	-4426
▁पड़ी	-4427
▁नियुक्ति	-4428
▁निश्चय	-4429
ंती	-4430
▁राजस्व	-4431
रोध	-4432
▁लेन	-4433
▁फो	-4434
▁m	-4435
▁जमकर	-4436
▁जलवायु	-4437
विड	-4438
▁साध	-4439
ूली	-4440
▁जायेगा	-4441
ig	-4442
▁पटना	-4443
▁बेहतरीन	-4444
▁क्लिक	-4445
▁चारों	-4446
▁सकारात्मक	-4447
▁प्रोसे	-4448
▁मण	-4449
▁शीघ्र	-4450
▁निरंतर	-4451
\""	-4452
▁टाइम	-4453
▁मछ	-4454
▁मानसिक	-4455
▁मज़	-4456
ंटर	-4457
▁कहती	-4458
▁इंजन	-4459
▁सिटी	-4460
▁शेष	-4461
▁बीते	-4462
न्दी	-4463
▁विविध	-4464
▁34	-4465
कश	-4466
▁इंसान	-4467
▁कपिल	-4468
▁प्लेट	-4469
▁धम	-4470
र्धा	-4471
▁आवं	-4472
ेटी	-4473
कारियों	-4474
क्या	-4475
▁एक्सप्रेस	-4476
माही	-4477
▁उत्तराखंड	-4478
▁सॉ	-4479
▁बीसीसीआई	-4480
ष्का	-4481
हत्या	-4482
▁बढ़त	-4483
▁देखभाल	-4484
▁होम	-4485
▁प्रय	-4486
▁इंच	-4487
सैन	-4488
▁सड़कों	-4489
▁रियर	-4490
आरसी	-4491
▁अनुकूल	-4492
▁जुट	-4493
स्ट्र	-4494
▁रेट	-4495
▁196	-4496
▁खुले	-4497
▁ज्यादातर	-4498
▁विजेता	-4499
▁डिस्प	-4500
▁जनजा	-4501
▁राजपूत	-4502
▁ढंग	-4503
धानिक	-4504
,6	-4505
वती	-4506
▁साहित्य	-4507
▁प्रकट	-4508
िग	-4509
▁बदले	-4510
▁जोड़ी	-4511
,3	-4512
▁टीमों	-4513
▁वास्ते	-4514
▁दोबारा	-4515
▁रणवीर	-4516
▁द्वीप	-4517
▁अभिय	-4518
ेक्ट	-4519
धीन	-4520
▁पत्रकार	-4521
▁किश	-4522
▁कमेटी	-4523
त्‍व	-4524
▁खेलों	-4525
▁गुम	-4526
▁अतः	-4527
▁तुमसे	-4528
▁जागरूक	-4529
ईओ	-4530
ग्ध	-4531
ज्ञात	-4532
▁पृष्ठ	-4533
▁कम्प	-4534
▁पैर	-4535
▁अना	-4536
▁स्वर्ण	-4537
▁बत	-4538
पत	-4539
▁स्वामी	-4540
▁उपबंध	-4541
▁जुड़ा	-4542
र्या	-4543
▁सेक	-4544
▁अभिष	-4545
▁प्राइ	-4546
▁कच्च	-4547
पीड	-4548
त्मिक	-4549
▁सबूत	-4550
दिष्ट	-4551
▁पुलिसकर्म	-4552
ौम	-4553
▁सुविधाओं	-4554
▁पुत्र	-4555
वरूप	-4556
▁सर्वा	-4557
▁राजद	-4558
कॉम	-4559
▁रोज़	-4560
▁करीना	-4561
▁गेंदबाजी	-4562
▁खेले	-4563
▁खेलने	-4564
▁75	-4565
ेंडर	-4566
▁शोक	-4567
▁ढांच	-4568
▁हाथों	-4569
▁छात्रा	-4570
▁परिस्थित	-4571
▁रिश्ते	-4572
▁Re	-4573
बिल	-4574
भूम	-4575
▁आंकड़ों	-4576
▁ओलंपिक	-4577
ाँ	-4578
दूसरे	-4579
िशन	-4580
बंदी	-4581
▁कार्यकर्ता	-4582
,7	-4583
ीकरण	-4584
▁विचारों	-4585
▁आदर्श	-4586
कांक	-4587
▁पोल	-4588
▁विवे	-4589
▁समझा	-4590
▁पहुँच	-4591
▁आमंत्र	-4592
▁चार्ज	-4593
बीन	-4594
▁महिलाएं	-4595
▁ट्रक	-4596
श्‍य	-4597
ंधन	-4598
▁कार्यवाही	-4599
ांजलि	-4600
▁मशीन	-4601
लाल	-4602
▁काबू	-4603
▁सूचकांक	-4604
▁स्‍थ	-4605
▁व्याव	-4606
▁सिने	-4607
▁प्रतिभा	-4608
▁प्रदेशों	-4609
▁वर्मा	-4610
▁टैक्स	-4611
ंडीज	-4612
▁मालूम	-4613
▁अस्थ	-4614
▁पेज	-4615
▁विद्युत	-4616
▁श्रम	-4617
वरों	-4618
▁बाग	-4619
▁धवन	-4620
▁कठिन	-4621
▁कृष्ण	-4622
▁प्रोड	-4623
संख्य	-4624
▁हड़	-4625
▁निदेश	-4626
दियों	-4627
फॉर्म	-4628
▁उत्साह	-4629
▁पवार	-4630
▁मेहनत	-4631
▁सीतार	-4632
फिर	-4633
कालीन	-4634
▁भौ	-4635
▁रास्ते	-4636
▁घटनाओं	-4637
▁डाउनलोड	-4638
▁क्षति	-4639
▁प्रतिनिधि	-4640
▁सर्वेक्षण	-4641
▁पराम	-4642
मेर	-4643
▁आध्या	-4644
▁पाठ्य	-4645
▁चैंप	-4646
▁भंडार	-4647
कान	-4648
▁लखन	-4649
ृत्ति	-4650
▁लघु	-4651
▁दोहरा	-4652
जि	-4653
क्म	-4654
▁रेड्डी	-4655
ायण	-4656
सब	-4657
▁नील	-4658
▁कामया	-4659
▁घोट	-4660
▁आसानी	-4661
▁2009	-4662
▁कितना	-4663
वेयर	-4664
▁अधिकारों	-4665
टीआई	-4666
,8	-4667
▁विपक्षी	-4668
नेशनल	-4669
▁अन्‍य	-4670
▁गवर्	-4671
▁अनुष्का	-4672
▁फसल	-4673
▁जॉन	-4674
▁जॉ	-4675
▁अधि	-4676
ेन्द्र	-4677
▁निम्नलिखित	-4678
▁काट	-4679
▁रुख	-4680
▁ग्राहकों	-4681
▁संभाल	-4682
▁वाई	-4683
अपने	-4684
▁चली	-4685
▁डोनाल्ड	-4686
▁पशु	-4687
▁केंद्रित	-4688
पल	-4689
▁मोहन	-4690
▁वैसे	-4691
▁मनोहर	-4692
▁पौल	-4693
▁इनकी	-4694
▁सन	-4695
्यूब	-4696
▁प्ला	-4697
▁प्रसिद्ध	-4698
लोक	-4699
▁निर्देशन	-4700
▁फार्म	-4701
▁गू	-4702
▁व्हा	-4703
न्‍द	-4704
▁टेक्	-4705
▁गठित	-4706
▁प्रशासनिक	-4707
▁वस्तुओं	-4708
▁नेहर	-4709
ख़िर	-4710
▁माध	-4711
▁टक्कर	-4712
▁पक्षों	-4713
▁सपा	-4714
ोरम	-4715
▁सर्वोच्च	-4716
▁जिनका	-4717
▁ढांचे	-4718
▁जिंदगी	-4719
▁हिम	-4720
▁प्रोत्साहित	-4721
▁आध्यात्मिक	-4722
▁संकल्प	-4723
्यूल	-4724
▁बू	-4725
▁फैल	-4726
▁कैंसर	-4727
▁शिल	-4728
ुति	-4729
▁फॉर	-4730
द्या	-4731
▁सिखा	-4732
िन्‍न	-4733
▁पौलुस	-4734
▁देखकर	-4735
ाइयों	-4736
▁पड़ेगा	-4737
▁निर्देशक	-4738
▁नीतीश	-4739
▁पुणे	-4740
-3	-4741
बरा	-4742
ैंस	-4743
▁मास	-4744
▁स्टूड	-4745
एसआई	-4746
▁तीसरा	-4747
▁बैठे	-4748
,9	-4749
▁साथी	-4750
▁प्रदर्शित	-4751
न्दर	-4752
▁ट्रांस	-4753
▁सकेंगे	-4754
फिक	-4755
▁बनाम	-4756
ज़ार	-4757
फेसर	-4758
▁पायल	-4759
▁X	-4760
▁थोड़ा	-4761
▁जाम	-4762
▁सिख	-4763
राग	-4764
▁लीड	-4765
▁o	-4766
▁दिग्	-4767
▁समूहों	-4768
कीन	-4769
▁अदा	-4770
ांकन	-4771
▁मजदूर	-4772
▁...	-4773
▁कां	-4774
▁वादा	-4775
▁क्रमश	-4776
धिकारी	-4777
▁करियर	-4778
▁तभी	-4779
▁यूरोप	-4780
द्दा	-4781
ॉर्क	-4782
▁चुनावी	-4783
▁मेट्रो	-4784
▁संस्करण	-4785
मात्र	-4786
ंकन	-4787
▁एकता	-4788
▁छाप	-4789
▁बीएस	-4790
तियां	-4791
ia	-4792
▁अमरीकी	-4793
▁2021	-4794
डम	-4795
कलन	-4796
कोट	-4797
▁अनुरूप	-4798
पचारिक	-4799
▁सिद्धांत	-4800
▁इस्रा	-4801
एसएम	-4802
▁चलाने	-4803
▁परामर्श	-4804
▁जवानों	-4805
▁प्राय	-4806
प्रीत	-4807
▁दिलच	-4808
▁आतंकवादियों	-4809
ंतरिक	-4810
▁बदलने	-4811
▁डिस्प्ले	-4812
▁गुल	-4813
क्के	-4814
▁जानें	-4815
राम	-4816
स्य	-4817
▁प्रसारण	-4818
▁३	-4819
▁कायम	-4820
▁स्थायी	-4821
मेल	-4822
▁कौर	-4823
▁कमल	-4824
▁फायर	-4825
▁यौन	-4826
▁तरीका	-4827
▁चिकित्स	-4828
ितीय	-4829
गण	-4830
▁अगु	-4831
ॉर्ट	-4832
▁पांडे	-4833
▁कटौती	-4834
ब्लिक	-4835
▁शराब	-4836
▁आएगा	-4837
▁छोटा	-4838
▁सपोर्ट	-4839
▁सच्चाई	-4840
▁रिया	-4841
▁अध्‍य	-4842
▁तृ	-4843
▁प्रोज	-4844
▁हुक्म	-4845
ोलॉजी	-4846
▁प्रतिनिधित्व	-4847
भूमि	-4848
▁लखनऊ	-4849
▁करण	-4850
▁प्रत्यक्ष	-4851
▁?	-4852
▁प्रजा	-4853
ध्या	-4854
▁तिमाही	-4855
▁रॉ	-4856
,2	-4857
ाफ	-4858
्रेडिट	-4859
▁हिसाब	-4860
दय	-4861
▁तुमने	-4862
ार्दिक	-4863
▁तुमको	-4864
▁दशक	-4865
▁प्रस	-4866
▁सेव	-4867
संद	-4868
▁पैसा	-4869
▁कर्मियों	-4870
जिट	-4871
▁तमाम	-4872
▁एजेंसियों	-4873
▁डॉक्टरों	-4874
मंत्र	-4875
▁नामक	-4876
▁रेखा	-4877
▁खाना	-4878
ायंस	-4879
मूल	-4880
स्‍था	-4881
रेट	-4882
तलब	-4883
▁आदित्यनाथ	-4884
फाइ	-4885
▁एह	-4886
▁उतर	-4887
▁हटाने	-4888
▁चिद	-4889
▁बला	-4890
▁लेखक	-4891
▁प्रकृति	-4892
▁अभ्यास	-4893
▁इमार	-4894
▁सिक्	-4895
▁n	-4896
▁मण्डल	-4897
▁एशियाई	-4898
▁आस्ट्रेलिया	-4899
▁आये	-4900
▁हिस्सेदारी	-4901
▁आंतरिक	-4902
ठभ	-4903
रानी	-4904
▁हार्दिक	-4905
▁नज	-4906
▁प्रोफेसर	-4907
▁गर्व	-4908
▁दान	-4909
▁संयंत्र	-4910
▁क़ौम	-4911
▁मरने	-4912
▁अट	-4913
▁आत्महत्या	-4914
▁370	-4915
▁चोरी	-4916
बु	-4917
▁जंग	-4918
▁अड्ड	-4919
▁ठाकरे	-4920
▁गडकरी	-4921
▁निर्मित	-4922
▁रास्ता	-4923
▁मद्	-4924
▁150	-4925
▁प्रणब	-4926
कोण	-4927
▁होटल	-4928
शंकर	-4929
▁कैमरे	-4930
▁बचाने	-4931
ेश्वर	-4932
▁इतने	-4933
आईए	-4934
▁कीजिए	-4935
▁ऑटो	-4936
▁भड़	-4937
▁विषयों	-4938
▁मांगी	-4939
एंगे	-4940
▁अहमदाबाद	-4941
▁मुठभ	-4942
▁करवाया	-4943
▁व्‍या	-4944
▁हद	-4945
▁आलिया	-4946
ोरेट	-4947
▁खतर	-4948
ज्ज	-4949
▁उल्लेखनीय	-4950
▁अश्व	-4951
▁सीजन	-4952
▁बहस	-4953
▁नेहरू	-4954
ि‍	-4955
▁प्रतिस्प	-4956
▁मुख्यालय	-4957
म्भ	-4958
▁व्यवसाय	-4959
राधिक	-4960
10	-4961
ोगे	-4962
यां	-4963
▁तिथि	-4964
44	-4965
me	-4966
तालों	-4967
▁तर्क	-4968
▁तीसरी	-4969
▁जयंती	-4970
ेंट्स	-4971
इंडीज	-4972
▁यूरोपीय	-4973
▁चुनौतियों	-4974
▁मृतक	-4975
ल्पना	-4976
▁रहीं	-4977
▁शक	-4978
स्वी	-4979
▁डाटा	-4980
▁श्रद्धांजलि	-4981
▁लिस्ट	-4982
न्यास	-4983
▁क्ला	-4984
▁गवाह	-4985
वानी	-4986
ारीरिक	-4987
▁दूध	-4988
▁आयुष	-4989
▁खतरे	-4990
पीएस	-4991
▁पार्क	-4992
▁दर्शकों	-4993
▁ब्रे	-4994
▁नाथ	-4995
▁दावे	-4996
▁फिट	-4997
ce	-4998
▁एफआईआर	-4999
▁कोविंद	-5000
▁सेल्	-5001
▁विद्यालय	-5002
▁एसोसिएशन	-5003
▁क्रेडिट	-5004
▁दर्शन	-5005
▁जू	-5006
पार	-5007
▁लड़ने	-5008
▁कना	-5009
▁गिल	-5010
▁अधिकतर	-5011
▁सुरेश	-5012
▁इलेक्ट्रॉन	-5013
स्वरूप	-5014
▁देखना	-5015
▁प्रस्तावित	-5016
▁ज़रूर	-5017
▁स्वच्छता	-5018
▁वक्‍त	-5019
▁हिंदु	-5020
▁बोली	-5021
▁2008	-5022
▁घंटों	-5023
▁कितनी	-5024
ेडियम	-5025
▁मद्देन	-5026
ोई	-5027
▁चैनल	-5028
▁जिनकी	-5029
▁सिलस	-5030
▁महात्मा	-5031
▁परेशानी	-5032
▁जताया	-5033
▁मिश्र	-5034
▁उत	-5035
गि	-5036
▁शैतान	-5037
न्‍द्रीय	-5038
ब्दी	-5039
▁तेरे	-5040
▁गांवों	-5041
▁निल	-5042
िथ	-5043
▁f	-5044
▁सालों	-5045
▁भूल	-5046
▁घाटी	-5047
▁इंजीनियरिंग	-5048
▁अमर	-5049
करार	-5050
▁शिकार	-5051
▁स्रोत	-5052
▁संचालित	-5053
श्त	-5054
▁लाखों	-5055
▁निंदा	-5056
▁संभावित	-5057
▁पायलट	-5058
▁धोखा	-5059
▁धा	-5060
▁माफी	-5061
▁साक्षी	-5062
▁गीत	-5063
▁देखी	-5064
▁अज्ञात	-5065
ंत्रिक	-5066
▁राष्‍ट्रपति	-5067
एनएस	-5068
▁रक्त	-5069
▁क्रिकेटर	-5070
▁बहुमत	-5071
▁उपभोक्ता	-5072
▁मानक	-5073
▁वायुसेना	-5074
▁दर्शा	-5075
▁पेशे	-5076
▁शारीरिक	-5077
▁प्रीम	-5078
ेंगी	-5079
▁शुरुआती	-5080
क्षेत्र	-5081
ुलकर	-5082
▁एक्	-5083
▁जोशी	-5084
▁ढां	-5085
राइ	-5086
डेट	-5087
os	-5088
▁दोप	-5089
तायात	-5090
▁आमिर	-5091
▁बढ़ाया	-5092
▁सम्बन्ध	-5093
,0	-5094
▁पैमाने	-5095
▁195	-5096
▁आज्ञा	-5097
▁स्कोर	-5098
्वान	-5099
▁आशी	-5100
▁कोयला	-5101
▁मिसाल	-5102
▁शतक	-5103
▁सर्वाधिक	-5104
▁खाली	-5105
,999	-5106
▁केन्‍द्रीय	-5107
सीबी	-5108
ांसी	-5109
▁42	-5110
▁सागर	-5111
▁कार्यकाल	-5112
▁सिनेमा	-5113
▁आमंत्रित	-5114
▁सावधान	-5115
▁सुंदर	-5116
वंत	-5117
मला	-5118
▁गौरतलब	-5119
▁स्‍व	-5120
▁साज	-5121
pp	-5122
▁मुठभेड़	-5123
▁b	-5124
▁नमू	-5125
▁पहुँचा	-5126
▁विभिन्‍न	-5127
▁फॉर्म	-5128
▁अत्या	-5129
▁बढ़ते	-5130
▁पाठ्यक्रम	-5131
▁इसको	-5132
▁मंज	-5133
▁रिलायंस	-5134
सद	-5135
▁नितिन	-5136
▁38	-5137
कीम	-5138
तुम	-5139
▁खाता	-5140
▁मुख्‍य	-5141
▁पेट	-5142
▁नाज़	-5143
▁परिचालन	-5144
▁प्रवर्	-5145
▁वेस्टइंडीज	-5146
ंबरम	-5147
▁भारती	-5148
▁मनोज	-5149
▁सहमत	-5150
▁लिखे	-5151
▁गाड़ी	-5152
▁एंड्र	-5153
▁वाक	-5154
▁उतार	-5155
▁फें	-5156
▁दीपक	-5157
▁भारतीयों	-5158
▁सूचित	-5159
णु	-5160
▁गाने	-5161
▁पीड़िता	-5162
▁यक़ीन	-5163
▁स्टेडियम	-5164
▁यातायात	-5165
▁लिंक	-5166
▁पंचायत	-5167
▁रमेश	-5168
▁बंदर	-5169
▁इंटरनेशनल	-5170
वर्ष	-5171
▁किमी	-5172
▁सीसीटी	-5173
--	-5174
▁धमकी	-5175
▁फाइल	-5176
मै	-5177
▁पूछे	-5178
▁रणबीर	-5179
▁राजन	-5180
▁आफ	-5181
▁जगत	-5182
▁एकमात्र	-5183
▁इंडस्ट्री	-5184
हीन	-5185
-201	-5186
▁रकम	-5187
सील	-5188
▁प्रभारी	-5189
▁माय	-5190
▁शुद्ध	-5191
ापुर	-5192
▁गृहमंत्री	-5193
▁अमरीका	-5194
संच	-5195
▁हक	-5196
ोरेशन	-5197
▁300	-5198
सीआर	-5199
▁44	-5200
▁प्रोत्साहन	-5201
▁सैनिक	-5202
▁फायदे	-5203
▁आईसीसी	-5204
▁ब्लैक	-5205
▁संसाध	-5206
▁रणनीति	-5207
ायन	-5208
ोसी	-5209
▁बादल	-5210
▁समुद्री	-5211
▁चिदंबरम	-5212
▁(3	-5213
▁स्‍ट	-5214
▁डेब	-5215
▁एसपी	-5216
▁दुकान	-5217
▁पढ़ाई	-5218
▁सीईओ	-5219
▁हाँ	-5220
पेट	-5221
परेशन	-5222
▁आर्	-5223
▁Pro	-5224
ोड	-5225
▁जिक्र	-5226
▁इसने	-5227
▁चैंपियन	-5228
▁साउ	-5229
▁शरीफ	-5230
▁बीज	-5231
र्डर	-5232
▁संदि	-5233
▁ज्ञापन	-5234
▁रहो	-5235
▁काफ़	-5236
दल	-5237
▁पादु	-5238
▁केंद्रों	-5239
▁सम्प	-5240
▁अग्रवाल	-5241
ोध्या	-5242
▁एयरपोर्ट	-5243
▁सीसीटीवी	-5244
▁अधिव	-5245
▁बॉक्स	-5246
▁कितने	-5247
▁बढ़ाकर	-5248
▁नतीजे	-5249
▁विभागों	-5250
▁हक़	-5251
▁उपलब्‍	-5252
▁बाइक	-5253
▁आपराधिक	-5254
▁उन्न	-5255
▁ठोस	-5256
ंगिक	-5257
घर	-5258
▁आह्वान	-5259
▁#	-5260
▁हृ	-5261
कृष्ट	-5262
▁पथ	-5263
▁आशंका	-5264
▁51	-5265
▁तिर	-5266
▁यूजर्स	-5267
▁वाज	-5268
▁बेटा	-5269
कांग	-5270
▁स्ट्र	-5271
▁देशभर	-5272
▁बाज़	-5273
▁लाइस	-5274
▁भिन्न	-5275
▁गुजर	-5276
स्टिक	-5277
▁अस्पतालों	-5278
आईएम	-5279
▁दिग्गज	-5280
ग्रहण	-5281
▁जानने	-5282
▁भाषाओं	-5283
▁राज्‍यों	-5284
▁वर्षा	-5285
पीए	-5286
▁हालाँ	-5287
▁हालाँकि	-5288
वीय	-5289
▁ज़रूरी	-5290
▁ज़िंदगी	-5291
▁शिक्षक	-5292
वैधानिक	-5293
▁श्रीनगर	-5294
▁उपलब्‍ध	-5295
▁बट	-5296
▁पादुकोण	-5297
▁माइक्रो	-5298
▁आकर	-5299
भाग्य	-5300
ियस	-5301
▁दस्तावेज	-5302
▁सशक्त	-5303
तरीय	-5304
▁समझने	-5305
▁अल्पसंख्य	-5306
डीआर	-5307
▁परिस्थितियों	-5308
▁कंपनियां	-5309
▁ऑल	-5310
जिद	-5311
▁लिखी	-5312
▁कलाकार	-5313
▁मंड	-5314
▁ब्यू	-5315
▁झूठ	-5316
विमर्श	-5317
▁सीबी	-5318
▁तेंद	-5319
▁विफल	-5320
▁फीचर्स	-5321
▁टेक्न	-5322
असल	-5323
▁मुना	-5324
▁श्रमिक	-5325
ैस	-5326
बरी	-5327
▁रनों	-5328
▁डेविड	-5329
▁अधिसूचना	-5330
▁क्रिस	-5331
ंथ	-5332
▁प्रशंसा	-5333
▁कुशल	-5334
▁लिहा	-5335
▁मद्देनजर	-5336
▁ढांचा	-5337
▁शिविर	-5338
▁पोर्टल	-5339
▁संदिग्ध	-5340
▁प्रत्याशी	-5341
क्षणिक	-5342
ारक	-5343
पक्ष	-5344
मंडल	-5345
-4	-5346
▁सुष	-5347
▁जानिए	-5348
▁उपायों	-5349
िपुर	-5350
ैंक	-5351
▁युग	-5352
▁ध्व	-5353
▁जाहिर	-5354
▁परंतु	-5355
▁चौथे	-5356
▁धीरे	-5357
▁संशोधित	-5358
हल	-5359
▁भो	-5360
▁बताई	-5361
▁सुविधाएं	-5362
▁कारोबारी	-5363
▁त्य	-5364
डि़	-5365
▁घुस	-5366
▁संसार	-5367
▁अयोध्या	-5368
किस्तान	-5369
▁चीजें	-5370
▁आंख	-5371
▁कोष	-5372
▁गूगल	-5373
धारकों	-5374
▁आईए	-5375
्‍यू	-5376
▁निधि	-5377
▁लंबा	-5378
▁खेती	-5379
ult	-5380
▁भय	-5381
▁किल	-5382
▁आवाज	-5383
▁प्रता	-5384
▁प्रोसेसर	-5385
▁आइए	-5386
▁हवाले	-5387
▁प्राइम	-5388
हमने	-5389
▁शुभार	-5390
▁उपस्थिति	-5391
▁देगी	-5392
▁मंडल	-5393
ंबित	-5394
▁आपात	-5395
▁49	-5396
▁यूनिट	-5397
▁इस्राएल	-5398
नाइट	-5399
▁भेद	-5400
▁कॉरप	-5401
▁बॉस	-5402
खण्ड	-5403
दंड	-5404
▁एकल	-5405
▁कृत	-5406
▁द्र	-5407
▁हितों	-5408
▁फीसद	-5409
▁रवाना	-5410
▁दिवसीय	-5411
यामत	-5412
▁जौ	-5413
▁कंप्यूटर	-5414
▁संतोष	-5415
रन	-5416
▁लाइसेंस	-5417
श्री	-5418
ितों	-5419
▁बौद्ध	-5420
▁कैप्ट	-5421
▁प्रोट	-5422
▁पंजीकरण	-5423
▁तिव	-5424
▁फर्	-5425
▁अवि	-5426
▁जज	-5427
ग्रस्त	-5428
▁प्रोजेक्ट	-5429
▁सरल	-5430
कप्तान	-5431
▁आयकर	-5432
▁सीए	-5433
▁तल	-5434
▁नियंत्रित	-5435
र्मी	-5436
▁अनुसूचित	-5437
▁43	-5438
▁नाज़िल	-5439
्यांकन	-5440
▁चालू	-5441
▁संसाधनों	-5442
▁कार्यान्वयन	-5443
संख्या	-5444
▁समन्व	-5445
▁बलात्कार	-5446
▁बंदरगाह	-5447
▁चुने	-5448
िंगटन	-5449
▁झग	-5450
▁तिवारी	-5451
▁d	-5452
▁समझते	-5453
▁इकट	-5454
▁भरा	-5455
स्त्री	-5456
▁अध्‍यक्ष	-5457
पालिका	-5458
▁65	-5459
▁निकाला	-5460
▁बसपा	-5461
आईसी	-5462
▁सीतारमण	-5463
▁सकी	-5464
-18	-5465
▁मात्र	-5466
▁सृजन	-5467
▁कनाडा	-5468
▁आना	-5469
▁अंकों	-5470
वेदनशील	-5471
▁कच्चे	-5472
्तों	-5473
▁सीआर	-5474
▁सेल्फी	-5475
▁एंट	-5476
▁यातना	-5477
▁पार्	-5478
लील	-5479
▁प्रेरणा	-5480
▁जुर्म	-5481
▁गेम	-5482
▁टूट	-5483
▁स्पेश	-5484
▁डाक	-5485
▁बैंकिंग	-5486
▁फ्री	-5487
▁मुक़	-5488
▁बुद्ध	-5489
▁गुरुवार	-5490
▁दक्षिणी	-5491
▁दौड़	-5492
रीत	-5493
स्‍थ्‍य	-5494
▁कमाई	-5495
▁मस्जिद	-5496
▁सेमी	-5497
▁दोपहर	-5498
▁कुलदीप	-5499
हि	-5500
ीट	-5501
▁बम	-5502
▁विंड	-5503
▁प्रदर्शनकारियों	-5504
▁इकट्	-5505
णियों	-5506
▁नारे	-5507
▁194	-5508
न्ट	-5509
▁आपस	-5510
▁परमेश्वर	-5511
em	-5512
▁खूबस	-5513
▁जगहों	-5514
▁नामांकन	-5515
▁इम	-5516
फिया	-5517
▁बैरल	-5518
चानक	-5519
ड़न	-5520
्‍स	-5521
स्को	-5522
▁बढ़े	-5523
डीएस	-5524
कुछ	-5525
▁दरअसल	-5526
▁चाहिये	-5527
ुदा	-5528
चक	-5529
हूर	-5530
▁ज़िले	-5531
▁मोर्	-5532
▁ज़िम्मे	-5533
▁प्रतिबद्धता	-5534
▁आएगी	-5535
ब्ब	-5536
▁किरा	-5537
▁अभिषेक	-5538
▁इंट	-5539
▁विनिर्माण	-5540
▁कॉन्फ्रेंस	-5541
ुता	-5542
▁छान	-5543
▁कैसा	-5544
▁लेता	-5545
▁भूकंप	-5546
▁क्लब	-5547
▁एकत्र	-5548
िंटन	-5549
▁गोल्ड	-5550
▁जस	-5551
▁39	-5552
▁फं	-5553
▁उर्व	-5554
▁पंड	-5555
▁निच	-5556
▁हुईं	-5557
▁पेशकश	-5558
▁पुरानी	-5559
यत	-5560
▁विरासत	-5561
▁महेंद्र	-5562
▁vs	-5563
▁यश	-5564
19	-5565
▁नॉ	-5566
वों	-5567
▁55	-5568
▁काउंस	-5569
▁लक्षण	-5570
▁अचानक	-5571
▁सरदार	-5572
▁हजारों	-5573
▁मेघ	-5574
क्टिव	-5575
ंपरिक	-5576
्रोल	-5577
▁मलिक	-5578
▁घटनास्थल	-5579
▁प्रयोगशाला	-5580
-17	-5581
▁अधी	-5582
प्पा	-5583
ut	-5584
▁पिछली	-5585
िंस	-5586
80	-5587
गैर	-5588
कांत	-5589
▁स्पिन	-5590
सायिक	-5591
▁h	-5592
▁लड़कियों	-5593
▁आजादी	-5594
▁प्राइवेट	-5595
▁शिम	-5596
▁रिसर्च	-5597
▁दुष्	-5598
▁सदी	-5599
▁अभिव	-5600
▁सफाई	-5601
▁हेड	-5602
▁जागरूकता	-5603
पीएम	-5604
▁कोर	-5605
▁वाइ	-5606
नेश	-5607
▁शिर	-5608
▁वायदा	-5609
क्ताओं	-5610
▁रैंकिंग	-5611
▁सच्चे	-5612
किम	-5613
▁मुआ	-5614
▁कैप्टन	-5615
▁खरीदने	-5616
▁बरकरार	-5617
▁a	-5618
▁खी	-5619
▁निर्मला	-5620
केज	-5621
क्चर	-5622
▁आकलन	-5623
▁शाहिद	-5624
▁सैफ	-5625
▁महत्त्व	-5626
▁टीमें	-5627
ृत्त	-5628
▁पाप	-5629
▁मणिपुर	-5630
त्न	-5631
▁खिता	-5632
▁दरवा	-5633
▁स्ना	-5634
▁इंदिरा	-5635
▁मुसलमानों	-5636
▁प्रतिनिधियों	-5637
▁भेजने	-5638
▁पत्थर	-5639
▁विपरीत	-5640
▁टू	-5641
▁तहसील	-5642
▁पड़ोसी	-5643
▁अकेले	-5644
▁स्‍वास्‍थ्‍य	-5645
▁इश	-5646
▁पत्रिका	-5647
रूप	-5648
▁मरा	-5649
▁निरी	-5650
▁करूंगा	-5651
▁देखिए	-5652
▁अटल	-5653
्‍प	-5654
▁आंकड़े	-5655
फ्टी	-5656
ंदाज	-5657
▁मरीज	-5658
▁इनका	-5659
▁हराया	-5660
▁शरण	-5661
द्दाख	-5662
हाबाद	-5663
गांव	-5664
BI	-5665
▁उत्‍पादन	-5666
▁जीते	-5667
अर	-5668
▁सर्विस	-5669
संचार	-5670
▁डायरेक्टर	-5671
60	-5672
▁बाजारों	-5673
म्स	-5674
▁मध्यम	-5675
ूती	-5676
▁मृतकों	-5677
▁उपकरणों	-5678
▁शिक्षकों	-5679
▁अपमान	-5680
स्वामी	-5681
▁शरद	-5682
डियो	-5683
▁जह	-5684
▁मुझसे	-5685
▁टुक	-5686
कालिक	-5687
दर्शी	-5688
▁वाता	-5689
▁बनाये	-5690
्वे	-5691
▁परिप	-5692
▁बाधा	-5693
▁आंकड़ा	-5694
mi	-5695
मतौर	-5696
▁समग्र	-5697
▁स्मृति	-5698
▁महत्‍व	-5699
▁भाइयों	-5700
▁भले	-5701
▁शेयरों	-5702
▁उत्कृष्ट	-5703
प्रति	-5704
▁बनाते	-5705
▁एका	-5706
▁बिता	-5707
▁संग्रहण	-5708
सिंह	-5709
ग्न	-5710
▁तथ्य	-5711
▁चीजों	-5712
▁फ़ाइल	-5713
आईपी	-5714
एमएस	-5715
ाजित	-5716
वानिव	-5717
11	-5718
पया	-5719
▁कलर	-5720
▁हृदय	-5721
▁मूल्यांकन	-5722
▁128	-5723
▁प्रसं	-5724
िने	-5725
▁उपयुक्त	-5726
इंट	-5727
▁उभर	-5728
▁शैक्षणिक	-5729
ीकृत	-5730
▁प्रवाह	-5731
▁नीर	-5732
।""	-5733
▁ऑपरेशन	-5734
ियंस	-5735
झी	-5736
▁अख	-5737
रेन	-5738
▁इट	-5739
स्कर	-5740
ष्‍ट्रीय	-5741
▁पारंपरिक	-5742
▁वैज्ञानिकों	-5743
▁कंग	-5744
▁बैक	-5745
▁उद्योगों	-5746
▁ओब	-5747
▁स्वर्ग	-5748
ोजित	-5749
▁ख़बर	-5750
▁पैनल	-5751
फाइनल	-5752
▁शुरु	-5753
▁जयपुर	-5754
▁सबको	-5755
ॉड	-5756
▁गुनाह	-5757
▁वातावरण	-5758
▁हिन्दी	-5759
▁आख़िर	-5760
▁अंध	-5761
▁धूम	-5762
▁पत्रकारों	-5763
▁कैप	-5764
▁जियो	-5765
गीय	-5766
▁योग्यता	-5767
▁उधर	-5768
चुनाव	-5769
▁महार	-5770
▁प्रारंभिक	-5771
▁आवश्‍य	-5772
▁तेंदुलकर	-5773
▁पहुंचाने	-5774
▁ठहराया	-5775
▁निर्देशित	-5776
ुली	-5777
▁आपसी	-5778
टीय	-5779
▁नौकर	-5780
▁निवेशकों	-5781
िप्त	-5782
▁मुह	-5783
▁मशहूर	-5784
▁जिम	-5785
एनयू	-5786
▁यहू	-5787
▁पात्र	-5788
▁दिखाने	-5789
▁नजदी	-5790
प्शन	-5791
▁शता	-5792
▁बढ़ी	-5793
▁प्राप्‍त	-5794
▁आर्ट	-5795
▁चांदी	-5796
▁आजाद	-5797
▁संतुल	-5798
▁छु	-5799
▁मौल	-5800
▁पहन	-5801
▁ब्रांड	-5802
▁जोड़ने	-5803
▁औपचारिक	-5804
लिंग	-5805
दास	-5806
्ज	-5807
▁चम	-5808
▁अंश	-5809
ऊदी	-5810
केश	-5811
▁क्षमा	-5812
▁लद्दाख	-5813
व्र	-5814
▁निस्	-5815
▁स्वराज	-5816
वेज	-5817
साम	-5818
सिया	-5819
▁स्टॉक	-5820
ैनिक	-5821
▁निर्धारण	-5822
वेल	-5823
वीस	-5824
ab	-5825
▁अंजाम	-5826
मुख्य	-5827
हीम	-5828
ew	-5829
od	-5830
▁सैम	-5831
▁वित्‍त	-5832
▁सांसदों	-5833
गित	-5834
▁बिजनेस	-5835
▁नवीन	-5836
▁मुंह	-5837
▁सूक्ष	-5838
▁दृढ़	-5839
▁माने	-5840
▁जनसंख्या	-5841
▁विश्लेषण	-5842
▁कानूनों	-5843
▁सिंगापुर	-5844
▁संदेह	-5845
▁कवर	-5846
हाई	-5847
▁तारीफ	-5848
▁बाहरी	-5849
▁बांध	-5850
▁गह	-5851
▁आमतौर	-5852
▁स्टाफ	-5853
▁जोड़ा	-5854
▁झुठ	-5855
▁बन्	-5856
टकों	-5857
▁टॉप	-5858
फेल	-5859
▁बुल	-5860
▁प्रशंस	-5861
▁संस्थाओं	-5862
▁झटका	-5863
▁कंट्रोल	-5864
▁करेंगी	-5865
▁व्याख्या	-5866
▁भेंट	-5867
रीबी	-5868
एनए	-5869
▁कोड	-5870
▁अनुश	-5871
▁विशेषज्ञों	-5872
िशियल	-5873
▁त्या	-5874
च्‍छ	-5875
ri	-5876
सेक्स	-5877
▁46	-5878
▁दत्त	-5879
▁इंस्टीट	-5880
▁वारदा	-5881
मैंने	-5882
जै	-5883
शाह	-5884
▁गौतम	-5885
त्तर	-5886
स्टार	-5887
▁झुठला	-5888
फाई	-5889
ुरू	-5890
▁पाय	-5891
▁ईंधन	-5892
वो	-5893
▁पहुंचाया	-5894
▁एक्सच	-5895
▁मार्केट	-5896
▁मिलाकर	-5897
▁IP	-5898
कीपर	-5899
▁हस्तक्षेप	-5900
▁यक़ीनन	-5901
▁दोस्तों	-5902
▁छानबीन	-5903
▁नीतियों	-5904
▁साउथ	-5905
▁रामनाथ	-5906
▁तौ	-5907
▁थोड़ी	-5908
ुसार	-5909
▁जीवित	-5910
▁i	-5911
▁किलोग्राम	-5912
▁सुषमा	-5913
▁बाप	-5914
▁बोला	-5915
▁हरी	-5916
▁जाएंगी	-5917
▁सिद्धार्थ	-5918
▁स्त्री	-5919
▁प्रतीक	-5920
▁पेर	-5921
डीएम	-5922
▁लम्	-5923
▁सुभाष	-5924
▁47	-5925
▁ब्यूरो	-5926
▁दीर्	-5927
शिंगटन	-5928
▁दह	-5929
▁फूल	-5930
पेयी	-5931
▁अत्यधिक	-5932
▁संवेदनशील	-5933
▁स्मिथ	-5934
▁दायरे	-5935
▁अर्थात्	-5936
▁मेजब	-5937
धित	-5938
▁मजबूती	-5939
▁पुरुषों	-5940
जात	-5941
्‍यों	-5942
▁52	-5943
▁&	-5944
▁एनसीपी	-5945
▁\""	-5946
▁गोलीबारी	-5947
▁मध्यप्रदेश	-5948
▁जीतकर	-5949
▁शुभारंभ	-5950
दमी	-5951
ंदे	-5952
▁प्रोग्राम	-5953
र्की	-5954
▁कराए	-5955
▁जोन	-5956
▁खिताब	-5957
▁ख्या	-5958
▁खासकर	-5959
▁आँ	-5960
▁असफल	-5961
रित	-5962
ंचाई	-5963
▁वाणिज्यिक	-5964
▁पाते	-5965
सेट	-5966
ोदय	-5967
िक्	-5968
▁टक	-5969
▁फैंस	-5970
▁बलि	-5971
▁मारा	-5972
▁आश्वास	-5973
तल	-5974
अगर	-5975
संदेह	-5976
आइ	-5977
भाजपा	-5978
▁अस्त	-5979
▁साथियों	-5980
▁हां	-5981
▁आरबीआई	-5982
लोग	-5983
टर्स	-5984
ाहिर	-5985
▁स्वरूप	-5986
▁जितना	-5987
वली	-5988
ट्रिक	-5989
ूनी	-5990
▁मिट्टी	-5991
िपुरा	-5992
▁ब्रह	-5993
▁सज़ा	-5994
▁नवाचार	-5995
▁आतंकियों	-5996
▁राजेश	-5997
खल	-5998
बीसी	-5999
ाजत	-6000
▁सऊदी	-6001
▁बांट	-6002
▁बिंद	-6003
कला	-6004
ेशनों	-6005
ेयर	-6006
▁पुनः	-6007
ग़म्बर	-6008
हैं	-6009
▁जाएँगे	-6010
ter	-6011
▁अधीक्षक	-6012
इंड	-6013
ूहिक	-6014
▁शर्म	-6015
▁उत्स	-6016
मंद	-6017
▁बेंगलुरु	-6018
▁मनीष	-6019
▁लगाते	-6020
▁गंभीरता	-6021
▁माया	-6022
▁उन्हीं	-6023
▁डु	-6024
▁प्रारूप	-6025
▁सम्मिल	-6026
▁बच्ची	-6027
▁दूरसंचार	-6028
▁41	-6029
▁ग्लो	-6030
▁फार	-6031
न्ड	-6032
ऊद	-6033
▁फिल्‍म	-6034
ax	-6035
जान	-6036
▁पैकेज	-6037
▁सोचा	-6038
ऊँ	-6039
▁लेखा	-6040
▁नसी	-6041
▁प्रांत	-6042
▁प्रवासी	-6043
बॉल	-6044
▁सतर्क	-6045
har	-6046
▁India	-6047
संघ	-6048
▁रवी	-6049
▁लालू	-6050
▁सॉफ्ट	-6051
▁पोषण	-6052
▁सेहत	-6053
▁जन्मदिन	-6054
▁स्वि	-6055
ांतों	-6056
▁भोपाल	-6057
▁आरएसएस	-6058
▁स्पेशल	-6059
▁चैम्प	-6060
▁जटिल	-6061
▁निर्द	-6062
▁Red	-6063
▁प्रसन्न	-6064
▁एंटी	-6065
रोज	-6066
▁निभाई	-6067
▁मिलेंगे	-6068
▁तरीकों	-6069
▁54	-6070
▁मकसद	-6071
▁ढेर	-6072
up	-6073
esult	-6074
▁बोझ	-6075
ुक्‍त	-6076
▁गवर्नर	-6077
▁नैतिक	-6078
▁छोड़ने	-6079
▁यकीन	-6080
▁रानी	-6081
▁अभिनय	-6082
▁आश्वासन	-6083
▁बुलाया	-6084
नम	-6085
क्तियों	-6086
▁जहाज	-6087
▁कामों	-6088
▁अनुवाद	-6089
▁सीनियर	-6090
इंग	-6091
्रीम	-6092
िकेशन	-6093
▁न्यूज	-6094
▁सूर्य	-6095
▁सुश्री	-6096
▁हड़ताल	-6097
णाचल	-6098
▁गार	-6099
▁खूबसूरत	-6100
▁ताल	-6101
कन	-6102
ायतों	-6103
▁मार्गदर्शन	-6104
िडी	-6105
▁कल्पना	-6106
ढ़ा	-6107
▁सुनने	-6108
one	-6109
वाड़ा	-6110
▁अगुवाई	-6111
▁उड़ा	-6112
▁सामूहिक	-6113
▁सेन	-6114
ोड़े	-6115
▁अत्यंत	-6116
ैश	-6117
▁आयी	-6118
▁डिव	-6119
▁गोर	-6120
▁खतरनाक	-6121
ल्थ	-6122
देशों	-6123
▁अत	-6124
व्यू	-6125
ूंकि	-6126
▁आकर्षित	-6127
जुट	-6128
ष्‍ठ	-6129
▁पेय	-6130
▁गुस्	-6131
▁भरे	-6132
▁अड्डे	-6133
वर्ड	-6134
▁पीढ़ी	-6135
▁ईश्वर	-6136
▁औष	-6137
ँह	-6138
▁g	-6139
तांत्रिक	-6140
ष्णा	-6141
▁न्यूय	-6142
▁व्यक्‍ति	-6143
▁एकीकृत	-6144
टेल	-6145
▁भि	-6146
▁मिसाइल	-6147
▁आपत्ति	-6148
▁किशोर	-6149
▁स्तरीय	-6150
▁फ़र	-6151
▁बंध	-6152
सेस	-6153
▁ट्रेड	-6154
डीसी	-6155
▁करीबी	-6156
▁जब्त	-6157
▁मुज	-6158
▁संबोधन	-6159
▁त्रिपुरा	-6160
त्तियों	-6161
▁समृद्ध	-6162
▁कैद	-6163
▁स्वीकृति	-6164
▁कठोर	-6165
टों	-6166
▁आरक्षण	-6167
▁यो	-6168
▁ड्राइवर	-6169
राई	-6170
टीएम	-6171
▁लूट	-6172
▁भरी	-6173
ag	-6174
हारी	-6175
▁कमान	-6176
क्तूबर	-6177
▁बेस	-6178
रुण	-6179
▁रावत	-6180
▁सूत्र	-6181
▁नारायण	-6182
▁अतिथि	-6183
▁गलती	-6184
▁मनोर	-6185
▁दृश्य	-6186
▁2007	-6187
यो	-6188
▁उक्त	-6189
फ्तार	-6190
द्यपि	-6191
▁उनपर	-6192
▁Redmi	-6193
▁प्रे	-6194
▁एकजुट	-6195
▁स्‍था	-6196
▁सदस्यीय	-6197
र्र	-6198
▁अंबानी	-6199
ायती	-6200
▁हाइ	-6201
▁एक्सचेंज	-6202
▁सेल्स	-6203
एसए	-6204
▁जुड़	-6205
▁निकालने	-6206
▁कॉम	-6207
▁इकाइयों	-6208
▁सम्मिलित	-6209
▁नरेन्‍द्र	-6210
▁ग्राहक	-6211
▁चलाया	-6212
▁तेलु	-6213
▁साइट	-6214
▁जुटी	-6215
▁नष्ट	-6216
▁प्रावधानों	-6217
▁निलंबित	-6218
▁हिन्दू	-6219
पीड़न	-6220
▁जैव	-6221
▁लाइफ	-6222
िक्क	-6223
▁पढ़ने	-6224
▁बुद्धि	-6225
▁स्‍तर	-6226
ap	-6227
▁रेप	-6228
▁देरी	-6229
▁कामयाब	-6230
▁साधारण	-6231
▁राजकुमार	-6232
▁जाँच	-6233
▁परिवर्त	-6234
▁शेट	-6235
▁कामक	-6236
▁निया	-6237
▁सब्स	-6238
र्पण	-6239
um	-6240
▁कृपया	-6241
▁गरीबी	-6242
▁स्त	-6243
▁गार्ड	-6244
▁प्रमो	-6245
▁बेस्ट	-6246
▁हंग	-6247
▁चिंत	-6248
▁पवन	-6249
्यूज	-6250
▁लड़के	-6251
▁शैली	-6252
est	-6253
▁यूनियन	-6254
art	-6255
जेंसी	-6256
▁जाल	-6257
▁उन्‍हें	-6258
▁वैध	-6259
▁इसल	-6260
णों	-6261
▁शताब्दी	-6262
▁व्यावसायिक	-6263
▁महज	-6264
▁दर्जा	-6265
▁मचा	-6266
▁वरुण	-6267
▁संस्कृत	-6268
▁द्वितीय	-6269
▁अनंत	-6270
▁+	-6271
ुमान	-6272
▁जवाहर	-6273
ट्टर	-6274
▁ऑफर	-6275
स्‍तान	-6276
▁आएंगी	-6277
▁रिम	-6278
▁ऑप	-6279
▁खींच	-6280
▁राफेल	-6281
्रेशन	-6282
▁ऑफ़	-6283
▁फेर	-6284
▁परिणामस्वरूप	-6285
एडा	-6286
▁फिल्में	-6287
li	-6288
वित	-6289
▁दैनिक	-6290
▁उपधारा	-6291
▁इंस्टीट्यूट	-6292
▁फाइन	-6293
पूर	-6294
▁दाऊद	-6295
▁आदान	-6296
▁अक्तूबर	-6297
▁भूप	-6298
▁निराश	-6299
▁प्रको	-6300
हमें	-6301
▁इस्‍	-6302
ख़ुदा	-6303
▁कर्त	-6304
▁of	-6305
▁अर्ध	-6306
▁गिरोह	-6307
▁पद्ध	-6308
▁खबरों	-6309
▁समाजवादी	-6310
▁अमे	-6311
▁जबरद	-6312
यिक	-6313
▁दीवार	-6314
▁हुसैन	-6315
ुरी	-6316
साइड	-6317
▁जौहर	-6318
▁जुर्माना	-6319
▁महिंद्रा	-6320
▁मूल्यों	-6321
▁शौच	-6322
▁सेमीफाइनल	-6323
▁मुकेश	-6324
▁चेहरे	-6325
ख्‍या	-6326
▁मुआव	-6327
▁संवैधानिक	-6328
▁राजदूत	-6329
▁(4	-6330
▁एग्	-6331
▁खोलने	-6332
वामा	-6333
।।	-6334
▁नाराज	-6335
डन	-6336
पता	-6337
सीन	-6338
▁केन्‍द्र	-6339
▁(19	-6340
▁गहरी	-6341
▁प्रतिष्ठित	-6342
कृष्ण	-6343
▁पड़ने	-6344
▁कैफ	-6345
▁इस्पात	-6346
▁भौतिक	-6347
ेशिया	-6348
▁घोटाले	-6349
▁संवाददाताओं	-6350
पुट	-6351
▁काले	-6352
▁संवेद	-6353
▁दब	-6354
▁पीयू	-6355
▁भरने	-6356
▁संभ	-6357
▁दिमा	-6358
▁(1)	-6359
▁उपक्रम	-6360
▁हमलों	-6361
▁हर्षवर्धन	-6362
▁अवस्था	-6363
▁रोका	-6364
्रल	-6365
ाराण	-6366
▁वारदात	-6367
▁स्पेस	-6368
▁रिकार्ड	-6369
▁गौरव	-6370
▁सोल	-6371
▁पलट	-6372
▁मुफ्त	-6373
▁प्रतिनिधिमंडल	-6374
ेबल	-6375
▁सिद्धू	-6376
बूत	-6377
▁अकादमी	-6378
▁मार्क	-6379
हमारे	-6380
▁बुर	-6381
▁यद्यपि	-6382
क्की	-6383
-16	-6384
धारी	-6385
▁दायित्व	-6386
▁शेट्टी	-6387
▁संस्‍थ	-6388
▁सीधा	-6389
SE	-6390
णित	-6391
ाराणसी	-6392
ढ़े	-6393
▁रियल	-6394
र्त	-6395
▁सेंसेक्स	-6396
▁माँग	-6397
▁कार्ब	-6398
▁मजबूर	-6399
▁शत्र	-6400
डोर	-6401
जित	-6402
▁रंजन	-6403
लेस	-6404
िकरण	-6405
▁डालने	-6406
."""	-6407
▁मकान	-6408
▁प्रतिदिन	-6409
▁सुनाई	-6410
▁बख्	-6411
▁छवि	-6412
ांकित	-6413
▁उपास	-6414
वस्‍था	-6415
विधि	-6416
▁सूक्ष्म	-6417
खों	-6418
बुल	-6419
▁नग	-6420
▁लुक	-6421
▁दिक्क	-6422
ंजा	-6423
लाइट	-6424
▁400	-6425
▁फ्ला	-6426
▁बचत	-6427
▁साजिश	-6428
▁बेल	-6429
▁४	-6430
▁अखिलेश	-6431
▁उपलब्धि	-6432
िकर	-6433
▁स्कीम	-6434
12	-6435
सनीय	-6436
''	-6437
भूति	-6438
▁देखो	-6439
▁वीजा	-6440
▁राकेश	-6441
▁पॉल	-6442
▁खड़ी	-6443
▁इजाजत	-6444
नाश	-6445
▁ज्यो	-6446
▁व्यय	-6447
▁द्वार	-6448
▁पेड़	-6449
▁भागों	-6450
▁देवेंद्र	-6451
▁लंबित	-6452
▁विद्व	-6453
▁ताजा	-6454
मिन	-6455
▁2017-18	-6456
ate	-6457
▁पीने	-6458
▁प्लस	-6459
▁अरो	-6460
▁मारने	-6461
▁बिलकुल	-6462
कभी	-6463
्तिक	-6464
▁ईडी	-6465
एआई	-6466
िकाओं	-6467
▁सौंपा	-6468
▁बेन	-6469
केल	-6470
▁शिवराज	-6471
han	-6472
▁संस्थापक	-6473
▁टो	-6474
▁धमा	-6475
▁सफर	-6476
▁सिंचाई	-6477
▁नोएडा	-6478
▁अंडर	-6479
▁दीन	-6480
▁तूफान	-6481
सून	-6482
▁स्टील	-6483
▁हता	-6484
ak	-6485
माश	-6486
▁छुट्टी	-6487
▁भूषण	-6488
▁व्यस्त	-6489
▁ज़ाहिर	-6490
सागर	-6491
▁अवगत	-6492
▁करनेवाले	-6493
प्ति	-6494
▁पश्चात	-6495
▁आराम	-6496
▁वर्गों	-6497
▁सशस्त्र	-6498
▁सालाना	-6499
पीट	-6500
▁अग्रिम	-6501
रेज	-6502
▁गें	-6503
▁सेवानिव	-6504
▁किनारे	-6505
▁ट्रेलर	-6506
▁व्हाइट	-6507
न्दगी	-6508
▁देखे	-6509
▁उपचुनाव	-6510
▁शेख	-6511
▁टीका	-6512
▁अनुबंध	-6513
▁इलाहाबाद	-6514
▁विशेषकर	-6515
▁पहलू	-6516
▁सिलसिले	-6517
▁अपर	-6518
▁आवंटन	-6519
▁बचने	-6520
▁पुकार	-6521
▁अधिग्रहण	-6522
▁बोलने	-6523
▁पुलवामा	-6524
▁मुँह	-6525
▁ग्रीन	-6526
▁गिन	-6527
▁न्यायालयों	-6528
▁56	-6529
▁सभ	-6530
og	-6531
ंडे	-6532
ोंग	-6533
▁वजन	-6534
▁छिपा	-6535
▁पार्टियों	-6536
▁चूंकि	-6537
ोनेशिया	-6538
▁वर्णन	-6539
बली	-6540
▁कॉर्प	-6541
▁संदीप	-6542
▁शास्त्र	-6543
▁फाउंड	-6544
▁ख़ास	-6545
▁दोषियों	-6546
▁ज्‍या	-6547
▁रणनीतिक	-6548
▁2000	-6549
▁बाबा	-6550
क्‍स	-6551
स्‍ता	-6552
▁लैंड	-6553
▁बोलते	-6554
▁अमृत	-6555
▁महेश	-6556
ानियों	-6557
ंगुली	-6558
▁यथा	-6559
▁अभिव्य	-6560
चार्ज	-6561
▁लू	-6562
काया	-6563
व्या	-6564
▁काला	-6565
▁असल	-6566
▁डाले	-6567
▁इमारत	-6568
▁लगाकर	-6569
▁तीव्र	-6570
▁काउंसिल	-6571
▁रेडियो	-6572
▁प्रतिस्पर्धा	-6573
▁फि	-6574
▁हिद	-6575
▁उत्पीड़न	-6576
▁ज्‍यादा	-6577
▁जलाश	-6578
▁अवश्य	-6579
▁विविधता	-6580
ामक	-6581
▁तकली	-6582
विज्ञान	-6583
▁ग्रा	-6584
णवीस	-6585
▁बहनों	-6586
▁फस	-6587
▁एथ	-6588
▁पहलुओं	-6589
▁ईरानी	-6590
उप	-6591
धड़ी	-6592
▁टेलीवि	-6593
▁ट्रेनों	-6594
▁जहन्न	-6595
ज़न	-6596
▁गरीबों	-6597
▁कड़ा	-6598
▁ब्लॉक	-6599
्यूस	-6600
▁फीचर	-6601
अपनी	-6602
▁हिदायत	-6603
▁हुये	-6604
▁साक्षा	-6605
ून्य	-6606
ूष	-6607
जिन	-6608
मुख्यमंत्री	-6609
ोग्रा	-6610
▁सर्ज	-6611
▁रौ	-6612
एसएमई	-6613
▁वाराणसी	-6614
▁मिज	-6615
मानी	-6616
▁कविता	-6617
▁अवसरों	-6618
▁प्रवर्तन	-6619
▁अध्याय	-6620
काने	-6621
द्रोह	-6622
िपल	-6623
▁मानने	-6624
▁अमरि	-6625
▁पर्स	-6626
▁संपूर्ण	-6627
▁अखबार	-6628
▁जर्मन	-6629
▁मूर्	-6630
▁विपणन	-6631
▁गि	-6632
▁चरणों	-6633
▁बतौर	-6634
▁संबद्ध	-6635
▁लोकतांत्रिक	-6636
▁कामना	-6637
▁दरों	-6638
नैप	-6639
▁इंटरव्यू	-6640
णमूल	-6641
▁गेट	-6642
▁मेहर	-6643
▁रोगियों	-6644
बई	-6645
रचना	-6646
▁प्रका	-6647
शक्ति	-6648
पाकिस्तान	-6649
▁कव	-6650
▁झा	-6651
▁वाजपेयी	-6652
ment	-6653
▁ट्रस्ट	-6654
▁पब्लिक	-6655
▁पाएंगे	-6656
पानी	-6657
ूसु	-6658
▁गणराज्य	-6659
▁पुरी	-6660
▁बनना	-6661
ासित	-6662
▁निफ्टी	-6663
चित्र	-6664
▁आईं	-6665
▁कंगना	-6666
▁स्थानांतर	-6667
▁उमर	-6668
▁इटली	-6669
थाम	-6670
ेडकर	-6671
▁गढ़	-6672
▁खून	-6673
▁स्थगित	-6674
▁भजन	-6675
क्षिक	-6676
▁सत्या	-6677
▁निस्संदेह	-6678
गंज	-6679
▁जेएनयू	-6680
सेल	-6681
▁लेफ्ट	-6682
▁अनुदान	-6683
▁निदेशालय	-6684
ard	-6685
▁श्रेय	-6686
स्पी	-6687
▁घे	-6688
▁विवेक	-6689
दिल	-6690
▁संयुक्‍त	-6691
प्रधान	-6692
▁बर्फ	-6693
▁ज्योति	-6694
▁निवास	-6695
▁अपडेट	-6696
▁सवालों	-6697
▁कपड़े	-6698
▁घटकर	-6699
▁त्रुट	-6700
II	-6701
▁तत्कालीन	-6702
▁2019:	-6703
ईडी	-6704
▁रफ्तार	-6705
टीन	-6706
▁सबके	-6707
▁गांगुली	-6708
प्रदान	-6709
▁किंग्स	-6710
▁सोनम	-6711
▁नीलामी	-6712
ानिया	-6713
▁महत्‍वपूर्ण	-6714
▁दिना	-6715
▁रजत	-6716
पश्चिम	-6717
ैया	-6718
▁चैम्पियन	-6719
▁टॉस	-6720
्यूशन	-6721
▁संख्‍या	-6722
ल्डर	-6723
▁श्रद्धा	-6724
▁बताने	-6725
▁फर्जी	-6726
▁प्राइमरी	-6727
▁विज्ञापन	-6728
▁रखो	-6729
▁शिमला	-6730
▁निष्कर्ष	-6731
▁तुर्की	-6732
शिक	-6733
▁खुफिया	-6734
▁शुक्	-6735
मेरे	-6736
▁बदमाश	-6737
▁सैक	-6738
▁टर्म	-6739
▁प्लेटफॉर्म	-6740
्वीप	-6741
▁हज	-6742
वाधिकार	-6743
ष्क	-6744
लोत	-6745
▁मेन	-6746
▁फांसी	-6747
ृत्य	-6748
▁एक्टिव	-6749
▁मंत्रालयों	-6750
ction	-6751
▁मोड	-6752
▁कमरे	-6753
▁हादसा	-6754
▁आशीष	-6755
▁तृणमूल	-6756
सो	-6757
▁भला	-6758
▁बढ़ता	-6759
बर्ग	-6760
▁कली	-6761
एनजी	-6762
▁जाव	-6763
▁चंद	-6764
▁w	-6765
हरण	-6766
▁डिफ	-6767
▁ओबामा	-6768
▁दशा	-6769
▁परम	-6770
▁आड	-6771
न्दा	-6772
▁घूम	-6773
▁भलाई	-6774
▁एक्शन	-6775
▁संपाद	-6776
▁सुम	-6777
▁एडमिट	-6778
फाइल	-6779
▁दोग	-6780
त्रि	-6781
▁पीयूष	-6782
▁घटा	-6783
▁कार्यशाला	-6784
▁ज़रिए	-6785
▁बहा	-6786
▁सम्‍म	-6787
▁अब्दुल्ला	-6788
▁मूल्‍य	-6789
▁चर्च	-6790
hi	-6791
▁कले	-6792
▁ख़िला	-6793
▁कीमतें	-6794
▁विनियम	-6795
▁इकट्ठा	-6796
▁लोन	-6797
▁अता	-6798
▁पदा	-6799
▁आईआईटी	-6800
स्पर	-6801
ोत्सव	-6802
JP	-6803
▁विलियम	-6804
▁रीति	-6805
▁कराना	-6806
▁निकले	-6807
▁लैस	-6808
िस्ट्रेट	-6809
यदि	-6810
▁IPL	-6811
▁ऊंचाई	-6812
धव	-6813
▁गोपाल	-6814
▁विद्यार्थी	-6815
ैग	-6816
ोलिक	-6817
▁उतारा	-6818
▁इंटरनल	-6819
▁विमानों	-6820
ID	-6821
ॉफ	-6822
▁माननीय	-6823
▁असली	-6824
▁बच्चा	-6825
▁जैन	-6826
▁तटीय	-6827
▁खरीदा	-6828
▁विभाजन	-6829
हु	-6830
▁फरमा	-6831
▁संपन्न	-6832
ुलर	-6833
▁PM	-6834
एँगे	-6835
▁सतत	-6836
40	-6837
अमेर	-6838
▁क्वाल	-6839
▁प्रिंट	-6840
▁परा	-6841
▁गेह	-6842
▁66	-6843
▁नज़	-6844
हादुर	-6845
▁धोखाधड़ी	-6846
ers	-6847
▁उत्तराखण्ड	-6848
-12	-6849
▁सदस्‍	-6850
▁महत्त्वपूर्ण	-6851
झाने	-6852
▁चौक	-6853
▁मांस	-6854
▁प्रसंस्	-6855
▁नबी	-6856
▁53	-6857
▁शिक्षण	-6858
▁सेंट्रल	-6859
ne	-6860
सास	-6861
▁72	-6862
जिटिव	-6863
▁नाबाल	-6864
▁संप्र	-6865
ice	-6866
▁समानता	-6867
▁विश्वविद्यालयों	-6868
▁बिन	-6869
▁शह	-6870
▁कामकाज	-6871
▁सिया	-6872
▁उत्तम	-6873
▁दुष्कर्म	-6874
▁निर्दिष्ट	-6875
▁फंसे	-6876
▁कलाकारों	-6877
▁इंडोनेशिया	-6878
▁मानवाधिकार	-6879
▁सेल्सियस	-6880
▁सॉफ्टवेयर	-6881
▁गहलोत	-6882
वारी	-6883
गारों	-6884
▁डिस्	-6885
▁एचडीएफसी	-6886
▁फ़ैस	-6887
▁मलेशिया	-6888
▁छेड़	-6889
▁तरफ़	-6890
पीआई	-6891
▁आयतों	-6892
▁कमांडर	-6893
alme	-6894
▁कार्तिक	-6895
▁भेजी	-6896
वाहा	-6897
▁इसलिये	-6898
▁अनुपात	-6899
▁गर	-6900
▁बजा	-6901
▁त्योह	-6902
ंगत	-6903
▁जमी	-6904
▁अग्रणी	-6905
▁67	-6906
▁त्रि	-6907
▁बारी	-6908
▁समावेश	-6909
वायर	-6910
रियर	-6911
▁आदम	-6912
स्तर	-6913
▁भरपूर	-6914
▁फाउंडेशन	-6915
▁उपलब्धता	-6916
ाज्य	-6917
▁टेल	-6918
▁पुलिसकर्मी	-6919
▁विशेषता	-6920
▁साहिब	-6921
▁इजा	-6922
▁सतह	-6923
▁वाक़	-6924
▁हॉकी	-6925
▁खेली	-6926
▁अवॉर्ड	-6927
परी	-6928
▁आनन्द	-6929
ity	-6930
जीवन	-6931
▁मौजूदगी	-6932
,500	-6933
िमान	-6934
▁पॉजिटिव	-6935
▁प्रदर्शनी	-6936
▁राज्यमंत्री	-6937
▁दिमाग	-6938
▁स्टार्ट	-6939
▁जिसको	-6940
▁पढ़े	-6941
▁सत्	-6942
क्टिविटी	-6943
्रीट	-6944
साधारण	-6945
▁सूर	-6946
▁पोस्टर	-6947
ेंच	-6948
▁नवीकरण	-6949
▁मसीहियों	-6950
लत	-6951
▁खनन	-6952
▁ख्याल	-6953
बैक	-6954
▁मैक्स	-6955
▁हेली	-6956
▁उपग्रह	-6957
▁सौदे	-6958
▁शून्य	-6959
▁अत्यन्त	-6960
▁किंतु	-6961
▁समृद्धि	-6962
▁प्राप्ति	-6963
नीत	-6964
▁बचे	-6965
▁दोगु	-6966
▁सीखने	-6967
▁रॉयल	-6968
▁पठ	-6969
▁दिनेश	-6970
ग्रा	-6971
▁नाकाम	-6972
....	-6973
भाई	-6974
चंद्र	-6975
▁करु	-6976
टेक	-6977
ालैंड	-6978
▁बलिदान	-6979
www	-6980
▁पढ़ा	-6981
▁५	-6982
ट्	-6983
कॉ	-6984
बंद	-6985
शोधन	-6986
▁डब्ल्यू	-6987
▁टेक्नोलॉजी	-6988
▁अरोड़ा	-6989
आउट	-6990
▁2022	-6991
▁अपनाने	-6992
ड़प	-6993
▁इंकार	-6994
▁मॉड	-6995
▁मंजूर	-6996
▁ठिक	-6997
▁प्रताप	-6998
दिव	-6999
▁छू	-7000
भाषित	-7001
▁फेंक	-7002
▁इक्	-7003
निर्भर	-7004
▁पैग़म्बर	-7005
ालियों	-7006
बलों	-7007
▁सपना	-7008
नाइटेड	-7009
▁मायावती	-7010
ल्ला	-7011
▁कब्जा	-7012
▁राणा	-7013
▁उद्धव	-7014
बॉ	-7015
▁समन्वय	-7016
▁खि	-7017
स्पति	-7018
▁इत्या	-7019
▁गारंटी	-7020
▁डीजी	-7021
ार्टर	-7022
▁जोड़े	-7023
▁यूसु	-7024
सीएस	-7025
▁कठिना	-7026
▁जाधव	-7027
▁ब्रा	-7028
▁मानकों	-7029
सीएम	-7030
▁ढूं	-7031
▁सम्‍मेलन	-7032
▁तस	-7033
▁फेड	-7034
▁Realme	-7035
▁अमल	-7036
▁58	-7037
▁लाइव	-7038
▁ट्रॉ	-7039
टित	-7040
तीत	-7041
▁समापन	-7042
▁दीर्घ	-7043
▁प्रकाशन	-7044
▁संग्रहालय	-7045
▁नर्स	-7046
▁करवाने	-7047
▁चिट	-7048
▁जख	-7049
▁आचार	-7050
▁सांप	-7051
▁नवाज	-7052
▁रसायन	-7053
▁अरुणाचल	-7054
▁गवाही	-7055
▁स्पेन	-7056
िनेंट	-7057
▁मामूली	-7058
ष्‍ट्र	-7059
▁रिटर्न	-7060
▁स्वदेश	-7061
पुल	-7062
▁लोह	-7063
▁स्नैप	-7064
स्‍प	-7065
▁देखता	-7066
राय	-7067
▁नाते	-7068
ैक्ट	-7069
%),	-7070
▁85	-7071
▁सुदृ	-7072
▁सिम	-7073
▁डायरेक्ट	-7074
ख्तर	-7075
▁कार्म	-7076
ंथी	-7077
▁74	-7078
स्थापित	-7079
▁अफसर	-7080
▁ब्लू	-7081
▁डेब्यू	-7082
▁62	-7083
▁कच	-7084
▁ग्लोबल	-7085
).	-7086
▁भावनाओं	-7087
70	-7088
▁तुझे	-7089
▁पंजीकृत	-7090
वने	-7091
▁फड	-7092
▁पैन	-7093
▁निरीक्षण	-7094
▁उद्देश्‍य	-7095
▁रोकथाम	-7096
दर्शिता	-7097
▁समुदायों	-7098
▁सज	-7099
▁सिक्किम	-7100
▁ड्यू	-7101
▁गणना	-7102
बर्ट	-7103
भु	-7104
रज़	-7105
▁ऑफिशियल	-7106
▁नाबालिग	-7107
ैव	-7108
▁मज़बूत	-7109
▁लाह	-7110
▁परियोजनाएं	-7111
▁खबरें	-7112
जिस	-7113
▁अल्पसंख्यक	-7114
▁ओम	-7115
▁मुर	-7116
▁एसबीआई	-7117
▁खन	-7118
▁बनाता	-7119
्मण	-7120
,‘	-7121
▁63	-7122
▁समाप	-7123
▁जबरदस्त	-7124
▁शैक्षिक	-7125
▁बुराई	-7126
▁एकड़	-7127
▁इर	-7128
▁एनआरसी	-7129
▁एव	-7130
कैया	-7131
▁रखती	-7132
▁निकलने	-7133
ान्	-7134
▁पन	-7135
▁बुक	-7136
▁हमसे	-7137
▁बहादुर	-7138
▁स्टूडेंट्स	-7139
▁ग्रामीणों	-7140
▁कं	-7141
फ्रा	-7142
▁राइ	-7143
▁माप	-7144
शास्त्र	-7145
ंगों	-7146
वाने	-7147
▁मांगा	-7148
छाड़	-7149
र्इ	-7150
मीर	-7151
▁स्टैंड	-7152
▁हिंदुस्तान	-7153
बन	-7154
▁सीआरपीएफ	-7155
ॉयड	-7156
▁गेंदों	-7157
▁इच्छुक	-7158
▁अधिकारिता	-7159
▁दुर	-7160
▁कृष्णा	-7161
कांग्रेस	-7162
▁अर्पित	-7163
▁120	-7164
ha	-7165
▁Result	-7166
▁कहेंगे	-7167
▁तलाक	-7168
▁अवधार	-7169
क्‍ट	-7170
▁अजी	-7171
▁अख्तर	-7172
जनों	-7173
▁स्टो	-7174
▁युवकों	-7175
▁साक्षात्कार	-7176
▁रूट	-7177
▁संल	-7178
▁मतदाता	-7179
ित्रा	-7180
▁कैंप	-7181
▁नकदी	-7182
▁इंदौर	-7183
एसडी	-7184
▁लिहाज	-7185
▁सेटअप	-7186
▁250	-7187
▁इत्यादि	-7188
▁इलेक्ट्रॉनिक	-7189
▁भंडारण	-7190
पेक्ष	-7191
▁2006	-7192
▁अनुप्र	-7193
▁जायेगी	-7194
▁टेलीविजन	-7195
यद	-7196
वाट	-7197
म्‍बर	-7198
▁न्यूयॉर्क	-7199
▁प्रक्रियाओं	-7200
▁स्थिरता	-7201
▁पर्यटकों	-7202
▁प्रशांत	-7203
▁कस	-7204
▁साक्षियों	-7205
▁हॉल	-7206
▁महाराज	-7207
▁गोग	-7208
""""	-7209
▁स्टेशनों	-7210
्‍यम	-7211
च्‍च	-7212
▁कैश	-7213
▁इब्र	-7214
▁भेदभाव	-7215
ंचित	-7216
वादियों	-7217
बड़ी	-7218
▁कनेक्टिविटी	-7219
▁घु	-7220
वाया	-7221
भारतीय	-7222
▁अंतर्राष्‍ट्रीय	-7223
यार	-7224
▁शर्त	-7225
▁उत्‍तर	-7226
भूषण	-7227
▁विमानन	-7228
त्ते	-7229
वाना	-7230
▁अंदाज	-7231
न्‍ना	-7232
▁सीएस	-7233
ालिम	-7234
▁वंश	-7235
शेष	-7236
▁जरूरतों	-7237
धिकारियों	-7238
▁प्रसंस्करण	-7239
▁लाइट	-7240
▁फडणवीस	-7241
▁हसन	-7242
अब	-7243
▁पश्चात्	-7244
▁2020:	-7245
▁निवार	-7246
क्रमण	-7247
▁स्पी	-7248
▁मजा	-7249
▁मास्क	-7250
▁लापता	-7251
्यिकी	-7252
▁मछली	-7253
▁शवों	-7254
▁मेहता	-7255
▁पहुंचकर	-7256
▁सोनी	-7257
▁नाटक	-7258
▁बुरे	-7259
▁आडवाणी	-7260
▁नकारात्मक	-7261
▁चौथा	-7262
▁विट	-7263
तावास	-7264
▁ख़ुद	-7265
▁डेवल	-7266
▁पेशेवर	-7267
्‍मी	-7268
▁आयर	-7269
▁वितरित	-7270
▁अस्तित्व	-7271
▁ईश	-7272
ंबा	-7273
ह्न	-7274
▁टेनिस	-7275
▁हथियारों	-7276
▁लगते	-7277
ैम	-7278
▁मनोरंजन	-7279
▁आश्च	-7280
▁मेघालय	-7281
▁सलामी	-7282
▁लाना	-7283
▁विद्या	-7284
ंतिम	-7285
ाजील	-7286
▁कुम	-7287
▁मजदूरों	-7288
▁हितधारकों	-7289
-5	-7290
▁अधिकरण	-7291
नैतिक	-7292
▁बाग़	-7293
▁कप्त	-7294
न्ध्र	-7295
रार	-7296
▁डेन	-7297
संरचना	-7298
▁देवगन	-7299
▁पाइ	-7300
डीओ	-7301
▁कांस	-7302
▁रखेंगे	-7303
आन	-7304
शीलता	-7305
▁निर्माताओं	-7306
▁जीती	-7307
▁पदार्थों	-7308
▁मैनेज	-7309
▁छोड़ा	-7310
15	-7311
CC	-7312
▁चावल	-7313
▁2016-17	-7314
44.	-7315
▁ऑपरे	-7316
▁फसलों	-7317
संगत	-7318
▁कलीसिया	-7319
▁सदस्यता	-7320
ुदाय	-7321
▁बहाल	-7322
▁परस्पर	-7323
▁उदार	-7324
▁जलाशयों	-7325
ड्स	-7326
▁दिखाता	-7327
▁1000	-7328
▁2018-19	-7329
ओसी	-7330
डिया	-7331
▁बनकर	-7332
▁तीर्थ	-7333
▁आईडी	-7334
ैगन	-7335
▁लगेगा	-7336
▁तार	-7337
▁दिनांक	-7338
▁जनजातीय	-7339
▁उपयोगी	-7340
▁हवाला	-7341
▁लल	-7342
▁#44.	-7343
▁साधन	-7344
▁मजिस्ट्रेट	-7345
बहुत	-7346
▁59	-7347
▁57	-7348
▁दिलों	-7349
▁दलील	-7350
▁पांड	-7351
▁दूतावास	-7352
चुअल	-7353
▁क्यू	-7354
▁अपराधों	-7355
▁उतना	-7356
समय	-7357
ासा	-7358
▁एनडीए	-7359
जीबी	-7360
▁फुल	-7361
▁तोमर	-7362
▁सुर्	-7363
▁सिद्धांतों	-7364
▁मसले	-7365
▁सफलतापूर्वक	-7366
लेम	-7367
▁सचिवालय	-7368
▁दुर्भाग्य	-7369
▁शांत	-7370
पद	-7371
▁साक्ष्य	-7372
किट	-7373
▁हराकर	-7374
▁आन्ध्र	-7375
ेय	-7376
▁दवाओं	-7377
रेशन	-7378
▁बेचने	-7379
▁स्मारक	-7380
▁संवाददाता	-7381
▁मेक	-7382
▁कनेक्शन	-7383
▁क़ुर	-7384
▁मानी	-7385
साइकिल	-7386
ec	-7387
▁बैंड	-7388
▁आर्मी	-7389
पुरी	-7390
▁प्रच	-7391
ज़े	-7392
▁रिहा	-7393
ist	-7394
▁मच	-7395
▁इजाफा	-7396
▁फुटबॉल	-7397
बानी	-7398
▁चाय	-7399
▁जेम्स	-7400
▁प्लास्टिक	-7401
▁आश्चर्य	-7402
वाज	-7403
ामिन	-7404
▁हॉस्प	-7405
▁कू	-7406
▁चतु	-7407
▁कन्न	-7408
▁यहीं	-7409
ोरेंस	-7410
▁दर्शाता	-7411
▁भूट	-7412
▁रेख	-7413
▁जादू	-7414
▁73	-7415
▁डिवा	-7416
थल	-7417
▁जैक	-7418
▁जिनसे	-7419
▁धारणा	-7420
▁मल्	-7421
बूल	-7422
▁लॉग	-7423
▁आईसीआई	-7424
▁पुलिसकर्मियों	-7425
▁खातों	-7426
▁तलाशी	-7427
▁पुरूष	-7428
र्जन	-7429
▁हिस्‍	-7430
▁चिन्ह	-7431
▁स्पीड	-7432
op	-7433
▁टाइम्स	-7434
▁आवेद	-7435
▁अलर्ट	-7436
वनेश्वर	-7437
▁अश्विन	-7438
▁प्रत्‍	-7439
▁दिव्या	-7440
▁नृत्य	-7441
▁न्यायाधीशों	-7442
▁लोगो	-7443
ow	-7444
▁हेल	-7445
▁2005	-7446
▁रूसी	-7447
स्वतंत्र	-7448
पह	-7449
▁वर	-7450
▁शेर	-7451
▁त्याग	-7452
▁अर्थात	-7453
ोजक	-7454
▁लगाना	-7455
▁विनोद	-7456
▁%	-7457
▁स्पोर्ट	-7458
आईएस	-7459
▁इलेक्ट्रिक	-7460
▁68	-7461
▁कानपुर	-7462
▁मतदाताओं	-7463
▁देशवासियों	-7464
▁हुड्डा	-7465
▁ट्रैक	-7466
्मान	-7467
▁वेंकैया	-7468
फ़ा	-7469
▁व्‍यापार	-7470
इए	-7471
▁शांतिपूर्ण	-7472
▁रहमान	-7473
▁पेपर	-7474
▁बीमारियों	-7475
▁चौथी	-7476
पीएल	-7477
च्छा	-7478
▁अभ्य	-7479
▁ज़ालिम	-7480
▁कथा	-7481
क्क	-7482
▁संजीव	-7483
▁विवादित	-7484
▁जूनियर	-7485
1)	-7486
▁मीटिंग	-7487
▁सई	-7488
▁स्टोर	-7489
▁सब्सिडी	-7490
▁प्रीमियर	-7491
ess	-7492
कर्मियों	-7493
▁रेस	-7494
स्तरीय	-7495
▁मिजोरम	-7496
▁अकबर	-7497
▁एमएसएमई	-7498
▁रुक	-7499
▁वाशिंगटन	-7500
▁धु	-7501
मान्य	-7502
▁साइंस	-7503
▁असं	-7504
▁वर्क	-7505
▁ग्रो	-7506
▁सीमाओं	-7507
▁परीक्षाओं	-7508
िर्	-7509
क्‍ता	-7510
▁चैल	-7511
▁बृह	-7512
▁यहूदी	-7513
-15	-7514
कांक्षा	-7515
चरण	-7516
▁माफ	-7517
▁सीरिया	-7518
▁त्व	-7519
▁दुश्म	-7520
बस	-7521
▁खुली	-7522
▁लांच	-7523
▁एससी	-7524
▁सुधारों	-7525
▁डांस	-7526
▁मानता	-7527
▁दुआ	-7528
बाह	-7529
▁सहकारी	-7530
▁धातु	-7531
▁शमी	-7532
▁चुप	-7533
▁अमृतसर	-7534
▁(5	-7535
▁ऐंड	-7536
▁झड़प	-7537
▁>	-7538
चंद	-7539
▁डेम	-7540
▁दशकों	-7541
▁नहर	-7542
तू	-7543
▁गणतंत्र	-7544
▁अनुमानित	-7545
सरण	-7546
▁ब्राजील	-7547
▁सच्चा	-7548
▁युक्त	-7549
▁खाड़ी	-7550
▁मायने	-7551
▁राधा	-7552
▁उर्वरक	-7553
क्सीन	-7554
▁नतीजा	-7555
▁पड़ती	-7556
▁हरे	-7557
▁बताता	-7558
▁मनाने	-7559
▁बचपन	-7560
▁ख़िलाफ़	-7561
▁श्रमिकों	-7562
▁आईसीआईसीआई	-7563
दायिक	-7564
▁उत्सव	-7565
▁प्रतिमा	-7566
▁ऊँ	-7567
▁डिप्टी	-7568
▁स्थलों	-7569
गेट	-7570
टके	-7571
▁किस्म	-7572
▁मतभ	-7573
▁कदमों	-7574
▁हैरान	-7575
स्ड	-7576
ूर्ण	-7577
लीन	-7578
▁आपसे	-7579
▁काफ़ी	-7580
▁विलय	-7581
▁शक्‍ति	-7582
थन	-7583
▁मार्ट	-7584
▁सुनकर	-7585
▁अधिसूचित	-7586
▁हेल्थ	-7587
टरों	-7588
▁सुशील	-7589
▁चोर	-7590
▁रूपए	-7591
▁यूसुफ	-7592
गिज़	-7593
▁किरण	-7594
▁ब्रह्म	-7595
▁परिभाषित	-7596
▁बरसा	-7597
▁मुश	-7598
▁कम्य	-7599
दुनिया	-7600
▁भुवनेश्वर	-7601
डमिंटन	-7602
▁धाराओं	-7603
▁उछ	-7604
म्बई	-7605
सुर	-7606
▁बेरोज	-7607
▁उपासना	-7608
ख़्	-7609
▁नड्डा	-7610
-21	-7611
देवी	-7612
▁लाई	-7613
▁खट्टर	-7614
▁त्रुटि	-7615
▁मारुति	-7616
▁फरी	-7617
्‍च	-7618
▁युवती	-7619
गणना	-7620
पीपी	-7621
▁कांस्य	-7622
▁सूरत	-7623
▁फास्ट	-7624
▁साधा	-7625
▁\\	-7626
▁शिश	-7627
चेरी	-7628
▁झेल	-7629
▁खनिज	-7630
▁परिणामों	-7631
):	-7632
▁ईसाई	-7633
ुल्म	-7634
▁गहन	-7635
▁सदा	-7636
पिंग	-7637
▁तेरी	-7638
सिम	-7639
िवारिक	-7640
▁अपहरण	-7641
▁कक्ष	-7642
▁संतु	-7643
वधि	-7644
▁विभाजित	-7645
▁दिश	-7646
▁लौटा	-7647
मुच	-7648
▁कालेज	-7649
▁दिलचस्पी	-7650
पीठ	-7651
▁केन	-7652
▁अंतरिम	-7653
▁मुकदम	-7654
वेस्ट	-7655
▁रोशन	-7656
ौदा	-7657
क्रामक	-7658
▁प्रिंस	-7659
▁नागपुर	-7660
▁शीर्षक	-7661
▁चिंतित	-7662
▁योजनाएं	-7663
25	-7664
▁मासिक	-7665
▁बढ़ाना	-7666
ma	-7667
▁मानवीय	-7668
▁अगला	-7669
▁फैलाने	-7670
पाई	-7671
▁लौटने	-7672
▁रोजाना	-7673
प्रकाश	-7674
▁पेयजल	-7675
▁लेफ्टिनेंट	-7676
▁सैकड़ों	-7677
▁श्रद्धाल	-7678
▁शौचालय	-7679
▁सत्तार	-7680
▁उपभोक्ताओं	-7681
रखा	-7682
▁बताए	-7683
विटी	-7684
िनल	-7685
▁जूझ	-7686
▁लड़ाकू	-7687
▁पाँच	-7688
▁99	-7689
▁प्रतिद्व	-7690
भावना	-7691
राशि	-7692
काय	-7693
▁नकद	-7694
▁तालि	-7695
▁राजनैतिक	-7696
▁प्रस्‍	-7697
▁समित	-7698
ऊंगा	-7699
▁चपेट	-7700
▁नमाज़	-7701
आरआई	-7702
▁मारपीट	-7703
मंत्रियों	-7704
▁अनुप्रयोग	-7705
बेल	-7706
▁जद	-7707
▁आदर	-7708
▁साम्र	-7709
▁उम्‍मी	-7710
▁विचारधारा	-7711
▁बाबत	-7712
▁स्कूली	-7713
▁घटनाएं	-7714
योग्य	-7715
▁पारिवारिक	-7716
▁एबी	-7717
▁स्नातक	-7718
▁बहर	-7719
▁सुर्ख	-7720
av	-7721
शनी	-7722
▁आभार	-7723
ड्रैगन	-7724
▁गिनती	-7725
▁सुरक्षाबलों	-7726
▁ध्‍	-7727
▁एजें	-7728
ुदायिक	-7729
▁पकड़ने	-7730
▁St	-7731
▁एयरटेल	-7732
▁एके	-7733
मोरी	-7734
▁चैंपियनशिप	-7735
▁बेंच	-7736
डो	-7737
▁Y	-7738
▁लिखने	-7739
▁साइबर	-7740
फार्म	-7741
▁शिरकत	-7742
▁हानि	-7743
तौर	-7744
▁जड़	-7745
▁कहाँ	-7746
▁सचमुच	-7747
▁दिलचस्प	-7748
▁निष्पक्ष	-7749
Ah	-7750
▁गैंग	-7751
कल्पिक	-7752
▁पंजाबी	-7753
▁193	-7754
▁रवै	-7755
▁अनुसरण	-7756
ानिर्	-7757
▁प्रतिबंधित	-7758
एजेंसी	-7759
▁६	-7760
ोज़	-7761
▁फर्क	-7762
ण्	-7763
ियर्स	-7764
ुमराह	-7765
▁अधिवक्ता	-7766
महिम	-7767
▁मोटरसाइकिल	-7768
▁पड़ोस	-7769
▁गोगोई	-7770
ॉप्टर	-7771
▁रेश	-7772
▁गेहूं	-7773
▁वैकल्पिक	-7774
▁प्राथम	-7775
▁नोटबंदी	-7776
▁जहन्नुम	-7777
िफिकेशन	-7778
▁पद्धति	-7779
वराज	-7780
▁BJP	-7781
▁बिंदु	-7782
▁स्पिनर	-7783
▁मिशेल	-7784
▁अवधारणा	-7785
▁पकड़े	-7786
▁चक्रवा	-7787
▁चिप	-7788
प्पी	-7789
▁गतिविधि	-7790
▁रिलीज़	-7791
▁जितेंद्र	-7792
▁क्ली	-7793
ालों	-7794
जुए	-7795
्रेन	-7796
▁पद्म	-7797
▁सकल	-7798
▁मिस्र	-7799
▁अनुराग	-7800
▁लगती	-7801
▁अभियुक्त	-7802
किसी	-7803
▁खन्ना	-7804
क्व	-7805
▁हिट	-7806
▁महोदय	-7807
मेक	-7808
स्पे	-7809
▁अनुपालन	-7810
▁लव	-7811
ंगाई	-7812
कक्ष	-7813
▁प्रशास	-7814
▁69	-7815
जाने	-7816
lus	-7817
▁दुबई	-7818
इश	-7819
▁मास्टर	-7820
बूझ	-7821
यें	-7822
▁पकड़ा	-7823
▁बैडमिंटन	-7824
िवेश	-7825
▁वंचित	-7826
▁हताहत	-7827
▁घड़ी	-7828
▁जख्मी	-7829
▁इसरो	-7830
▁तत्वों	-7831
सारी	-7832
▁स्टीव	-7833
▁सावधानी	-7834
्यौ	-7835
पुरम	-7836
▁रुपया	-7837
▁तिल	-7838
▁संवेदना	-7839
लोगों	-7840
▁ड्रग	-7841
▁खेलना	-7842
▁उम्‍मीद	-7843
▁सामुदायिक	-7844
▁ट्रेनिंग	-7845
▁ग्री	-7846
▁पीजी	-7847
▁कारा	-7848
▁मानदंड	-7849
▁टैग	-7850
▁लिंग	-7851
▁यूएस	-7852
मित्व	-7853
▁दस्तावेजों	-7854
िंदर	-7855
▁करनेवालों	-7856
▁झूठे	-7857
▁सांख	-7858
▁गोद	-7859
▁e	-7860
▁वफा	-7861
न्वित	-7862
▁निचले	-7863
सीम	-7864
टरीना	-7865
▁अमरिंदर	-7866
▁आवंटित	-7867
लिटी	-7868
▁सौंपी	-7869
बै	-7870
▁ब्रेक	-7871
▁सहारा	-7872
ुश	-7873
म्मत	-7874
▁दयाल	-7875
▁दलित	-7876
ष्कार	-7877
क्टेयर	-7878
▁प्राथमिकी	-7879
▁अपनाया	-7880
▁विक्रम	-7881
रस	-7882
एसी	-7883
एक्स	-7884
मू	-7885
ईसी	-7886
▁भूटान	-7887
▁शुक्ला	-7888
▁अफवाह	-7889
▁अवार्ड	-7890
▁असाधारण	-7891
▁हॉस्पिटल	-7892
▁सेवन	-7893
ेदी	-7894
रखाव	-7895
SC	-7896
्लाई	-7897
थान	-7898
▁दिलाने	-7899
्रय	-7900
▁अफ़	-7901
▁शक़	-7902
▁निभाने	-7903
▁गायक	-7904
▁मानवता	-7905
गाव	-7906
▁वाकई	-7907
ंसक	-7908
▁डिस्क	-7909
पुरा	-7910
▁उन्होने	-7911
▁प्रशिक्षित	-7912
रेखा	-7913
▁मृ	-7914
डेजा	-7915
▁रुचि	-7916
लांग	-7917
▁ऑफिसर	-7918
सेव	-7919
▁ऋषि	-7920
पोषण	-7921
▁दुः	-7922
▁रेटिंग	-7923
▁वार्ड	-7924
येक	-7925
मेट	-7926
▁उदय	-7927
▁फायरिंग	-7928
▁सफेद	-7929
▁संतुलन	-7930
▁अभाव	-7931
▁बहरहाल	-7932
▁दिशानिर्	-7933
▁ऑस्ट्रेलियाई	-7934
▁वाद	-7935
▁उच्‍च	-7936
▁10,000	-7937
▁Gal	-7938
-10	-7939
धीरे	-7940
▁पीछा	-7941
दाद	-7942
▁फर्म	-7943
▁कप्तानी	-7944
▁चरित्र	-7945
िरो	-7946
▁महामहिम	-7947
▁पृष्ठभूमि	-7948
ांट	-7949
▁125	-7950
लिस्ट	-7951
▁आवाज़	-7952
▁सिंधु	-7953
▁पाटिल	-7954
▁बिहारी	-7955
शिष्ट	-7956
▁लेती	-7957
▁उभ	-7958
स्‍व	-7959
▁गुप्त	-7960
▁राउ	-7961
ामाबाद	-7962
io	-7963
याय	-7964
▁सदैव	-7965
किया	-7966
▁ट्रॉफी	-7967
▁विवादों	-7968
▁दिखाते	-7969
तिन	-7970
बाई	-7971
▁कहे	-7972
▁सहज	-7973
▁रोगी	-7974
▁सेकेंड	-7975
एनएल	-7976
▁हिम्म	-7977
हू	-7978
शासित	-7979
▁अवसंरचना	-7980
▁चैलेंज	-7981
्वित	-7982
▁एश	-7983
▁सिरे	-7984
ानु	-7985
▁खेलते	-7986
▁एल्	-7987
▁मील	-7988
▁कैटरीना	-7989
▁सामर्थ	-7990
▁दीजिए	-7991
▁प्रसन्नता	-7992
▁जानना	-7993
िश्च	-7994
िकियों	-7995
axy	-7996
▁नु	-7997
▁प्रतीत	-7998
बराहीम	-7999
िणी	-8000
सीमा	-8001
▁मंग	-8002
▁फूड	-8003
▁मूर्ति	-8004
ोगी	-8005
ूढ़	-8006
▁बगैर	-8007
जैसे	-8008
▁महबू	-8009
▁फैक्ट	-8010
डीआरएफ	-8011
▁गड़	-8012
▁संस्कार	-8013
▁विय	-8014
▁सीएए	-8015
▁मल्टी	-8016
▁गुमराह	-8017
ऩे	-8018
▁क्लास	-8019
▁शर्तों	-8020
▁स्नैपड्रैगन	-8021
काई	-8022
▁रिफ	-8023
▁ज्व	-8024
▁हीरो	-8025
▁बन्दों	-8026
▁लक	-8027
नहीं	-8028
▁प्रतिभाग	-8029
▁मिलना	-8030
क्रिप	-8031
▁रेंज	-8032
▁मददगार	-8033
लै	-8034
▁परिश	-8035
▁महासागर	-8036
▁झील	-8037
▁वैसा	-8038
स्टेबल	-8039
▁कड़े	-8040
पीजी	-8041
▁आन्ध्रप्रदेश	-8042
▁कच्‍	-8043
▁प्रवि	-8044
▁हैंड	-8045
▁आज़ा	-8046
▁बख्श	-8047
आरएस	-8048
फ़ार	-8049
▁प्रबंधक	-8050
▁जोश	-8051
▁पुरस्‍	-8052
▁मनुष्यों	-8053
▁दुखद	-8054
▁अर्जित	-8055
श्मी	-8056
▁दक्षता	-8057
▁नियामक	-8058
पमेंट	-8059
▁मंडी	-8060
▁प्रोड्यूस	-8061
▁ठे	-8062
द्धा	-8063
होत्रा	-8064
▁हिम्मत	-8065
▁धर्	-8066
▁परिदृ	-8067
स्टन	-8068
▁सद्	-8069
▁पासवान	-8070
▁प्रणालियों	-8071
▁ख़ान	-8072
▁प्याज	-8073
▁छापेम	-8074
▁समर्थक	-8075
▁मोर्चा	-8076
▁स्वामित्व	-8077
▁वर्गी	-8078
▁ईमानदार	-8079
▁दस्त	-8080
▁म्या	-8081
▁अमीर	-8082
▁पैट	-8083
▁सुपरस्टार	-8084
िमय	-8085
ड्डी	-8086
▁समझता	-8087
▁Galaxy	-8088
2)	-8089
▁करोड़ों	-8090
▁71	-8091
लिसी	-8092
▁गले	-8093
▁हाइड	-8094
▁अस्थायी	-8095
▁भविष्यवाणी	-8096
मार्क	-8097
▁रेज	-8098
▁अभिभाव	-8099
औन	-8100
▁th	-8101
▁मेर	-8102
▁गेंदबाजों	-8103
▁पारदर्शिता	-8104
रेख	-8105
▁उन्नत	-8106
▁पहाड़ी	-8107
▁खुदरा	-8108
▁पत	-8109
▁उग्र	-8110
▁आगरा	-8111
▁ध्‍यान	-8112
ote	-8113
▁2004	-8114
ड़ेकर	-8115
▁नसीहत	-8116
▁नाश	-8117
▁ईस्ट	-8118
▁77	-8119
ल्लाह	-8120
ac	-8121
रायल	-8122
वहार	-8123
▁बुमराह	-8124
ेटर	-8125
गारी	-8126
▁दीं	-8127
▁जुटा	-8128
▁देखेंगे	-8129
▁छापेमारी	-8130
-6	-8131
इयां	-8132
▁महोत्सव	-8133
एसएल	-8134
▁गंग	-8135
▁इसीलिए	-8136
मौ	-8137
▁बढ़िया	-8138
नामा	-8139
▁नक्स	-8140
▁त्वर	-8141
▁तकलीफ	-8142
▁सच्ची	-8143
▁आवश्यकताओं	-8144
▁जडेजा	-8145
शेखर	-8146
▁फुटेज	-8147
▁उत्साहित	-8148
▁ज़ोर	-8149
आज	-8150
मंड	-8151
hone	-8152
▁प्राण	-8153
▁कॉरपोरेट	-8154
इज	-8155
्द	-8156
▁प्रस्‍ताव	-8157
दीव	-8158
▁गत	-8159
▁क्रांति	-8160
▁ट्रम्प	-8161
▁अपराधी	-8162
विचार	-8163
▁सुदृढ़	-8164
व्‍य	-8165
▁गिरने	-8166
ग्व	-8167
▁बाँ	-8168
▁एम्स	-8169
▁मुर्	-8170
▁यूह	-8171
▁अनाज	-8172
90	-8173
▁आयुष्मान	-8174
▁पंडित	-8175
▁कर्तव्य	-8176
लाद	-8177
▁साहस	-8178
▁हंगामा	-8179
▁कार्यरत	-8180
▁चोटें	-8181
▁मुजफ्	-8182
▁रजनी	-8183
▁घटक	-8184
▁वसू	-8185
▁चढ़ा	-8186
याल	-8187
▁भली	-8188
▁सईद	-8189
भाविक	-8190
तया	-8191
▁त्वचा	-8192
टेन	-8193
▁जावड़ेकर	-8194
▁चलती	-8195
▁धनराशि	-8196
़ी	-8197
ित्त	-8198
▁कोर्इ	-8199
▁स्तरों	-8200
▁संवर्धन	-8201
▁नवीकरणीय	-8202
▁निकला	-8203
▁विश्वसनीय	-8204
▁तथापि	-8205
▁दीक्षित	-8206
▁नदियों	-8207
तनाम	-8208
▁फोर्स	-8209
▁मज़ा	-8210
▁न्‍या	-8211
▁जितनी	-8212
▁शुक्रिया	-8213
▁हेक्टेयर	-8214
▁रेखांकित	-8215
▁जायेंगे	-8216
▁वाम	-8217
▁नीरव	-8218
विंग	-8219
लेजों	-8220
▁जातियों	-8221
▁शक्तिशाली	-8222
दूरी	-8223
ोत्‍	-8224
▁समस्त	-8225
▁76	-8226
ख़्श	-8227
▁लक्ष्मी	-8228
ड़क	-8229
▁दुष्ट	-8230
▁नवम्बर	-8231
▁ग्ल	-8232
कर्मी	-8233
ुकेशन	-8234
▁मातृ	-8235
ियाना	-8236
▁विरू	-8237
▁सनी	-8238
▁गाज	-8239
▁श्रेष्ठ	-8240
पों	-8241
क्यों	-8242
▁अन्तर	-8243
डिय	-8244
कार्य	-8245
▁उपन्यास	-8246
▁सीधी	-8247
दायक	-8248
▁जर्	-8249
▁यानि	-8250
▁उठाना	-8251
▁आक्रमण	-8252
▁उपमुख्यमंत्री	-8253
▁निहित	-8254
▁इबराहीम	-8255
▁चलो	-8256
ॉग	-8257
▁उपज	-8258
▁जंगल	-8259
▁हरगिज़	-8260
▁कूट	-8261
▁प्रभावशाली	-8262
▁कन	-8263
▁क़यामत	-8264
्योर	-8265
ST	-8266
▁जानवरों	-8267
ोंक	-8268
▁78	-8269
▁पीडि़	-8270
▁डाक्टर	-8271
▁दिवंगत	-8272
ok	-8273
एमटी	-8274
▁फ्रेंच	-8275
बिया	-8276
▁लेंस	-8277
नाल	-8278
ोश	-8279
▁अपराधियों	-8280
▁उक	-8281
ान्त	-8282
▁खाल	-8283
▁ऑयल	-8284
▁नारेबाजी	-8285
▁अस्वी	-8286
▁आरोपित	-8287
▁कार्बन	-8288
▁स्थानांतरित	-8289
▁अजीत	-8290
वास्तव	-8291
▁डिट	-8292
▁मध्यस्थ	-8293
▁छेड़छाड़	-8294
न्नी	-8295
▁दिवाली	-8296
▁बंट	-8297
▁95	-8298
▁गुज़र	-8299
▁शत्रु	-8300
▁विजेताओं	-8301
▁सब्ज	-8302
▁समकक्ष	-8303
▁गतिविधियां	-8304
▁नामों	-8305
▁l	-8306
ैशी	-8307
▁त्वरित	-8308
▁पैरा	-8309
▁पीटीआई	-8310
▁कार्मिक	-8311
▁तस्वीरों	-8312
-11	-8313
▁थर	-8314
▁रिव	-8315
▁सेनाओं	-8316
▁मुसी	-8317
▁पहलों	-8318
▁बिलियन	-8319
एफआई	-8320
ड़िया	-8321
्‍ड	-8322
ोटा	-8323
▁आवश्‍यक	-8324
ive	-8325
▁समझना	-8326
।”	-8327
▁New	-8328
▁लिखकर	-8329
▁प्रकरण	-8330
▁लेगा	-8331
▁सुस	-8332
्टा	-8333
ख्यात	-8334
▁यूजर	-8335
▁दोस्ती	-8336
▁देनी	-8337
▁सांख्यिकी	-8338
▁पर्यटक	-8339
▁करनेवाला	-8340
▁नजदीक	-8341
ूतपूर्व	-8342
▁गोला	-8343
▁हन	-8344
▁सहयोगियों	-8345
गिल	-8346
▁वैक्सीन	-8347
▁धान	-8348
▁जीडीपी	-8349
▁तुममें	-8350
▁लाहौर	-8351
▁विदेशों	-8352
▁उपायुक्त	-8353
▁समर्थकों	-8354
21	-8355
▁लिप	-8356
▁2019-20	-8357
▁मस्ति	-8358
सां	-8359
▁एनएच	-8360
▁कैसी	-8361
पाठी	-8362
धारित	-8363
▁शोर	-8364
▁जीन	-8365
▁निप	-8366
▁हिल	-8367
▁दिलाया	-8368
▁घाटे	-8369
▁टाइगर	-8370
▁चीज़ों	-8371
▁फ़ैसला	-8372
▁1.5	-8373
▁बकाया	-8374
▁स्त्रियों	-8375
चलित	-8376
▁गहराई	-8377
▁वीं	-8378
▁गोरख	-8379
▁मारी	-8380
▁पिट	-8381
▁गुलाम	-8382
▁माध्‍यम	-8383
▁निकायों	-8384
▁कार्यवाह	-8385
विन	-8386
▁डिवाइस	-8387
▁कारों	-8388
▁माध्यमिक	-8389
▁इस्लामिक	-8390
ोजी	-8391
▁पंक	-8392
▁मल्होत्रा	-8393
लाब	-8394
▁बाध्य	-8395
ांतिक	-8396
▁मरे	-8397
▁स्पष्टीकरण	-8398
▁एले	-8399
▁विज्ञप्ति	-8400
▁मानो	-8401
▁परिवर्तित	-8402
▁गोप	-8403
▁हमलावर	-8404
गमन	-8405
▁कोर्स	-8406
द्रास	-8407
▁अंतर्	-8408
▁रजिस्ट्रेशन	-8409
मय	-8410
▁बताती	-8411
▁जॉर्ज	-8412
▁तैयारियों	-8413
▁इराक	-8414
▁समुचित	-8415
ौरन	-8416
क्ल	-8417
िगे	-8418
▁84	-8419
शिला	-8420
▁सलाम	-8421
▁म्यूज	-8422
▁इको	-8423
▁तेरा	-8424
▁जीने	-8425
▁प्रतिभागियों	-8426
▁रित	-8427
ंठ	-8428
क्य	-8429
इल	-8430
ज़ाम	-8431
वाहाटी	-8432
▁आख़िरत	-8433
बन्ध	-8434
ुपयोग	-8435
▁दमकल	-8436
▁साझी	-8437
▁दुनियाभर	-8438
▁माल्या	-8439
▁पीड़ितों	-8440
▁उर्फ	-8441
▁01	-8442
▁नान	-8443
▁सेवक	-8444
▁सितम्बर	-8445
दरी	-8446
▁प्रतिद्वंद	-8447
▁One	-8448
▁वैल	-8449
ल्ली	-8450
▁इस्तीफे	-8451
▁नाज	-8452
▁परे	-8453
▁किम	-8454
▁महंगाई	-8455
▁लाभार्थियों	-8456
जोत	-8457
▁इनसे	-8458
▁सम्‍	-8459
पाक	-8460
▁खुर	-8461
▁बनता	-8462
▁आईपीसी	-8463
वीएम	-8464
स्ति	-8465
▁उजा	-8466
▁दिसम्बर	-8467
▁सत्तारूढ़	-8468
▁गिरी	-8469
▁एजुकेशन	-8470
ाजनक	-8471
व्यापी	-8472
▁चरम	-8473
षित	-8474
ष्ठा	-8475
र्वेद	-8476
ोकस	-8477
▁साम्राज्य	-8478
▁रिश्‍	-8479
ईई	-8480
▁नामित	-8481
▁बाधित	-8482
ासंगिक	-8483
▁यूनाइटेड	-8484
तरस	-8485
विश्वास	-8486
▁पीटर	-8487
्रिकर	-8488
▁इक्विटी	-8489
▁सिफारिशों	-8490
▁सैमसंग	-8491
▁उपरा	-8492
▁घाट	-8493
▁डाइ	-8494
▁अजित	-8495
▁ज़िम्मेदारी	-8496
▁दादा	-8497
ंमार	-8498
▁त्योहार	-8499
▁यरू	-8500
▁डरते	-8501
▁ज्ञात	-8502
▁डेमोक	-8503
▁चलाई	-8504
▁कॉलेजों	-8505
ोत्तम	-8506
▁ब्ला	-8507
▁एआई	-8508
▁प्रीमियम	-8509
▁पड़ताल	-8510
▁लक्ष्यों	-8511
तीन	-8512
▁प्रेष	-8513
▁दाख	-8514
▁निशाने	-8515
ज़ल	-8516
▁टूर	-8517
▁वेल	-8518
17	-8519
▁शोषण	-8520
जुर्ग	-8521
▁नाइट	-8522
▁विनिमय	-8523
पंच	-8524
▁तैनाती	-8525
▁आओ	-8526
▁पाउ	-8527
कोई	-8528
▁समस्याएं	-8529
▁हस्‍ता	-8530
▁अभिव्यक्ति	-8531
ढा	-8532
▁ऊंची	-8533
ड़ियां	-8534
▁वादे	-8535
श्मीरी	-8536
वाड़ी	-8537
▁मौलिक	-8538
्रेम	-8539
tt	-8540
▁मिड	-8541
▁गणेश	-8542
▁अल्ट	-8543
▁मार्शल	-8544
▁प्रतिकूल	-8545
▁बल्लेबाजों	-8546
oc	-8547
▁इंतजाम	-8548
▁संज्ञान	-8549
र्थी	-8550
▁टॉम	-8551
▁नियत	-8552
स्पेक्टर	-8553
▁कार्यालयों	-8554
रोन	-8555
▁मालदीव	-8556
▁आखिरकार	-8557
▁लापर	-8558
▁गर्मी	-8559
▁चिकित्सकों	-8560
',	-8561
प्रधानमंत्री	-8562
▁कमिश्	-8563
▁फट	-8564
indi	-8565
▁Z	-8566
▁आब	-8567
निर्देश	-8568
▁सूरज	-8569
बादत	-8570
▁मुफ्	-8571
▁मुनाफा	-8572
▁कुर्	-8573
धों	-8574
स्मा	-8575
▁क्‍या	-8576
▁आईसी	-8577
▁सतीश	-8578
षक	-8579
▁रिमांड	-8580
▁अपेक्षित	-8581
▁पासपोर्ट	-8582
▁पुत्रा	-8583
▁उत्पादक	-8584
काउंट	-8585
▁Note	-8586
अंग	-8587
▁मेट	-8588
▁उतरे	-8589
▁क्वा	-8590
र्फ़	-8591
▁जरुर	-8592
▁टाइप	-8593
▁इलेवन	-8594
कांपा	-8595
▁आत्मनिर्भर	-8596
एचओ	-8597
▁इरादा	-8598
▁पोत	-8599
▁तालिबान	-8600
▁पंत	-8601
▁आकर्षक	-8602
▁कीं	-8603
▁पुष्	-8604
▁बोस	-8605
▁इंडियंस	-8606
▁तैयारियां	-8607
▁आरम्भ	-8608
-14	-8609
ड्रा	-8610
▁बढ़ेगी	-8611
पत्	-8612
▁पठान	-8613
▁सोनाक्षी	-8614
▁चू	-8615
▁कुंजी	-8616
▁पाकिस्‍तान	-8617
75	-8618
▁रास	-8619
▁डूब	-8620
▁कुमा	-8621
▁हेलीक	-8622
▁हस्तांतर	-8623
▁करवाई	-8624
▁क्‍यों	-8625
▁कच्‍चे	-8626
ब्स	-8627
▁हैः	-8628
तिथि	-8629
▁जैश	-8630
▁सोचते	-8631
▁चार्जिंग	-8632
▁मेजर	-8633
डीआई	-8634
▁स्पीकर	-8635
नियों	-8636
▁गर्ल	-8637
▁सर्वि	-8638
▁पुराना	-8639
▁इक	-8640
▁ट्रैफिक	-8641
▁अतिरिक्‍त	-8642
डीएफ	-8643
▁पतरस	-8644
▁कांफ्रेंस	-8645
्ही	-8646
▁कुरैशी	-8647
▁विटामिन	-8648
▁रूम	-8649
्‍ला	-8650
▁घात	-8651
▁प्रोटोक	-8652
▁टॉ	-8653
▁हिमालय	-8654
▁क्रिस्ट	-8655
णिक	-8656
▁पेरिस	-8657
▁ख्	-8658
रेस्ट	-8659
▁इस्लामाबाद	-8660
▁गुस्सा	-8661
▁पेमेंट	-8662
▁उपलब्धियों	-8663
ank	-8664
निया	-8665
शलेम	-8666
▁मराठी	-8667
विंदर	-8668
▁साफ़	-8669
▁वस	-8670
▁राजने	-8671
बिन	-8672
▁लहर	-8673
▁(6	-8674
▁इनाम	-8675
▁एग्जाम	-8676
▁पॉलिसी	-8677
▁पाकर	-8678
▁प्रथा	-8679
▁मुजफ्फर	-8680
नाग	-8681
▁जोरदार	-8682
▁मद्रास	-8683
▁मित्रों	-8684
▁कहो	-8685
▁कमीशन	-8686
▁कर्मी	-8687
िंक	-8688
▁निको	-8689
नाह	-8690
▁सपने	-8691
जीविका	-8692
▁हिंसक	-8693
▁हालिया	-8694
फुल	-8695
▁विरूद्ध	-8696
▁सिस	-8697
▁चिह्न	-8698
▁मुलायम	-8699
▁आमद	-8700
▁पॉप	-8701
▁बिल्ड	-8702
▁चन्द्र	-8703
ep	-8704
▁गीता	-8705
▁बाला	-8706
▁भीषण	-8707
द्घ	-8708
▁लीक	-8709
फीति	-8710
▁माइकल	-8711
▁ड्यूटी	-8712
▁ईमेल	-8713
ोषित	-8714
▁क्रियान्वयन	-8715
▁ठहर	-8716
पूर्ति	-8717
▁जवाहरलाल	-8718
्की	-8719
▁मैस	-8720
निर	-8721
िंग्स	-8722
▁दुर्गा	-8723
▁संभावनाओं	-8724
न्थ	-8725
▁महबूबा	-8726
▁प्रयोजन	-8727
श्‍मीर	-8728
▁चलेगा	-8729
सोस	-8730
▁निवारण	-8731
▁रिक्त	-8732
▁विनय	-8733
▁इजरायल	-8734
▁अफ्रीकी	-8735
▁बुजुर्ग	-8736
▁हाफ	-8737
▁आलोक	-8738
▁रोहत	-8739
▁ज़ुल्म	-8740
िटीज	-8741
लक	-8742
फ़र	-8743
▁एंटर	-8744
▁गुवाहाटी	-8745
सूद	-8746
▁लीजिए	-8747
पैठ	-8748
ams	-8749
वाड़	-8750
▁अम्ब	-8751
याह	-8752
न्‍व	-8753
▁पाता	-8754
▁हिंदुओं	-8755
▁x	-8756
▁ज़रुर	-8757
एगी	-8758
▁संभावनाएं	-8759
ओल	-8760
▁बपति	-8761
गोपाल	-8762
’,	-8763
▁नूह	-8764
▁आरक्षित	-8765
▁त्रिपाठी	-8766
mAh	-8767
टीए	-8768
▁अकसर	-8769
▁व्यापारिक	-8770
ूँगा	-8771
▁शिवा	-8772
▁वृक्ष	-8773
▁मुफ्ती	-8774
ेस्ट	-8775
▁नमूनों	-8776
▁मोटर्स	-8777
▁शॉर्ट	-8778
▁(201	-8779
्टे	-8780
करों	-8781
gov	-8782
▁कोट	-8783
ट्यूब	-8784
▁आइस	-8785
▁बैन	-8786
ंदीदा	-8787
▁कश्मीरी	-8788
▁बरी	-8789
▁फते	-8790
▁मुम्बई	-8791
पंथी	-8792
▁यरूशलेम	-8793
▁मैनेजमेंट	-8794
▁चिल	-8795
▁दुखी	-8796
्रु	-8797
ोदन	-8798
▁खिल	-8799
▁रच	-8800
गठ	-8801
ोली	-8802
अनु	-8803
ाइक	-8804
धियों	-8805
सभी	-8806
दिल्ली	-8807
फरत	-8808
▁हॉट	-8809
▁रखकर	-8810
▁परिभाषा	-8811
▁निवासियों	-8812
▁कार्	-8813
▁सीबीएसई	-8814
.30	-8815
▁सैनी	-8816
▁अकाली	-8817
▁बृहस्पति	-8818
▁शिकायतों	-8819
▁नाई	-8820
▁गणित	-8821
▁गोपनीय	-8822
पण	-8823
▁अधिकृत	-8824
▁चयनित	-8825
▁पहाड़	-8826
▁आजम	-8827
▁इबादत	-8828
▁फिटनेस	-8829
▁जयशंकर	-8830
▁पसंदीदा	-8831
▁क़ा	-8832
▁उज्ज	-8833
▁निर्व	-8834
घात	-8835
▁बर्थ	-8836
▁सटी	-8837
▁शक्तियों	-8838
▁पर्रिकर	-8839
▁स्वीकृत	-8840
लीम	-8841
विदा	-8842
रीबन	-8843
▁ट्रां	-8844
▁स्रोतों	-8845
न्यू	-8846
14	-8847
▁रचनात्मक	-8848
क़ी	-8849
▁लीला	-8850
ौत	-8851
22	-8852
com	-8853
▁लड़े	-8854
ung	-8855
▁ताज	-8856
▁शंकर	-8857
▁जैविक	-8858
▁तन	-8859
▁डेमोक्रेट	-8860
▁डिफेंस	-8861
▁नीतिगत	-8862
▁आयुर्वेद	-8863
▁धमाके	-8864
▁हाज	-8865
▁एकदम	-8866
▁सीखा	-8867
▁थोड़े	-8868
▁घुसपैठ	-8869
▁मानसून	-8870
▁कंध	-8871
▁घटनाक्रम	-8872
▁सौदा	-8873
▁अंसारी	-8874
▁निभाते	-8875
▁83	-8876
▁आश्व	-8877
▁डालकर	-8878
▁निर्देशों	-8879
▁महल	-8880
▁मेजबानी	-8881
▁जानकर	-8882
▁जितने	-8883
▁मुकदमे	-8884
▁मधुम	-8885
▁कमिश्नर	-8886
▁केन्द्रों	-8887
▁नेक	-8888
▁मैनेजर	-8889
▁मंदिरों	-8890
qu	-8891
ET	-8892
▁इव	-8893
▁मुआवजा	-8894
▁मस्तिष्क	-8895
्टन	-8896
्‍तीय	-8897
▁सर्क	-8898
▁क्वार्टर	-8899
▁ऑप्शन	-8900
▁किस्	-8901
16	-8902
▁घेर	-8903
▁!	-8904
oss	-8905
ियाला	-8906
▁माबू	-8907
▁जापानी	-8908
▁आजीविका	-8909
▁सुब्र	-8910
▁खपत	-8911
▁संधि	-8912
▁फ्लाइट	-8913
▁उत्‍पाद	-8914
ूण	-8915
गाम	-8916
▁कारगर	-8917
▁जिंदा	-8918
▁चाहेंगे	-8919
▁आहार	-8920
स्टेट	-8921
▁बड़	-8922
▁निपटान	-8923
र्नर	-8924
्तार	-8925
▁ढूंढ	-8926
▁न्यायपालिका	-8927
▁वां	-8928
▁डालें	-8929
▁आसार	-8930
मताओं	-8931
▁फोरम	-8932
▁डरा	-8933
▁एंड्रॉयड	-8934
जाही	-8935
▁www	-8936
▁भूमिकाओं	-8937
▁२०	-8938
▁लक्ष्‍य	-8939
अनंतिम	-8940
हानि	-8941
▁यूहन्‍ना	-8942
▁गहरे	-8943
▁शख़्श	-8944
▁आंश	-8945
▁उल्‍	-8946
▁स्टेप	-8947
▁परिजन	-8948
▁सूचीबद्ध	-8949
ेब	-8950
▁मेगावाट	-8951
▁एजेंट	-8952
▁ऑड	-8953
संशोधन	-8954
फ्रेंड	-8955
▁प्रासंगिक	-8956
▁सांप्र	-8957
▁मत्ती	-8958
▁धीर	-8959
साइटी	-8960
▁पुरस्‍कार	-8961
ौज	-8962
ैर्य	-8963
▁वोटिंग	-8964
▁व्‍यवस्‍था	-8965
▁अनिश्चित	-8966
▁सबका	-8967
▁(2)	-8968
▁पाइप	-8969
शीट	-8970
चारा	-8971
▁जनजाति	-8972
▁प्रसारित	-8973
फरी	-8974
▁नफरत	-8975
▁खाद्या	-8976
▁राजनयिक	-8977
▁स्थितियों	-8978
▁वियतनाम	-8979
ुद्दीन	-8980
▁दूंगा	-8981
he	-8982
एप	-8983
़ों	-8984
कपा	-8985
▁नमक	-8986
▁साई	-8987
▁इरफान	-8988
तुम्ह	-8989
▁श्रॉफ	-8990
▁आवाजाही	-8991
ोव	-8992
▁खर	-8993
▁दुःख	-8994
▁तुमपर	-8995
▁पारि	-8996
सीएल	-8997
▁गाना	-8998
▁कमलनाथ	-8999
▁परवाह	-9000
▁इंडस्ट्रीज	-9001
▁राजेंद्र	-9002
▁पांचवें	-9003
:-	-9004
▁प्रतीक्षा	-9005
▁रविशंकर	-9006
▁and	-9007
नात्मक	-9008
▁दिक्कत	-9009
▁सकेगी	-9010
ौलत	-9011
▁उकसा	-9012
▁नींद	-9013
्रेज़ी	-9014
▁संस्‍थान	-9015
▁स्तंभ	-9016
▁चैम्पियनशिप	-9017
कांक्षी	-9018
▁घाटा	-9019
▁दोनो	-9020
तीकरण	-9021
▁तथ्यों	-9022
18	-9023
▁86	-9024
▁आंखों	-9025
▁प्रोटीन	-9026
▁संक्ष	-9027
अल्लाह	-9028
.25	-9029
▁परिदृश्य	-9030
म्बे	-9031
ार्स	-9032
▁कामयाबी	-9033
▁सोसाइटी	-9034
▁स्‍वच्‍छ	-9035
▁संभालने	-9036
▁चौके	-9037
▁डाली	-9038
▁मेहमान	-9039
▁कहला	-9040
शिव	-9041
ांची	-9042
क्यू	-9043
▁दुरुपयोग	-9044
दत्त	-9045
क्‍टर	-9046
दायी	-9047
▁जोध	-9048
▁लेनदेन	-9049
▁वित्‍तीय	-9050
वासन	-9051
▁256	-9052
▁आकांक्षा	-9053
▁निर्दलीय	-9054
▁बेंगलुरू	-9055
▁भगत	-9056
▁ऐश्व	-9057
▁डीएम	-9058
▁पार्ष	-9059
▁डिस्काउंट	-9060
ौली	-9061
▁थाई	-9062
ओयू	-9063
▁टेक	-9064
▁अनल	-9065
▁श्रेणियों	-9066
कांड	-9067
▁बैठकों	-9068
▁लाठी	-9069
▁केएल	-9070
▁कॉरपोरेशन	-9071
▁सांप्रदायिक	-9072
▁बॉल	-9073
▁काग	-9074
▁चहल	-9075
▁रिश्तों	-9076
▁फील्ड	-9077
▁घृ	-9078
▁मेले	-9079
स्टल	-9080
▁बुख	-9081
▁निर्वाचित	-9082
▁2002	-9083
▁आदिवासी	-9084
▁विनाश	-9085
▁प्रयुक्त	-9086
▁बोर	-9087
▁रोज़ी	-9088
▁यहूद	-9089
▁बढ़ाई	-9090
्ष्	-9091
क्षकों	-9092
▁k	-9093
▁आशय	-9094
▁दफ्	-9095
थित	-9096
भवती	-9097
▁हेम	-9098
▁कैल	-9099
▁ख्वाह	-9100
▁व्हाट्स	-9101
▁निशानियाँ	-9102
▁विंडो	-9103
▁मुरली	-9104
▁धैर्य	-9105
▁प्रदीप	-9106
▁बढ़ेगा	-9107
सम्म	-9108
▁रिच	-9109
र्धी	-9110
▁आधा	-9111
▁टाल	-9112
.20	-9113
रिटी	-9114
जीएसटी	-9115
▁रत्न	-9116
▁राउत	-9117
▁अनुचित	-9118
▁याक	-9119
▁कुफ्	-9120
▁प्रशंसकों	-9121
▁अनुभ	-9122
डनी	-9123
▁बसों	-9124
िजय	-9125
▁आंशिक	-9126
▁डिज़	-9127
ort	-9128
▁कुमाऊँ	-9129
▁सर्किट	-9130
क़यामत	-9131
▁(_	-9132
ुद्ध	-9133
▁गुरुद	-9134
ast	-9135
डिंग	-9136
ंसू	-9137
▁पिक्सल	-9138
▁समर्पण	-9139
▁चाइ	-9140
▁फैशन	-9141
▁दर्दनाक	-9142
▁बाबू	-9143
▁1,000	-9144
ार्टमेंट	-9145
भारी	-9146
▁डालते	-9147
र्चर	-9148
▁आमदनी	-9149
▁काफ़िर	-9150
श्ती	-9151
▁गणमान्य	-9152
▁पुज	-9153
▁ब्रॉड	-9154
एनबी	-9155
जक	-9156
▁एयरलाइ	-9157
▁नतीजों	-9158
▁भंग	-9159
▁उद्देश्यों	-9160
ुआर	-9161
ाज़त	-9162
परि	-9163
▁गर्भवती	-9164
ग्विजय	-9165
ोगा	-9166
▁जिनको	-9167
रोधक	-9168
▁बजाज	-9169
▁भाग्य	-9170
▁पोस्टम	-9171
▁हंस	-9172
▁अतीत	-9173
▁क्रमशः	-9174
▁जोधपुर	-9175
▁मुक्ति	-9176
▁समाप्ति	-9177
▁हल्की	-9178
▁संध्या	-9179
जेडी	-9180
▁खोले	-9181
▁बालक	-9182
▁मुश्‍	-9183
▁अन्यथा	-9184
▁गोरखपुर	-9185
▁r	-9186
हमारी	-9187
▁मिर्जा	-9188
ंसी	-9189
र्दू	-9190
्याम	-9191
ौस	-9192
ure	-9193
▁भव्य	-9194
▁सरकारें	-9195
24	-9196
ैंट	-9197
▁कि‍	-9198
राउंड	-9199
▁ट्रेनें	-9200
िंगर	-9201
▁130	-9202
▁मैथ	-9203
वायरस	-9204
ॉर्टम	-9205
▁एसटी	-9206
▁प्रमाणपत्र	-9207
श्छ	-9208
▁Big	-9209
ालक	-9210
▁600	-9211
▁खोला	-9212
▁चट	-9213
▁डू	-9214
▁ख़र्च	-9215
▁क्षमताओं	-9216
▁फोटोग्रा	-9217
▁बृहस्पतिवार	-9218
नीतिक	-9219
▁रोमांच	-9220
▁स्वाभाविक	-9221
प्पल	-9222
▁क्रू	-9223
ps	-9224
्‍व	-9225
▁एमए	-9226
▁इन्कार	-9227
ff	-9228
▁दफ्तर	-9229
चौ	-9230
लाश	-9231
▁लापरवाही	-9232
स्पद	-9233
▁एटीएम	-9234
▁अनुग्रह	-9235
दूत	-9236
रिस	-9237
द्वीप	-9238
▁लौटे	-9239
▁कमज़	-9240
▁मुख्‍यमंत्री	-9241
▁वस्त्र	-9242
वृ	-9243
▁१५	-9244
▁अध्‍यक्षता	-9245
▁सीर	-9246
▁तालम	-9247
▁मोड़	-9248
▁एंट्री	-9249
▁मुश्‍किल	-9250
▁दिलाई	-9251
▁सिर्फ़	-9252
▁मुक़ाब	-9253
▁अनुमोदन	-9254
▁सेवानिवृत्त	-9255
▁एसएमएस	-9256
▁जताते	-9257
▁७	-9258
रलैंड	-9259
▁पूर्ति	-9260
▁आश्वस्त	-9261
▁कन्	-9262
▁फेल	-9263
▁मांगों	-9264
▁तहरी	-9265
▁प्रोटोकॉल	-9266
िगेड	-9267
▁छीन	-9268
▁शशि	-9269
▁रजिस्टर	-9270
रेली	-9271
▁ईसा	-9272
▁तकरीबन	-9273
▁मुखिया	-9274
▁८	-9275
ऐसे	-9276
▁शिल्प	-9277
▁भागने	-9278
ऊण्	-9279
्‍ल	-9280
ऊण्श्छ	-9281
ऊण्श्छ्ष्	-9282
▁जुटाने	-9283
▁बुकिंग	-9284
▁दिग्विजय	-9285
-8	-9286
▁आईएएस	-9287
▁हटाया	-9288
▁इसपर	-9289
वैसी	-9290
▁अलगाव	-9291
35	-9292
▁मंदी	-9293
▁छात्राओं	-9294
▁ऑट	-9295
▁विधिक	-9296
बाबू	-9297
▁महम	-9298
िकन	-9299
ाधिकार	-9300
▁क्षतिग्रस्त	-9301
▁Bo	-9302
▁र्	-9303
▁काली	-9304
▁औरतों	-9305
▁मतभेद	-9306
▁औऱ	-9307
▁जेस	-9308
▁युवराज	-9309
▁स्पर्धा	-9310
▁स्पोर्ट्स	-9311
-7	-9312
ब्‍ल	-9313
.10	-9314
▁कंस	-9315
▁अनुभवी	-9316
तिर	-9317
▁रांची	-9318
▁सीपी	-9319
▁वाड्रा	-9320
igh	-9321
▁मेडल	-9322
▁उठाते	-9323
▁उछाल	-9324
▁तालमेल	-9325
▁याकूब	-9326
▁उद्यमों	-9327
▁प्रमोशन	-9328
▁CO	-9329
▁छक्के	-9330
▁आधारशिला	-9331
im	-9332
उसने	-9333
▁पूज	-9334
▁उधार	-9335
▁अभिले	-9336
मुना	-9337
▁बहि	-9338
▁बिगड़	-9339
▁Mi	-9340
ूंगी	-9341
्पा	-9342
▁नौज	-9343
▁आवासी	-9344
मोहम्मद	-9345
्यर	-9346
▁वस्‍	-9347
▁Hindi	-9348
▁बदौलत	-9349
▁जसप्रीत	-9350
▁पोस्टमॉर्टम	-9351
हेज़	-9352
▁क्वाली	-9353
▁पुनर्वास	-9354
स्केट	-9355
▁फौरन	-9356
▁ज़िक्र	-9357
▁श्रीदेवी	-9358
▁फिन	-9359
यरी	-9360
▁मुहम्मद	-9361
▁खड़	-9362
▁संघीय	-9363
▁उद्यमियों	-9364
ob	-9365
माला	-9366
▁अटक	-9367
▁भावी	-9368
▁इंस्पेक्टर	-9369
टीसी	-9370
वृत्ति	-9371
▁ज़रा	-9372
सेफ	-9373
▁विकासशील	-9374
▁तेलुगू	-9375
ब्बास	-9376
▁चम्म	-9377
क़ा	-9378
▁फोकस	-9379
▁राउंड	-9380
▁पूर्वान	-9381
्रेसी	-9382
प्ले	-9383
▁तोड़ने	-9384
न्त्र	-9385
▁फू	-9386
▁गुरू	-9387
▁ब्रिक्स	-9388
IC	-9389
▁सतर्कता	-9390
▁अंडमान	-9391
▁सैल	-9392
▁असमर्थ	-9393
फ़ी	-9394
धियाना	-9395
▁एनआईए	-9396
▁अद्	-9397
िश्ता	-9398
▁कबूल	-9399
▁बारह	-9400
▁लेखन	-9401
▁जायजा	-9402
▁सुलझाने	-9403
ायें	-9404
▁बैच	-9405
्वल	-9406
▁टर्मिनल	-9407
▁चम्मच	-9408
▁नियोजन	-9409
▁रोशनी	-9410
▁मशी	-9411
▁पाना	-9412
▁बीएसएफ	-9413
▁विद्यमान	-9414
ानिक	-9415
▁चेहरा	-9416
▁ईमानदारी	-9417
िमा	-9418
▁तौबा	-9419
▁वास्त	-9420
▁परहेज़	-9421
▁ग्ला	-9422
▁आधारभूत	-9423
▁समू	-9424
▁धीमी	-9425
▁छिप	-9426
ub	-9427
▁वरीय	-9428
▁ढा	-9429
▁शास्त्री	-9430
मोदी	-9431
▁गेल	-9432
▁गर्भ	-9433
▁पाएगा	-9434
▁आल	-9435
▁मेमोरी	-9436
%)	-9437
▁पीवी	-9438
▁ओवैसी	-9439
▁नवजोत	-9440
▁सर्च	-9441
▁ब्रिगेड	-9442
▁अजहर	-9443
▁रेलगा	-9444
▁मैक	-9445
▁जानकार	-9446
▁अनुशासन	-9447
▁शीत	-9448
▁स्‍वी	-9449
▁सुग	-9450
▁अब्बास	-9451
▁व्यापारी	-9452
▁सर्वर	-9453
▁कॉलिंग	-9454
▁उलट	-9455
▁कबीर	-9456
▁आचरण	-9457
केशन	-9458
▁आधे	-9459
िरल	-9460
▁मय	-9461
एनआई	-9462
▁बाई	-9463
▁बैठा	-9464
▁ग़रज़	-9465
▁ष	-9466
▁बाह	-9467
▁कमाल	-9468
▁संरक्षक	-9469
▁मर्	-9470
▁उसपर	-9471
13	-9472
भद्र	-9473
▁डीआर	-9474
▁दमदार	-9475
▁मेहरबान	-9476
▁अमी	-9477
▁गायब	-9478
▁उन्हों	-9479
▁मिथ	-9480
▁कर्नल	-9481
▁पुनर्ग	-9482
▁समितियों	-9483
दिवसीय	-9484
रीना	-9485
▁पेन	-9486
रात्रि	-9487
▁स्मरण	-9488
▁हिन्दु	-9489
▁बचाया	-9490
▁यथ	-9491
▁कोटा	-9492
▁फिली	-9493
▁बदमाशों	-9494
▁आला	-9495
▁दिलीप	-9496
▁लड़कों	-9497
▁रिपब्लिक	-9498
▁मारकर	-9499
▁पारदर्शी	-9500
धाम	-9501
▁भक्त	-9502
ालिब	-9503
▁अर्जी	-9504
ोसिस	-9505
▁जावेद	-9506
दाश्त	-9507
▁बपतिस्मा	-9508
ine	-9509
▁मुक्के	-9510
▁संरक्षित	-9511
▁खेत	-9512
▁Ch	-9513
95	-9514
▁ऋष	-9515
▁पिच	-9516
▁सिंघ	-9517
िस्तान	-9518
ोटे	-9519
▁Boss	-9520
▁रखरखाव	-9521
▁2001	-9522
▁सोचने	-9523
▁ईमानदारों	-9524
▁खासतौर	-9525
▁समावेशी	-9526
विकेट	-9527
▁वसूली	-9528
▁पंकज	-9529
▁बताना	-9530
▁निवेशक	-9531
▁सुर्खियों	-9532
▁परेड	-9533
▁हॉलीवुड	-9534
दीन	-9535
▁एहसास	-9536
▁झटके	-9537
▁किफ	-9538
▁तुझ	-9539
ारण	-9540
▁तरल	-9541
▁चिट्	-9542
▁सुनते	-9543
▁चार्ट	-9544
▁ऐश्वर्या	-9545
ओएस	-9546
▁तलवार	-9547
िज्म	-9548
▁मेयर	-9549
डीजी	-9550
▁मात	-9551
▁उजागर	-9552
ॉल्ट	-9553
▁2003	-9554
▁नॉर्थ	-9555
शियल	-9556
ॉकि	-9557
▁संस्थागत	-9558
▁वेद	-9559
▁सोसाय	-9560
▁डुअल	-9561
▁सदस्‍य	-9562
▁वोटों	-9563
▁साहब	-9564
▁परिसंप	-9565
▁वकीलों	-9566
ीनी	-9567
▁गलिय	-9568
▁बौद्धिक	-9569
ख्ती	-9570
▁टिका	-9571
▁इस्लामी	-9572
▁बालों	-9573
▁एकत्रित	-9574
▁थरूर	-9575
▁नवीनतम	-9576
▁निभाया	-9577
▁म्यांमार	-9578
▁सर्विसेज	-9579
▁आवासीय	-9580
▁उड़ानों	-9581
न्नत	-9582
▁पर्वत	-9583
▁कृति	-9584
भि	-9585
▁सशक्तिकरण	-9586
▁राजकीय	-9587
▁लकड़ी	-9588
▁करतार	-9589
▁निकाले	-9590
शियों	-9591
▁साढ़े	-9592
कोष	-9593
▁छत	-9594
▁शिप	-9595
▁गुरुद्व	-9596
▁कमर	-9597
ल्फ	-9598
रिडोर	-9599
▁कार्यभार	-9600
▁ख़ूब	-9601
▁स्वाय	-9602
ोदिया	-9603
▁संक्षिप्त	-9604
23	-9605
▁१०	-9606
▁राठ	-9607
▁पंक्ति	-9608
▁ऊपरी	-9609
▁चिंताओं	-9610
▁अपलोड	-9611
क्रिय	-9612
▁जुल	-9613
▁एनजी	-9614
रक्षा	-9615
▁दुकानों	-9616
▁व्यावहार	-9617
▁सर्वोत्तम	-9618
वचन	-9619
▁सभाओं	-9620
▁ठिकाना	-9621
▁81	-9622
▁एमएस	-9623
▁दावों	-9624
▁चौकी	-9625
amsung	-9626
▁साइकिल	-9627
▁पीट	-9628
्वत	-9629
▁चूक	-9630
▁88	-9631
▁भोज	-9632
▁मीट्रिक	-9633
कानूनी	-9634
▁शिशु	-9635
▁हत्य	-9636
▁अन्वे	-9637
▁महिमा	-9638
▁उपबंधों	-9639
▁सुधारने	-9640
▁ईद	-9641
ियाबाद	-9642
▁iP	-9643
▁एंज	-9644
▁ऑक्सी	-9645
▁पाउडर	-9646
▁दुश्मन	-9647
▁पत्रों	-9648
▁190	-9649
▁प्रस्तुति	-9650
▁उद्यमिता	-9651
धीर	-9652
▁96	-9653
ेंटी	-9654
▁चिकित्सक	-9655
प्रश	-9656
▁मिश्रण	-9657
हाना	-9658
ान्य	-9659
▁सबक	-9660
▁शान्ति	-9661
स्तियों	-9662
उनके	-9663
▁जेपी	-9664
ऑफ	-9665
▁इस्‍तेमाल	-9666
▁भागवत	-9667
▁Bigg	-9668
निर्माण	-9669
▁अत्याचार	-9670
▁९	-9671
▁होश	-9672
▁पर्दे	-9673
▁कम्पनी	-9674
▁औषधि	-9675
▁फायदेमंद	-9676
निय	-9677
▁भूख	-9678
▁5,000	-9679
▁कहकर	-9680
.50	-9681
▁61	-9682
▁हराम	-9683
लियों	-9684
▁सेले	-9685
स्ट्रक्चर	-9686
▁अभिया	-9687
देही	-9688
यूवी	-9689
▁वि‍	-9690
▁सदर	-9691
▁देशमुख	-9692
▁विक्रे	-9693
बरद	-9694
▁क्रोध	-9695
▁रणदीप	-9696
बिज	-9697
बीएस	-9698
्‍याण	-9699
▁इन्होंने	-9700
▁मलया	-9701
जद	-9702
▁अनो	-9703
▁बनेगा	-9704
▁रनौत	-9705
▁प्रकोप	-9706
▁आवश्‍यकता	-9707
्नवी	-9708
▁यूए	-9709
▁गिराया	-9710
▁बर्बाद	-9711
▁मैत्री	-9712
▁लुधियाना	-9713
▁जेन	-9714
▁प्रौद्योगिकियों	-9715
▁असाम	-9716
ुरप्पा	-9717
▁रूपरेखा	-9718
ain	-9719
▁डिली	-9720
▁व्यावहारिक	-9721
▁आंसू	-9722
फ्ल	-9723
▁हज़ार	-9724
▁संतुष्ट	-9725
विड़	-9726
▁तंग	-9727
मेरा	-9728
//	-9729
ष्णु	-9730
▁पहुँचे	-9731
▁धरना	-9732
▁सृजित	-9733
▁ज़िन्दगी	-9734
▁अभिप	-9735
▁गवर्न	-9736
▁यूपीए	-9737
▁हार्ड	-9738
माचार	-9739
पर्स	-9740
▁नैन	-9741
▁अकेला	-9742
▁मूलभूत	-9743
▁अनुसूची	-9744
ब्रा	-9745
▁कल्‍याण	-9746
▁व्यापारियों	-9747
▁लायक	-9748
▁स्ट्रीट	-9749
▁सैयद	-9750
▁सीमेंट	-9751
▁मेजबान	-9752
RC	-9753
सरकार	-9754
▁जानती	-9755
▁बटन	-9756
▁अग्	-9757
िकासी	-9758
▁आईएम	-9759
▁जश्न	-9760
▁तालिका	-9761
ud	-9762
▁अंधे	-9763
▁2015-16	-9764
▁छाया	-9765
▁जाह्नवी	-9766
▁दिव्यांग	-9767
▁प्लांट	-9768
ष्य	-9769
▁कहें	-9770
▁लाते	-9771
▁कमेंट	-9772
▁निभ	-9773
▁विंग	-9774
▁वास	-9775
ld	-9776
▁जोकि	-9777
▁डीएसपी	-9778
पड़	-9779
▁कैथ	-9780
▁उत्सुक	-9781
end	-9782
र्वाद	-9783
▁चांद	-9784
▁स्त्र	-9785
▁144	-9786
▁Samsung	-9787
▁स्‍थापना	-9788
▁विनिर्दिष्ट	-9789
केंद्र	-9790
▁जमीनी	-9791
इसके	-9792
▁मुल्	-9793
▁तेलुगु	-9794
▁विद्रोह	-9795
ओपी	-9796
▁डील	-9797
▁मुसीबत	-9798
ब्‍ल्‍यू	-9799
.00	-9800
▁कपड़ा	-9801
भुत	-9802
AT	-9803
▁भीम	-9804
धुनिक	-9805
▁देओल	-9806
▁त्रिव	-9807
▁बस्ती	-9808
▁विडियो	-9809
च्छिक	-9810
?"""	-9811
▁अड्डा	-9812
▁50,000	-9813
▁उपयोगकर्ता	-9814
एब	-9815
्‍मू	-9816
▁पूछने	-9817
▁@	-9818
▁टि	-9819
▁आंग	-9820
▁स्वदेशी	-9821
▁वरिष्‍ठ	-9822
पिछ	-9823
▁कारक	-9824
▁सचेत	-9825
▁भागीदार	-9826
▁चंद्रशेखर	-9827
▁सहन	-9828
▁इंद्र	-9829
▁निराशा	-9830
▁सोसायटी	-9831
▁कम्युन	-9832
▁रिश्वत	-9833
▁क़सम	-9834
▁इवेंट	-9835
▁एलईडी	-9836
एचडी	-9837
राही	-9838
▁छठे	-9839
▁फॉलो	-9840
प्रिंट	-9841
▁मिटा	-9842
त्‍या	-9843
घरों	-9844
शै	-9845
▁कदा	-9846
▁शरीक	-9847
▁मौतें	-9848
ध्याय	-9849
▁किफायती	-9850
▁बहुप	-9851
▁संगठित	-9852
लिन	-9853
ोपिक	-9854
▁अय्यर	-9855
▁3:	-9856
जिस्ट	-9857
▁चक्रवर्ती	-9858
स्सी	-9859
▁(7	-9860
▁रिए	-9861
▁उच्चाय	-9862
▁ग्रैंड	-9863
▁गंवा	-9864
डीटी	-9865
बम	-9866
▁शाही	-9867
▁An	-9868
▁महमूद	-9869
▁वफादार	-9870
▁सचिवों	-9871
▁800	-9872
▁बैल	-9873
▁प्रॉ	-9874
▁बन्द	-9875
▁आक्रामक	-9876
▁व्‍यक्‍त	-9877
▁प्रश्	-9878
▁हस्‍ताक्षर	-9879
85	-9880
शाही	-9881
▁हरकत	-9882
▁सिंगल	-9883
वैज्ञान	-9884
▁पर्यवे	-9885
▁टीकाकरण	-9886
▁दीपा	-9887
▁नजदीकी	-9888
▁दोहराया	-9889
▁सना	-9890
▁एनटी	-9891
if	-9892
।’	-9893
बोर्ड	-9894
▁अद्य	-9895
▁लंबाई	-9896
▁मधु	-9897
िकीकरण	-9898
▁जानबूझ	-9899
▁यूनानी	-9900
▁प्रत्‍येक	-9901
▁खेर	-9902
▁उड्ड	-9903
▁स्‍थापित	-9904
▁झुठलाया	-9905
omi	-9906
्यून	-9907
▁सिसोदिया	-9908
▁टिम	-9909
▁टेलीफोन	-9910
▁पोख	-9911
▁एनएस	-9912
ान्वित	-9913
्बा	-9914
ंक्शन	-9915
▁निकासी	-9916
▁to	-9917
VID	-9918
▁मरियम	-9919
▁हकदार	-9920
▁राकांपा	-9921
▁२००	-9922
▁संस्‍	-9923
▁केदार	-9924
गोलिक	-9925
▁उर्दू	-9926
▁यूट्यूब	-9927
▁केश	-9928
▁दां	-9929
▁पीडीपी	-9930
▁बिगा	-9931
▁ईवीएम	-9932
▁आयतें	-9933
श्योरेंस	-9934
लल	-9935
▁ऑर्डर	-9936
▁निशानी	-9937
▁स्टोरी	-9938
देख	-9939
▁आक	-9940
▁2011-12	-9941
ंसाली	-9942
▁समझे	-9943
ुअल	-9944
▁91	-9945
▁उत्सर्जन	-9946
फोटो	-9947
अमेरिका	-9948
▁रिचर्ड	-9949
▁82	-9950
संबंध	-9951
▁काफिर	-9952
▁re	-9953
▁रॉबर्ट	-9954
▁किशन	-9955
▁रियो	-9956
▁निर्णायक	-9957
म्र	-9958
शुल्क	-9959
त्‍साह	-9960
राइल	-9961
त्‍मक	-9962
▁अल्ट्रा	-9963
▁लश्	-9964
▁मांगे	-9965
▁हैंडल	-9966
▁संभाला	-9967
▁चेल	-9968
▁अभिनव	-9969
▁आशीर्वाद	-9970
एसआर	-9971
▁रोहतक	-9972
ँग	-9973
क्ष्य	-9974
▁पच	-9975
सैनिक	-9976
▁मरम्मत	-9977
▁हालॉकि	-9978
▁कॉरिडोर	-9979
▁द्रविड़	-9980
▁न्यूज़	-9981
▁पूर्वानुमान	-9982
दिय	-9983
▁केन्द्रित	-9984
र्टी	-9985
▁तस्करी	-9986
▁सख्ती	-9987
▁वय	-9988
▁स्‍प	-9989
▁घोटाला	-9990
▁नौका	-9991
▁वाइस	-9992
▁मोम	-9993
://	-9994
जुकी	-9995
▁चमक	-9996
िताओं	-9997
▁कृपा	-9998
▁डेवलपमेंट	-9999
ौफ	-10000
▁मीरा	-10001
मस	-10002
▁कपास	-10003
▁गुरुग्राम	-10004
▁टकराव	-10005
निष्ठ	-10006
▁डेरा	-10007
▁सौरव	-10008
▁क्षण	-10009
▁स्पा	-10010
▁ग़ालिब	-10011
▁Pr	-10012
▁मूवी	-10013
▁व्यक्तित्व	-10014
्‍क	-10015
▁नास	-10016
वियों	-10017
र्निंग	-10018
▁भंसाली	-10019
▁कारावास	-10020
▁हांग	-10021
▁बैंगल	-10022
▁विमर्श	-10023
▁रजनीकांत	-10024
▁टुकड़े	-10025
▁सम्पूर्ण	-10026
▁मिर्च	-10027
▁पटियाला	-10028
▁माबूद	-10029
▁संन्यास	-10030
64	-10031
लेकिन	-10032
▁आगमन	-10033
▁रहस्य	-10034
▁कॉफी	-10035
▁आईएसआई	-10036
मेडी	-10037
खाने	-10038
▁हाम	-10039
▁सब्र	-10040
▁चैनलों	-10041
▁सम्बंध	-10042
म्परा	-10043
se	-10044
दून	-10045
▁the	-10046
▁उड्डयन	-10047
िस्टर	-10048
▁एडवा	-10049
▁विजन	-10050
▁रहेंगी	-10051
▁चक	-10052
िडेंट	-10053
▁कैपिटल	-10054
क़े	-10055
▁गुट	-10056
▁पूर्वा	-10057
aj	-10058
▁प्रोत्‍साह	-10059
▁विशा	-10060
▁गुणों	-10061
▁संपादक	-10062
खलन	-10063
▁Ex	-10064
प्रो	-10065
▁जन्	-10066
▁लोड	-10067
▁अनदे	-10068
▁दाह	-10069
▁मंज़	-10070
गठबंधन	-10071
▁करतारपुर	-10072
▁बर्फबारी	-10073
वश	-10074
▁गौरी	-10075
▁किसने	-10076
विकेटकीपर	-10077
गना	-10078
▁105	-10079
▁करिश	-10080
▁कैलाश	-10081
▁जम्‍मू	-10082
▁मार्टिन	-10083
-13	-10084
गांठ	-10085
▁पुतिन	-10086
▁संयोजन	-10087
▁शैल	-10088
▁एसआईटी	-10089
▁उल्‍लेख	-10090
▁कांस्टेबल	-10091
वर्ग	-10092
चालित	-10093
र्निया	-10094
▁अल्पसंख्यकों	-10095
▁नरेश	-10096
▁सुजुकी	-10097
▁जना	-10098
▁एसिड	-10099
फै	-10100
▁मुख्यमंत्रियों	-10101
हतिया	-10102
स्फीति	-10103
▁हस्तियों	-10104
▁कलक	-10105
▁दरम	-10106
न्‍वयन	-10107
ाफ्ट	-10108
▁ऑडियो	-10109
▁बनायी	-10110
▁बनाती	-10111
▁व्‍यक्ति	-10112
lection	-10113
▁भौगोलिक	-10114
▁कस्	-10115
▁परिचय	-10116
▁तंज	-10117
▁लड़ेंगे	-10118
▁डिवी	-10119
ंगाबाद	-10120
▁आदेशों	-10121
ant	-10122
▁सरा	-10123
ath	-10124
▁बया	-10125
▁स्‍थान	-10126
▁ज़्यादातर	-10127
▁श्रद्धालुओं	-10128
ोजनों	-10129
▁किले	-10130
▁होंडा	-10131
▁एडमिरल	-10132
ोले	-10133
▁97	-10134
▁इंसानों	-10135
▁समर्थित	-10136
▁स्वायत्त	-10137
▁अंकित	-10138
▁आत्मविश्वास	-10139
▁जोस	-10140
▁कुमारी	-10141
▁हल्के	-10142
सेन	-10143
▁डबल	-10144
▁क़ान	-10145
▁एपी	-10146
▁शक्त	-10147
▁पौधों	-10148
▁मोर्चे	-10149
राद	-10150
▁नाक	-10151
▁फ़ो	-10152
▁मतों	-10153
▁कठिनाई	-10154
28	-10155
▁अबतक	-10156
▁क्रे	-10157
▁पशुओं	-10158
▁पहने	-10159
▁किग्रा	-10160
▁दीर्घकालिक	-10161
▁हेलीकॉप्टर	-10162
ect	-10163
▁चुनें	-10164
▁पढ़िए	-10165
▁(0	-10166
▁देसाई	-10167
▁ज़िम्मेदार	-10168
▁संतान	-10169
▁सभ्यता	-10170
▁थाईलैंड	-10171
▁स्वयंसेव	-10172
▁आइड	-10173
▁क़दम	-10174
▁रोगों	-10175
▁विकेटकीपर	-10176
ोरा	-10177
्‍न	-10178
▁बॉय	-10179
▁कुरि	-10180
▁इलेक्ट्रॉनिक्स	-10181
▁चलना	-10182
▁प्रतिष्ठा	-10183
र्रर	-10184
▁राजग	-10185
▁नाबाद	-10186
▁गवाहों	-10187
वाग	-10188
▁iPhone	-10189
▁टोक	-10190
▁सितारे	-10191
लाइका	-10192
▁श्रीवास्तव	-10193
चलन	-10194
तोड़	-10195
राबरी	-10196
▁जाओगे	-10197
▁फंस	-10198
▁आकर्षण	-10199
▁पायी	-10200
▁प्रभुत्व	-10201
▁पों	-10202
▁गाँ	-10203
orld	-10204
▁नमूने	-10205
▁चाहूंगा	-10206
▁79	-10207
▁यक़ीनी	-10208
▁सिलसिला	-10209
नॉ	-10210
▁दिखाए	-10211
▁देहरा	-10212
▁स्टोक्स	-10213
▁कुमारस्वामी	-10214
शित	-10215
▁रघु	-10216
▁क्रॉस	-10217
ण्य	-10218
▁दरवाजे	-10219
▁सेवकों	-10220
▁फैलने	-10221
▁घन	-10222
पकों	-10223
▁कीर्	-10224
सरत	-10225
▁ज़बरद	-10226
▁कमज़ोर	-10227
du	-10228
▁फिंगर	-10229
िएट	-10230
▁लश्कर	-10231
▁उपन	-10232
▁डोम	-10233
बेन	-10234
▁सन्तान	-10235
▁मिश्रित	-10236
ric	-10237
▁सिखाया	-10238
▁ट्रांसफर	-10239
उल	-10240
▁2:	-10241
▁नशे	-10242
▁हेन	-10243
▁पुरा	-10244
ase	-10245
टेस्ट	-10246
रसन	-10247
खड़	-10248
भजन	-10249
▁किट	-10250
ोत्तरी	-10251
▁सिवाय	-10252
डीयू	-10253
▁जनसभा	-10254
▁टेबल	-10255
▁हुक	-10256
▁ऋतिक	-10257
दोनों	-10258
ायनिक	-10259
▁सिंधिया	-10260
बों	-10261
▁जानवर	-10262
▁स्कॉट	-10263
.75	-10264
▁प्रोडक्शन	-10265
ओए	-10266
▁II	-10267
▁किताबें	-10268
hat	-10269
▁सटीक	-10270
▁सस्ता	-10271
▁कोशिका	-10272
▁खुराना	-10273
श्यप	-10274
▁अंततः	-10275
▁इनपुट	-10276
▁ठंड	-10277
▁निकाली	-10278
▁परिषद्	-10279
▁साझेदार	-10280
▁फ्लैट	-10281
▁कन्नड़	-10282
all	-10283
▁दरें	-10284
▁नायक	-10285
▁दर्जे	-10286
.05	-10287
विया	-10288
▁मत्	-10289
▁कोरोनावायरस	-10290
MS	-10291
▁अजीब	-10292
▁आस्था	-10293
▁परिश्रम	-10294
मों	-10295
त्ल	-10296
फील्ड	-10297
▁गयीं	-10298
▁कामगारों	-10299
▁स्क्	-10300
▁ट्रिपल	-10301
ूथ	-10302
▁स्टडी	-10303
▁बराबरी	-10304
▁भिड़	-10305
▁आकाशों	-10306
▁एमबी	-10307
▁मलाइका	-10308
▁एकदिवसीय	-10309
▁94	-10310
▁एथली	-10311
▁चट्ट	-10312
▁पड़ोसियों	-10313
▁१२	-10314
▁निः	-10315
▁सामर्थ्य	-10316
▁87	-10317
▁शेड	-10318
▁पहना	-10319
▁अपशिष्ट	-10320
▁परम्परा	-10321
▁डेमोक्रेटिक	-10322
हाउस	-10323
▁अवलोक	-10324
▁कवरेज	-10325
▁मार्गों	-10326
▁सुरेंद्र	-10327
त्रिम	-10328
▁उबर	-10329
अत	-10330
मेंद्र	-10331
▁महत्वा	-10332
▁देशभ	-10333
▁संपदा	-10334
▁शोधकर्ताओं	-10335
▁98	-10336
कार्ट	-10337
कॉमर्स	-10338
▁उमेश	-10339
▁फु	-10340
▁व्ही	-10341
कूला	-10342
▁साम्ह	-10343
णाल	-10344
iaomi	-10345
ोत्‍तर	-10346
सह	-10347
शंस	-10348
षकों	-10349
▁मजाक	-10350
▁रैना	-10351
व्यों	-10352
घन	-10353
सिस	-10354
▁गुड़	-10355
▁कोयले	-10356
▁झलक	-10357
▁सौह	-10358
▁नम्र	-10359
▁स्पे	-10360
▁मैसेज	-10361
ुआरों	-10362
▁उतनी	-10363
▁युगल	-10364
▁नाजुक	-10365
▁आईएएनएस	-10366
▁वर्णित	-10367
▁यहूदियों	-10368
▁आज़	-10369
▁गैले	-10370
त्यक्ष	-10371
▁अनुभवों	-10372
▁फोटोज	-10373
बाग	-10374
▁महाविद्यालय	-10375
▁लौह	-10376
ang	-10377
▁रमन	-10378
▁अन्दर	-10379
▁बॉन्ड	-10380
▁खाई	-10381
▁तोह	-10382
▁टीएमसी	-10383
घाट	-10384
▁ग्रंथ	-10385
▁विद	-10386
▁पांड्या	-10387
"",	-10388
▁तिरु	-10389
▁परिक	-10390
पीआर	-10391
मेरी	-10392
सीना	-10393
▁कश्यप	-10394
▁भरोसे	-10395
▁आर्यन	-10396
▁nic	-10397
Plus	-10398
▁ब्यौ	-10399
▁सुनाया	-10400
▁परंपरागत	-10401
▁उगा	-10402
▁मजदूरी	-10403
▁दाल	-10404
सरकारी	-10405
▁अध्यादेश	-10406
▁घुट	-10407
▁दत्ता	-10408
▁हवाईअ	-10409
AA	-10410
▁खाम	-10411
▁बॉम्बे	-10412
3)	-10413
▁इधर	-10414
▁दिखे	-10415
▁बनाएं	-10416
▁अद्यतन	-10417
▁मसल	-10418
▁दुकानें	-10419
▁१८	-10420
▁अपार	-10421
▁एनडीआरएफ	-10422
▁राष्ट्रों	-10423
ड्	-10424
रीज़	-10425
▁धारण	-10426
▁सीआई	-10427
▁असिस्ट	-10428
.11	-10429
▁हाश	-10430
▁ख़ुश	-10431
कह	-10432
▁बायो	-10433
▁निरस्त	-10434
▁छुटकारा	-10435
▁92	-10436
▁हैक	-10437
रेगा	-10438
▁News	-10439
▁वाइड	-10440
▁धर्मों	-10441
विद	-10442
▁वोल	-10443
▁तेजस्वी	-10444
ide	-10445
न्ग	-10446
▁दूत	-10447
▁ऊंचे	-10448
▁लिय	-10449
▁क्वालकॉम	-10450
दक्ष	-10451
▁हरित	-10452
▁किराया	-10453
गरी	-10454
▁डॉट	-10455
▁डेयरी	-10456
ance	-10457
▁मध्‍य	-10458
▁मांगने	-10459
फ़्र	-10460
▁लाश	-10461
▁हाज़	-10462
▁जरुरत	-10463
▁1:	-10464
▁विशाखा	-10465
ame	-10466
▁स्वभाव	-10467
उसके	-10468
▁ड्रेस	-10469
ोल्यूशन	-10470
▁मछुआरों	-10471
आर्थिक	-10472
▁अनुपम	-10473
▁बायोपिक	-10474
फ्रास्ट्रक्चर	-10475
▁रैंक	-10476
▁प्रक्षेप	-10477
▁अपेक्षाकृत	-10478
▁प्रस्तावों	-10479
िफ़	-10480
▁110	-10481
▁हकी	-10482
▁पैदल	-10483
▁आयरलैंड	-10484
▁ठुक	-10485
▁पेड	-10486
▁वर्चुअल	-10487
ik	-10488
शय	-10489
▁पंचायती	-10490
▁गाजियाबाद	-10491
रिय	-10492
▁निमंत्र	-10493
▁हत्याकांड	-10494
आम	-10495
▁शुल	-10496
▁श्व	-10497
▁बहुते	-10498
ore	-10499
फोर्ड	-10500
▁पंचायतों	-10501
▁बर्दाश्त	-10502
लभ	-10503
िल्ल	-10504
▁होली	-10505
▁सिक्योर	-10506
▁जिसमे	-10507
▁निकोबार	-10508
िस्	-10509
समूह	-10510
ंता	-10511
▁फीट	-10512
▁वर्जन	-10513
क़त	-10514
▁फ्रां	-10515
▁मौतों	-10516
▁2018:	-10517
▁गुमराही	-10518
▁लक्ष्मण	-10519
In	-10520
,‘‘	-10521
वाब	-10522
▁आदत	-10523
▁हरभजन	-10524
▁संतुलित	-10525
ass	-10526
ऐसा	-10527
जोल	-10528
मोर	-10529
ब्रे	-10530
▁फ्लैश	-10531
दियुरप्पा	-10532
▁परिस्थिति	-10533
BSE	-10534
▁आईफोन	-10535
डऩे	-10536
हप्र	-10537
▁ग्रोवर	-10538
▁अब्र	-10539
▁बास्केट	-10540
▁मुस्लिमों	-10541
रेप	-10542
वेंद्र	-10543
▁ओवरों	-10544
▁कोशिकाओं	-10545
▁गुणा	-10546
▁पाये	-10547
▁पढ़ते	-10548
▁फर्ना	-10549
▁वस्‍तु	-10550
वैज्ञानिक	-10551
▁मलयालम	-10552
िकेश	-10553
▁कुरान	-10554
▁OnePlus	-10555
रह	-10556
बेह	-10557
त्‍ता	-10558
्वाइंट	-10559
िण	-10560
▁भटक	-10561
▁राशिद	-10562
दिया	-10563
▁वन्य	-10564
▁मन्द	-10565
▁रौशन	-10566
ौरी	-10567
▁सहवाग	-10568
वादा	-10569
द्धान	-10570
त्‍य	-10571
▁बीस	-10572
▁Xiaomi	-10573
▁ग्रेड	-10574
▁ध्वनि	-10575
▁2020-21	-10576
▁मीर	-10577
▁वॉट	-10578
▁रहित	-10579
▁ह्यू	-10580
▁अभिन्न	-10581
▁स्ट्राइक	-10582
ies	-10583
▁अन्याय	-10584
िज़	-10585
▁विस्‍	-10586
▁मुद्रास्फीति	-10587
▁गुजरा	-10588
▁प्रवी	-10589
▁सानिया	-10590
▁दंप	-10591
▁अवतार	-10592
नीति	-10593
कमिंग	-10594
▁पीड़ा	-10595
▁पीजीआई	-10596
▁यूं	-10597
▁अग्नि	-10598
▁सामरिक	-10599
खास्त	-10600
पादों	-10601
▁कांग्रेसी	-10602
▁आभूषण	-10603
▁उद्यान	-10604
▁कार्यान्वित	-10605
27	-10606
▁1999	-10607
▁पार्थ	-10608
गृह	-10609
▁कलकत्ता	-10610
,""	-10611
ईआर	-10612
डीजल	-10613
▁प्रयोगशालाओं	-10614
-9	-10615
विधा	-10616
▁पेंट	-10617
ाचार्य	-10618
▁फरहान	-10619
▁श्रीनि	-10620
▁2.5	-10621
▁संलग्न	-10622
26	-10623
▁सुगम	-10624
▁बनेंगे	-10625
▁ग्रेजुए	-10626
▁डिज़ाइन	-10627
▁प्रवृत्ति	-10628
▁गज	-10629
▁कथन	-10630
▁वैल्यू	-10631
▁महासभा	-10632
▁देहरादून	-10633
▁माइक्रोएसडी	-10634
▁आजकल	-10635
▁मोटे	-10636
▁पुनर्गठन	-10637
िराज	-10638
▁१९९	-10639
ोटी	-10640
▁पासवर्ड	-10641
ब्बत	-10642
▁मक्का	-10643
▁ग्राउंड	-10644
▁राष्ट्रवादी	-10645
▁जिहाद	-10646
किस	-10647
सनी	-10648
▁नानक	-10649
▁फर्स्ट	-10650
▁प्रतिद्वंद्वी	-10651
?"	-10652
▁4:	-10653
▁89	-10654
▁मानहानि	-10655
शुदा	-10656
▁क़रीब	-10657
▁कैदियों	-10658
▁दमन	-10659
▁साकार	-10660
▁वास्तविकता	-10661
▁माइक्र	-10662
▁दरमियान	-10663
▁अभिभावकों	-10664
AM	-10665
राज्यपाल	-10666
▁परीक्षाएं	-10667
▁बेटियों	-10668
▁पार्किंग	-10669
▁कारोबारियों	-10670
ial	-10671
वला	-10672
▁वॉल	-10673
▁गर्ग	-10674
▁लेनी	-10675
▁समेक	-10676
ans	-10677
ियमित	-10678
▁5000	-10679
▁फ्लिप	-10680
▁पार्षद	-10681
▁क्‍योंकि	-10682
▁उत्पादकता	-10683
▁जुटे	-10684
▁रावल	-10685
अभ	-10686
ूलन	-10687
टिया	-10688
लपुर	-10689
▁डेबिट	-10690
▁कृत्रिम	-10691
▁रहमत	-10692
▁बिप	-10693
द्रिक	-10694
▁फिलिप	-10695
▁रवींद्र	-10696
▁रखेगा	-10697
▁धीरज	-10698
▁कॉर्पोरेशन	-10699
▁शहीदों	-10700
स्खलन	-10701
▁एमटी	-10702
▁डालर	-10703
बोध	-10704
▁हिर	-10705
▁हटाए	-10706
▁ट्रिब	-10707
▁रवैया	-10708
▁आईआर	-10709
▁क्लीन	-10710
▁प्रायः	-10711
33	-10712
ंचल	-10713
▁पौधे	-10714
▁कोलंब	-10715
▁प्रया	-10716
▁खंडन	-10717
▁सोचना	-10718
ॉरिटी	-10719
निर्देशों	-10720
▁पदाधिकारी	-10721
▁समीप	-10722
▁कोच्च	-10723
▁रिश्ता	-10724
▁अभूतपूर्व	-10725
▁चैलेंजर्स	-10726
डॉ	-10727
▁एंगल	-10728
▁प्रमाणित	-10729
▁आनु	-10730
▁जीवा	-10731
▁स्पॉट	-10732
▁पश्‍	-10733
▁मल्ल	-10734
▁अंतरण	-10735
▁तकनीकों	-10736
▁हांगकांग	-10737
णि	-10738
▁ड्रा	-10739
▁पाबंदी	-10740
▁प्राधिकारी	-10741
र्चा	-10742
▁अभिषिक	-10743
▁बनती	-10744
▁मैरी	-10745
▁इरादे	-10746
ुलेंस	-10747
▁उपहार	-10748
▁ब्राह	-10749
▁स्वर्	-10750
ब्बा	-10751
▁पूर्वोत्‍तर	-10752
▁चार्	-10753
▁शासक	-10754
▁गाँधी	-10755
िजन	-10756
▁वान	-10757
▁ध्रु	-10758
▁ट्रैक्टर	-10759
▁अतुल	-10760
राक	-10761
▁ढु	-10762
▁अवमान	-10763
▁झगड़ा	-10764
▁येदियुरप्पा	-10765
ितर	-10766
▁जेसन	-10767
▁प्रचलित	-10768
▁उपरो	-10769
▁माइक	-10770
षे	-10771
▁डेल	-10772
▁ग्रिड	-10773
▁शिक्षित	-10774
▁जाग	-10775
▁टैंक	-10776
▁बचें	-10777
▁सर्ट	-10778
▁वार्नर	-10779
▁उत्पत्ति	-10780
▁चुनौतियां	-10781
▁आभारी	-10782
▁वीरेंद्र	-10783
▁उम्‍मीदवार	-10784
किर	-10785
यालय	-10786
▁नाव	-10787
▁नींव	-10788
▁पुनर्विचार	-10789
िश्त	-10790
▁राशन	-10791
बॉक्स	-10792
▁अभियोजन	-10793
▁नाना	-10794
उत्	-10795
िंडा	-10796
▁देन	-10797
▁जयर	-10798
▁बैग	-10799
▁पटनायक	-10800
▁महाराष्‍ट्र	-10801
▁मॉड्यूल	-10802
▁बहुल	-10803
▁रेडमी	-10804
▁पश	-10805
▁पथराव	-10806
▁चीज़ें	-10807
▁ललित	-10808
▁साक्षर	-10809
संप	-10810
▁UP	-10811
▁थॉम	-10812
▁कतार	-10813
sc	-10814
▁लाओ	-10815
▁रासायनिक	-10816
गई	-10817
मिली	-10818
ोदित	-10819
पहले	-10820
▁st	-10821
▁साम्हने	-10822
ंडन	-10823
र्ता	-10824
क़रीब	-10825
▁नकवी	-10826
ूल्य	-10827
▁नैशनल	-10828
▁सुनता	-10829
क्योंकि	-10830
सीडी	-10831
▁गियर	-10832
▁विद्वान	-10833
▁उड़ी	-10834
▁उन्म	-10835
▁गुफा	-10836
▁ठेके	-10837
▁देखरेख	-10838
जेवाला	-10839
ूटर	-10840
ईएम	-10841
▁htt	-10842
▁लड़क	-10843
▁निर्दोष	-10844
ंसल	-10845
▁गाइड	-10846
▁सीता	-10847
86	-10848
▁गरि	-10849
मिल	-10850
▁आधुन	-10851
▁वांछ	-10852
▁सुल्तान	-10853
▁महागठबंधन	-10854
ौहार	-10855
▁नर्म	-10856
▁जहाजों	-10857
▁बर्खास्त	-10858
भौ	-10859
▁जॉनसन	-10860
सिंग	-10861
▁गंत	-10862
▁शिवाजी	-10863
काउ	-10864
डि़यों	-10865
लु	-10866
▁कटरीना	-10867
▁कुलपति	-10868
▁प्रयोजनों	-10869
▁थोक	-10870
▁पुस्तकों	-10871
▁इन्हीं	-10872
▁गाड़ियों	-10873
▁मध्यस्थता	-10874
▁औस	-10875
▁चौंका	-10876
▁बंदूक	-10877
▁2014-15	-10878
▁११	-10879
▁चाहें	-10880
▁सुसमाचार	-10881
याद	-10882
▁फेम	-10883
दक	-10884
ेक्स	-10885
▁समाय	-10886
▁लिखते	-10887
फेड	-10888
▁अनू	-10889
▁अवलोकन	-10890
▁आईपीएस	-10891
र्तग	-10892
ंडर	-10893
जीर	-10894
जाति	-10895
▁बेव	-10896
▁बुलेट	-10897
▁पड़ेगी	-10898
▁औरत	-10899
▁कुश	-10900
▁कॉपी	-10901
▁व्‍यापक	-10902
▁कागज	-10903
छात्रा	-10904
▁फाइबर	-10905
▁स्टैंडर्ड	-10906
?""	-10907
▁180	-10908
▁दखल	-10909
▁आरंभिक	-10910
डिय़ों	-10911
▁ब्लूट	-10912
▁लड़का	-10913
ॉर्	-10914
▁कंटेन	-10915
▁धर्मेंद्र	-10916
ेरत	-10917
धर्म	-10918
▁एहसान	-10919
▁बच्‍च	-10920
▁हकीकत	-10921
ii	-10922
स्कृत	-10923
▁दर्जन	-10924
▁एटी	-10925
▁केके	-10926
▁क़ुरान	-10927
▁रिपोर्टों	-10928
▁जदयू	-10929
ue	-10930
ईए	-10931
▁डॉन	-10932
चार्य	-10933
▁ग़ौर	-10934
▁कलेक्टर	-10935
▁मुक़र्रर	-10936
▁पारिस्थित	-10937
▁बैठकें	-10938
8)	-10939
्यम	-10940
निरपेक्ष	-10941
▁भूपेंद्र	-10942
टाला	-10943
▁फिज	-10944
▁देवता	-10945
▁अद्भुत	-10946
▁शिकायतें	-10947
▁पार्टनर	-10948
▁कैलि	-10949
▁चलकर	-10950
नस	-10951
▁म्यूजिक	-10952
▁मुक़ाबले	-10953
▁इंश्योरेंस	-10954
▁देय	-10955
▁करोगे	-10956
याम	-10957
▁पंप	-10958
▁कट्ट	-10959
▁हाजिर	-10960
▁बैठने	-10961
▁रोमांचक	-10962
▁सब्जियों	-10963
गरों	-10964
ाहम	-10965
▁दूँ	-10966
▁ग्लास	-10967
▁ट्रायल	-10968
ँति	-10969
ांतरण	-10970
ाइज	-10971
▁लैब	-10972
▁रक्ष	-10973
▁गिरकर	-10974
▁लगाये	-10975
▁मशीनों	-10976
▁बच्‍चों	-10977
न्ने	-10978
▁350	-10979
▁चलाए	-10980
▁पैरवी	-10981
▁सदियों	-10982
▁एयरलाइंस	-10983
▁फरीदाबाद	-10984
घाती	-10985
▁उपे	-10986
▁मॉन	-10987
▁इशारा	-10988
▁फैन्स	-10989
▁सौभाग्य	-10990
धारक	-10991
▁मसूद	-10992
▁खोजने	-10993
▁बेटों	-10994
▁मैट	-10995
▁अखंड	-10996
▁संस्‍थानों	-10997
▁नाइक	-10998
▁पीपुल	-10999
▁मान्य	-11000
▁मोहाली	-11001
▁विवेकान	-11002
एंड	-11003
4)	-11004
▁CBI	-11005
ost	-11006
▁नोडल	-11007
▁एनर्जी	-11008
▁परिचित	-11009
▁आरा	-11010
चंद्रन	-11011
▁ड्राइव	-11012
▁बंगाली	-11013
▁सर्जरी	-11014
▁ईपीएफ	-11015
▁चिट्ठी	-11016
▁अवकाश	-11017
▁प्रश्नों	-11018
▁अगस्‍त	-11019
▁जुड़ने	-11020
▁93	-11021
नाथन	-11022
स्परिक	-11023
▁डिवीजन	-11024
मुंबई	-11025
▁पाठक	-11026
▁गरिमा	-11027
▁बयानों	-11028
▁छुट्ट	-11029
▁महाजन	-11030
▁रायपुर	-11031
▁()	-11032
इंडिया	-11033
▁COVID	-11034
▁कॉमेडी	-11035
▁बॉर्डर	-11036
▁सिद्दी	-11037
▁निमंत्रण	-11038
▁700	-11039
दरलैंड	-11040
▁निष्पादन	-11041
▁उज	-11042
ानगर	-11043
▁चुनने	-11044
▁हिस्‍सा	-11045
▁स्वर्गीय	-11046
▁अस्‍प	-11047
▁सेलि	-11048
▁अर्धशत	-11049
▁बीएच	-11050
▁सीने	-11051
▁पांडेय	-11052
▁घातक	-11053
▁अदालतों	-11054
▁ब्लड	-11055
▁फेस्ट	-11056
▁पंचकूला	-11057
▁व्याख्यान	-11058
▁अपी	-11059
▁अपकमिंग	-11060
▁अभिषिक्‍त	-11061
जहां	-11062
द्वाज	-11063
▁एर	-11064
फोड़	-11065
▁भती	-11066
▁झूठा	-11067
▁कोच्चि	-11068
▁प्रबल	-11069
▁सुरजेवाला	-11070
हाड़	-11071
▁वीवी	-11072
▁अक्षर	-11073
▁स्टार्टअप	-11074
▁'%	-11075
पूर्वी	-11076
▁सरपंच	-11077
च्छे	-11078
यानक	-11079
▁इंटेल	-11080
▁पिटाई	-11081
▁सब्	-11082
▁लेगी	-11083
▁आचार्य	-11084
▁हाज़िर	-11085
क़्त	-11086
▁6.5	-11087
▁अरबी	-11088
▁बंबई	-11089
▁आश्रम	-11090
▁रहाणे	-11091
▁तीर	-11092
फोसिस	-11093
▁दोगुनी	-11094
▁मौलाना	-11095
▁ऑपरेटिंग	-11096
▁कारी	-11097
पाली	-11098
▁एंब	-11099
▁ट्रेंड	-11100
▁पायदान	-11101
▁नौकरियों	-11102
.)	-11103
▁महंगा	-11104
▁सेकंड	-11105
▁संभवतः	-11106
▁अलीगढ़	-11107
▁चंद्रयान	-11108
ivo	-11109
क्रिप्ट	-11110
▁Rs	-11111
▁आॅ	-11112
▁बंधन	-11113
▁आधुनिकीकरण	-11114
▁हार्ट	-11115
▁सौहार्द	-11116
▁भड़क	-11117
▁प्रारम्भ	-11118
▁आपातकालीन	-11119
▁उत्कृष्टता	-11120
▁वक्तव्य	-11121
अंग्रेज़ी	-11122
▁वाटर	-11123
▁प्रमुखों	-11124
▁राष्ट्रमंडल	-11125
ND	-11126
▁विष्णु	-11127
तमंद	-11128
▁तेज़	-11129
▁रहकर	-11130
▁स्ने	-11131
डेंट	-11132
▁चंद्रबाबू	-11133
▁ढुलाई	-11134
▁सत्यापन	-11135
▁प्रक्षेपण	-11136
ात्मक	-11137
▁हनुमान	-11138
▁जितेन्द्र	-11139
45	-11140
हेल	-11141
मोचन	-11142
▁पृथक	-11143
▁राजू	-11144
िवल	-11145
▁तले	-11146
▁दर्शाया	-11147
ँस	-11148
एमआर	-11149
▁बॉडी	-11150
▁यूएन	-11151
ंछ	-11152
▁चौटाला	-11153
▁ब्लूटूथ	-11154
ऐप	-11155
▁राइट	-11156
धक	-11157
.12	-11158
ृता	-11159
▁नल	-11160
बड़े	-11161
▁एसएसपी	-11162
▁दिखायी	-11163
▁हस्तांतरण	-11164
ary	-11165
▁लिव	-11166
▁बंटव	-11167
जियम	-11168
▁भारद्वाज	-11169
धू	-11170
▁2,000	-11171
▁याचिकाकर्ता	-11172
▁फिरऔन	-11173
▁निष्ठा	-11174
▁औसतन	-11175
▁सातवें	-11176
०००	-11177
▁चाहा	-11178
▁एक्टिंग	-11179
बेस	-11180
▁दरबार	-11181
▁सनराइ	-11182
▁प्रेषित	-11183
वाहिक	-11184
िश्चय	-11185
▁पक्का	-11186
▁स्ट्रीम	-11187
्सन	-11188
▁बदलकर	-11189
▁बादशाह	-11190
गोल	-11191
▁एकीकरण	-11192
▁योद्धा	-11193
मेंस	-11194
▁2.0	-11195
▁शिष्ट	-11196
▁ज़िला	-11197
ru	-11198
ौड़	-11199
लेषण	-11200
▁बेकार	-11201
▁नाट	-11202
▁हरदीप	-11203
ामंत्री	-11204
तिश	-11205
लोनी	-11206
▁पारस्परिक	-11207
शीद	-11208
AP	-11209
SS	-11210
▁Q	-11211
▁अस्थिर	-11212
▁पर्सनल	-11213
▁अमन	-11214
▁एसडीएम	-11215
ड़की	-11216
▁जुन	-11217
ेशनल	-11218
▁चारा	-11219
▁नज़दी	-11220
आख़िर	-11221
राउंडर	-11222
▁कश्‍मीर	-11223
▁बनते	-11224
जीरिया	-11225
▁मोमिन	-11226
▁अग्न	-11227
▁औलाद	-11228
▁अन्वेषण	-11229
▁खरीदारी	-11230
▁बदलना	-11231
▁अप्रत्यक्ष	-11232
▁फ्रेम	-11233
▁बेरोजगारी	-11234
र्गन	-11235
रियाल	-11236
▁कहान	-11237
▁सबकुछ	-11238
▁पिछड़े	-11239
89	-11240
▁छुड़ा	-11241
▁विशेषज्ञता	-11242
▁सुले	-11243
▁घटाकर	-11244
▁नगालैंड	-11245
▁सम्पत्ति	-11246
▁खाद्यान्न	-11247
▁वाक़िफ	-11248
▁जोनस	-11249
▁अनियमित	-11250
▁अब्राहम	-11251
ारह	-11252
▁डीए	-11253
▁ऑटोम	-11254
▁आरटीआई	-11255
▁हिक	-11256
▁मानें	-11257
▁विशेषाधिकार	-11258
याँ	-11259
▁नीरज	-11260
▁आसियान	-11261
गान	-11262
▁बैनर	-11263
▁समझौतों	-11264
▁स्तन	-11265
▁एसयूवी	-11266
▁पुर्तग	-11267
विस	-11268
▁महासंघ	-11269
▁फेडरेशन	-11270
▁अंग्रेज़ी	-11271
ायम	-11272
▁खुलकर	-11273
▁मानदंडों	-11274
गढ	-11275
▁एजेंडा	-11276
ोब	-11277
▁क्रूर	-11278
शान	-11279
▁पूल	-11280
▁रोष	-11281
▁हरि	-11282
▁उत्‍पादों	-11283
▁चार्जशीट	-11284
▁आईएस	-11285
▁घृणा	-11286
▁तोड़ा	-11287
▁खरा	-11288
▁गुड	-11289
▁मजे	-11290
▁सेक्शन	-11291
▁फ्लिपकार्ट	-11292
▁फैमिली	-11293
▁अश्विनी	-11294
7)	-11295
▁काबिल	-11296
▁एलपीजी	-11297
▁रहीम	-11298
कारिता	-11299
▁दुर्भाग्यपूर्ण	-11300
िमी	-11301
▁नक्	-11302
▁साइना	-11303
▁प्रेमी	-11304
▁बुद्धिमान	-11305
नास	-11306
्‍ट	-11307
ेंजर	-11308
▁आएँ	-11309
▁Vivo	-11310
▁रम	-11311
▁तृतीय	-11312
▁मत्स्य	-11313
▁बेटियां	-11314
जीसी	-11315
▁खण्ड	-11316
▁अनक़रीब	-11317
ब्बल	-11318
्याह	-11319
▁नोक	-11320
▁सिंगर	-11321
▁भयानक	-11322
▁पेटेंट	-11323
ूला	-11324
फेयर	-11325
्याद	-11326
▁बीबी	-11327
▁मदन	-11328
▁बंसल	-11329
चाराधीन	-11330
▁अड्डों	-11331
▁अमीरात	-11332
▁5:	-11333
ायाह	-11334
माता	-11335
▁लैंगिक	-11336
▁किताबों	-11337
एटी	-11338
▁$	-11339
▁इब्रा	-11340
नाई	-11341
▁फ़िर	-11342
▁अधिवेशन	-11343
▁कोने	-11344
▁सप्लाई	-11345
▁जमात	-11346
▁दर्शक	-11347
▁बुलाई	-11348
▁पोखरियाल	-11349
्वार	-11350
▁धूप	-11351
▁यूर	-11352
▁समन	-11353
▁दुबे	-11354
▁जानबूझकर	-11355
▁लि‍	-11356
▁अन्ना	-11357
▁हमलावरों	-11358
▁उपर्य	-11359
ललिता	-11360
▁खतरों	-11361
▁संपत्तियों	-11362
▁उठे	-11363
▁चेतना	-11364
▁रतन	-11365
बाही	-11366
▁कटा	-11367
▁लेवल	-11368
▁आधी	-11369
▁बाघ	-11370
भागीय	-11371
▁ज़िन्दा	-11372
करने	-11373
▁यशायाह	-11374
▁लची	-11375
▁सम्रा	-11376
▁बख्शने	-11377
डाफोन	-11378
पतियों	-11379
▁औरंगाबाद	-11380
▁करिश्मा	-11381
▁जवाबदेही	-11382
ंधर	-11383
पेश	-11384
परिव	-11385
▁एहतिया	-11386
फोल	-11387
▁अमेठी	-11388
▁ड्रग्स	-11389
▁गैलेक्सी	-11390
दानी	-11391
न्धी	-11392
▁हरेक	-11393
▁क्वार	-11394
▁एस्टेट	-11395
▁विकल्पों	-11396
▁असंत	-11397
▁वेणु	-11398
ॉफ्ट	-11399
▁मोर	-11400
▁जनहित	-11401
▁पिन	-11402
▁अमेजन	-11403
▁संक्रमितों	-11404
▁108	-11405
▁जगा	-11406
क्साइड	-11407
▁वारिस	-11408
▁क्री	-11409
▁फलों	-11410
▁रिटेल	-11411
▁राजकोष	-11412
▁विश्‍वविद्यालय	-11413
▁कलाम	-11414
▁जयराम	-11415
▁दंगों	-11416
▁तरक्की	-11417
▁शिकस्त	-11418
▁नीतिवचन	-11419
▁संविदा	-11420
▁रेफर	-11421
▁जवाबी	-11422
▁आईएनएस	-11423
▁सुहाना	-11424
▁सेकेंडरी	-11425
▁नंद	-11426
▁रुझ	-11427
▁ऑक्सीजन	-11428
▁प्रतिस्पर्धी	-11429
▁रास्त	-11430
ED	-11431
▁रूपों	-11432
बिलिटी	-11433
▁अकादम	-11434
▁मन्दिर	-11435
▁सम्पर्क	-11436
ताप	-11437
क्षे	-11438
▁निर्भ	-11439
29	-11440
5)	-11441
▁एमपी	-11442
▁बजाए	-11443
▁बागी	-11444
▁क्राइम	-11445
▁स्वचालित	-11446
नान	-11447
▁ऐक्ट	-11448
▁शोधन	-11449
▁मसौदा	-11450
▁पक्षकार	-11451
व्‍यवस्‍था	-11452
चिक	-11453
▁ठुकरा	-11454
▁सार्थ	-11455
धिकरण	-11456
▁राइड	-11457
▁सम्‍मान	-11458
यर्स	-11459
्लाह	-11460
▁यंत्र	-11461
▁ताक	-11462
▁जर्नल	-11463
▁अंतराल	-11464
▁मथ	-11465
▁इस्राएलियों	-11466
39	-11467
▁नूर	-11468
▁सेक्स	-11469
▁पुस्तकालय	-11470
ओगे	-11471
▁IC	-11472
▁स्वर्गदूत	-11473
▁बहिष्कार	-11474
▁(10	-11475
▁बसे	-11476
▁जजों	-11477
▁स्ल	-11478
our	-11479
▁टिकाऊ	-11480
ईस	-11481
दिर	-11482
▁सुब्रमण	-11483
उत्तर	-11484
▁दस्तावेज़	-11485
टू	-11486
▁सड़कें	-11487
67	-11488
जोड़	-11489
▁पशुप	-11490
उनकी	-11491
खबरी	-11492
▁गोलियां	-11493
▁सिलेंडर	-11494
चाप	-11495
्वेष	-11496
▁दोगुना	-11497
▁तीव्रता	-11498
▁नाराजगी	-11499
▁यान	-11500
▁डीजीपी	-11501
▁लाभान्वित	-11502
साफ	-11503
अज़ाब	-11504
▁ख्वा	-11505
▁उठाये	-11506
यना	-11507
▁टोल	-11508
रीक्षक	-11509
▁भरत	-11510
णियां	-11511
▁उठता	-11512
▁यमुना	-11513
▁प्रवीण	-11514
▁मशीनरी	-11515
▁रथ	-11516
ंबले	-11517
▁बिट	-11518
्राफी	-11519
▁इनको	-11520
▁कतर	-11521
▁किय	-11522
▁भेड़	-11523
▁मोहित	-11524
▁2,	-11525
▁थॉमस	-11526
▁कुफ्फ़ार	-11527
ैत	-11528
▁फ़िल	-11529
▁पुनरु	-11530
▁स्टाइल	-11531
बीटी	-11532
▁पटरी	-11533
▁किराए	-11534
▁पक्षी	-11535
▁उपक्रमों	-11536
▁यहूदा	-11537
फोर्निया	-11538
▁अर्थशास्त्र	-11539
फना	-11540
▁सिग	-11541
▁प्रशासक	-11542
▁एन्	-11543
▁कब्र	-11544
▁छोड़े	-11545
▁दृढ़ता	-11546
▁सिद्धान	-11547
▁नवन	-11548
▁दरवाजा	-11549
▁मदर	-11550
▁करनाल	-11551
▁वर्षगांठ	-11552
ex	-11553
▁नस्ल	-11554
▁बदलते	-11555
▁खंडपीठ	-11556
ोनिया	-11557
▁बीएसपी	-11558
▁विस्‍तार	-11559
ारोप	-11560
▁पाट	-11561
▁IS	-11562
▁तीर्थया	-11563
.09	-11564
▁कष्ट	-11565
▁विजयन	-11566
▁राजनेता	-11567
ब्ध	-11568
▁घटी	-11569
▁फिंच	-11570
ph	-11571
▁दिखता	-11572
▁नियो	-11573
▁स्क्रीनिंग	-11574
ष्‍ट्रपति	-11575
oun	-11576
प्ल	-11577
बोट	-11578
/2	-11579
▁ताइ	-11580
▁दिखाना	-11581
▁पुरस्कारों	-11582
▁अवर	-11583
अम	-11584
▁for	-11585
88	-11586
मीत	-11587
▁झूठी	-11588
▁निष्क्रिय	-11589
गों	-11590
▁लह	-11591
▁1,5	-11592
▁स्वै	-11593
▁शिलान	-11594
▁सुप्र	-11595
▁कम्युनिस्ट	-11596
ुमा	-11597
▁नागालैंड	-11598
▁सनराइजर्स	-11599
▁धरो	-11600
्रीकरण	-11601
▁पीपुल्स	-11602
▁वोडाफोन	-11603
▁क्विंट	-11604
▁त्यौहार	-11605
स्‍वतंत्र	-11606
▁मनु	-11607
▁जगदी	-11608
▁बाज़ार	-11609
▁प्रयत्न	-11610
▁मंडली	-11611
▁एंडरसन	-11612
▁बिल्डिंग	-11613
वान्वेष	-11614
▁स्वीडन	-11615
िसी	-11616
▁कचरे	-11617
डेन	-11618
वंश	-11619
▁on	-11620
▁अद्व	-11621
▁फ्लोर	-11622
▁व्यवस्थित	-11623
▁चुनौतीपूर्ण	-11624
1,	-11625
एनसीआर	-11626
▁व्हाट्सएप	-11627
▁संयंत्रों	-11628
65	-11629
▁उठाकर	-11630
फन	-11631
▁चेलों	-11632
▁तबाही	-11633
क्‍टूबर	-11634
▁ढूँ	-11635
▁बंगल	-11636
▁वाणी	-11637
▁पसन्द	-11638
जनन	-11639
▁शिफ्ट	-11640
एलए	-11641
बेट	-11642
▁पट्टी	-11643
मि	-11644
▁अर्थव्‍यवस्‍था	-11645
िश्तों	-11646
▁खुलती	-11647
ियुस	-11648
▁निगाह	-11649
▁कुशलता	-11650
▁फ़ोल्डर	-11651
ंसर	-11652
▁World	-11653
▁निचली	-11654
वीपी	-11655
▁निम्‍	-11656
सेवा	-11657
ाहिम	-11658
▁चेन	-11659
▁मधुमेह	-11660
▁विचारण	-11661
अमत	-11662
ष्म	-11663
▁नीदरलैंड	-11664
▁20,000	-11665
▁जयललिता	-11666
▁बैंगलोर	-11667
नीकरण	-11668
▁पीएस	-11669
▁पोष	-11670
▁अफसोस	-11671
▁डीआरडीओ	-11672
▁स्कैन	-11673
▁आरोपितों	-11674
▁डेढ़	-11675
जरलैंड	-11676
▁सिल्वर	-11677
केन	-11678
.07	-11679
▁झगड़े	-11680
ैड	-11681
▁इज़	-11682
▁सीम	-11683
स्पीड	-11684
▁कराता	-11685
▁सुविध	-11686
▁कीर्ति	-11687
कोल	-11688
▁con	-11689
▁एली	-11690
बाहरी	-11691
▁अहमियत	-11692
▁दिखाएँ	-11693
ical	-11694
▁टैं	-11695
▁अंबेडकर	-11696
▁फाइनेंस	-11697
▁अटैक	-11698
▁परस	-11699
▁आंगन	-11700
मिट	-11701
एफपी	-11702
▁ऊंचा	-11703
▁कराची	-11704
मुसलमान	-11705
▁उद्धार	-11706
▁आजीवन	-11707
▁प्रतियोगिताओं	-11708
▁En	-11709
▁आएं	-11710
▁अमृता	-11711
▁गतिरोध	-11712
▁प्रायोजित	-11713
योजना	-11714
▁फतेह	-11715
▁गुस्से	-11716
▁सुप्रीमो	-11717
▁रिपोर्ट्स	-11718
▁फिंगरप्रिंट	-11719
▁फैले	-11720
▁नोबेल	-11721
▁संयोजक	-11722
▁मंत्रिम	-11723
तकों	-11724
संभव	-11725
ार्जुन	-11726
▁जामिया	-11727
▁कल्	-11728
▁एसी	-11729
▁पुख	-11730
▁दाख़	-11731
▁उतरने	-11732
▁ड्रोन	-11733
▁सेंगर	-11734
▁सूचनाओं	-11735
ित्	-11736
▁गाव	-11737
▁किसे	-11738
▁सूखे	-11739
र्फ्यू	-11740
▁पैग़म्बरों	-11741
▁बंदरगाहों	-11742
ai	-11743
▁अयोग्य	-11744
▁मुम	-11745
▁अनलिमिटेड	-11746
▁इल्म	-11747
▁मृत्य	-11748
गिर	-11749
▁बिछ	-11750
▁बारगाह	-11751
एनसी	-11752
▁परेशानियों	-11753
▁ि	-11754
▁तलब	-11755
▁फैन	-11756
युद्ध	-11757
▁निर्धारिती	-11758
तुल	-11759
▁१३	-11760
▁बांस	-11761
▁सस्ती	-11762
▁प्रदर्शनों	-11763
▁थल	-11764
▁App	-11765
▁निज	-11766
▁बनेगी	-11767
▁मित्त	-11768
▁सियासी	-11769
▁सीएसआईआर	-11770
▁ब्रिज	-11771
▁प्रशंसक	-11772
.08	-11773
चढ़ा	-11774
▁अन्न	-11775
▁हफ्त	-11776
वालो	-11777
▁धरने	-11778
▁पालने	-11779
▁होस्ट	-11780
▁हौस	-11781
▁मतगणना	-11782
▁असिस्टेंट	-11783
▁विद्यालयों	-11784
ुतोष	-11785
▁व्यर्थ	-11786
ev	-11787
mit	-11788
▁बूथ	-11789
2,	-11790
लेन	-11791
▁तबाह	-11792
▁शिंदे	-11793
▁मुख्या	-11794
.06	-11795
पायर	-11796
▁बसा	-11797
▁सिं	-11798
ख्ते	-11799
ग़ैर	-11800
▁शार	-11801
क्कड़	-11802
▁पनाह	-11803
▁प्रभाग	-11804
▁बर्थडे	-11805
नई	-11806
्‍द	-11807
ढ़ियों	-11808
▁शिना	-11809
▁मित्तल	-11810
▁पार्टियां	-11811
सिल	-11812
कुशी	-11813
▁पूर्ववर्ती	-11814
▁धरोहर	-11815
▁As	-11816
आईएल	-11817
▁विमोचन	-11818
▁सितारों	-11819
महा	-11820
▁ब्ले	-11821
दक्षिण	-11822
▁अस्वीकार	-11823
▁दबो	-11824
▁शॉट	-11825
▁तारा	-11826
बीजेपी	-11827
▁ढांचागत	-11828
iss	-11829
िजू	-11830
▁सर्टिफ	-11831
▁विधियों	-11832
▁सम्बन्धित	-11833
▁मुमकिन	-11834
▁तूने	-11835
टेनमेंट	-11836
अर्	-11837
▁साक्षरता	-11838
▁फ्रांसीसी	-11839
▁प्रतिबंधों	-11840
▁सज्	-11841
▁प्रजातियों	-11842
▁Go	-11843
▁लुट	-11844
▁रोधी	-11845
▁याचिकाओं	-11846
▁विवेकानंद	-11847
▁_	-11848
▁टीके	-11849
▁काव्य	-11850
▁नोटों	-11851
▁विधवा	-11852
नेवाले	-11853
▁असह	-11854
▁उन्नाव	-11855
▁क्विंटल	-11856
तरफा	-11857
▁हमको	-11858
▁खुशखबरी	-11859
▁१४	-11860
▁छोर	-11861
▁वहन	-11862
▁रसोई	-11863
▁तादाद	-11864
▁पोर्टफोल	-11865
▁हवाईअड्ड	-11866
▁बरतने	-11867
▁प्रतिरोध	-11868
िं	-11869
ारंग	-11870
▁स्‍कूल	-11871
▁रोटी	-11872
▁बुखार	-11873
िसा	-11874
▁डराने	-11875
▁160	-11876
▁बिर	-11877
▁रैल	-11878
▁दण्ड	-11879
▁निपटा	-11880
▁टु	-11881
▁दलितों	-11882
▁रॉयल्स	-11883
▁अथॉरिटी	-11884
▁अवमानना	-11885
▁हफ्तों	-11886
▁{	-11887
▁ट्राइ	-11888
▁निदान	-11889
▁सृष्टि	-11890
▁धर्मनिरपेक्ष	-11891
खिक	-11892
न्तर	-11893
▁अफगान	-11894
▁निदेशकों	-11895
शहर	-11896
▁कॉमन	-11897
▁नायर	-11898
▁प्रोफ	-11899
▁रिश्तेदार	-11900
▁क़ानून	-11901
▁पहाड़ों	-11902
▁बस्तियों	-11903
▁ध्वज	-11904
▁डीएनए	-11905
▁लक्षित	-11906
ामे	-11907
▁com	-11908
▁झुक	-11909
▁कन्ह	-11910
▁गुला	-11911
▁मधुर	-11912
प्रत्य	-11913
िगो	-11914
▁दयावान	-11915
▁दुर्लभ	-11916
▁आईजी	-11917
▁पॉवर	-11918
▁विंडों	-11919
▁भ्रम	-11920
▁कर्फ्यू	-11921
34	-11922
ध्द	-11923
▁आर्म	-11924
▁खादी	-11925
▁सबकी	-11926
▁एयरलाइन	-11927
▁प्रतिभूति	-11928
वमेंट	-11929
▁बढ़ोत्तरी	-11930
▁HD	-11931
▁अनि	-11932
▁छठी	-11933
मुक्त	-11934
▁एनएम	-11935
▁चिन्	-11936
▁अपवाद	-11937
▁सुराग	-11938
▁पीडि़त	-11939
लन	-11940
▁ग्ले	-11941
▁सोचता	-11942
▁सिद्दीकी	-11943
▁षड	-11944
स्‍या	-11945
▁प्‍	-11946
विशेष	-11947
▁शेखर	-11948
चाह	-11949
▁कहर	-11950
▁आबंट	-11951
ou	-11952
▁कैदी	-11953
▁नेकी	-11954
▁दीक्ष	-11955
▁बढ़ना	-11956
▁चक्रवात	-11957
चू	-11958
.15	-11959
▁एय	-11960
▁परो	-11961
▁क्वाड	-11962
▁गिरफ़	-11963
▁पुष्प	-11964
▁पाएँगे	-11965
▁छोड़ी	-11966
▁शिल्पा	-11967
▁उपराज्यपाल	-11968
▁पदाधिकारियों	-11969
ूमत	-11970
ोड़ा	-11971
▁सौंपे	-11972
▁सिब्बल	-11973
▁संस्‍था	-11974
▁फिल्मकार	-11975
ज़ु	-11976
▁आसिफ	-11977
▁करों	-11978
▁चुप्पी	-11979
▁दाख़िल	-11980
▁उपरोक्त	-11981
▁कहानियों	-11982
31	-11983
त्प	-11984
▁राघ	-11985
▁बेदी	-11986
ेंशियल	-11987
▁लेखकों	-11988
▁1,0	-11989
▁घबरा	-11990
▁टैब	-11991
▁बराक	-11992
▁फैक्ट्री	-11993
▁अत्याधुनिक	-11994
▁सता	-11995
▁माधुरी	-11996
▁अनौ	-11997
▁आईबी	-11998
▁पुजारा	-11999
▁सम्राट	-12000
▁रविंद्र	-12001
ly	-12002
डब्‍ल्‍यू	-12003
▁लोकप्रियता	-12004
▁रेन	-12005
धु	-12006
▁बुलंद	-12007
▁हेल्प	-12008
▁अंपायर	-12009
▁पूंजीगत	-12010
▁रक्षामंत्री	-12011
▁बनीं	-12012
▁माकपा	-12013
▁सुसाइड	-12014
▁नोटिफिकेशन	-12015
▁बक	-12016
▁यूँ	-12017
परमेश	-12018
▁जेडीएस	-12019
▁गर्इ	-12020
▁बटलर	-12021
▁गड़बड़ी	-12022
▁टेलर	-12023
▁कुंबले	-12024
▁पहलवान	-12025
▁नवान्वेष	-12026
▁आशुतोष	-12027
▁उपयोगकर्ताओं	-12028
मोबाइल	-12029
▁तीमु	-12030
▁रंगारंग	-12031
▁ससुर	-12032
▁दिखने	-12033
▁जगदीश	-12034
▁परिकल्पना	-12035
▁ख़त्म	-12036
▁बाजवा	-12037
▁सार्थक	-12038
▁115	-12039
▁धूल	-12040
▁कांड	-12041
▁एलान	-12042
▁मकानों	-12043
कशी	-12044
मूर	-12045
ईटी	-12046
▁आरजेडी	-12047
▁कैरियर	-12048
▁विशेषताओं	-12049
▁>>	-12050
▁रोकना	-12051
▁एमएम	-12052
▁राइफल	-12053
▁gov	-12054
गेटिव	-12055
▁लम्बी	-12056
▁अफसरों	-12057
▁पोर्टफोलियो	-12058
ाव	-12059
▁ठहरे	-12060
▁पुनरुत्	-12061
▁स्पेक्ट्र	-12062
ैद	-12063
र्जर	-12064
भवन	-12065
▁एप्पल	-12066
▁थीम	-12067
िरोधी	-12068
▁1990	-12069
▁पूछते	-12070
▁विवादा	-12071
▁बेल्	-12072
▁श्वे	-12073
▁हटकर	-12074
▁तसवीर	-12075
▁माउंट	-12076
▁नाह	-12077
▁वर्गीकरण	-12078
▁सक्	-12079
▁बीएसएनएल	-12080
▁जरा	-12081
▁जनगणना	-12082
AI	-12083
▁3.5	-12084
ानुभूति	-12085
87	-12086
▁एसए	-12087
▁दिशानिर्देश	-12088
बीपी	-12089
▁लाभांश	-12090
रोल	-12091
▁आमने	-12092
▁संगम	-12093
▁विजयी	-12094
▁गुरदास	-12095
ब्बे	-12096
कृष्णन	-12097
▁आश्रय	-12098
▁इब्राहिम	-12099
▁विद्वानों	-12100
रीदी	-12101
बड़	-12102
▁मेला	-12103
▁राजे	-12104
▁लियोन	-12105
ल्ले	-12106
▁चुनी	-12107
रोधी	-12108
▁इनकम	-12109
▁उन्नयन	-12110
परमेश्‍वर	-12111
▁प्रभावों	-12112
फिल	-12113
▁हमे	-12114
▁एरिया	-12115
▁रिजिजू	-12116
▁क्रांतिक	-12117
्लाद	-12118
▁बेचा	-12119
▁इमारतों	-12120
▁प्रदर्शनकारी	-12121
तब	-12122
ोजिट	-12123
▁डीसी	-12124
क्सिको	-12125
▁मुशर्र	-12126
▁सस्प	-12127
▁प्रेरितों	-12128
ैमान	-12129
▁हेर	-12130
▁2013-14	-12131
▁लड़कियां	-12132
ind	-12133
▁पापा	-12134
उद	-12135
मपुर	-12136
▁--	-12137
▁डरो	-12138
▁फूट	-12139
▁मादक	-12140
▁बिगाड़	-12141
वनी	-12142
▁रायगढ़	-12143
▁वरीयता	-12144
▁शाखाओं	-12145
▁सदनों	-12146
मगर	-12147
▁लॉस	-12148
▁बहुतेरे	-12149
▁प्रगतिशील	-12150
रेल	-12151
▁मोट	-12152
▁बेसब	-12153
▁हासन	-12154
▁खरीदी	-12155
▁युज	-12156
▁कचरा	-12157
▁सौरभ	-12158
▁उच्चतर	-12159
िनार	-12160
ुम्ब	-12161
▁बंगला	-12162
▁जयंत	-12163
▁अक्षम	-12164
32	-12165
ोनिक	-12166
▁ताह	-12167
▁पक्षियों	-12168
▁हला	-12169
▁साइन	-12170
▁कृत्य	-12171
▁अभिनंदन	-12172
▁बुद्धिम	-12173
▁चंदा	-12174
▁मसला	-12175
▁हरीश	-12176
▁समेकित	-12177
▁इब्राहीम	-12178
▁वसा	-12179
▁हार्	-12180
▁दोहरे	-12181
▁कॉर्पोरेट	-12182
▁झंडी	-12183
▁दुर्ग	-12184
▁लिहाजा	-12185
▁श्रीराम	-12186
▁प्लेटफार्म	-12187
▁सील	-12188
▁सुलझ	-12189
▁हल्का	-12190
▁साधनों	-12191
▁श्रीकांत	-12192
नामी	-12193
मिक्स	-12194
▁इंटी	-12195
▁सुझावों	-12196
▁चश्म	-12197
▁समस्‍या	-12198
▁अक्‍टूबर	-12199
47	-12200
ॉइड	-12201
▁गोले	-12202
▁उपभोग	-12203
न्दु	-12204
▁सिडनी	-12205
▁प्रज्ञा	-12206
▁कम्प्यूटर	-12207
▁नगरपालिका	-12208
▁मुहर	-12209
▁पैसों	-12210
▁पाठ्यक्रमों	-12211
▁लीडर	-12212
aw	-12213
ite	-12214
▁(3)	-12215
▁असमान	-12216
▁जिसपर	-12217
▁वेणुगोपाल	-12218
▁मोती	-12219
▁मुस्क	-12220
▁विनियमन	-12221
.04	-12222
▁घटाने	-12223
▁विवादास्पद	-12224
ग्रेड	-12225
▁भड़का	-12226
शोर	-12227
▁रिकवरी	-12228
▁सहानुभूति	-12229
▁एण्ड	-12230
▁किराये	-12231
फू	-12232
ेंग	-12233
▁वॉर	-12234
▁लेटेस्ट	-12235
▁चुनि	-12236
▁वेल्स	-12237
▁अखंडता	-12238
▁फार्मा	-12239
▁»	-12240
▁पड	-12241
▁सुचार	-12242
▁जबरन	-12243
स्‍थान	-12244
▁रीमेक	-12245
▁होल्ड	-12246
आईजी	-12247
वाक्य	-12248
▁प्रजनन	-12249
▁प्रीति	-12250
▁अनुमोदित	-12251
▁1996	-12252
▁प्रश्‍न	-12253
▁ज़बरदस्त	-12254
.40	-12255
मध्य	-12256
▁ग्रस्त	-12257
▁झुका	-12258
▁ठंडा	-12259
▁वारंट	-12260
▁वीरभद्र	-12261
▁वैन	-12262
▁बाह्य	-12263
▁=	-12264
▁विद्यु	-12265
▁दिशानिर्देशों	-12266
▁खट	-12267
▁मक्	-12268
▁ऑडिट	-12269
▁छुपा	-12270
▁आत्मघाती	-12271
▁राजकोषीय	-12272
▁निविदा	-12273
ोरिया	-12274
▁म्यू	-12275
▁स्टेन	-12276
▁अर्धशतक	-12277
▁कन्हैया	-12278
▁उपभोक्‍ता	-12279
▁१६	-12280
िज्ञ	-12281
▁आख़	-12282
▁ऑर्	-12283
▁एनसी	-12284
▁नेहा	-12285
▁गुजराती	-12286
▁गैरकानूनी	-12287
▁फैसलों	-12288
▁अभियानों	-12289
▁खुदकुशी	-12290
▁हादसों	-12291
ंटा	-12292
▁पचास	-12293
▁मेरठ	-12294
▁देंगी	-12295
▁वस्तुएं	-12296
▁असंभव	-12297
लें	-12298
▁निस	-12299
▁सॉल	-12300
▁बढ़ाते	-12301
एली	-12302
.2016	-12303
▁बाएं	-12304
▁Jio	-12305
▁पायनियर	-12306
▁सुलैमान	-12307
माया	-12308
▁जगन	-12309
▁डाक्टरों	-12310
▁अनौपचारिक	-12311
ढे	-12312
हमारा	-12313
डान	-12314
आरपी	-12315
▁कार्गो	-12316
▁दुर्घटनाओं	-12317
▁मुजफ्फरपुर	-12318
▁शर्मनाक	-12319
तरित	-12320
▁टेस्टिंग	-12321
,990	-12322
▁सेबी	-12323
▁शिनाख्त	-12324
▁नॉन	-12325
▁1961	-12326
▁तेज़ी	-12327
▁वैधता	-12328
▁हिकमत	-12329
▁एजेंसियां	-12330
▁काटने	-12331
▁पवित्रा	-12332
प्रद	-12333
▁आलू	-12334
▁अय्यूब	-12335
तको	-12336
लीकरण	-12337
▁भुला	-12338
▁चोटिल	-12339
▁पाती	-12340
▁विकलांग	-12341
▁टॉर्क	-12342
▁पड़ते	-12343
▁अपर्चर	-12344
▁कोरियाई	-12345
▁दीक्षांत	-12346
old	-12347
▁टकरा	-12348
▁टाउन	-12349
काउंटर	-12350
▁एमएएच	-12351
▁ड्यूल	-12352
▁हेमंत	-12353
▁लाभकारी	-12354
▁चिर	-12355
▁हैकि	-12356
▁सनसनी	-12357
▁कृतज्ञ	-12358
▁दयालुता	-12359
▁उपाध्याय	-12360
फेस	-12361
▁खदान	-12362
▁फिरोज	-12363
▁मॉनसून	-12364
ill	-12365
गाई	-12366
▁ओबीसी	-12367
▁कारकों	-12368
▁उन्मूलन	-12369
▁इन्वेस्ट	-12370
लास	-12371
▁साइड	-12372
▁सीखना	-12373
▁एनटीपीसी	-12374
▁संभवत	-12375
▁अप्रिय	-12376
▁गैंगरेप	-12377
ापनों	-12378
▁ठिकानों	-12379
37	-12380
▁उड़ीसा	-12381
▁आवि	-12382
फिल्म	-12383
ांटिक	-12384
▁पहनने	-12385
▁विस्फोटक	-12386
pd	-12387
िनीन	-12388
▁नैनो	-12389
▁शृंखला	-12390
आईबी	-12391
▁यूएई	-12392
▁सेशन	-12393
▁भावुक	-12394
▁चाकू	-12395
▁बनें	-12396
▁तैमूर	-12397
▁जानकारियां	-12398
शिल	-12399
▁निरोधक	-12400
.45	-12401
दराज	-12402
▁एशियन	-12403
ंगर	-12404
गया	-12405
▁लाठीचार्ज	-12406
57	-12407
.01	-12408
ala	-12409
▁पटक	-12410
▁दहेज	-12411
▁ब्रांच	-12412
कुम	-12413
▁कुरिन्थ	-12414
▁SC	-12415
▁केवी	-12416
▁पैरों	-12417
▁बरसात	-12418
हीर	-12419
▁बेड	-12420
▁केशव	-12421
▁रंगों	-12422
▁विराम	-12423
▁महाप	-12424
▁करम	-12425
▁हिसार	-12426
▁एयरवेज	-12427
▁ट्रांसम	-12428
▁सीन	-12429
▁एफडीआई	-12430
▁फीड	-12431
▁इकबाल	-12432
▁रितेश	-12433
▁विहार	-12434
▁अनुकरण	-12435
▁आइडिया	-12436
▁तिहाड़	-12437
▁स्टूडियो	-12438
▁इतर	-12439
▁शेन	-12440
▁रखिए	-12441
▁तिहाई	-12442
▁बिपिन	-12443
▁सपनों	-12444
▁प्रतिफल	-12445
▁ण	-12446
▁चुक	-12447
▁हटने	-12448
▁आज़ाद	-12449
▁मथुरा	-12450
▁शुल्‍क	-12451
▁उड़ानें	-12452
▁104	-12453
▁बरस	-12454
▁पुडु	-12455
▁गुरुद्वारा	-12456
षेध	-12457
▁दरिया	-12458
▁समझाने	-12459
▁140	-12460
▁करोड	-12461
▁स्वीकार्य	-12462
▁प्राची	-12463
▁लेह	-12464
▁वैसी	-12465
▁एमएसपी	-12466
उच्च	-12467
र्मल	-12468
▁इजाज़त	-12469
बैंड	-12470
▁1998	-12471
▁पूनम	-12472
▁हुकूमत	-12473
▁खरीफ	-12474
▁श्याम	-12475
▁सामंज	-12476
बेर	-12477
▁सरी	-12478
▁पिक्	-12479
▁सूबे	-12480
▁महाराजा	-12481
क़ुर	-12482
तियाँ	-12483
▁रिटायर	-12484
▁2010-11	-12485
▁भव	-12486
▁मिया	-12487
▁रिहाई	-12488
▁सस्ते	-12489
▁प्रवासियों	-12490
▁प्रत्याशियों	-12491
▁अंज	-12492
▁अकादमिक	-12493
▁स्‍थानीय	-12494
▁आपत्तिजनक	-12495
वॉ	-12496
स्मिक	-12497
▁लोकल	-12498
र्थियों	-12499
▁बनाएंगे	-12500
व्हा	-12501
▁हाईवे	-12502
▁हामिद	-12503
▁ड्रामा	-12504
▁क्रिसमस	-12505
▁चंद्रमा	-12506
▁गुरदासपुर	-12507
ingh	-12508
▁बैकअप	-12509
▁उपराष्‍ट्रपति	-12510
▁बग	-12511
▁कूद	-12512
▁निम्‍न	-12513
OS	-12514
▁नेताजी	-12515
▁युजवेंद्र	-12516
▁शिलान्यास	-12517
मोल	-12518
▁आँख	-12519
भाँति	-12520
▁रोमांटिक	-12521
रकों	-12522
▁लूत	-12523
▁बटाल	-12524
▁सहभाग	-12525
स्तु	-12526
ारिक	-12527
नायक	-12528
▁कैंड	-12529
▁हिन्दुस्तान	-12530
▁थिए	-12531
▁बाबुल	-12532
▁भिज	-12533
▁(200	-12534
▁श्वेता	-12535
इं	-12536
▁अपन	-12537
पादित	-12538
▁आयुर्	-12539
्लीकेशन	-12540
▁मुशर्रफ	-12541
▁मानसिकता	-12542
घ्न	-12543
▁एट	-12544
ेली	-12545
प्रा	-12546
▁13:	-12547
▁खेद	-12548
▁आर्य	-12549
▁फैली	-12550
▁बचना	-12551
▁ट्यूब	-12552
सुन	-12553
▁1.	-12554
▁डीलर	-12555
▁मैग्	-12556
दर्शक	-12557
▁समझाया	-12558
▁निर्भया	-12559
्यूर	-12560
▁जया	-12561
सियों	-12562
▁निकली	-12563
▁व्ह	-12564
▁सूद	-12565
▁उतरी	-12566
▁संयम	-12567
▁तहरीर	-12568
▁डिम	-12569
▁पैक	-12570
▁संग्राम	-12571
▁दिखी	-12572
▁एग्री	-12573
▁ग्राफ	-12574
▁चक्कर	-12575
▁परिपक्व	-12576
(1)	-12577
िराम	-12578
▁पर्दा	-12579
▁परत	-12580
ंडई	-12581
▁आवेदक	-12582
▁सुरंग	-12583
▁नेटवर्	-12584
▁मालिकों	-12585
▁प्रतिवर्ष	-12586
देना	-12587
▁काठ	-12588
▁संकल	-12589
▁कैलिफोर्निया	-12590
हिंद	-12591
▁गरम	-12592
▁बिम	-12593
▁आयुर्विज्ञान	-12594
▁ताना	-12595
चुरी	-12596
▁फ्लैग	-12597
▁सौंपने	-12598
▁di	-12599
वड़ा	-12600
▁बताओ	-12601
▁मित्रता	-12602
माम	-12603
▁क़ु	-12604
▁ग़लत	-12605
▁कार्ट	-12606
▁वृद्ध	-12607
टिक	-12608
▁लि‍ए	-12609
बद	-12610
▁सोनू	-12611
क्‍ट्र	-12612
68	-12613
▁असुर	-12614
वहन	-12615
▁व्र	-12616
▁कार्प	-12617
▁पूज्य	-12618
▁कुफ़्र	-12619
▁माओ	-12620
▁स्वप्	-12621
▁विधायी	-12622
▁वकाल	-12623
▁शोएब	-12624
▁डोभाल	-12625
▁कैलेंडर	-12626
ुखी	-12627
वेली	-12628
▁मयंक	-12629
▁मैसूर	-12630
▁साधते	-12631
▁जेडीयू	-12632
▁गाड़ियां	-12633
▁केंद्रशासित	-12634
▁वसीम	-12635
विरोधी	-12636
▁जलाने	-12637
▁स्विट्	-12638
▁भविष्‍य	-12639
आईएफ	-12640
क़ात	-12641
▁।"""	-12642
▁आज़ादी	-12643
▁चिल्ला	-12644
▁चुनिंदा	-12645
गौ	-12646
ाइजी	-12647
▁गोविंद	-12648
▁फोटोग्राफी	-12649
▁Ind	-12650
▁रुका	-12651
▁मृत्युद	-12652
▁हममें	-12653
▁ग्रेटर	-12654
▁पठानकोट	-12655
6,	-12656
ाइट	-12657
गरीय	-12658
▁टैगोर	-12659
▁नहरें	-12660
▁पैटर्न	-12661
▁परंपराओं	-12662
क्टी	-12663
▁बेल्जियम	-12664
▁सदस्‍यों	-12665
▁Ad	-12666
▁मीना	-12667
▁मौजि	-12668
▁सलीम	-12669
▁जंगली	-12670
▁गोपनीयता	-12671
ge	-12672
विच	-12673
िश्र	-12674
▁आहत	-12675
▁हाफिज	-12676
▁तड़	-12677
▁वसूल	-12678
▁ट्रांसपोर्ट	-12679
।'	-12680
▁मार्केटिंग	-12681
69	-12682
▁एमओयू	-12683
▁तब्दी	-12684
▁बहुजन	-12685
▁भक्ति	-12686
▁सम्बोध	-12687
शास्त्री	-12688
ँसी	-12689
▁खज	-12690
▁नाल	-12691
▁बर्ताव	-12692
▁प्रकोष्ठ	-12693
▁अध्यापकों	-12694
ौनी	-12695
▁कन्या	-12696
▁फिलीपी	-12697
▁बाधाओं	-12698
▁इंतज़ार	-12699
ज़ों	-12700
▁उमा	-12701
▁अंतः	-12702
▁आगाह	-12703
त्तियां	-12704
▁नवो	-12705
ानुसार	-12706
▁प्रविष्ट	-12707
▁सर्टिफिकेट	-12708
▁१७	-12709
▁अशु	-12710
▁चक्रवाती	-12711
▁विषा	-12712
▁हाथी	-12713
भौमिक	-12714
▁एपिस	-12715
▁नकार	-12716
नेड	-12717
▁6:	-12718
प्रण	-12719
IS	-12720
▁कदर	-12721
▁नमूना	-12722
▁पदभार	-12723
▁कियारा	-12724
▁शिविरों	-12725
▁संस्‍कृति	-12726
िन्यू	-12727
▁आईएफ	-12728
▁टीचर	-12729
ech	-12730
▁Day	-12731
▁चांस	-12732
▁लटका	-12733
▁वकालत	-12734
▁उद्यमी	-12735
▁बागवानी	-12736
▁पिंक	-12737
▁बश	-12738
▁बढा	-12739
▁यूके	-12740
▁फेस्टिवल	-12741
49	-12742
तै	-12743
फोर्स	-12744
▁पिला	-12745
▁पुख्ता	-12746
▁निर्णयों	-12747
▁फिक्	-12748
▁जिन्ना	-12749
▁गेम्स	-12750
▁ट्रांसमिशन	-12751
▁विलंब	-12752
▁नर्मदा	-12753
▁खरीदे	-12754
▁फुटबाल	-12755
▁इंडेक्स	-12756
▁दुल	-12757
टरिंग	-12758
प्रबंध	-12759
भ्र	-12760
▁एमडी	-12761
▁रिज़	-12762
▁नियमन	-12763
▁रामपुर	-12764
ya	-12765
अमेरिकी	-12766
▁यथास्थिति	-12767
▁करन	-12768
▁4,000	-12769
▁उभरते	-12770
▁रात्रि	-12771
▁इकाइयां	-12772
▁लड	-12773
▁3,000	-12774
गोर	-12775
▁पूरक	-12776
एनजीसी	-12777
▁लम्बे	-12778
▁शुभकामना	-12779
िएशन	-12780
▁भाष	-12781
ज़त	-12782
▁वीक	-12783
▁चाचा	-12784
▁कैथोलिक	-12785
ates	-12786
▁मनाई	-12787
▁बीएसई	-12788
IR	-12789
फायर	-12790
▁पारिस्थितिकी	-12791
पुलिस	-12792
▁वाक्य	-12793
▁पुडुचेरी	-12794
▁खिलाडिय़ों	-12795
▁प्रतिभाशाली	-12796
आती	-12797
▁पदो	-12798
िनेशन	-12799
▁मंशा	-12800
▁ड्राइविंग	-12801
▁प्रिंसिपल	-12802
▁चिकित्‍	-12803
्वाल	-12804
▁कॉन्फ्रेंसिंग	-12805
▁ओला	-12806
▁नेअमत	-12807
हाली	-12808
▁वॉच	-12809
▁जोड़ें	-12810
"")	-12811
▁जिन्‍ह	-12812
खने	-12813
▁रेशम	-12814
▁आँखों	-12815
▁प्रकाशितवाक्य	-12816
प्प	-12817
port	-12818
▁रोचक	-12819
जुद्दीन	-12820
▁गलियारे	-12821
▁प्रताड़	-12822
शियम	-12823
▁हिंदुत्व	-12824
शो	-12825
ace	-12826
ॉनिक	-12827
▁कलेक्शन	-12828
77	-12829
▁आक्रो	-12830
▁जलमार्ग	-12831
▁महत्वाकांक्षी	-12832
ताएं	-12833
▁छापे	-12834
▁सौंद	-12835
▁अमेरिकन	-12836
▁गुंजा	-12837
▁डिलीवरी	-12838
▁एजेंडे	-12839
▁केयर	-12840
▁कनेक्ट	-12841
▁गंतव्य	-12842
जेड	-12843
ेशंस	-12844
▁वेंट	-12845
▁तप	-12846
▁पहुँचने	-12847
▁प्रतिष्ठान	-12848
जोरी	-12849
▁दबंग	-12850
▁समीकरण	-12851
▁पख	-12852
क्‍शन	-12853
▁पारा	-12854
उन्हें	-12855
.03	-12856
.35	-12857
ड़कर	-12858
अच्छा	-12859
▁क़ायम	-12860
▁गे	-12861
ुप्त	-12862
▁खासी	-12863
▁सुलभ	-12864
▁दोहरी	-12865
देशी	-12866
पटॉप	-12867
▁समूचे	-12868
▁मैनुअल	-12869
▁युक्ति	-12870
वण	-12871
▁विदा	-12872
▁अंतररा	-12873
▁सुसंगत	-12874
ूबी	-12875
▁नशी	-12876
▁जीवंत	-12877
▁अध्यापक	-12878
lip	-12879
पीओ	-12880
▁चौड़ा	-12881
IM	-12882
स्टा	-12883
थियुस	-12884
IP	-12885
▁उन्हे	-12886
▁सोव	-12887
ुराम	-12888
▁Cup	-12889
▁नेह	-12890
▁एपिसोड	-12891
त्‍म	-12892
▁आलम	-12893
▁एकाउंट	-12894
▁कॉमर्स	-12895
▁सुन्दर	-12896
▁ऑंख	-12897
▁बीत	-12898
▁अपनाई	-12899
▁इकोनॉ	-12900
▁विचाराधीन	-12901
रां	-12902
▁वक़्त	-12903
फिट	-12904
श्र	-12905
▁अवशेष	-12906
▁लाभों	-12907
▁पीएनबी	-12908
सीटीसी	-12909
▁विक्की	-12910
▁कसा	-12911
▁मुल्क	-12912
रब	-12913
मलव	-12914
▁यूक	-12915
▁किस्त	-12916
▁रॉकेट	-12917
▁शुमार	-12918
▁इंग्लिश	-12919
▁वैरिएंट	-12920
▁खड़गे	-12921
▁मुआवजे	-12922
▁स्‍मार्ट	-12923
▁जैकी	-12924
▁ख़ुशी	-12925
▁पराजित	-12926
▁हरसंभव	-12927
▁वित्तमंत्री	-12928
▁काउंटी	-12929
▁बीजिंग	-12930
3,	-12931
गीर	-12932
▁तबाद	-12933
▁मौद्रिक	-12934
वरकर	-12935
▁तालाब	-12936
▁रिपब्लिकन	-12937
ational	-12938
▁ख्वाहिश	-12939
कैद	-12940
▁चलाते	-12941
▁असामान्य	-12942
▁महानिदेश	-12943
▁उत्तरदायी	-12944
▁तीमुथियुस	-12945
▁प्रविष्टि	-12946
pr	-12947
वर्स	-12948
चढ़ाव	-12949
▁पीटा	-12950
6)	-12951
शैली	-12952
▁दहशत	-12953
▁करदाताओं	-12954
55	-12955
▁काजोल	-12956
▁विनम्र	-12957
सिन	-12958
ोही	-12959
▁जीपीएस	-12960
ach	-12961
तूस	-12962
▁दामों	-12963
▁पुस्तिका	-12964
दह	-12965
दिक	-12966
▁एनकाउंटर	-12967
AN	-12968
▁एडी	-12969
▁एलि	-12970
▁बलू	-12971
▁क़त्ल	-12972
▁जालंधर	-12973
▁मौर्य	-12974
▁सार्वभौमिक	-12975
ell	-12976
▁फिस	-12977
▁रचा	-12978
धीनगर	-12979
▁सम्पन्न	-12980
‍ि	-12981
मैया	-12982
▁अहले	-12983
▁वर्ण	-12984
▁गुज़	-12985
▁इंटेलिज	-12986
िरे	-12987
▁गाया	-12988
48	-12989
▁कोचिंग	-12990
▁US	-12991
▁चलन	-12992
▁एसएस	-12993
▁देशी	-12994
▁खातिर	-12995
▁दशमलव	-12996
▁नेतृत्‍व	-12997
▁j	-12998
डेकर	-12999
▁सीसी	-13000
▁भूस्खलन	-13001
▁सैंप	-13002
टेलाइट	-13003
▁गर्लफ्रेंड	-13004
oron	-13005
इससे	-13006
भुता	-13007
▁शीला	-13008
▁सिफारिशें	-13009
ॉज	-13010
▁मोमिनीन	-13011
ंवर	-13012
बड़ा	-13013
▁वेट	-13014
▁पढ़ी	-13015
▁कैशबैक	-13016
लग	-13017
▁हब	-13018
▁शॉप	-13019
▁असदु	-13020
▁मसलन	-13021
▁लगाएं	-13022
▁ब्यौरा	-13023
▁स्टारर	-13024
▁संलिप्त	-13025
ष्ठी	-13026
▁घेरे	-13027
▁माइन	-13028
▁स्टे	-13029
▁रहनेवाले	-13030
पाही	-13031
▁हिला	-13032
▁देवताओं	-13033
7,	-13034
▁टंडन	-13035
▁अच्‍छ	-13036
षद	-13037
बाय	-13038
▁कोचर	-13039
कलापों	-13040
▁पुत्री	-13041
▁आपातकाल	-13042
मुसलमानों	-13043
।’’	-13044
▁खाओ	-13045
▁पटा	-13046
क्राफ्ट	-13047
oh	-13048
▁डब	-13049
▁कौल	-13050
शिक्ष	-13051
▁कमजोरी	-13052
ंधा	-13053
मुक	-13054
▁(9	-13055
टाइम	-13056
▁डिक	-13057
▁पार्थिव	-13058
करीब	-13059
▁वसु	-13060
▁शेड्यूल	-13061
▁किरदारों	-13062
▁स्पेक्ट्रम	-13063
संह	-13064
▁अहसास	-13065
▁विहित	-13066
▁बैठकर	-13067
▁मार्श	-13068
▁सम्भव	-13069
▁हेनरी	-13070
▁शरणार्थियों	-13071
ारिया	-13072
▁संघों	-13073
बडे	-13074
वाय	-13075
पत्तन	-13076
▁फिक्स	-13077
ेटिक	-13078
▁प्रमोद	-13079
▁वॉशिंगटन	-13080
पय	-13081
गामी	-13082
▁ऑस्ट	-13083
▁\"""""	-13084
▁अवज्ञा	-13085
▁हाइड्रो	-13086
▁वोल्ट	-13087
▁दांव	-13088
▁सुधीर	-13089
▁चालकों	-13090
▁स्वैच्छिक	-13091
ber	-13092
परा	-13093
िडेट	-13094
▁तत्पर	-13095
▁नवजात	-13096
▁स्किल	-13097
▁आवागमन	-13098
▁क्लिंटन	-13099
▁गांधीनगर	-13100
तुति	-13101
▁ICC	-13102
तिक्र	-13103
▁काशी	-13104
▁न्‍यू	-13105
▁एंटरटेनमेंट	-13106
▁अर्द्ध	-13107
ah	-13108
बदल	-13109
▁गिनी	-13110
▁टिप्पणियों	-13111
▁भूत	-13112
▁भरें	-13113
▁मेक्सिको	-13114
▁परिवर्तनों	-13115
▁ग्लेन	-13116
irus	-13117
म्पर	-13118
▁नामजद	-13119
▁प्लाज	-13120
▁गुंजाइश	-13121
▁क्षमाशील	-13122
▁सामान्यतः	-13123
बीह	-13124
▁घम	-13125
▁राध	-13126
▁मेनन	-13127
लेरिया	-13128
▁सिखाने	-13129
▁शक्तियां	-13130
▁अनाव	-13131
▁हरिद	-13132
अस	-13133
ual	-13134
▁हनी	-13135
▁उपाधि	-13136
▁मूर्ख	-13137
▁वर्गीकृत	-13138
▁सीमावर्ती	-13139
▁खैर	-13140
▁अनावरण	-13141
▁प्वाइंट	-13142
▁वित्तपोषण	-13143
▁शास्त्रीय	-13144
▁बख	-13145
▁कारप	-13146
▁विलास	-13147
▁रिलेशन	-13148
▁फ़ॉ	-13149
▁अनदेखी	-13150
▁डिप्लो	-13151
ारस	-13152
▁शत	-13153
▁सीरीज़	-13154
▁प्रदत्त	-13155
▁विश्राम	-13156
▁अस्‍पताल	-13157
र्मित	-13158
▁लूका	-13159
▁मिलीं	-13160
▁बांटने	-13161
नक	-13162
ash	-13163
उसकी	-13164
▁जातीय	-13165
▁Me	-13166
▁नेहवाल	-13167
▁बन्दगी	-13168
िलो	-13169
▁जोसेफ	-13170
▁अन्तिम	-13171
थियों	-13172
देशीय	-13173
▁1980	-13174
▁स्वत	-13175
▁टेक्स	-13176
▁मॉल	-13177
▁Price	-13178
▁सिंधू	-13179
हालांकि	-13180
▁विलियमसन	-13181
गमेंट	-13182
▁मर्द	-13183
▁कार्यान्‍वयन	-13184
ust	-13185
ुल्ला	-13186
▁लाकर	-13187
▁शुरूआती	-13188
▁चिकित्सीय	-13189
▁प्रतिज्ञा	-13190
pl	-13191
▁नमन	-13192
▁सुपु	-13193
38	-13194
.2014	-13195
▁कारतूस	-13196
प्थ	-13197
एमआई	-13198
▁ऋषभ	-13199
▁1984	-13200
▁दार्	-13201
▁प्रह	-13202
▁राजकोट	-13203
▁जफर	-13204
▁एमजी	-13205
▁स्वयंसेवक	-13206
म्पा	-13207
▁धर्मशाला	-13208
ोनें	-13209
▁उतारे	-13210
▁लोकपाल	-13211
अंदाज	-13212
▁मंजिल	-13213
्रपान	-13214
▁पुरस्कृत	-13215
जेट	-13216
62	-13217
समझ	-13218
▁सजदा	-13219
स्टर्स	-13220
▁भांति	-13221
▁अभिलेख	-13222
▁आंखें	-13223
▁पद्मा	-13224
▁परिणी	-13225
▁कट्टरप	-13226
▁नौजवान	-13227
▁हज़	-13228
▁नकली	-13229
▁कैडेट	-13230
▁सिपाही	-13231
▁रविचंद्रन	-13232
ाक	-13233
▁गला	-13234
▁कोटक	-13235
▁आकांक्षाओं	-13236
जीब	-13237
एनआर	-13238
जिंग	-13239
ब्बर	-13240
▁1.2	-13241
▁मेमोर	-13242
▁आकस्मिक	-13243
▁चमत्कार	-13244
▁क्रांतिकारी	-13245
नाड	-13246
ज्जित	-13247
▁हड्ड	-13248
छात्राओं	-13249
▁गुनाहों	-13250
▁जरूरतमंद	-13251
रर	-13252
ome	-13253
▁Khan	-13254
▁बिजी	-13255
▁पेड़ों	-13256
▁अनुक्रम	-13257
)-	-13258
zon	-13259
▁संयोग	-13260
▁बाली	-13261
▁अगुआई	-13262
▁घेराब	-13263
▁मुख्यातिथि	-13264
▁खाद	-13265
▁निकालकर	-13266
प्ताहिक	-13267
▁इस्‍पात	-13268
▁लाभदायक	-13269
टिन	-13270
नेल	-13271
साफ़	-13272
▁फंसा	-13273
्यादती	-13274
▁उपद्र	-13275
▁एक्सिस	-13276
▁पशुपालन	-13277
▁मुक्केबाज	-13278
▁अंद	-13279
्राष्ट्रीय	-13280
राइट	-13281
▁गोपी	-13282
▁सावरकर	-13283
▁पुनर्व	-13284
▁हिना	-13285
▁राजस्‍थान	-13286
▁मझ	-13287
▁इंगल	-13288
▁माधव	-13289
▁मुबार	-13290
वर्तमान	-13291
पोल	-13292
ंतपुरम	-13293
▁उम्रकैद	-13294
▁लता	-13295
▁क्रो	-13296
▁स्वाद	-13297
▁ज़माने	-13298
मेन	-13299
ंघाई	-13300
▁बोन	-13301
▁पोषक	-13302
▁लैपटॉप	-13303
ताज	-13304
ौला	-13305
▁खै	-13306
ष्टिक	-13307
▁स्थाई	-13308
▁सभापति	-13309
▁व्यायाम	-13310
▁ज़ालिमों	-13311
▁3,	-13312
▁माध्यस्थ	-13313
▁सांसारिक	-13314
▁भावनात्मक	-13315
▁कार्यवाहक	-13316
▁02	-13317
ब्लू	-13318
▁फेफ	-13319
्यवहार	-13320
▁रिफाइन	-13321
▁दीपावली	-13322
▁पुस्तकें	-13323
▁संकाय	-13324
▁निष्का	-13325
▁अपमानजनक	-13326
गिन	-13327
▁ओमान	-13328
▁नासा	-13329
▁ठहराए	-13330
▁सामग्र	-13331
▁पांचवीं	-13332
▁इंडिगो	-13333
▁कोमल	-13334
▁सुलझा	-13335
▁गार्डन	-13336
▁नज़दीक	-13337
▁उपेक्षा	-13338
▁तत्वदर्शी	-13339
िस्म	-13340
▁चावला	-13341
▁अभ्यर्थी	-13342
▁मुनाफे	-13343
▁हानिक	-13344
खु	-13345
्‍चित	-13346
▁अंडे	-13347
▁मानती	-13348
▁एनसीआर	-13349
▁मोन	-13350
वर्गीय	-13351
▁एनजीओ	-13352
▁उपर्युक्त	-13353
▁समीर	-13354
वर्षीय	-13355
▁करुणा	-13356
ेए	-13357
ड्ढा	-13358
▁मैग	-13359
▁हौसला	-13360
▁अंबाला	-13361
▁परिसरों	-13362
▁रिश्‍ते	-13363
अभी	-13364
फोन्स	-13365
▁डालना	-13366
▁दुर्व	-13367
▁प्राणी	-13368
▁घूमने	-13369
▁बेंगलूर	-13370
पेड	-13371
▁कड़	-13372
एशिया	-13373
▁औरतें	-13374
▁पुरात	-13375
▁सामंजस्य	-13376
▁कुट	-13377
▁किला	-13378
▁सजग	-13379
▁सत्रों	-13380
▁असदुद्दीन	-13381
किब	-13382
▁हैस	-13383
▁घनिष्ठ	-13384
▁उच्चायुक्त	-13385
न्नू	-13386
र्जित	-13387
▁बीसीएम	-13388
▁मल्लिक	-13389
▁घेराबंदी	-13390
▁सिक्योरिटी	-13391
संत	-13392
ोंस	-13393
तिपय	-13394
▁जिंद	-13395
▁उत्ते	-13396
▁कमिंस	-13397
▁अभिप्रे	-13398
▁डिपार्टमेंट	-13399
▁रिश्तेदारों	-13400
स्की	-13401
.02	-13402
ंटे	-13403
ईपी	-13404
ठित	-13405
▁कुक	-13406
ित्‍व	-13407
▁2030	-13408
▁देवे	-13409
▁देगें	-13410
▁छोड़ना	-13411
▁पंड्या	-13412
pt	-13413
दानिक	-13414
▁बेसब्री	-13415
रिफ	-13416
क्टा	-13417
▁गियरबॉक्स	-13418
▁पहच	-13419
▁उपदेश	-13420
▁कार्यकार	-13421
अग	-13422
kart	-13423
▁तुष	-13424
▁सुशासन	-13425
▁लॉजिस्ट	-13426
▁सहभागिता	-13427
▁शम	-13428
▁मिनी	-13429
▁बोबडे	-13430
▁मापदंड	-13431
▁2012-13	-13432
नार	-13433
▁कैच	-13434
विदों	-13435
▁पानीपत	-13436
▁पुनरुत्थान	-13437
ठिंडा	-13438
▁□	-13439
▁इमाम	-13440
स्‍तुत	-13441
▁कार्ल	-13442
ंबन	-13443
▁Flip	-13444
▁आंधी	-13445
▁ढाका	-13446
▁सुखबीर	-13447
▁वामपंथी	-13448
▁काफ़िरों	-13449
▁हानिकारक	-13450
▁चिकित्‍सा	-13451
▁08	-13452
ogle	-13453
▁अनमोल	-13454
▁केलिए	-13455
▁डेप्थ	-13456
▁आइपीएल	-13457
▁उम्मीदें	-13458
▁प्रोफाइल	-13459
▁हुंडई	-13460
▁वांछित	-13461
100	-13462
जाद	-13463
▁BS	-13464
▁डिटे	-13465
▁बांड	-13466
▁काफिरों	-13467
ियनों	-13468
▁खेतों	-13469
▁सुगमता	-13470
ुअ	-13471
▁नाथन	-13472
ैटिक	-13473
िलेरी	-13474
▁जेईई	-13475
ियलिटी	-13476
▁Board	-13477
▁मजेदार	-13478
▁रॉक	-13479
▁डॉक्ट	-13480
▁प्रिया	-13481
▁विक्रय	-13482
.’	-13483
▁जीवों	-13484
▁बनाएगा	-13485
▁चिन्हित	-13486
ket	-13487
▁अनन्त	-13488
▁चाइना	-13489
▁सैनिट	-13490
▁विस्तारित	-13491
72	-13492
▁वल्ल	-13493
71	-13494
▁डां	-13495
▁तुम्हे	-13496
▁सीपीआई	-13497
▁गावस्कर	-13498
सै	-13499
पाट	-13500
▁फारूक	-13501
ऊं	-13502
▁वक्	-13503
▁बसें	-13504
▁सद्भाव	-13505
▁सीताराम	-13506
▁नौकरियां	-13507
स्वती	-13508
▁तब्दील	-13509
▁मैक्रो	-13510
लेखक	-13511
▁पटकथा	-13512
▁सावंत	-13513
▁राजाओं	-13514
▁सराहनीय	-13515
▁खरे	-13516
▁फौज	-13517
▁माई	-13518
आधारित	-13519
▁सोवियत	-13520
oto	-13521
ाल्	-13522
▁pro	-13523
▁कीट	-13524
▁प्रां	-13525
▁प्रदाता	-13526
सूसी	-13527
▁450	-13528
▁सप्‍	-13529
.85	-13530
सम्मति	-13531
▁रामदेव	-13532
▁नवाजुद्दीन	-13533
ाहि	-13534
▁CM	-13535
ष्णुता	-13536
▁बंटवारे	-13537
बास	-13538
▁लख	-13539
▁आपूर्	-13540
▁कास्ट	-13541
▁अधीनस्थ	-13542
▁जिनपिंग	-13543
▁05	-13544
ट्टे	-13545
▁गर्दन	-13546
▁वीडिय	-13547
लाम	-13548
▁Al	-13549
▁ac	-13550
▁कहेगा	-13551
79	-13552
▁09	-13553
म्भीर	-13554
▁अभिर	-13555
▁अफरीदी	-13556
IA	-13557
▁1.4	-13558
▁प्रि	-13559
▁हारून	-13560
स्त्रों	-13561
▁निर्मल	-13562
▁फर्नांड	-13563
▁तम्	-13564
▁नीत	-13565
कार्ड	-13566
▁एलेक्स	-13567
▁जासूसी	-13568
▁नर्सिंग	-13569
oor	-13570
प्रत्येक	-13571
▁पूछना	-13572
▁कोशिशों	-13573
जीवी	-13574
▁भया	-13575
र्माने	-13576
▁चलेगी	-13577
▁सम्बन्धी	-13578
▁सेमिन	-13579
एमए	-13580
▁कर्ण	-13581
▁स्वे	-13582
▁हड़कंप	-13583
▁प्रस्‍तुत	-13584
▁नद	-13585
▁तबी	-13586
▁घुटने	-13587
▁1992	-13588
▁बोतल	-13589
▁मैन्यु	-13590
84	-13591
▁लां	-13592
▁ऑप्ट	-13593
▁चड्ढा	-13594
▁भास्कर	-13595
▁अमरनाथ	-13596
EE	-13597
▁चैट	-13598
▁नरम	-13599
▁डिप्लोमा	-13600
सक	-13601
▁or	-13602
▁तदन	-13603
▁पोट	-13604
-2018	-13605
▁नीतियां	-13606
▁परिणीति	-13607
olog	-13608
आरडी	-13609
▁बदली	-13610
▁क़ुबूल	-13611
रीद	-13612
प्रे	-13613
▁होट	-13614
▁कच्चा	-13615
▁आदमियों	-13616
▁क्रिकेटरों	-13617
▁अर्थव्यवस्थाओं	-13618
बाप	-13619
ियॉ	-13620
▁भट	-13621
माना	-13622
ैतिक	-13623
▁कठिनाइयों	-13624
▁यूरिया	-13625
▁रामपाल	-13626
▁पर्यावरणीय	-13627
▁सबरी	-13628
▁क्लिप	-13629
▁स्क्र	-13630
अपना	-13631
▁लाज	-13632
पुरुष	-13633
▁बाबर	-13634
▁पीएचडी	-13635
▁बवाल	-13636
▁लक्षणों	-13637
▁गुणवत्‍ता	-13638
...]	-13639
हिया	-13640
▁खंग	-13641
▁एम्ब	-13642
▁निकाह	-13643
83	-13644
िओ	-13645
र्मन	-13646
▁कार्ति	-13647
.60	-13648
ेशर	-13649
▁मठ	-13650
▁चटर्जी	-13651
▁समकालीन	-13652
.80	-13653
CCI	-13654
▁124	-13655
्रेटरी	-13656
▁अभिला	-13657
▁न्यास	-13658
चिस्तान	-13659
▁कंधे	-13660
▁तुषार	-13661
▁गुड़गांव	-13662
वार्	-13663
▁धनी	-13664
▁कदापि	-13665
▁लैंडिंग	-13666
सामने	-13667
▁चौंकाने	-13668
.2015	-13669
बरेली	-13670
▁1993	-13671
▁नारा	-13672
कुमारी	-13673
▁अग्रसर	-13674
▁चांसलर	-13675
▁लाइब्रे	-13676
▁04	-13677
▁2.	-13678
▁Pl	-13679
▁डायल	-13680
▁फ्लू	-13681
▁हवाईअड्डे	-13682
sp	-13683
▁घोषण	-13684
▁यादगार	-13685
▁नैदानिक	-13686
▁बटालियन	-13687
▁नियंत्रक	-13688
क्सो	-13689
▁करूं	-13690
▁हवाओं	-13691
तकोत्तर	-13692
▁प्रतिरक्षा	-13693
ef	-13694
अफ	-13695
▁170	-13696
▁फ़ाय	-13697
▁शेल	-13698
▁सिंड	-13699
िटल्स	-13700
▁चन्द	-13701
▁Flipkart	-13702
▁अंग्रेजों	-13703
▁नारियल	-13704
▁यथार्थ	-13705
▁गांधीजी	-13706
सीबीआई	-13707
प्राप्त	-13708
▁निरीक्षक	-13709
▁अड़	-13710
▁एएम	-13711
66	-13712
▁Un	-13713
यहोवा	-13714
तई	-13715
▁देसी	-13716
▁बदतर	-13717
▁हीरा	-13718
▁तरीक़े	-13719
▁इंटेलिजेंस	-13720
▁अनी	-13721
▁नाप	-13722
च्‍छा	-13723
▁अयस्क	-13724
▁उपरांत	-13725
▁कुश्ती	-13726
▁चित्रित	-13727
खला	-13728
ब्बी	-13729
▁ओपी	-13730
विश्व	-13731
▁मस्ती	-13732
▁ओएनजीसी	-13733
▁छात्रवृत्ति	-13734
नाइज	-13735
▁1991	-13736
▁बारा	-13737
▁वैधानिक	-13738
▁रसूलों	-13739
▁विशेषताएं	-13740
ppo	-13741
विव	-13742
▁पढ	-13743
▁सिले	-13744
▁ऑलराउंडर	-13745
▁पक्षकारों	-13746
रेस	-13747
ि‍त	-13748
ight	-13749
ोवाल	-13750
▁पुत	-13751
महिला	-13752
▁केबल	-13753
ile	-13754
▁नं	-13755
▁काश	-13756
avirus	-13757
▁कक्षाओं	-13758
▁वेबिनार	-13759
▁टैक्सी	-13760
बात	-13761
▁बालिका	-13762
▁सक्सेना	-13763
▁स्टूडेंट	-13764
▁..	-13765
▁189	-13766
▁जोग	-13767
ाध्यक्ष	-13768
▁रहूंगा	-13769
ड़ला	-13770
▁कतिपय	-13771
▁तबीयत	-13772
▁केदारनाथ	-13773
▁धूम्रपान	-13774
▁सुविधाजनक	-13775
PF	-13776
-09	-13777
नूल	-13778
▁काफ	-13779
▁सोलर	-13780
▁नजरअंदाज	-13781
orm	-13782
परस्त	-13783
▁पीपी	-13784
▁हैऔर	-13785
▁चलाना	-13786
▁सरकशी	-13787
.65	-13788
▁सेवानिवृत्ति	-13789
बिट	-13790
आईवी	-13791
▁वज़	-13792
-200	-13793
▁पाम	-13794
▁न्यो	-13795
▁रूचि	-13796
▁एएनआई	-13797
▁परसतिश	-13798
▁कुरिन्थियों	-13799
▁रेस्त	-13800
्रार	-13801
▁गम्भीर	-13802
▁निकलता	-13803
▁रियलमी	-13804
▁पेशेवरों	-13805
▁जिम्‍	-13806
▁रोबोट	-13807
▁हेलिक	-13808
▁गलतियों	-13809
▁वस्‍तुओं	-13810
▁प्रतिष्ठानों	-13811
▁धर्मी	-13812
▁तारीखों	-13813
▁हसीना	-13814
▁कर्तव्यों	-13815
एलसी	-13816
र्ज़	-13817
▁छः	-13818
▁किशोरी	-13819
▁उत्तराधिकारी	-13820
▁मुन	-13821
▁कराते	-13822
▁हैरानी	-13823
▁स्‍वच्‍छता	-13824
▁बन्दे	-13825
दायित्व	-13826
दृष्टि	-13827
▁लड़ते	-13828
▁काउंटर	-13829
ens	-13830
▁खिस	-13831
▁चाँ	-13832
▁3000	-13833
▁मादा	-13834
▁संगो	-13835
ोत	-13836
▁जाट	-13837
▁टाई	-13838
▁नैतिकता	-13839
▁प्राधिकार	-13840
▁बहुपक्षीय	-13841
.70	-13842
एएल	-13843
▁बेचे	-13844
▁मुश्किलें	-13845
▁साप्ताहिक	-13846
51	-13847
▁थिएटर	-13848
▁हैसियत	-13849
▁अड	-13850
छोटे	-13851
▁वेग	-13852
▁पत्‍	-13853
▁रिसे	-13854
▁हिलेरी	-13855
▁दावेदार	-13856
▁शॉ	-13857
▁चोरों	-13858
▁चिपसेट	-13859
▁सर्वसम्मति	-13860
▁अरूण	-13861
▁ब्रह्मा	-13862
▁विश्लेषकों	-13863
mazon	-13864
▁अकार	-13865
▁इस्र	-13866
▁बाक़ी	-13867
▁गिरिराज	-13868
त्तों	-13869
▁कटाई	-13870
▁दंपति	-13871
▁कार्यकारिणी	-13872
▁कण	-13873
▁साब	-13874
▁साहित्यिक	-13875
रेकर	-13876
सवाल	-13877
▁अम्बाला	-13878
▁प्रैक्ट	-13879
▁यूक्रेन	-13880
▁स्टार्क	-13881
▁मग	-13882
▁सांग	-13883
▁जीतना	-13884
▁मृतका	-13885
▁उपर	-13886
▁बनाएँ	-13887
▁दिखाती	-13888
▁प्रजाति	-13889
▁विभागीय	-13890
▁सरस्वती	-13891
▁शिवकुमार	-13892
▁विक्रेताओं	-13893
ओवर	-13894
तिक्रमण	-13895
▁जोड़कर	-13896
▁बुलाने	-13897
▁प्राचीनों	-13898
▁उस्	-13899
▁Singh	-13900
▁जिम्म	-13901
▁मांगें	-13902
▁जुर्माने	-13903
वेरी	-13904
साथी	-13905
▁ओली	-13906
▁डिस	-13907
▁कुरु	-13908
▁जमाने	-13909
▁आर्टिकल	-13910
▁गों	-13911
▁महापौर	-13912
▁मेमोरियल	-13913
जंग	-13914
▁रूह	-13915
▁राजमार्गों	-13916
छे	-13917
जनी	-13918
बसपा	-13919
▁बच्‍	-13920
▁लाता	-13921
▁उभरती	-13922
▁एक्सेस	-13923
▁मल्लिकार्जुन	-13924
▁y	-13925
▁बठिंडा	-13926
▁अद्वितीय	-13927
ब्बू	-13928
▁घास	-13929
▁सोनाली	-13930
▁वाणिज्‍य	-13931
अंतर	-13932
जेक्ट	-13933
▁प्रभुत्वशाली	-13934
FC	-13935
.19	-13936
▁(""	-13937
▁पते	-13938
▁शंघाई	-13939
▁मानचित्र	-13940
गंगा	-13941
बांग	-13942
न्नों	-13943
▁अजमेर	-13944
▁अर्ज़	-13945
▁दिव्य	-13946
▁मनाते	-13947
▁रिस्प	-13948
▁मुख्यतः	-13949
▁नाइजीरिया	-13950
bo	-13951
जरत	-13952
ोकन	-13953
भिन्न	-13954
▁रुके	-13955
र्वे	-13956
पीसीएल	-13957
▁मंचों	-13958
▁आसमानों	-13959
▁सिनेमाघरों	-13960
ओमी	-13961
हीत	-13962
▁हरिद्वार	-13963
▁स्नातकोत्तर	-13964
जग	-13965
▁1971	-13966
▁रोके	-13967
▁रिफंड	-13968
▁चर्चित	-13969
▁मुबारक	-13970
▁घोर	-13971
ालिया	-13972
▁रोमन	-13973
▁[...]	-13974
▁वयस्क	-13975
▁बनाएगी	-13976
▁स्कूटर	-13977
▁मांसपेश	-13978
गुरु	-13979
प्रभु	-13980
▁मूंग	-13981
्लिकेशन	-13982
-30	-13983
▁डें	-13984
▁हेग	-13985
▁स्वप्न	-13986
वही	-13987
▁एनबी	-13988
▁नम्बर	-13989
▁सान	-13990
▁1950	-13991
▁सोया	-13992
▁कैंडिडेट	-13993
▁यम	-13994
▁व्रत	-13995
▁गुरमीत	-13996
देय	-13997
▁काय	-13998
▁पिछड़ा	-13999
▁लाभार्थी	-14000
▁संगीतकार	-14001
ग़रज़	-14002
▁कोल्	-14003
▁पूछो	-14004
▁अभिक	-14005
▁आरके	-14006
▁त्यागी	-14007
▁एकजुटता	-14008
▁हिस्‍से	-14009
▁बघ	-14010
▁फज़ल	-14011
▁कौशिक	-14012
▁तापसी	-14013
▁वादों	-14014
▁जॉनी	-14015
क़ुरान	-14016
▁यूएसबी	-14017
▁सर्जिकल	-14018
▁अभिप्रेत	-14019
36	-14020
TE	-14021
ेरों	-14022
▁समन्वित	-14023
दयाल	-14024
▁छावनी	-14025
वॉट	-14026
एनपी	-14027
▁सल्	-14028
राहुल	-14029
▁करुण	-14030
▁पाटी	-14031
▁सूखा	-14032
▁ग्वाल	-14033
▁नौवहन	-14034
अन्य	-14035
▁सहेज	-14036
▁डेनमार्क	-14037
▁संप्रभुता	-14038
महल	-14039
▁इने	-14040
▁पिक	-14041
▁सुखद	-14042
स्थापन	-14043
▁निकोल	-14044
▁प्रभास	-14045
▁इफ	-14046
▁करारा	-14047
धिकृत	-14048
ख्तेयार	-14049
▁जोड़ना	-14050
▁प्रान्त	-14051
चूड़	-14052
▁पनडु	-14053
▁उन्‍न	-14054
▁06	-14055
▁वेश	-14056
प्रेस	-14057
खो	-14058
▁ग्रोथ	-14059
▁पत्रकारिता	-14060
▁नवाजा	-14061
▁रुझान	-14062
▁सामान्‍य	-14063
▁03	-14064
▁पिस्टल	-14065
▁सेरे	-14066
▁नेपाली	-14067
▁माइक्रोस	-14068
उड	-14069
odi	-14070
इसी	-14071
▁बेयर	-14072
▁फटकार	-14073
▁स्किन	-14074
▁निकलते	-14075
▁निवेदन	-14076
▁पात्रता	-14077
.2017	-14078
▁मृदा	-14079
▁स्विट्जरलैंड	-14080
▁आति	-14081
▁बेग	-14082
▁बिड़ला	-14083
▁(20	-14084
▁उदा	-14085
▁नवाब	-14086
▁सेक्रेटरी	-14087
गर्	-14088
▁रंज	-14089
▁छापा	-14090
▁कैम्प	-14091
▁शिरोम	-14092
नेकर	-14093
▁उल्लिखित	-14094
▁फलस्वरूप	-14095
,'	-14096
▁Ar	-14097
▁कोंक	-14098
▁अकेली	-14099
▁Amazon	-14100
▁सुपुर्द	-14101
▁मूल्यवान	-14102
▁1997	-14103
▁कपड़ों	-14104
▁भट्टाचार्य	-14105
81	-14106
.90	-14107
ेला	-14108
▁गोया	-14109
▁कुणाल	-14110
▁ट्रोल	-14111
▁सेगमेंट	-14112
ोकर	-14113
▁आंत	-14114
▁प्रगा	-14115
▁अतिक्रमण	-14116
▁Upd	-14117
▁बीती	-14118
्यन	-14119
▁बजर	-14120
कीर्ण	-14121
व्हाण	-14122
▁एक्‍स	-14123
▁मौखिक	-14124
▁जनादेश	-14125
▁मैक्सवेल	-14126
साइज	-14127
▁पढ़ना	-14128
▁पिस्त	-14129
are	-14130
----	-14131
▁दर्शाती	-14132
▁जल्दबाजी	-14133
▁ढ़	-14134
▁अभ्यर्थियों	-14135
▁अरेस्ट	-14136
▁निपटारा	-14137
नें	-14138
माटर	-14139
▁गनी	-14140
▁साहेब	-14141
▁दिलजीत	-14142
▁वाक़िफ़	-14143
जिक	-14144
ence	-14145
▁आदिल	-14146
▁एल्बम	-14147
▁वेंटिल	-14148
ऐसी	-14149
धीय	-14150
वर्द्ध	-14151
▁इकट्ठे	-14152
▁दुर्घटनाग्रस्त	-14153
▁मिठ	-14154
ाइलों	-14155
▁वाकि	-14156
▁सुदूर	-14157
▁जुड़ाव	-14158
ौग	-14159
▁धक्का	-14160
▁उतारने	-14161
▁शर	-14162
▁Air	-14163
▁ढाल	-14164
▁वाचा	-14165
▁जल्‍द	-14166
▁बदलावों	-14167
▁कमाने	-14168
▁सिखों	-14169
▁रिव्यू	-14170
▁निर्भरता	-14171
NU	-14172
▁वड	-14173
स्टो	-14174
▁लिखना	-14175
▁नोकिया	-14176
▁बड़ौदा	-14177
नीर	-14178
▁झुल	-14179
▁रीड	-14180
शिवसेना	-14181
िस्ट्री	-14182
▁बिस्तर	-14183
▁2009-10	-14184
टीओ	-14185
▁घटित	-14186
▁हैरी	-14187
▁आईटीसी	-14188
▁श्रेयस	-14189
▁महाभारत	-14190
▁आनन	-14191
पुत्र	-14192
▁ईपीएफओ	-14193
▁आयत	-14194
▁सफ़	-14195
▁करनेवाली	-14196
ऊल	-14197
र्तन	-14198
▁थाम	-14199
ंबाकू	-14200
▁आईएनए	-14201
▁प्रॉप	-14202
▁मुहिम	-14203
▁बीवी	-14204
ेंटीना	-14205
74	-14206
▁अलब	-14207
▁शिया	-14208
▁करारी	-14209
▁टीसीएस	-14210
बीसीसीआई	-14211
.95	-14212
‍िल	-14213
्यूम	-14214
▁अहं	-14215
▁Bank	-14216
▁राजभवन	-14217
eal	-14218
बैंक	-14219
कायदा	-14220
ख़बरी	-14221
▁परिवेश	-14222
ंबू	-14223
त्याशित	-14224
डाल	-14225
कास्ट	-14226
प्रणाली	-14227
▁चव्हाण	-14228
रीश	-14229
ामाद	-14230
▁1500	-14231
▁फूलों	-14232
▁पीढ़ियों	-14233
▁विनिश्चय	-14234
बारे	-14235
▁लेग	-14236
▁नारी	-14237
▁खुराक	-14238
▁मिलनी	-14239
▁सिरसा	-14240
▁दीवारों	-14241
▁क्वालिटी	-14242
▁ईमानवालों	-14243
सायी	-14244
स्पेस	-14245
▁उठाई	-14246
ड्रिंग	-14247
▁गीतों	-14248
oronavirus	-14249
▁कैन	-14250
▁जंगलों	-14251
▁प्राइस	-14252
चड़	-14253
▁डै	-14254
▁अवय	-14255
▁जोंग	-14256
▁ताहिर	-14257
▁हराने	-14258
न्नाथ	-14259
▁ठाणे	-14260
आपको	-14261
र्ते	-14262
▁ग्रेजुएट	-14263
चाल	-14264
▁उलझ	-14265
▁यों	-14266
▁धोखे	-14267
▁प्रोड्यूसर	-14268
▁मक़	-14269
▁कारबार	-14270
▁शर्तें	-14271
76	-14272
82	-14273
बर्न	-14274
▁बिख	-14275
▁कमिटी	-14276
▁सोनीपत	-14277
▁हाउसिंग	-14278
कई	-14279
र्टर	-14280
▁ईयर	-14281
विष्ट	-14282
▁पेशा	-14283
per	-14284
जाल	-14285
▁इम्	-14286
▁Oppo	-14287
▁कॉम्प	-14288
▁चुकाने	-14289
▁इकल	-14290
▁बंधक	-14291
▁तकलीफ़	-14292
▁सहकारिता	-14293
हमति	-14294
▁कुदर	-14295
▁अनुपस्थिति	-14296
कहा	-14297
टने	-14298
माई	-14299
▁मसलों	-14300
▁हैंडसेट	-14301
पट्ट	-14302
▁बाजी	-14303
▁बैठी	-14304
▁स्क्रिप्ट	-14305
ग्‍	-14306
▁बृ	-14307
पिछले	-14308
▁रश्म	-14309
▁बोल्ड	-14310
▁संशोधनों	-14311
ft	-14312
फाल	-14313
▁वु	-14314
▁कंब	-14315
्यंत्र	-14316
▁निकालना	-14317
▁एंड्रॉइड	-14318
कोश	-14319
▁रं	-14320
जना	-14321
भास	-14322
मिया	-14323
वरीय	-14324
▁अंकुश	-14325
▁टमाटर	-14326
▁ओपनिंग	-14327
वनंतपुरम	-14328
▁दिखेंगे	-14329
विवाद	-14330
▁नम्रता	-14331
▁राधिका	-14332
46	-14333
▁सड	-14334
▁1995	-14335
▁Indi	-14336
▁परफॉ	-14337
▁रिंग	-14338
▁कैंपस	-14339
▁क्वालीफाई	-14340
▁फ्रेंचाइजी	-14341
टीपी	-14342
▁खर्	-14343
▁लोहे	-14344
▁जरुरी	-14345
▁मासूम	-14346
▁ब्राह्मण	-14347
िसिन	-14348
▁वॉर्नर	-14349
▁मार्जिन	-14350
▁गिरफ़्तार	-14351
▁पेस	-14352
▁बान	-14353
दुर्ग	-14354
▁इमेज	-14355
▁टावर	-14356
▁शोभा	-14357
ेन्‍द्र	-14358
▁रोमांस	-14359
ॉयस	-14360
ोनी	-14361
,900	-14362
▁बांटा	-14363
▁निर्वहन	-14364
▁अल्म	-14365
▁सोचिए	-14366
▁जीवनसाथी	-14367
ta	-14368
▁पला	-14369
प्रथम	-14370
ियामत	-14371
ोलिया	-14372
▁धूमल	-14373
▁बदनाम	-14374
▁उस्मान	-14375
▁घरवालों	-14376
▁पतन	-14377
▁आगाज	-14378
▁झगड़	-14379
▁टीजर	-14380
▁Google	-14381
सूर	-14382
▁डेंगू	-14383
▁चिह्नित	-14384
एमपी	-14385
गराज	-14386
हाट	-14387
▁तान	-14388
▁रामायण	-14389
▁व्याप्त	-14390
▁गोस्वामी	-14391
खाना	-14392
त्विक	-14393
▁सुधर	-14394
▁कराधान	-14395
▁हज़ारों	-14396
▁रायबरेली	-14397
जीन	-14398
▁सबूतों	-14399
▁आयाम	-14400
▁स्थानांतरण	-14401
▁रघ	-14402
▁असीम	-14403
▁तर्ज	-14404
लीड	-14405
कथित	-14406
ाबेस	-14407
▁सज्जन	-14408
▁क़ुरआन	-14409
▁पर्सेंट	-14410
▁सिद्धान्त	-14411
▁3.	-14412
oday	-14413
मुखी	-14414
▁तटर	-14415
ॉर्डन	-14416
र्वेदी	-14417
▁15,000	-14418
▁लाइब्रेरी	-14419
▁चेत	-14420
▁ट्राफी	-14421
▁शीतकालीन	-14422
▁गढ़वाल	-14423
▁प्रगाढ़	-14424
▁देशभक्ति	-14425
▁निराशाजनक	-14426
लए	-14427
▁एस्	-14428
जम्मू	-14429
▁पागल	-14430
▁कोहरे	-14431
▁हेल्पलाइन	-14432
िनो	-14433
निहित	-14434
न्नति	-14435
बार्ड	-14436
▁कोले	-14437
▁कंटेनर	-14438
▁प्रहरी	-14439
▁पिस्तौल	-14440
एड	-14441
▁कंड	-14442
▁पोलैंड	-14443
▁कार्यबल	-14444
ुदरत	-14445
▁एकाद	-14446
▁एनसीसी	-14447
▁मनोवैज्ञानिक	-14448
जून	-14449
चकों	-14450
▁जिन्ह	-14451
▁यॉर्क	-14452
▁संदाय	-14453
▁पलटवार	-14454
▁रूख	-14455
इसमें	-14456
▁दामाद	-14457
▁विफलता	-14458
▁टेलीकॉम	-14459
▁द्वीपों	-14460
लकर	-14461
▁फेज	-14462
प्टर	-14463
▁अंगों	-14464
▁घराने	-14465
▁ब्राउ	-14466
▁इंगलैंड	-14467
ासपुर	-14468
▁जीना	-14469
▁निबंध	-14470
▁भाटिया	-14471
▁जगन्नाथ	-14472
CP	-14473
महारा	-14474
▁एथलीट	-14475
▁नक्सलियों	-14476
▁109	-14477
आरओ	-14478
राईल	-14479
ापत्र	-14480
▁आईआई	-14481
▁तंबाकू	-14482
Name	-14483
▁बलर	-14484
▁सरो	-14485
▁ताकतवर	-14486
तुम्हारे	-14487
▁डीडी	-14488
▁वीरता	-14489
▁भागीदारों	-14490
▁दुश	-14491
िल्ला	-14492
▁Exam	-14493
▁पंचा	-14494
▁भयावह	-14495
▁प्रख्यात	-14496
▁समारोहों	-14497
▁विश्‍लेषण	-14498
▁स्मार्टफोन्स	-14499
हरों	-14500
कार्प	-14501
▁तितर	-14502
▁बाहम	-14503
नोलॉजी	-14504
▁नेत्र	-14505
ध्	-14506
म्मा	-14507
▁1947	-14508
क्‍ताओं	-14509
प्रतिनि	-14510
▁दार्शन	-14511
▁डेटाबेस	-14512
▁कैपिटल्स	-14513
▁श्रद्धालु	-14514
आधार	-14515
सबसे	-14516
▁सवारी	-14517
56	-14518
▁क़िस्म	-14519
पृ	-14520
ौरा	-14521
▁ग्य	-14522
▁शिपिंग	-14523
▁प्रतिपक्ष	-14524
वंशी	-14525
ुकला	-14526
▁इलाका	-14527
▁पेडनेकर	-14528
▁रिश्‍ता	-14529
▁सरपरस्त	-14530
▁सेलिब्र	-14531
कल्	-14532
▁ढाई	-14533
वाड़े	-14534
▁मेनका	-14535
▁अनुशंसा	-14536
▁सौंदर्य	-14537
यंकर	-14538
युक्‍त	-14539
ोदरा	-14540
▁काबुल	-14541
▁बतायी	-14542
आरए	-14543
▁लियो	-14544
▁पढ़कर	-14545
▁गर्मियों	-14546
▁चतुर्वेदी	-14547
ईएस	-14548
▁ढी	-14549
ेंदर	-14550
्लील	-14551
▁चलें	-14552
▁वृत्त	-14553
▁सकने	-14554
स्वास्थ्य	-14555
▁अप्रत्याशित	-14556
▁पान	-14557
▁प्यारे	-14558
▁प्रचारक	-14559
,400	-14560
▁कोत	-14561
पत्रों	-14562
▁त्रास	-14563
रादित्य	-14564
़ा	-14565
▁घने	-14566
▁रैप	-14567
▁चोटी	-14568
▁स्नेह	-14569
▁निर्या	-14570
▁ग्वालियर	-14571
केयर	-14572
▁चिन	-14573
▁रोहन	-14574
▁स्‍वतंत्र	-14575
eath	-14576
▁ईशा	-14577
▁खासा	-14578
▁छत्र	-14579
चाने	-14580
▁मुगल	-14581
▁सिगरेट	-14582
▁संतोषजनक	-14583
विलास	-14584
्‍यास	-14585
▁गौड़ा	-14586
▁भतीजे	-14587
▁नवम्‍बर	-14588
▁दुर्व्यवहार	-14589
▁RBI	-14590
▁फ़्र	-14591
▁आईसीए	-14592
▁एसएचओ	-14593
▁सीखते	-14594
▁वस्तुत	-14595
▁सुचारू	-14596
42	-14597
EO	-14598
िकता	-14599
▁कैमरों	-14600
राट	-14601
▁चीज़े	-14602
▁जिलाधिकारी	-14603
्योरा	-14604
▁वल्लभ	-14605
61	-14606
▁1.3	-14607
▁बोध	-14608
▁विक्ट	-14609
▁चित्रण	-14610
▁कम्युनिक	-14611
शब्द	-14612
▁तद	-14613
ठीक	-14614
▁सीडी	-14615
▁महीना	-14616
▁वैद्य	-14617
हता	-14618
▁घंटा	-14619
▁ट्राई	-14620
▁कारगिल	-14621
▁शिक्षाओं	-14622
मेड	-14623
▁जनों	-14624
▁टीबी	-14625
▁डेली	-14626
▁कराएगा	-14627
▁इथ	-14628
चारे	-14629
▁इंतज़ाम	-14630
▁एप्लीकेशन	-14631
▁विज्ञापनों	-14632
▁सामग्रियों	-14633
▁07	-14634
▁5,	-14635
▁चिन्ता	-14636
▁175	-14637
▁खाया	-14638
▁चलिए	-14639
▁किस्मत	-14640
▁गायिका	-14641
▁प्रतिबि	-14642
▁सुप्रीमकोर्ट	-14643
यानी	-14644
द्वारा	-14645
▁नगरों	-14646
▁उदयपुर	-14647
▁शिवपाल	-14648
▁लय	-14649
▁हावी	-14650
▁व्यास	-14651
▁जिम्‍मे	-14652
ारन	-14653
▁बची	-14654
▁उपयो	-14655
▁मौकों	-14656
▁स्नान	-14657
▁रोमियों	-14658
श्यों	-14659
▁आयरन	-14660
▁छिपे	-14661
▁सेतु	-14662
▁उपयोगिता	-14663
/-	-14664
▁जहर	-14665
▁लेट	-14666
▁जनजातियों	-14667
▁देह	-14668
▁रक्षक	-14669
▁संक्षेप	-14670
▁शिकायतकर्ता	-14671
ुरुस्त	-14672
▁सूचनाएं	-14673
▁प्रोडक्ट	-14674
▁रेस्तरां	-14675
▁पुनर्निर्माण	-14676
▁बडी	-14677
यात्रा	-14678
▁डिजिट	-14679
▁आविष्कार	-14680
▁ज्योतिरादित्य	-14681
जील	-14682
▁थिय	-14683
▁हिफ	-14684
▁लेबल	-14685
▁अनन्या	-14686
ack	-14687
ट्टा	-14688
मिकल	-14689
▁प्रमाणन	-14690
▁आंब	-14691
▁पीओ	-14692
ोजीशन	-14693
▁चौबे	-14694
▁घटकों	-14695
▁क्लस्टर	-14696
▁शिरोमणि	-14697
▁अफवाहों	-14698
▁निर्यातकों	-14699
▁हैरिस	-14700
▁आपूर्तिक	-14701
▁ऑटोमोबाइल	-14702
निश	-14703
ूजा	-14704
ानंद	-14705
▁ऑक्स	-14706
▁विगत	-14707
▁लाइनों	-14708
▁आस्ट्रेलियाई	-14709
बलि	-14710
▁Com	-14711
▁सुमित	-14712
▁पहुंचीं	-14713
▁स्टार्स	-14714
▁उन्होनें	-14715
und	-14716
▁भां	-14717
▁नुक़	-14718
▁याजक	-14719
▁बर्लिन	-14720
ble	-14721
ंधरा	-14722
▁फिल्मी	-14723
8,	-14724
▁बॉबी	-14725
ission	-14726
▁एक्सट	-14727
▁ऑक्टा	-14728
▁दाखिला	-14729
डमी	-14730
▁टीडीपी	-14731
बंग	-14732
वस्तु	-14733
▁स्तुति	-14734
ry	-14735
con	-14736
▁खत	-14737
ihar	-14738
▁पक्की	-14739
प्रबंधक	-14740
▁पुकारा	-14741
स्फ	-14742
िप्र	-14743
र्याप्त	-14744
▁धूमधाम	-14745
▁उम्मीदों	-14746
’।	-14747
ंटो	-14748
▁दंगे	-14749
राज्‍य	-14750
▁पश्‍चा	-14751
▁वाईएसआर	-14752
MC	-14753
▁ऑर	-14754
ब्वे	-14755
▁मुल	-14756
▁इसराईल	-14757
▁बहुमूल्य	-14758
▁मानवाधिकारों	-14759
ोग्य	-14760
▁SBI	-14761
स्तीन	-14762
▁मिलान	-14763
▁परोक्ष	-14764
▁अर्जेंटीना	-14765
▁बोलना	-14766
▁विरोधियों	-14767
▁विश्लेषक	-14768
▁टर्	-14769
▁ट्यू	-14770
▁मांज	-14771
ोपियां	-14772
▁कट्टर	-14773
ee	-14774
रेटर	-14775
वेंशन	-14776
▁रखनी	-14777
▁खालिद	-14778
▁जन्नत	-14779
▁वेंकट	-14780
ट्रिन्यू	-14781
▁अनावश्यक	-14782
▁उत्तरदायित्व	-14783
age	-14784
!"""	-14785
न्‍म	-14786
▁पन्नू	-14787
▁राठौड़	-14788
▁तटरक्षक	-14789
▁महानिदेशालय	-14790
कहो	-14791
माइ	-14792
ंजलि	-14793
बुद्ध	-14794
ारोपण	-14795
▁डरता	-14796
▁बढ़ाए	-14797
▁भयंकर	-14798
▁विजिट	-14799
▁चिंताजनक	-14800
उसे	-14801
ाराम	-14802
▁कोण	-14803
▁फहरा	-14804
एनएच	-14805
णुओं	-14806
▁संगत	-14807
▁उन्नति	-14808
TC	-14809
▁लान	-14810
▁दौलत	-14811
▁लिट	-14812
▁टर्न	-14813
▁संचालक	-14814
▁किसके	-14815
▁सराहा	-14816
▁किंगडम	-14817
िशर	-14818
लेटर	-14819
▁इब्	-14820
▁मलबे	-14821
▁साइं	-14822
▁तंत्रिका	-14823
▁प्रतिभूत	-14824
▁संदर्भित	-14825
पंथ	-14826
वाइ	-14827
लगभग	-14828
र्कों	-14829
▁शाऊल	-14830
▁सैंपल	-14831
▁मुक्‍त	-14832
▁सप्‍ताह	-14833
माद	-14834
्लू	-14835
▁एं	-14836
ुअर्ट	-14837
▁रणजी	-14838
▁पाइपलाइन	-14839
▁राष्ट्रवाद	-14840
ारू	-14841
▁जायें	-14842
▁घब	-14843
स्पष्ट	-14844
▁क़रार	-14845
▁तदनुसार	-14846
▁:-	-14847
ांडू	-14848
जरानी	-14849
▁अपरि	-14850
▁सुलह	-14851
▁पीएमओ	-14852
▁भ्रमण	-14853
▁षड्यंत्र	-14854
▁1956	-14855
▁पुंछ	-14856
▁संजू	-14857
▁मुकुल	-14858
▁गठजोड़	-14859
▁फ़ंक्शन	-14860
▁जन्मभूमि	-14861
▁क्षतिपूर्ति	-14862
▁सगाई	-14863
▁पोम्प	-14864
▁पंचवर्षीय	-14865
्शन	-14866
ख्वाह	-14867
▁तुरन्त	-14868
▁दिलाता	-14869
कने	-14870
▁पारे	-14871
▁दसवीं	-14872
▁फोर्ड	-14873
▁कॉलोनी	-14874
▁प्रशस्त	-14875
सीएमआर	-14876
▁सत्ताधारी	-14877
▁महानिरीक्षक	-14878
vi	-14879
ईमान	-14880
▁झंडा	-14881
▁मेधा	-14882
▁अवरोध	-14883
▁देखती	-14884
▁कुलभूषण	-14885
▁नियुक्‍त	-14886
▁क्रियान्वित	-14887
वीन	-14888
ोटो	-14889
▁4.	-14890
▁वज़ह	-14891
▁भेजकर	-14892
▁उद्धृत	-14893
▁जबलपुर	-14894
▁निम्‍नलिखित	-14895
ि़	-14896
▁900	-14897
▁पिथ	-14898
ब्रिज	-14899
▁बघेल	-14900
▁ठप	-14901
▁डिल	-14902
▁थ्र	-14903
▁भिव	-14904
वर्तन	-14905
वोकेट	-14906
▁रहिए	-14907
▁कुर्सी	-14908
▁समयबद्ध	-14909
▁परिपूर्ण	-14910
▁संवेदनाएं	-14911
▁पंथ	-14912
्‍यता	-14913
▁एसडी	-14914
▁भवनों	-14915
मुस्लिम	-14916
▁अवतरित	-14917
▁टिकटों	-14918
▁भविष्यव	-14919
▁बछ	-14920
▁ताल्ल	-14921
▁थै	-14922
▁दीर्घा	-14923
▁अंदरूनी	-14924
न्मेष	-14925
▁टायर	-14926
▁माइक्रोसॉफ्ट	-14927
ोपै	-14928
▁107	-14929
▁कतई	-14930
▁अग्निश	-14931
▁दाहिने	-14932
▁विनिया	-14933
▁ऑस्कर	-14934
▁प्रवृत्त	-14935
▁कवा	-14936
पीएसी	-14937
िलियन	-14938
▁निशानियों	-14939
पुन	-14940
विकास	-14941
▁रियाय	-14942
▁बाग़ों	-14943
▁शासकीय	-14944
▁हाइड्र	-14945
ुए	-14946
्शा	-14947
▁लीज	-14948
ब्रिड	-14949
▁निगमों	-14950
▁प्राथमिकताओं	-14951
▁बक्	-14952
▁रूपा	-14953
▁होगें	-14954
▁आउटपुट	-14955
▁बढ़ाता	-14956
सात	-14957
▁ओपनर	-14958
▁स्काई	-14959
ऑन	-14960
▁औंस	-14961
▁इस्राएली	-14962
iz	-14963
▁खिंच	-14964
▁ताला	-14965
▁हेमा	-14966
▁कुत्ते	-14967
▁बीएचपी	-14968
▁बहाली	-14969
▁राज़ी	-14970
▁तत्त्व	-14971
शियन	-14972
▁मेस	-14973
▁परिसंघ	-14974
मनी	-14975
ेटिव	-14976
▁Off	-14977
▁गोदाम	-14978
▁घोषणापत्र	-14979
▁चोक	-14980
▁पांव	-14981
▁लड़ना	-14982
▁पैदावार	-14983
▁एंबुलेंस	-14984
▁कुरुक्षेत्र	-14985
ुण	-14986
करा	-14987
सुल	-14988
▁114	-14989
विभाग	-14990
▁धमाल	-14991
▁समिट	-14992
र्मेंस	-14993
▁मानकर	-14994
▁सीनेट	-14995
▁इमरजेंसी	-14996
▁उर्वरकों	-14997
▁उत्तरप्रदेश	-14998
ोहरा	-14999
▁कपल	-15000
▁पें	-15001
▁अजीज	-15002
▁ब्‍ल	-15003
▁आंध्रप्रदेश	-15004
▁छी	-15005
अधिक	-15006
▁रश्मि	-15007
▁अनंतनाग	-15008
▁तोड़फोड़	-15009
uk	-15010
▁अश्लील	-15011
▁तख्त	-15012
▁अनुभाग	-15013
▁पुर्तगाल	-15014
▁बलूचिस्तान	-15015
AR	-15016
▁उम्	-15017
▁स्टेज	-15018
▁प्रसंग	-15019
▁रिफाइनरी	-15020
▁राजेन्द्र	-15021
साल	-15022
यहां	-15023
शन्स	-15024
▁ड्रॉ	-15025
▁स्ला	-15026
▁इन्सान	-15027
▁ध्वस्त	-15028
▁अस्थाना	-15029
▁0.5	-15030
▁शहद	-15031
▁इसहा	-15032
▁25,000	-15033
योन	-15034
द्घि	-15035
▁सफदर	-15036
▁इनेलो	-15037
▁गन्ना	-15038
▁चट्टान	-15039
▁अलबत्ता	-15040
▁दर्शाते	-15041
elhi	-15042
मोली	-15043
▁सैं	-15044
▁कुंभ	-15045
▁चटका	-15046
▁अपनाए	-15047
▁झांसी	-15048
पंजा	-15049
▁वरन	-15050
▁डालता	-15051
▁फ्रेंड	-15052
वले	-15053
जीएस	-15054
▁सबमिट	-15055
▁शरणार्थी	-15056
▁झां	-15057
▁नकल	-15058
▁मों	-15059
ॉर्नी	-15060
▁सोरेन	-15061
▁पारियों	-15062
क्सन	-15063
गैरह	-15064
भासी	-15065
यनों	-15066
▁GST	-15067
▁बोप	-15068
ition	-15069
आईपीएल	-15070
▁वर्धन	-15071
▁रियलिटी	-15072
▁दिक्कतों	-15073
प्स	-15074
▁पीस	-15075
▁गुहार	-15076
▁भत्ता	-15077
▁अशुद्ध	-15078
▁कहानियां	-15079
▁तर्कसंगत	-15080
59	-15081
ारो	-15082
जिसे	-15083
िवुड	-15084
▁एना	-15085
▁कों	-15086
▁4000	-15087
▁अनैतिक	-15088
▁गतिशील	-15089
▁लड़ेगी	-15090
▁महाद्वीप	-15091
▁विश्वसनीयता	-15092
अद	-15093
▁11:	-15094
▁नस्	-15095
▁सैंड	-15096
▁आज़मा	-15097
▁प्रथाओं	-15098
▁स्‍वागत	-15099
▁रबी	-15100
ंडलीय	-15101
▁फ्यू	-15102
▁एमसीए	-15103
▁तलाशने	-15104
▁बिताने	-15105
▁विर	-15106
▁डोमेन	-15107
▁मम्मी	-15108
▁बालाकोट	-15109
▁वसुंधरा	-15110
▁एडिशन	-15111
तरह	-15112
चेस्टर	-15113
▁स्विच	-15114
▁ग्यारह	-15115
▁छात्रावास	-15116
▁लॉन्ड्रिंग	-15117
rag	-15118
ंधी	-15119
▁स्टुअर्ट	-15120
▁Con	-15121
▁नैनी	-15122
▁पाकी	-15123
▁संधू	-15124
हांत	-15125
▁126	-15126
▁वृह	-15127
▁पैलेस	-15128
▁महानगर	-15129
▁कोलंबिया	-15130
▁सक्रियता	-15131
▁दर्ज़	-15132
▁आंबेडकर	-15133
▁बिश	-15134
रिएबल	-15135
रेटिव	-15136
▁तोहफा	-15137
ैच	-15138
▁चालान	-15139
▁निशंक	-15140
▁बाराम	-15141
▁संकलन	-15142
▁सम्बद्ध	-15143
▁सुध	-15144
▁1989	-15145
▁निषेध	-15146
▁खिड़की	-15147
▁प्रसन्‍न	-15148
73	-15149
▁एयरो	-15150
▁बारीक	-15151
▁अभिभावक	-15152
▁समाप्‍त	-15153
▁नवोन्मेष	-15154
▁112	-15155
▁माला	-15156
▁कुफ्र	-15157
▁पांचों	-15158
▁फार्मास	-15159
्वरी	-15160
फेक्ट	-15161
ोवेशन	-15162
▁ग्रेट	-15163
▁हटाना	-15164
▁आदर्शों	-15165
▁फ़रिश्ते	-15166
▁उच्चस्तरीय	-15167
▁कैट	-15168
▁मैथ्यू	-15169
▁नवरात्रि	-15170
ale	-15171
ग्स	-15172
▁CBSE	-15173
▁वांग	-15174
▁वाहक	-15175
▁साहा	-15176
▁होल्डर	-15177
▁सर्दियों	-15178
िनि	-15179
▁अंधा	-15180
▁लुत्	-15181
▁सुने	-15182
▁हमीर	-15183
▁सेमिनार	-15184
▁सरफ	-15185
.2020	-15186
▁सुनो	-15187
श्‍वरीय	-15188
▁न्‍याय	-15189
▁प्रतिभागी	-15190
▁खिलाडि़यों	-15191
फ़्	-15192
गेशन	-15193
यामी	-15194
▁जनक	-15195
▁रहम	-15196
▁दोज़	-15197
▁यूजीसी	-15198
ूर्त	-15199
▁उठने	-15200
▁वक्फ	-15201
▁जहाजरानी	-15202
▁मांजरेकर	-15203
▁मसौ	-15204
▁सास	-15205
▁दालों	-15206
▁एबीवीपी	-15207
दबा	-15208
िपि	-15209
▁ढील	-15210
▁सरकश	-15211
▁सुधा	-15212
▁प्रांतीय	-15213
एलएफ	-15214
ोलेशन	-15215
िलाबाद	-15216
▁टास्क	-15217
म्पिक	-15218
▁नंदा	-15219
▁लौटना	-15220
▁असंवैधानिक	-15221
▁विद्युतीकरण	-15222
ict	-15223
गौड़ा	-15224
ियुक्त	-15225
ेंसिंग	-15226
▁इन्फोसिस	-15227
हिट	-15228
▁1-0	-15229
▁स्वतः	-15230
▁आईसीयू	-15231
▁नुक़सान	-15232
▁परीक्षणों	-15233
▁प्रॉपर्टी	-15234
ङ्	-15235
▁रवीश	-15236
▁फिल्म्स	-15237
लिड	-15238
किटे	-15239
यंत्र	-15240
▁राहे	-15241
▁विख्यात	-15242
▁कूटनीतिक	-15243
▁आईआरसीटीसी	-15244
छता	-15245
▁अा	-15246
तिमा	-15247
▁इल्	-15248
▁कॉन्ग	-15249
▁ठहराते	-15250
▁अर्थशास्त्री	-15251
52	-15252
▁क़ी	-15253
▁स्का	-15254
वाहक	-15255
▁230	-15256
▁पाब	-15257
रक्षण	-15258
▁अपनाना	-15259
▁चित्रों	-15260
▁पहुंचाना	-15261
▁रिकॉर्डिंग	-15262
ेदों	-15263
▁सुक	-15264
▁मेहरा	-15265
▁मिलाया	-15266
.67	-15267
▁FIR	-15268
▁मोज	-15269
शिल्प	-15270
िफिकेश	-15271
▁दिखाकर	-15272
▁दर्जनों	-15273
डब्ल्यूडी	-15274
▁प्रोत्‍साहित	-15275
इसे	-15276
▁यि	-15277
▁२४	-15278
तीर्ण	-15279
▁टीआरएस	-15280
43	-15281
ear	-15282
ुला	-15283
▁‘’	-15284
▁नि‍	-15285
संहार	-15286
▁रेपो	-15287
▁भेजना	-15288
▁गिराने	-15289
▁सितम्‍बर	-15290
▁4,	-15291
करघा	-15292
▁फोर्ट	-15293
▁मार्क्स	-15294
▁राइडर्स	-15295
शर	-15296
ेने	-15297
▁अभय	-15298
▁छोड	-15299
▁इंडी	-15300
▁करूँ	-15301
▁पहचाना	-15302
लीला	-15303
▁गड्	-15304
▁आमंत्रण	-15305
▁उपलब्धियां	-15306
-)	-15307
▁दवाएं	-15308
▁गुर्जर	-15309
▁मुजाहि	-15310
▁2008-09	-15311
भाषण	-15312
▁कोठ	-15313
▁कारखाने	-15314
▁खां	-15315
▁भरपाई	-15316
▁क़ादिर	-15317
▁रूपांतरण	-15318
त्स	-15319
हासन	-15320
▁गैल	-15321
▁डोप	-15322
मर्रा	-15323
▁कैडर	-15324
लेटिक्स	-15325
▁ताकतों	-15326
बच्च	-15327
▁फीफा	-15328
ष्कृत	-15329
▁इसरा	-15330
▁शरार	-15331
▁पैकेट	-15332
▁स्टाल	-15333
▁आक्रोश	-15334
▁राजभाषा	-15335
▁सद्भावना	-15336
▁मौनी	-15337
▁दायरा	-15338
गली	-15339
▁एक्सी	-15340
▁मकर	-15341
▁माज	-15342
इसलिए	-15343
▁सम्बंधित	-15344
▁Coronavirus	-15345
▁अंशदान	-15346
आतंक	-15347
कलाप	-15348
भावी	-15349
▁प्रचंड	-15350
gr	-15351
ूज	-15352
मोट	-15353
▁तिब्बत	-15354
▁अविश्वास	-15355
▁रेजोल्यूशन	-15356
india	-15357
▁अकाल	-15358
▁इसमे	-15359
▁जुनून	-15360
▁मुस्त	-15361
गए	-15362
▁उखा	-15363
▁बडे	-15364
▁वचनबद्ध	-15365
▁कार्यवाहियों	-15366
▁चाली	-15367
▁मवेश	-15368
▁डांसर	-15369
▁पहिले	-15370
जेंस	-15371
▁मानद	-15372
▁वोटर	-15373
▁द्विव	-15374
▁सर्दी	-15375
िलियर्स	-15376
पैग़म्बर	-15377
▁संदिग्धों	-15378
DA	-15379
man	-15380
लेवा	-15381
▁विघ	-15382
▁ताइवान	-15383
▁एडवोकेट	-15384
ॉन्स	-15385
▁अरू	-15386
▁सिग्	-15387
▁ब्योरा	-15388
▁मुख्तार	-15389
इस्ल	-15390
स्टी	-15391
्युन	-15392
▁१९८	-15393
▁यूने	-15394
▁शेखा	-15395
▁कांगड़ा	-15396
▁शोपियां	-15397
▁नामांकित	-15398
हद	-15399
ांता	-15400
▁And	-15401
▁चमोली	-15402
▁रंजीत	-15403
एलडी	-15404
प्लस	-15405
पल्ली	-15406
िकाने	-15407
▁तुलसी	-15408
▁गिलानी	-15409
▁हमीरपुर	-15410
मां	-15411
▁TV	-15412
▁प्या	-15413
▁लड़ी	-15414
स्‍टर	-15415
▁डिटेल	-15416
▁IND	-15417
ेक्शन	-15418
▁तीखी	-15419
▁सम्बोधित	-15420
वसाय	-15421
सूची	-15422
िरोध	-15423
द्धांतिक	-15424
▁सुब्रमण्यम	-15425
िगर	-15426
िक्ट	-15427
▁रोट	-15428
▁सहि	-15429
▁धारक	-15430
▁व्यु	-15431
▁शीतल	-15432
▁संवे	-15433
प्रभाव	-15434
▁प्रचुर	-15435
▁वास्तुकला	-15436
ंर	-15437
शूट	-15438
कहीं	-15439
नूलु	-15440
▁750	-15441
▁आमाल	-15442
▁मोटो	-15443
▁अल्‍प	-15444
▁छलांग	-15445
▁मैत्रीपूर्ण	-15446
द्रा	-15447
▁http	-15448
▁प्रेशर	-15449
▁मंत्रि	-15450
▁प्रतिस्‍प	-15451
टीई	-15452
▁कॉलम	-15453
▁बोनी	-15454
▁करायी	-15455
▁ब्लॉग	-15456
▁पोजीशन	-15457
▁डिजाइनर	-15458
▁महेन्द्र	-15459
▁उम्‍मीदवारों	-15460
▁मोल	-15461
▁झंडे	-15462
▁क़ियामत	-15463
फिंग	-15464
▁आड़े	-15465
▁हारने	-15466
▁नौजवानों	-15467
▁पत्नियों	-15468
▁प्रतिस्थापित	-15469
▁शश	-15470
▁12:	-15471
▁आर्थ	-15472
▁ईशान	-15473
जेक्शन	-15474
▁तब्बू	-15475
महाराष्ट्र	-15476
ata	-15477
▁घी	-15478
▁नीले	-15479
▁ज़कात	-15480
ग्राफ	-15481
▁अमान	-15482
▁चेता	-15483
पत्तनम	-15484
▁कवायद	-15485
▁एकतरफा	-15486
▁सातवीं	-15487
▁बोपन्ना	-15488
nic	-15489
सर्व	-15490
▁Kap	-15491
▁लेडी	-15492
▁पुण्य	-15493
▁30,000	-15494
▁बुझाने	-15495
▁बेहतरी	-15496
▁ब्रायन	-15497
▁प्रोफेशनल	-15498
समान	-15499
▁न्यौ	-15500
▁कारें	-15501
▁102	-15502
▁कबड्डी	-15503
ish	-15504
ater	-15505
उसका	-15506
▁550	-15507
पत्नी	-15508
▁खुलने	-15509
▁डीएमके	-15510
▁साहसिक	-15511
IV	-15512
ics	-15513
समिति	-15514
्‍याज	-15515
▁घिरा	-15516
क्षमता	-15517
▁रोकते	-15518
▁मनरेगा	-15519
ंकि	-15520
िलर	-15521
तिया	-15522
▁ब्राउन	-15523
▁भिड़ंत	-15524
तला	-15525
लीटर	-15526
त्वना	-15527
▁हरमन	-15528
▁Apple	-15529
▁फिलीपींस	-15530
▁रामविलास	-15531
▁चंद्रचूड़	-15532
▁समाह	-15533
▁हाकी	-15534
▁लक्षद्वीप	-15535
▁*	-15536
▁1994	-15537
▁अनूप	-15538
▁उतने	-15539
▁डिस्ट	-15540
▁परिस्थितियां	-15541
))	-15542
हक़	-15543
▁कांत	-15544
▁पावन	-15545
▁क़ाबू	-15546
▁बहनें	-15547
▁शर्मि	-15548
▁अरे	-15549
▁जूट	-15550
▁छिड़	-15551
▁घोड़े	-15552
▁टोक्यो	-15553
▁श्रीनिवास	-15554
बाध	-15555
▁बाहु	-15556
▁बनारस	-15557
▁अन्ततः	-15558
▁पेंटिंग	-15559
CB	-15560
▁पुनर्जी	-15561
▁वनस्पति	-15562
▁एंजेल	-15563
▁खेलेंगे	-15564
▁टिप्पणियां	-15565
ord	-15566
▁राख	-15567
्‍यून	-15568
▁पुष्ट	-15569
▁डिविलियर्स	-15570
▁119	-15571
▁क्रूज	-15572
▁थर्मल	-15573
▁ऑपरेटर	-15574
▁रिसेप्शन	-15575
िंद	-15576
वर्ण	-15577
▁करूँगा	-15578
▁प्लेयर	-15579
▁इब्रानी	-15580
▁लुढ़	-15581
▁सहारे	-15582
▁ईश्‍वर	-15583
▁सरफराज	-15584
▁परिप्रे	-15585
▁अज़	-15586
▁विक्र	-15587
▁बुजुर्गों	-15588
ोटेक	-15589
▁जॉब	-15590
▁होशियार	-15591
अव	-15592
प्‍	-15593
िंक्य	-15594
▁1986	-15595
▁पीएफ	-15596
▁बदलती	-15597
ख्तियार	-15598
▁पग	-15599
aria	-15600
▁BCCI	-15601
▁जहाज़	-15602
▁लेखों	-15603
▁परिधान	-15604
▁रियायत	-15605
डार	-15606
▁ओस	-15607
यकों	-15608
यूआई	-15609
▁AAP	-15610
द्रोही	-15611
▁फॉक्स	-15612
▁बायोम	-15613
▁शाहीन	-15614
▁भूमिगत	-15615
▁बहू	-15616
एनसीपी	-15617
▁साजिद	-15618
▁प्रहार	-15619
▁आवेदनों	-15620
ign	-15621
▁ख्वाजा	-15622
▁उत्पादित	-15623
▁हार्डवेयर	-15624
54	-15625
erv	-15626
कर्णी	-15627
▁लॉटरी	-15628
▁डायब	-15629
ाहियों	-15630
▁रवैये	-15631
प्रशांत	-15632
▁"""\""	-15633
▁कार्यक्षेत्र	-15634
नए	-15635
▁२१	-15636
गिरी	-15637
▁Raj	-15638
▁मसौदे	-15639
▁न्यूयार्क	-15640
▁संगण	-15641
▁कहलाता	-15642
▁न्योता	-15643
▁लॉन्चिंग	-15644
▁बगल	-15645
▁मनन	-15646
बरदार	-15647
▁रचने	-15648
▁सरसों	-15649
ैण्ड	-15650
सूचना	-15651
pe	-15652
.55	-15653
ध्‍य	-15654
▁फ्ले	-15655
▁मर्डर	-15656
▁देशद्रोह	-15657
▁नवान्वेषण	-15658
शक	-15659
▁मोटा	-15660
▁व्यभि	-15661
esh	-15662
▁शल	-15663
▁हव	-15664
▁कोशिशें	-15665
▁प्राधिकृत	-15666
▁राजनेताओं	-15667
ron	-15668
▁।)	-15669
▁512	-15670
▁थोप	-15671
▁मला	-15672
▁भक्तों	-15673
▁अजिंक्य	-15674
▁दिवालिया	-15675
▁5.	-15676
▁कैल्	-15677
▁बंदी	-15678
भ्रष्ट	-15679
▁जिंदल	-15680
न्द्रनाथ	-15681
▁खुशहाली	-15682
▁सस्पेंड	-15683
63	-15684
ix	-15685
/201	-15686
जेंडर	-15687
▁नवनिर्	-15688
▁लगीं	-15689
▁प्लेस	-15690
▁राठौर	-15691
▁लचीला	-15692
▁Sh	-15693
hats	-15694
अच्छे	-15695
▁रिलेशनशिप	-15696
▁आदिवासियों	-15697
.17	-15698
▁302	-15699
▁मिग	-15700
▁वुड	-15701
▁फ़ोन	-15702
थ्य	-15703
शाक	-15704
ोलो	-15705
▁वाट	-15706
▁आश्र	-15707
▁दंगा	-15708
▁महावीर	-15709
▁विनियामक	-15710
आय	-15711
▁क्ले	-15712
▁लोकेश	-15713
▁ज़िंदा	-15714
▁अनुमानों	-15715
▁महाप्रबंधक	-15716
""।"	-15717
▁हुनर	-15718
प्रतिशत	-15719
वर्द्धन	-15720
▁अटॉर्नी	-15721
▁न्यायाधिकरण	-15722
बिक	-15723
▁अच	-15724
▁गली	-15725
▁आत्मिक	-15726
▁शिष्टमंडल	-15727
चढ़	-15728
क्लो	-15729
▁मिलन	-15730
▁अभिनीत	-15731
▁ट्रांज	-15732
▁आनेवाले	-15733
▁यंग	-15734
▁पट्ट	-15735
▁हलाल	-15736
▁Today	-15737
▁मोर्च	-15738
▁एंड्रयू	-15739
▁ईश्‍वरीय	-15740
▁मुजफ्फरनगर	-15741
▁(8	-15742
िय्य	-15743
▁वैट	-15744
▁जिया	-15745
फिकेशन	-15746
▁कराये	-15747
▁नजरिया	-15748
▁बैक्टी	-15749
▁प्रत्यर्पण	-15750
'।	-15751
सुख	-15752
क्ले	-15753
▁वास्‍त	-15754
▁नज़रिया	-15755
▁पूर्ववर्ष	-15756
▁कमला	-15757
▁काबिज	-15758
▁काल्प	-15759
▁बर्बर	-15760
नाइजेशन	-15761
▁सीमाएं	-15762
▁करत	-15763
▁सीजी	-15764
▁ताल्लुक	-15765
▁प्रदेशाध्यक्ष	-15766
एपी	-15767
डसे	-15768
मिस	-15769
▁गिना	-15770
▁लानत	-15771
▁सरोज	-15772
▁पादरी	-15773
▁वृद्घि	-15774
▁तथाकथित	-15775
पांच	-15776
पद्मा	-15777
▁चढ़ाई	-15778
▁पहुँची	-15779
▁विदर्भ	-15780
▁अध्‍ययन	-15781
▁इलेक्‍ट्र	-15782
माह	-15783
▁अशर	-15784
▁लगाम	-15785
▁प्रवास	-15786
▁राजस्‍व	-15787
▁इतिहासकार	-15788
फेर	-15789
▁इंस्टिट	-15790
▁फैक्टरी	-15791
53	-15792
▁प्रदाताओं	-15793
दिस	-15794
▁शब	-15795
▁हेज	-15796
▁श्रो	-15797
▁क्वीन	-15798
▁पाएगी	-15799
प्लेक्स	-15800
▁विनष्ट	-15801
▁बांद्रा	-15802
▁विनिवेश	-15803
▁मार्गदर्शक	-15804
▁राजनीतिज्ञ	-15805
▁दली	-15806
न्हीं	-15807
▁इर्द	-15808
▁तारों	-15809
▁बुज़ु	-15810
▁मिलों	-15811
▁बिंदुओं	-15812
नीज	-15813
बन्	-15814
प्‍त	-15815
▁अनवर	-15816
▁मज़े	-15817
▁एएसआई	-15818
▁असमानता	-15819
▁ड्राफ्ट	-15820
ana	-15821
कृषि	-15822
▁-19	-15823
विधान	-15824
▁फिलि	-15825
▁होगे	-15826
▁कस्टम	-15827
▁चोकसी	-15828
▁दुष्य	-15829
▁सांस्‍	-15830
▁ईंट	-15831
▁हुयी	-15832
▁कीचड़	-15833
▁परिसंपत्तियों	-15834
थुर	-15835
ोचित	-15836
▁एजे	-15837
▁अभिम	-15838
▁महंगे	-15839
▁प्रतिवादी	-15840
RO	-15841
भीत	-15842
▁छे	-15843
▁छाए	-15844
▁पेटीएम	-15845
▁विश्वकप	-15846
▁काल्पनिक	-15847
▁विक्रेता	-15848
▁एयरक्राफ्ट	-15849
खार	-15850
▁सूट	-15851
डीएमए	-15852
▁भाग्यशाली	-15853
▁पडे	-15854
▁रेग	-15855
▁बेस्ड	-15856
▁बोल्ट	-15857
▁लगायी	-15858
स्‍ट्रे	-15859
▁एचआईवी	-15860
ापे	-15861
▁Col	-15862
िक्‍स	-15863
▁वरना	-15864
▁फ़ैसले	-15865
▁सुनाने	-15866
▁असुरक्षित	-15867
िनर	-15868
ंगें	-15869
▁कोषा	-15870
▁संगोष्ठी	-15871
▁इब्रानियों	-15872
▁2025	-15873
ंडों	-15874
▁10:	-15875
▁क्‍	-15876
ाजीपुर	-15877
▁अलगाववादी	-15878
▁एप्लिकेशन	-15879
41	-15880
आईआई	-15881
कार्ब	-15882
▁उठकर	-15883
▁द्वि	-15884
▁परदे	-15885
▁6,000	-15886
[...]
