<s>	0
<pad>	0
</s>	0
<unk>	0
▁t	-0
he	-1
▁a	-2
in	-3
re	-4
▁the	-5
on	-6
er	-7
nd	-8
▁s	-9
at	-10
▁o	-11
is	-12
▁w	-13
en	-14
▁c	-15
ed	-16
an	-17
or	-18
ar	-19
it	-20
es	-21
▁p	-22
▁f	-23
▁of	-24
▁b	-25
▁in	-26
al	-27
ing	-28
as	-29
▁to	-30
▁and	-31
▁h	-32
ou	-33
ion	-34
ic	-35
▁d	-36
▁m	-37
il	-38
▁S	-39
ent	-40
▁T	-41
ro	-42
▁A	-43
le	-44
▁I	-45
▁th	-46
id	-47
▁M	-48
▁re	-49
▁be	-50
ve	-51
ad	-52
ct	-53
st	-54
▁C	-55
▁n	-56
▁P	-57
om	-58
▁is	-59
▁e	-60
▁l	-61
▁The	-62
am	-63
ur	-64
▁g	-65
▁for	-66
ation	-67
ol	-68
ay	-69
ot	-70
▁B	-71
▁on	-72
ver	-73
ter	-74
im	-75
ir	-76
▁R	-77
el	-78
et	-79
ut	-80
ce	-81
▁H	-82
▁D	-83
ill	-84
▁st	-85
us	-86
ra	-87
ly	-88
ment	-89
ig	-90
▁al	-91
ch	-92
ow	-93
▁he	-94
▁that	-95
""	-96
▁N	-97
ak	-98
▁G	-99
res	-100
ith	-101
▁K	-102
ri	-103
ist	-104
ul	-105
od	-106
▁wh	-107
un	-108
▁Ind	-109
and	-110
ers	-111
ia	-112
▁y	-113
▁with	-114
▁as	-115
▁has	-116
▁was	-117
▁con	-118
▁pro	-119
▁de	-120
▁1	-121
ate	-122
▁ha	-123
hi	-124
▁an	-125
▁W	-126
os	-127
ere	-128
▁are	-129
est	-130
▁at	-131
▁it	-132
her	-133
▁(	-134
▁sa	-135
▁2	-136
th	-137
ab	-138
▁by	-139
▁will	-140
▁se	-141
op	-142
ld	-143
▁J	-144
ain	-145
ag	-146
our	-147
▁have	-148
art	-149
▁v	-150
um	-151
▁com	-152
rom	-153
if	-154
pp	-155
▁said	-156
ice	-157
▁F	-158
▁from	-159
▁not	-160
ort	-161
ity	-162
ies	-163
nt	-164
▁L	-165
ha	-166
em	-167
ess	-168
so	-169
ac	-170
▁su	-171
▁ex	-172
▁India	-173
pe	-174
▁this	-175
iv	-176
ud	-177
▁E	-178
▁u	-179
ant	-180
ht	-181
▁ne	-182
ive	-183
▁r	-184
▁U	-185
▁O	-186
ction	-187
ong	-188
se	-189
ister	-190
ore	-191
har	-192
▁or	-193
ial	-194
▁also	-195
qu	-196
ure	-197
▁Min	-198
▁been	-199
▁le	-200
▁go	-201
cc	-202
ard	-203
▁you	-204
▁his	-205
ry	-206
ust	-207
▁k	-208
▁sh	-209
▁He	-210
ould	-211
all	-212
ian	-213
▁In	-214
han	-215
oc	-216
ress	-217
▁20	-218
▁were	-219
ther	-220
▁wor	-221
▁pol	-222
are	-223
vern	-224
ap	-225
▁ag	-226
▁all	-227
▁we	-228
ated	-229
ident	-230
ast	-231
▁""	-232
▁Th	-233
ef	-234
▁Minister	-235
▁inc	-236
ime	-237
▁V	-238
ric	-239
ok	-240
ary	-241
▁pl	-242
ep	-243
ire	-244
▁had	-245
ge	-246
ous	-247
▁their	-248
ff	-249
vernment	-250
ich	-251
ight	-252
▁Ra	-253
ind	-254
ount	-255
ome	-256
rou	-257
ost	-258
00	-259
ase	-260
▁ad	-261
▁res	-262
▁per	-263
▁Pr	-264
▁j	-265
▁me	-266
ear	-267
li	-268
▁ab	-269
▁who	-270
▁comp	-271
nder	-272
▁which	-273
▁part	-274
age	-275
te	-276
port	-277
ik	-278
▁pe	-279
one	-280
▁off	-281
ew	-282
▁Ch	-283
▁they	-284
av	-285
▁them	-286
▁im	-287
▁can	-288
out	-289
ru	-290
▁St	-291
ber	-292
▁do	-293
ide	-294
ah	-295
ell	-296
ect	-297
ople	-298
ations	-299
▁up	-300
▁It	-301
wo	-302
orm	-303
."	-304
ult	-305
▁3	-306
ence	-307
ord	-308
▁acc	-309
fter	-310
du	-311
▁en	-312
▁Y	-313
og	-314
▁us	-315
▁whe	-316
ans	-317
▁un	-318
ition	-319
vel	-320
▁dis	-321
▁app	-322
▁other	-323
ance	-324
ue	-325
ctor	-326
▁Al	-327
ake	-328
▁Sing	-329
ile	-330
▁Indian	-331
ical	-332
▁people	-333
▁under	-334
▁cont	-335
▁int	-336
ov	-337
pl	-338
per	-339
▁man	-340
pt	-341
▁-	-342
ach	-343
▁again	-344
gh	-345
ays	-346
▁police	-347
very	-348
▁out	-349
▁its	-350
ational	-351
▁Singh	-352
▁sp	-353
▁Rs	-354
▁ar	-355
ine	-356
▁reg	-357
ish	-358
hed	-359
ose	-360
ank	-361
ree	-362
▁te	-363
▁one	-364
▁Sh	-365
ame	-366
▁over	-367
ack	-368
▁As	-369
▁government	-370
ates	-371
▁This	-372
ail	-373
▁201	-374
ign	-375
▁count	-376
ath	-377
▁cl	-378
iz	-379
ub	-380
ade	-381
▁am	-382
▁so	-383
mit	-384
ass	-385
ions	-386
▁sc	-387
red	-388
▁state	-389
able	-390
▁"	-391
JP	-392
▁We	-393
ang	-394
▁there	-395
esh	-396
ace	-397
day	-398
▁against	-399
▁work	-400
▁but	-401
ater	-402
▁fil	-403
▁ch	-404
hief	-405
▁two	-406
ens	-407
▁rec	-408
▁fir	-409
form	-410
▁pres	-411
▁Del	-412
▁tr	-413
▁after	-414
▁any	-415
ib	-416
▁him	-417
▁Go	-418
▁5	-419
▁BJP	-420
▁about	-421
me	-422
erv	-423
▁Delhi	-424
▁would	-425
ious	-426
ted	-427
▁Mod	-428
▁year	-429
▁new	-430
▁4	-431
▁no	-432
ered	-433
▁"""	-434
con	-435
▁qu	-436
now	-437
ash	-438
uring	-439
ip	-440
aw	-441
▁her	-442
old	-443
we	-444
▁lead	-445
ings	-446
▁ev	-447
iss	-448
ourt	-449
ever	-450
▁Un	-451
▁case	-452
▁ro	-453
▁'	-454
▁our	-455
▁inv	-456
ities	-457
▁dec	-458
ove	-459
▁Modi	-460
▁first	-461
erson	-462
oin	-463
▁Wh	-464
lic	-465
▁min	-466
▁Cong	-467
▁time	-468
mer	-469
ket	-470
▁your	-471
ces	-472
lud	-473
▁All	-474
▁Com	-475
▁cent	-476
▁De	-477
ual	-478
▁Congress	-479
igh	-480
cted	-481
ild	-482
rit	-483
▁Raj	-484
tern	-485
▁pre	-486
aj	-487
▁And	-488
),	-489
▁spe	-490
oy	-491
▁film	-492
▁offic	-493
▁bet	-494
ob	-495
▁country	-496
▁ra	-497
ook	-498
▁Se	-499
istan	-500
velop	-501
▁cro	-502
ital	-503
ied	-504
oll	-505
ced	-506
▁An	-507
▁lik	-508
▁prov	-509
ents	-510
▁includ	-511
▁pr	-512
man	-513
▁dist	-514
ise	-515
ased	-516
▁add	-517
▁should	-518
reat	-519
▁being	-520
▁more	-521
rict	-522
▁ind	-523
▁bec	-524
ite	-525
ren	-526
cial	-527
ely	-528
hip	-529
oun	-530
ward	-531
ged	-532
amil	-533
ram	-534
stit	-535
vers	-536
ory	-537
▁know	-538
▁6	-539
▁tak	-540
▁when	-541
ie	-542
▁Ar	-543
aus	-544
ndra	-545
ks	-546
▁Pak	-547
ject	-548
tain	-549
▁into	-550
ife	-551
▁tra	-552
▁Prime	-553
ai	-554
ya	-555
▁rel	-556
act	-557
▁ele	-558
▁Pol	-559
▁made	-560
▁person	-561
▁Su	-562
▁19	-563
▁imp	-564
ood	-565
20	-566
emb	-567
▁On	-568
ments	-569
▁such	-570
▁mar	-571
▁rem	-572
oth	-573
cy	-574
rib	-575
▁mat	-576
ound	-577
▁what	-578
arn	-579
▁iss	-580
▁these	-581
eng	-582
ma	-583
▁Man	-584
▁some	-585
▁my	-586
urn	-587
▁med	-588
▁Pakistan	-589
▁comm	-590
▁But	-591
▁How	-592
▁co	-593
adesh	-594
ral	-595
ution	-596
▁cons	-597
▁act	-598
▁att	-599
▁ass	-600
▁ac	-601
ating	-602
▁only	-603
▁during	-604
der	-605
▁meet	-606
▁Chief	-607
oh	-608
ana	-609
▁Shri	-610
resident	-611
hen	-612
ci	-613
ons	-614
own	-615
▁God	-616
▁There	-617
eral	-618
med	-619
▁get	-620
amp	-621
▁Government	-622
ission	-623
▁ter	-624
ctions	-625
ween	-626
ower	-627
fere	-628
▁report	-629
▁if	-630
rough	-631
ict	-632
▁between	-633
used	-634
▁like	-635
▁Police	-636
▁7	-637
led	-638
ision	-639
▁They	-640
▁need	-641
▁ph	-642
fore	-643
▁10	-644
▁Re	-645
▁invest	-646
gan	-647
▁President	-648
▁than	-649
ting	-650
▁supp	-651
ised	-652
akh	-653
▁those	-654
ug	-655
▁far	-656
ked	-657
▁three	-658
▁stud	-659
les	-660
▁New	-661
end	-662
▁play	-663
elf	-664
way	-665
▁fe	-666
▁through	-667
▁Pro	-668
▁then	-669
alth	-670
istry	-671
▁sub	-672
▁while	-673
▁develop	-674
▁ent	-675
ited	-676
ured	-677
ally	-678
row	-679
ful	-680
▁day	-681
▁State	-682
▁8	-683
ors	-684
ont	-685
ific	-686
▁she	-687
umb	-688
ret	-689
▁present	-690
▁wom	-691
▁world	-692
ures	-693
▁very	-694
umar	-695
▁district	-696
ved	-697
eh	-698
▁Ma	-699
▁Ad	-700
ck	-701
▁em	-702
▁did	-703
ause	-704
ats	-705
▁mon	-706
▁giv	-707
osp	-708
get	-709
▁crore	-710
ases	-711
olog	-712
▁pos	-713
▁Pradesh	-714
ness	-715
▁bl	-716
▁cap	-717
▁fl	-718
ars	-719
▁Khan	-720
▁official	-721
▁dire	-722
▁serv	-723
als	-724
▁produ	-725
vi	-726
cess	-727
ublic	-728
▁last	-729
-1	-730
▁fin	-731
ters	-732
▁sec	-733
oor	-734
arli	-735
▁hel	-736
ata	-737
▁set	-738
other	-739
▁how	-740
▁famil	-741
round	-742
pect	-743
..	-744
"""	-745
000	-746
▁take	-747
ollow	-748
▁So	-749
▁where	-750
hes	-751
ative	-752
ible	-753
▁inform	-754
ph	-755
,""	-756
▁minister	-757
▁Kumar	-758
ft	-759
ix	-760
▁good	-761
arendra	-762
▁here	-763
▁Gand	-764
▁well	-765
▁accused	-766
▁today	-767
ax	-768
ati	-769
▁dif	-770
▁Narendra	-771
▁call	-772
▁En	-773
▁say	-774
▁soc	-775
▁start	-776
▁Allah	-777
ran	-778
▁Bh	-779
▁every	-780
oint	-781
rest	-782
ues	-783
ility	-784
▁taken	-785
▁see	-786
▁Cent	-787
▁many	-788
▁eff	-789
wn	-790
▁court	-791
und	-792
ices	-793
▁years	-794
ospital	-795
uth	-796
ble	-797
▁For	-798
▁dem	-799
xt	-800
ink	-801
▁inj	-802
air	-803
ven	-804
ody	-805
▁help	-806
ural	-807
ss	-808
up	-809
▁team	-810
ries	-811
▁chan	-812
▁may	-813
▁loc	-814
▁party	-815
▁incident	-816
▁exp	-817
▁Comm	-818
ool	-819
▁Gandhi	-820
▁post	-821
▁She	-822
▁Court	-823
▁Shar	-824
eep	-825
▁Ministry	-826
min	-827
▁des	-828
▁child	-829
ants	-830
▁num	-831
uk	-832
).	-833
▁la	-834
▁trans	-835
▁You	-836
tend	-837
ism	-838
▁before	-839
▁US	-840
ey	-841
▁Gu	-842
▁ser	-843
ided	-844
▁ann	-845
▁Sha	-846
▁var	-847
▁could	-848
▁National	-849
ather	-850
ning	-851
▁&	-852
▁life	-853
ared	-854
cond	-855
▁right	-856
▁9	-857
ives	-858
▁shall	-859
▁rep	-860
▁12	-861
▁Is	-862
▁occ	-863
▁make	-864
▁just	-865
▁Union	-866
ond	-867
▁vis	-868
aking	-869
The	-870
uss	-871
▁Ex	-872
▁sy	-873
▁arrest	-874
its	-875
▁chief	-876
▁vi	-877
chn	-878
▁cur	-879
ular	-880
▁follow	-881
ty	-882
▁ob	-883
▁number	-884
▁However	-885
▁def	-886
▁meeting	-887
ght	-888
▁cor	-889
mir	-890
▁Pun	-891
ms	-892
."""	-893
▁happ	-894
▁hand	-895
▁high	-896
rol	-897
conom	-898
▁regist	-899
▁disc	-900
,000	-901
▁col	-902
▁come	-903
▁including	-904
▁family	-905
▁four	-906
ivers	-907
kar	-908
▁sha	-909
att	-910
ouse	-911
▁car	-912
uc	-913
▁Ram	-914
▁even	-915
▁incre	-916
ember	-917
ics	-918
▁prog	-919
▁av	-920
▁Sec	-921
read	-922
▁PM	-923
▁Act	-924
▁most	-925
▁sm	-926
▁lakh	-927
▁back	-928
cer	-929
▁pass	-930
ines	-931
arch	-932
▁import	-933
pur	-934
▁Tr	-935
ave	-936
eneral	-937
▁given	-938
▁compan	-939
cept	-940
▁br	-941
▁month	-942
ior	-943
▁char	-944
amm	-945
▁op	-946
▁sit	-947
▁rele	-948
rent	-949
▁both	-950
▁support	-951
▁Kash	-952
▁kill	-953
▁law	-954
▁inter	-955
▁down	-956
▁Sab	-957
▁Am	-958
▁bu	-959
riv	-960
▁cases	-961
stem	-962
ists	-963
▁Kap	-964
ute	-965
ee	-966
▁among	-967
▁ret	-968
▁fac	-969
ides	-970
▁inf	-971
▁gu	-972
ording	-973
urity	-974
ways	-975
ploy	-976
▁What	-977
▁Kashmir	-978
ror	-979
▁appro	-980
▁Me	-981
▁opp	-982
▁15	-983
ush	-984
com	-985
▁sent	-986
▁ben	-987
ince	-988
▁hospital	-989
▁run	-990
ple	-991
roup	-992
▁registered	-993
▁show	-994
▁investig	-995
▁polit	-996
chool	-997
▁Te	-998
▁contin	-999
▁Shah	-1000
jab	-1001
asht	-1002
ges	-1003
▁resp	-1004
▁conf	-1005
▁place	-1006
▁requ	-1007
▁water	-1008
ament	-1009
▁partic	-1010
▁dep	-1011
▁200	-1012
retary	-1013
na	-1014
▁beli	-1015
▁former	-1016
pend	-1017
▁end	-1018
▁differe	-1019
umbai	-1020
▁Ass	-1021
uch	-1022
iness	-1023
ency	-1024
▁ref	-1025
▁death	-1026
▁organ	-1027
ins	-1028
▁Con	-1029
andid	-1030
ina	-1031
ternational	-1032
▁rece	-1033
▁second	-1034
embers	-1035
▁Punjab	-1036
▁bus	-1037
tt	-1038
king	-1039
▁lar	-1040
▁attack	-1041
ired	-1042
▁Sabha	-1043
ified	-1044
▁held	-1045
▁way	-1046
▁cr	-1047
▁sign	-1048
rong	-1049
▁Bank	-1050
▁each	-1051
▁ins	-1052
osed	-1053
▁power	-1054
▁ed	-1055
▁result	-1056
▁form	-1057
▁Mumbai	-1058
▁sur	-1059
▁want	-1060
▁laun	-1061
▁development	-1062
ued	-1063
▁women	-1064
BI	-1065
war	-1066
▁cre	-1067
urther	-1068
oard	-1069
▁leaders	-1070
▁look	-1071
▁arrested	-1072
ale	-1073
▁does	-1074
▁project	-1075
▁mov	-1076
▁health	-1077
▁injured	-1078
▁Hind	-1079
▁spot	-1080
▁Sharma	-1081
▁now	-1082
▁same	-1083
pr	-1084
ched	-1085
ology	-1086
▁Wor	-1087
▁students	-1088
▁No	-1089
▁social	-1090
▁grow	-1091
▁Ab	-1092
gest	-1093
wal	-1094
▁cle	-1095
▁11	-1096
▁alle	-1097
▁Res	-1098
▁prom	-1099
▁public	-1100
▁avail	-1101
▁air	-1102
▁gl	-1103
▁leader	-1104
▁media	-1105
ough	-1106
ently	-1107
▁Dep	-1108
ention	-1109
aim	-1110
▁president	-1111
▁ear	-1112
ashtra	-1113
ull	-1114
jay	-1115
▁bro	-1116
▁comple	-1117
▁aff	-1118
▁econom	-1119
▁found	-1120
▁Rah	-1121
tal	-1122
stru	-1123
pre	-1124
ani	-1125
▁long	-1126
▁exam	-1127
▁Z	-1128
ten	-1129
▁because	-1130
▁matter	-1131
au	-1132
▁due	-1133
▁occas	-1134
▁days	-1135
ages	-1136
▁His	-1137
▁oper	-1138
▁cond	-1139
ctors	-1140
▁took	-1141
▁members	-1142
artment	-1143
az	-1144
▁Jeh	-1145
▁vill	-1146
ross	-1147
iet	-1148
▁own	-1149
outh	-1150
▁commit	-1151
▁regard	-1152
mers	-1153
abad	-1154
ts	-1155
▁various	-1156
▁children	-1157
arat	-1158
eration	-1159
ne	-1160
▁open	-1161
▁used	-1162
land	-1163
ized	-1164
ving	-1165
▁system	-1166
ovah	-1167
▁process	-1168
ling	-1169
ock	-1170
▁mod	-1171
▁current	-1172
▁Jehovah	-1173
▁says	-1174
▁main	-1175
▁next	-1176
▁along	-1177
▁adv	-1178
lim	-1179
ner	-1180
▁order	-1181
▁Kapoor	-1182
▁Mahar	-1183
wards	-1184
▁told	-1185
▁If	-1186
▁candid	-1187
▁Bi	-1188
ration	-1189
▁Lord	-1190
▁occasion	-1191
▁tal	-1192
▁announ	-1193
▁Dr	-1194
▁remain	-1195
enior	-1196
ves	-1197
imes	-1198
▁Pat	-1199
▁Ag	-1200
▁others	-1201
▁won	-1202
▁Commission	-1203
uation	-1204
▁too	-1205
ived	-1206
ination	-1207
eth	-1208
▁must	-1209
els	-1210
▁different	-1211
▁quest	-1212
▁great	-1213
▁land	-1214
▁fore	-1215
ote	-1216
ature	-1217
▁ve	-1218
uthor	-1219
rat	-1220
ajor	-1221
▁going	-1222
▁Acc	-1223
ished	-1224
▁Rahul	-1225
▁bank	-1226
▁writ	-1227
▁sl	-1228
oot	-1229
embly	-1230
▁information	-1231
▁head	-1232
▁After	-1233
gy	-1234
▁14	-1235
riend	-1236
▁Cha	-1237
ality	-1238
▁terror	-1239
▁win	-1240
erest	-1241
▁added	-1242
▁Sa	-1243
▁further	-1244
▁det	-1245
ias	-1246
▁program	-1247
▁countries	-1248
▁five	-1249
eld	-1250
▁stand	-1251
ason	-1252
▁around	-1253
▁13	-1254
▁est	-1255
ttar	-1256
nce	-1257
ys	-1258
ID	-1259
ract	-1260
▁started	-1261
▁issue	-1262
▁commun	-1263
▁techn	-1264
ricket	-1265
▁18	-1266
ffic	-1267
▁Shi	-1268
▁At	-1269
▁High	-1270
▁belie	-1271
illion	-1272
▁val	-1273
ried	-1274
▁national	-1275
▁tem	-1276
▁killed	-1277
tee	-1278
▁pur	-1279
▁called	-1280
▁Le	-1281
▁del	-1282
▁Lok	-1283
▁Jan	-1284
▁account	-1285
ned	-1286
▁prev	-1287
▁security	-1288
▁Uttar	-1289
▁important	-1290
▁Chand	-1291
▁vide	-1292
▁claim	-1293
▁Part	-1294
▁fa	-1295
▁level	-1296
▁let	-1297
arh	-1298
ached	-1299
mber	-1300
▁seen	-1301
▁test	-1302
▁area	-1303
▁market	-1304
engal	-1305
▁visit	-1306
▁sever	-1307
ering	-1308
▁across	-1309
▁Eng	-1310
▁poss	-1311
▁body	-1312
▁Maharashtra	-1313
ump	-1314
ec	-1315
▁gr	-1316
▁reported	-1317
ilit	-1318
▁colle	-1319
▁group	-1320
por	-1321
▁Air	-1322
▁give	-1323
arlier	-1324
uman	-1325
▁much	-1326
ke	-1327
▁prop	-1328
ulture	-1329
▁action	-1330
▁respect	-1331
▁Q	-1332
▁several	-1333
▁decl	-1334
▁benef	-1335
iod	-1336
▁school	-1337
▁Mad	-1338
▁plan	-1339
▁Bengal	-1340
▁Cor	-1341
my	-1342
▁sche	-1343
▁another	-1344
▁Par	-1345
ield	-1346
to	-1347
▁equ	-1348
ird	-1349
ising	-1350
ek	-1351
▁jud	-1352
ressed	-1353
▁available	-1354
LA	-1355
▁Guj	-1356
▁succ	-1357
▁home	-1358
▁indust	-1359
▁demand	-1360
▁compl	-1361
▁states	-1362
▁use	-1363
▁interest	-1364
▁Just	-1365
ick	-1366
▁decision	-1367
▁special	-1368
ele	-1369
▁major	-1370
agar	-1371
▁read	-1372
▁total	-1373
▁World	-1374
ours	-1375
ll	-1376
ought	-1377
▁Fin	-1378
▁16	-1379
ammu	-1380
▁Secretary	-1381
aid	-1382
stitution	-1383
iti	-1384
iversity	-1385
▁yet	-1386
io	-1387
▁San	-1388
▁educ	-1389
▁came	-1390
ession	-1391
▁done	-1392
▁ext	-1393
▁Mus	-1394
▁che	-1395
-19	-1396
ala	-1397
▁[	-1398
orth	-1399
▁proble	-1400
CC	-1401
▁condu	-1402
oss	-1403
▁Central	-1404
arliament	-1405
▁25	-1406
▁near	-1407
▁Pe	-1408
airs	-1409
▁asked	-1410
▁Jammu	-1411
▁pay	-1412
▁Chr	-1413
▁lit	-1414
▁house	-1415
ena	-1416
▁period	-1417
▁persons	-1418
era	-1419
▁leg	-1420
▁farmers	-1421
icket	-1422
▁situation	-1423
▁away	-1424
aryana	-1425
▁prot	-1426
chan	-1427
99	-1428
▁Af	-1429
▁road	-1430
▁exper	-1431
▁areas	-1432
▁consid	-1433
▁States	-1434
▁best	-1435
▁role	-1436
▁Haryana	-1437
▁big	-1438
▁Bihar	-1439
▁political	-1440
▁later	-1441
▁When	-1442
▁bas	-1443
▁discuss	-1444
▁train	-1445
▁officials	-1446
▁complain	-1447
ept	-1448
oney	-1449
rate	-1450
▁think	-1451
uty	-1452
▁son	-1453
▁since	-1454
▁ens	-1455
▁sk	-1456
atch	-1457
▁list	-1458
irl	-1459
0.	-1460
▁point	-1461
▁become	-1462
bs	-1463
▁elections	-1464
ready	-1465
▁Gujarat	-1466
▁Day	-1467
▁company	-1468
ience	-1469
▁hig	-1470
▁city	-1471
▁return	-1472
▁allow	-1473
stand	-1474
▁West	-1475
lement	-1476
itiz	-1477
▁MP	-1478
▁success	-1479
▁concer	-1480
▁One	-1481
ames	-1482
▁employ	-1483
ually	-1484
▁CO	-1485
soci	-1486
▁happen	-1487
preme	-1488
▁attend	-1489
▁Mar	-1490
▁Spe	-1491
▁Dire	-1492
▁top	-1493
ption	-1494
▁particip	-1495
▁name	-1496
▁fr	-1497
▁already	-1498
cent	-1499
▁Develop	-1500
▁put	-1501
▁record	-1502
▁book	-1503
▁never	-1504
ources	-1505
▁ident	-1506
▁24	-1507
▁2020	-1508
▁keep	-1509
▁things	-1510
cl	-1511
▁Amit	-1512
▁These	-1513
▁soon	-1514
▁Test	-1515
▁met	-1516
▁vict	-1517
wood	-1518
▁Im	-1519
▁China	-1520
▁cer	-1521
▁got	-1522
self	-1523
▁activ	-1524
▁seats	-1525
not	-1526
▁sim	-1527
mi	-1528
ging	-1529
▁rest	-1530
▁turn	-1531
▁2019	-1532
ports	-1533
▁six	-1534
▁view	-1535
▁sector	-1536
▁build	-1537
▁few	-1538
ortun	-1539
▁price	-1540
▁friend	-1541
▁effect	-1542
view	-1543
icle	-1544
...	-1545
▁heav	-1546
▁Sc	-1547
▁May	-1548
▁video	-1549
oad	-1550
▁pop	-1551
▁men	-1552
cing	-1553
▁Aust	-1554
ets	-1555
rid	-1556
▁According	-1557
stitut	-1558
olly	-1559
itness	-1560
▁inde	-1561
ruct	-1562
▁alleged	-1563
▁senior	-1564
▁condition	-1565
▁Rail	-1566
▁gen	-1567
▁camp	-1568
▁Development	-1569
▁hold	-1570
▁cost	-1571
▁business	-1572
iving	-1573
▁Supreme	-1574
ient	-1575
icy	-1576
▁gre	-1577
▁tru	-1578
▁fun	-1579
than	-1580
line	-1581
▁Him	-1582
augh	-1583
.5	-1584
orts	-1585
▁eng	-1586
▁viol	-1587
wh	-1588
mend	-1589
▁General	-1590
aug	-1591
▁17	-1592
▁father	-1593
▁move	-1594
▁provide	-1595
▁Bhar	-1596
lish	-1597
▁spok	-1598
sel	-1599
ately	-1600
minist	-1601
▁announced	-1602
▁wife	-1603
▁event	-1604
▁village	-1605
obal	-1606
eal	-1607
▁upon	-1608
▁Pl	-1609
▁Austral	-1610
▁pric	-1611
▁Indias	-1612
▁Christ	-1613
▁news	-1614
▁perform	-1615
▁care	-1616
▁Son	-1617
ST	-1618
▁statement	-1619
▁To	-1620
.1	-1621
ference	-1622
▁30	-1623
▁fire	-1624
agement	-1625
▁based	-1626
angu	-1627
urs	-1628
▁treat	-1629
▁poll	-1630
ancial	-1631
reng	-1632
idence	-1633
▁cam	-1634
▁without	-1635
▁South	-1636
▁MLA	-1637
ense	-1638
▁region	-1639
▁died	-1640
▁services	-1641
mitted	-1642
▁series	-1643
GB	-1644
pected	-1645
eleb	-1646
▁Shiv	-1647
▁50	-1648
▁making	-1649
▁toget	-1650
ises	-1651
▁together	-1652
▁investigation	-1653
▁Mal	-1654
cil	-1655
▁author	-1656
▁pet	-1657
▁question	-1658
be	-1659
▁reached	-1660
ily	-1661
itional	-1662
▁launched	-1663
ury	-1664
▁bel	-1665
▁bring	-1666
▁sol	-1667
ined	-1668
kh	-1669
▁Ran	-1670
ollywood	-1671
iety	-1672
▁inst	-1673
▁clear	-1674
VID	-1675
▁impro	-1676
ger	-1677
aka	-1678
▁hist	-1679
▁earth	-1680
mon	-1681
▁prof	-1682
ivil	-1683
asthan	-1684
▁Department	-1685
inder	-1686
▁applic	-1687
▁relations	-1688
here	-1689
▁issued	-1690
▁ur	-1691
▁working	-1692
▁streng	-1693
▁Party	-1694
▁Home	-1695
▁art	-1696
▁received	-1697
▁Ja	-1698
inal	-1699
▁priv	-1700
itive	-1701
hya	-1702
ners	-1703
▁word	-1704
▁growth	-1705
▁Med	-1706
thing	-1707
▁international	-1708
▁heart	-1709
▁par	-1710
ork	-1711
▁better	-1712
▁cha	-1713
▁Sam	-1714
▁initi	-1715
▁tax	-1716
▁strong	-1717
▁love	-1718
▁Sat	-1719
▁gra	-1720
▁known	-1721
ones	-1722
▁fund	-1723
ium	-1724
▁chall	-1725
▁Justice	-1726
▁dri	-1727
adav	-1728
arent	-1729
ected	-1730
▁issues	-1731
▁COVID	-1732
▁relig	-1733
▁still	-1734
une	-1735
▁girl	-1736
▁field	-1737
▁find	-1738
▁bo	-1739
▁beg	-1740
▁Aff	-1741
▁Rajasthan	-1742
cies	-1743
▁Do	-1744
iron	-1745
▁address	-1746
▁plac	-1747
▁stor	-1748
irus	-1749
▁That	-1750
less	-1751
▁celeb	-1752
par	-1753
ches	-1754
▁dev	-1755
▁informed	-1756
▁Mr	-1757
▁IP	-1758
▁respons	-1759
▁include	-1760
▁phone	-1761
gr	-1762
▁money	-1763
▁times	-1764
▁Karn	-1765
▁cricket	-1766
▁cannot	-1767
▁Parliament	-1768
ouncil	-1769
▁food	-1770
▁ple	-1771
▁third	-1772
▁Col	-1773
▁Sal	-1774
ergy	-1775
▁sing	-1776
▁2018	-1777
ification	-1778
▁Yadav	-1779
201	-1780
nel	-1781
▁My	-1782
▁Mah	-1783
▁large	-1784
▁towards	-1785
▁war	-1786
isation	-1787
▁local	-1788
▁however	-1789
▁beh	-1790
▁woman	-1791
▁implement	-1792
▁trad	-1793
▁following	-1794
▁human	-1795
ari	-1796
▁education	-1797
▁till	-1798
▁100	-1799
▁currently	-1800
▁prote	-1801
▁rul	-1802
▁/	-1803
.0	-1804
▁Bang	-1805
▁brother	-1806
ential	-1807
app	-1808
▁Director	-1809
▁Or	-1810
anka	-1811
We	-1812
▁daugh	-1813
idd	-1814
▁Centre	-1815
▁Affairs	-1816
▁join	-1817
▁runs	-1818
▁lot	-1819
iance	-1820
ences	-1821
ali	-1822
▁real	-1823
▁cust	-1824
resent	-1825
▁Bollywood	-1826
▁Ele	-1827
ically	-1828
▁filed	-1829
▁control	-1830
▁tre	-1831
ron	-1832
▁Rep	-1833
ulation	-1834
▁protest	-1835
amb	-1836
ternal	-1837
▁match	-1838
▁saying	-1839
▁movie	-1840
of	-1841
chie	-1842
▁Health	-1843
▁week	-1844
▁comes	-1845
▁deb	-1846
▁taking	-1847
▁div	-1848
▁Mo	-1849
▁detail	-1850
▁With	-1851
rought	-1852
reed	-1853
▁data	-1854
▁fut	-1855
▁actor	-1856
▁Board	-1857
▁nation	-1858
▁class	-1859
▁dead	-1860
▁saf	-1861
▁Muslim	-1862
▁candidates	-1863
ively	-1864
ards	-1865
sh	-1866
▁University	-1867
overed	-1868
▁Koh	-1869
▁released	-1870
▁expl	-1871
▁Co	-1872
ians	-1873
▁2017	-1874
▁Vi	-1875
rying	-1876
▁within	-1877
▁Its	-1878
▁1,	-1879
ructure	-1880
go	-1881
▁product	-1882
▁increase	-1883
▁step	-1884
▁Assembly	-1885
SP	-1886
ilities	-1887
▁change	-1888
ify	-1889
TI	-1890
esus	-1891
▁Dh	-1892
▁peace	-1893
▁veh	-1894
medi	-1895
▁believe	-1896
ither	-1897
▁Kh	-1898
osition	-1899
▁opportun	-1900
mar	-1901
oura	-1902
itizens	-1903
▁CBI	-1904
▁always	-1905
ibility	-1906
hav	-1907
irit	-1908
ps	-1909
atives	-1910
▁service	-1911
inet	-1912
▁full	-1913
▁small	-1914
▁general	-1915
DI	-1916
▁shared	-1917
▁youn	-1918
ourn	-1919
▁invol	-1920
▁fight	-1921
aff	-1922
weet	-1923
adu	-1924
▁Pra	-1925
▁ru	-1926
▁21	-1927
▁Vir	-1928
ataka	-1929
iqu	-1930
mes	-1931
▁final	-1932
▁accident	-1933
rial	-1934
▁achie	-1935
▁vot	-1936
▁Jesus	-1937
▁Commit	-1938
aged	-1939
while	-1940
▁CM	-1941
iding	-1942
ained	-1943
band	-1944
▁proper	-1945
ara	-1946
▁entire	-1947
▁deal	-1948
▁office	-1949
pril	-1950
▁Ah	-1951
aring	-1952
part	-1953
▁Kohli	-1954
IC	-1955
▁mother	-1956
ances	-1957
▁Ph	-1958
▁provided	-1959
▁inn	-1960
iver	-1961
selves	-1962
ples	-1963
▁sus	-1964
▁feat	-1965
▁es	-1966
▁estab	-1967
▁Karnataka	-1968
▁complaint	-1969
the	-1970
over	-1971
ware	-1972
▁earlier	-1973
put	-1974
▁crit	-1975
▁left	-1976
▁why	-1977
orn	-1978
▁redu	-1979
▁Army	-1980
▁financial	-1981
▁X	-1982
▁camera	-1983
irman	-1984
ilar	-1985
▁enc	-1986
SE	-1987
▁constru	-1988
ointed	-1989
pan	-1990
▁pati	-1991
pped	-1992
▁ord	-1993
▁serious	-1994
jee	-1995
▁certain	-1996
abinet	-1997
▁went	-1998
▁Australia	-1999
▁brought	-2000
aram	-2001
▁rate	-2002
▁decided	-2003
ka	-2004
rug	-2005
ultural	-2006
▁Our	-2007
▁mess	-2008
▁spec	-2009
▁sug	-2010
▁et	-2011
meric	-2012
fic	-2013
▁April	-2014
aries	-2015
▁live	-2016
▁date	-2017
▁accept	-2018
eb	-2019
▁treatment	-2020
▁free	-2021
▁press	-2022
stitute	-2023
▁International	-2024
men	-2025
▁ri	-2026
resh	-2027
ope	-2028
▁front	-2029
rast	-2030
▁Def	-2031
▁economic	-2032
wit	-2033
.3	-2034
▁bre	-2035
irth	-2036
▁contrib	-2037
▁Council	-2038
▁understand	-2039
▁Trump	-2040
▁continue	-2041
▁future	-2042
▁elect	-2043
▁som	-2044
▁Tamil	-2045
▁election	-2046
▁prin	-2047
▁months	-2048
raft	-2049
▁million	-2050
▁Ash	-2051
▁Kar	-2052
▁pri	-2053
▁feel	-2054
▁ensure	-2055
▁Cl	-2056
▁Committee	-2057
▁global	-2058
amed	-2059
esides	-2060
ley	-2061
▁spirit	-2062
IR	-2063
anwhile	-2064
uf	-2065
▁played	-2066
ban	-2067
▁scheme	-2068
ability	-2069
▁Serv	-2070
▁policy	-2071
viron	-2072
""."	-2073
▁langu	-2074
wan	-2075
▁storage	-2076
ti	-2077
▁dont	-2078
▁directed	-2079
▁Mon	-2080
▁(1	-2081
▁old	-2082
▁Red	-2083
▁Finance	-2084
alf	-2085
▁might	-2086
▁.	-2087
▁etc	-2088
▁immedi	-2089
▁administ	-2090
▁prices	-2091
ude	-2092
▁wicket	-2093
ize	-2094
isions	-2095
.2	-2096
vironment	-2097
▁Reg	-2098
▁March	-2099
▁industry	-2100
ship	-2101
▁workers	-2102
cell	-2103
▁People	-2104
▁past	-2105
▁United	-2106
ored	-2107
▁Both	-2108
▁22	-2109
▁Nav	-2110
▁parties	-2111
lished	-2112
▁efforts	-2113
ober	-2114
▁meas	-2115
▁Sub	-2116
▁Ali	-2117
▁eas	-2118
ung	-2119
▁amount	-2120
ees	-2121
rain	-2122
la	-2123
▁youth	-2124
▁mis	-2125
▁har	-2126
▁faith	-2127
▁Sm	-2128
lam	-2129
his	-2130
▁doing	-2131
▁tar	-2132
erred	-2133
▁Two	-2134
irc	-2135
side	-2136
▁short	-2137
▁App	-2138
▁fact	-2139
▁expected	-2140
leg	-2141
▁Gur	-2142
▁lo	-2143
▁having	-2144
▁tweet	-2145
erala	-2146
▁milit	-2147
▁kind	-2148
reen	-2149
hold	-2150
▁ide	-2151
▁bat	-2152
▁function	-2153
▁Pri	-2154
rah	-2155
▁learn	-2156
▁stat	-2157
▁recently	-2158
duc	-2159
▁job	-2160
▁self	-2161
ton	-2162
▁projects	-2163
nes	-2164
imum	-2165
▁Pre	-2166
▁Why	-2167
uary	-2168
ization	-2169
operation	-2170
▁North	-2171
hu	-2172
▁pict	-2173
▁UP	-2174
oj	-2175
▁phot	-2176
▁represent	-2177
▁results	-2178
crib	-2179
▁programme	-2180
▁less	-2181
▁During	-2182
▁non	-2183
▁face	-2184
▁officers	-2185
▁private	-2186
hra	-2187
▁fail	-2188
ert	-2189
▁Har	-2190
▁Dist	-2191
▁daughter	-2192
▁mind	-2193
▁dom	-2194
▁dest	-2195
▁Kerala	-2196
▁hon	-2197
▁den	-2198
AN	-2199
▁Then	-2200
ension	-2201
▁percent	-2202
▁ver	-2203
▁likely	-2204
hers	-2205
ledge	-2206
uly	-2207
▁share	-2208
▁mur	-2209
AM	-2210
ipal	-2211
▁Moh	-2212
▁means	-2213
▁gave	-2214
▁capital	-2215
▁Form	-2216
▁dou	-2217
▁Hy	-2218
▁Sy	-2219
▁celebr	-2220
isl	-2221
ator	-2222
▁smart	-2223
person	-2224
▁foreign	-2225
▁Add	-2226
▁possible	-2227
▁section	-2228
▁reason	-2229
▁suff	-2230
ample	-2231
▁Educ	-2232
▁webs	-2233
riculture	-2234
▁Pan	-2235
▁award	-2236
▁rese	-2237
▁tour	-2238
▁Meanwhile	-2239
ceed	-2240
▁port	-2241
ights	-2242
▁While	-2243
▁conne	-2244
▁Ne	-2245
▁Sw	-2246
▁Muk	-2247
erc	-2248
▁0	-2249
tle	-2250
▁release	-2251
▁station	-2252
itor	-2253
▁direct	-2254
usband	-2255
▁written	-2256
.4	-2257
dom	-2258
wa	-2259
▁compet	-2260
▁pract	-2261
ains	-2262
rodu	-2263
▁lost	-2264
▁basis	-2265
▁associ	-2266
▁victim	-2267
▁Madhya	-2268
▁led	-2269
▁side	-2270
▁companies	-2271
ika	-2272
▁truth	-2273
▁lim	-2274
▁Americ	-2275
▁medical	-2276
▁mor	-2277
aster	-2278
▁mult	-2279
ream	-2280
▁rev	-2281
iting	-2282
▁Indust	-2283
asing	-2284
▁technology	-2285
▁able	-2286
stitu	-2287
▁production	-2288
▁according	-2289
▁don	-2290
▁cause	-2291
▁contest	-2292
aker	-2293
cember	-2294
eptember	-2295
▁el	-2296
icles	-2297
▁needs	-2298
ring	-2299
▁position	-2300
otion	-2301
ode	-2302
▁fall	-2303
IM	-2304
akes	-2305
▁pan	-2306
aign	-2307
▁higher	-2308
▁Oct	-2309
▁became	-2310
▁Be	-2311
ival	-2312
Ind	-2313
▁resol	-2314
▁rain	-2315
▁ful	-2316
▁23	-2317
▁sele	-2318
sw	-2319
▁birth	-2320
ada	-2321
ev	-2322
ern	-2323
hest	-2324
▁gold	-2325
▁bow	-2326
head	-2327
▁stop	-2328
ogn	-2329
▁cong	-2330
▁net	-2331
▁parent	-2332
order	-2333
▁mob	-2334
mp	-2335
IT	-2336
▁hard	-2337
▁Far	-2338
ufact	-2339
▁Techn	-2340
▁Govern	-2341
▁close	-2342
▁June	-2343
▁oil	-2344
▁fear	-2345
adi	-2346
▁design	-2347
acity	-2348
▁captain	-2349
uge	-2350
ama	-2351
▁coun	-2352
coming	-2353
engers	-2354
▁Fore	-2355
▁caus	-2356
▁travel	-2357
▁foc	-2358
▁previous	-2359
▁journ	-2360
▁claimed	-2361
▁young	-2362
ovember	-2363
▁Sun	-2364
▁parts	-2365
▁sal	-2366
▁Sri	-2367
▁study	-2368
▁Afric	-2369
▁lives	-2370
▁Roh	-2371
▁Virat	-2372
uro	-2373
▁extend	-2374
then	-2375
▁sw	-2376
▁community	-2377
af	-2378
▁getting	-2379
▁declared	-2380
▁related	-2381
▁Sur	-2382
▁sure	-2383
▁officer	-2384
▁wrong	-2385
▁sens	-2386
▁districts	-2387
avirus	-2388
▁2016	-2389
▁conv	-2390
▁Offic	-2391
▁Defence	-2392
▁lab	-2393
▁28	-2394
▁increased	-2395
aut	-2396
▁star	-2397
50	-2398
▁using	-2399
▁Sci	-2400
oses	-2401
AR	-2402
▁Bl	-2403
▁energy	-2404
rastructure	-2405
▁stated	-2406
▁forces	-2407
ourse	-2408
▁aut	-2409
▁society	-2410
come	-2411
▁reve	-2412
garh	-2413
▁ever	-2414
onavirus	-2415
▁conn	-2416
▁target	-2417
▁coming	-2418
▁i	-2419
hing	-2420
▁31	-2421
atory	-2422
empt	-2423
uted	-2424
▁Some	-2425
▁England	-2426
▁trib	-2427
▁points	-2428
▁problem	-2429
aur	-2430
▁witness	-2431
▁exist	-2432
▁website	-2433
encies	-2434
▁December	-2435
▁light	-2436
▁Andhra	-2437
ivid	-2438
udd	-2439
▁whom	-2440
▁institut	-2441
by	-2442
▁husband	-2443
▁obs	-2444
▁ty	-2445
▁Mu	-2446
▁conducted	-2447
▁Bible	-2448
▁,	-2449
▁prep	-2450
▁sold	-2451
▁assist	-2452
▁coll	-2453
▁example	-2454
▁citizens	-2455
▁Aug	-2456
▁Vice	-2457
▁member	-2458
ipur	-2459
▁Ke	-2460
▁September	-2461
▁director	-2462
▁unt	-2463
▁activities	-2464
▁created	-2465
▁Tel	-2466
play	-2467
▁least	-2468
In	-2469
aya	-2470
▁key	-2471
aks	-2472
▁Education	-2473
▁night	-2474
SS	-2475
▁loss	-2476
ficult	-2477
▁disp	-2478
ison	-2479
ource	-2480
itation	-2481
▁circ	-2482
▁common	-2483
▁campaign	-2484
▁40	-2485
CP	-2486
▁building	-2487
▁features	-2488
mission	-2489
▁Former	-2490
▁details	-2491
▁vir	-2492
▁January	-2493
▁Isra	-2494
▁July	-2495
▁necess	-2496
ething	-2497
▁Salman	-2498
▁26	-2499
▁places	-2500
▁Sp	-2501
ushed	-2502
▁Hindi	-2503
▁constitu	-2504
▁card	-2505
▁problems	-2506
▁connection	-2507
▁progress	-2508
rote	-2509
▁recom	-2510
▁November	-2511
▁particular	-2512
udget	-2513
▁Corpor	-2514
▁stri	-2515
▁appear	-2516
▁trade	-2517
▁difficult	-2518
▁central	-2519
.7	-2520
bel	-2521
▁above	-2522
▁Inde	-2523
▁enter	-2524
▁rail	-2525
ery	-2526
ogra	-2527
▁House	-2528
▁Hindu	-2529
▁knowledge	-2530
▁reports	-2531
bed	-2532
▁stars	-2533
▁Russ	-2534
▁seven	-2535
▁pray	-2536
▁forward	-2537
▁October	-2538
▁Bharat	-2539
▁review	-2540
hib	-2541
▁true	-2542
▁economy	-2543
aled	-2544
▁attended	-2545
ateg	-2546
▁temple	-2547
▁Can	-2548
emic	-2549
phone	-2550
olk	-2551
rab	-2552
▁capacity	-2553
▁27	-2554
nding	-2555
▁expressed	-2556
▁Bill	-2557
▁Cabinet	-2558
▁host	-2559
▁hours	-2560
▁nor	-2561
▁Bangl	-2562
ami	-2563
▁hit	-2564
▁launch	-2565
▁Kan	-2566
rs	-2567
▁maintain	-2568
▁behind	-2569
.6	-2570
ication	-2571
elfare	-2572
▁benefit	-2573
▁suggest	-2574
vest	-2575
▁Israel	-2576
ops	-2577
▁super	-2578
▁purp	-2579
▁spread	-2580
▁history	-2581
▁tell	-2582
▁District	-2583
▁Public	-2584
▁nothing	-2585
21	-2586
▁himself	-2587
▁Pand	-2588
▁strengthen	-2589
ividual	-2590
for	-2591
▁Dis	-2592
▁ground	-2593
witter	-2594
ler	-2595
▁Feb	-2596
▁low	-2597
▁san	-2598
▁training	-2599
▁sil	-2600
▁mus	-2601
▁Lal	-2602
▁King	-2603
▁Art	-2604
▁Islam	-2605
▁poor	-2606
▁reach	-2607
▁sum	-2608
▁town	-2609
▁Cup	-2610
▁really	-2611
erve	-2612
uck	-2613
▁single	-2614
▁Sush	-2615
▁Vijay	-2616
▁civil	-2617
▁answ	-2618
▁vac	-2619
▁Dev	-2620
aul	-2621
▁Bal	-2622
ier	-2623
ped	-2624
▁board	-2625
▁Also	-2626
▁Wom	-2627
▁Sena	-2628
▁spokes	-2629
▁Deep	-2630
▁emer	-2631
▁Many	-2632
▁dies	-2633
▁quality	-2634
▁request	-2635
▁infl	-2636
▁Des	-2637
▁inaug	-2638
▁parents	-2639
ators	-2640
AP	-2641
▁relationship	-2642
▁films	-2643
▁August	-2644
▁identified	-2645
▁happened	-2646
▁murder	-2647
ousand	-2648
jit	-2649
▁dra	-2650
▁check	-2651
rish	-2652
abh	-2653
char	-2654
▁candidate	-2655
irm	-2656
▁Under	-2657
▁required	-2658
ots	-2659
▁199	-2660
jan	-2661
▁mer	-2662
vey	-2663
▁Ay	-2664
▁Adv	-2665
▁recovered	-2666
▁committee	-2667
▁Institute	-2668
▁something	-2669
▁pun	-2670
▁largest	-2671
▁research	-2672
▁wrote	-2673
▁management	-2674
▁whether	-2675
▁Stud	-2676
▁assembly	-2677
▁successful	-2678
▁agree	-2679
ruary	-2680
▁Bangladesh	-2681
▁miss	-2682
nath	-2683
▁stay	-2684
▁happy	-2685
▁Rel	-2686
▁fav	-2687
ji	-2688
▁positive	-2689
▁manufact	-2690
▁cred	-2691
▁age	-2692
ection	-2693
▁abs	-2694
▁Yog	-2695
ilt	-2696
ike	-2697
▁improve	-2698
▁online	-2699
▁income	-2700
▁individual	-2701
▁2014	-2702
achal	-2703
▁once	-2704
▁threat	-2705
▁Sar	-2706
▁Constitution	-2707
▁dam	-2708
▁pot	-2709
▁cast	-2710
uries	-2711
▁though	-2712
▁norm	-2713
▁violence	-2714
▁petition	-2715
▁po	-2716
▁fast	-2717
▁sources	-2718
▁dise	-2719
▁signific	-2720
▁Nadu	-2721
▁thought	-2722
igarh	-2723
ocu	-2724
MP	-2725
ead	-2726
▁Who	-2727
▁dr	-2728
.8	-2729
▁passed	-2730
▁secretary	-2731
▁except	-2732
▁Gods	-2733
▁themselves	-2734
year	-2735
▁application	-2736
▁words	-2737
▁Hospital	-2738
▁grant	-2739
sequ	-2740
DA	-2741
▁mater	-2742
verage	-2743
acy	-2744
earch	-2745
▁works	-2746
pir	-2747
▁conduct	-2748
reg	-2749
▁Jud	-2750
▁whole	-2751
▁admitted	-2752
▁Rohit	-2753
▁early	-2754
▁personnel	-2755
rand	-2756
ark	-2757
▁Inst	-2758
add	-2759
rop	-2760
derabad	-2761
▁recommend	-2762
▁37	-2763
most	-2764
▁Sanjay	-2765
▁categ	-2766
ns	-2767
▁Chh	-2768
▁Ahmed	-2769
▁cooperation	-2770
▁mot	-2771
▁begin	-2772
▁Cont	-2773
▁game	-2774
ga	-2775
▁ban	-2776
▁seat	-2777
▁hous	-2778
▁ap	-2779
formation	-2780
▁driver	-2781
▁personal	-2782
uled	-2783
erman	-2784
pecial	-2785
▁object	-2786
▁Brit	-2787
▁subject	-2788
▁Twitter	-2789
▁Var	-2790
▁allowed	-2791
▁School	-2792
▁ye	-2793
▁sat	-2794
▁environment	-2795
cri	-2796
▁ey	-2797
▁teams	-2798
▁February	-2799
▁consum	-2800
▁Priy	-2801
▁thing	-2802
▁raised	-2803
▁ball	-2804
oon	-2805
eds	-2806
onse	-2807
▁force	-2808
het	-2809
ills	-2810
2,	-2811
▁2015	-2812
▁Colle	-2813
▁Hyderabad	-2814
▁opt	-2815
▁players	-2816
ammad	-2817
▁access	-2818
▁tele	-2819
estic	-2820
omes	-2821
ened	-2822
▁course	-2823
▁investment	-2824
oice	-2825
▁teac	-2826
SC	-2827
mony	-2828
▁Pras	-2829
apan	-2830
▁Nit	-2831
ety	-2832
▁department	-2833
DP	-2834
▁charge	-2835
atural	-2836
▁anything	-2837
ta	-2838
▁Chen	-2839
▁Nar	-2840
▁terms	-2841
▁products	-2842
down	-2843
▁Not	-2844
▁recogn	-2845
▁accom	-2846
icial	-2847
▁Ak	-2848
emor	-2849
▁banks	-2850
odies	-2851
▁achieve	-2852
▁neg	-2853
▁Ministers	-2854
ems	-2855
▁z	-2856
▁Sche	-2857
AT	-2858
▁deep	-2859
▁joint	-2860
ici	-2861
▁polls	-2862
▁Patel	-2863
▁Iran	-2864
▁value	-2865
▁IPL	-2866
▁immediately	-2867
▁search	-2868
▁Now	-2869
▁""""	-2870
▁rights	-2871
▁aim	-2872
aly	-2873
ivity	-2874
▁infrastructure	-2875
▁included	-2876
▁Arun	-2877
▁introdu	-2878
▁mean	-2879
▁partners	-2880
▁shoot	-2881
▁29	-2882
▁Railways	-2883
▁followed	-2884
▁Governor	-2885
dra	-2886
ortem	-2887
▁often	-2888
bit	-2889
ying	-2890
▁similar	-2891
▁patients	-2892
▁Lt	-2893
▁ten	-2894
jri	-2895
▁lod	-2896
angana	-2897
▁belong	-2898
▁language	-2899
▁Bar	-2900
▁unto	-2901
ulated	-2902
▁lat	-2903
▁deg	-2904
▁challeng	-2905
▁Jag	-2906
▁Bab	-2907
▁mag	-2908
▁Jos	-2909
▁resident	-2910
going	-2911
▁probe	-2912
isha	-2913
▁letter	-2914
abor	-2915
MC	-2916
utive	-2917
ids	-2918
▁necessary	-2919
▁tri	-2920
▁friends	-2921
▁schools	-2922
AI	-2923
igation	-2924
▁display	-2925
▁Super	-2926
▁Rajya	-2927
▁Az	-2928
▁sust	-2929
▁Roy	-2930
.201	-2931
▁Africa	-2932
▁Pad	-2933
▁upcoming	-2934
ech	-2935
▁term	-2936
▁command	-2937
▁Jehovahs	-2938
▁docu	-2939
▁heavy	-2940
▁rushed	-2941
▁shi	-2942
▁Law	-2943
▁mom	-2944
He	-2945
▁story	-2946
pecially	-2947
▁examination	-2948
▁Cap	-2949
▁construction	-2950
ald	-2951
atic	-2952
▁sister	-2953
▁quar	-2954
▁families	-2955
▁hands	-2956
▁affected	-2957
▁democ	-2958
▁dig	-2959
▁focus	-2960
▁institutions	-2961
▁Trans	-2962
▁fell	-2963
▁Priyanka	-2964
ja	-2965
vind	-2966
▁began	-2967
ological	-2968
▁includes	-2969
▁reserv	-2970
▁active	-2971
▁cou	-2972
▁Euro	-2973
▁paid	-2974
▁gener	-2975
▁resign	-2976
▁message	-2977
nai	-2978
▁imm	-2979
ograph	-2980
▁Group	-2981
▁Kejri	-2982
▁material	-2983
▁clean	-2984
oul	-2985
▁playing	-2986
▁mention	-2987
▁km	-2988
evers	-2989
gu	-2990
▁governments	-2991
▁inaugur	-2992
▁thousand	-2993
ilater	-2994
▁Every	-2995
▁recent	-2996
▁create	-2997
▁developed	-2998
▁charges	-2999
▁line	-3000
▁highest	-3001
work	-3002
ukh	-3003
urance	-3004
iah	-3005
▁deter	-3006
vision	-3007
oms	-3008
ER	-3009
▁coronavirus	-3010
▁Int	-3011
▁population	-3012
▁engine	-3013
▁trying	-3014
ghan	-3015
▁Her	-3016
▁transf	-3017
▁prim	-3018
▁worth	-3019
▁appointed	-3020
pper	-3021
▁Assam	-3022
▁season	-3023
▁ODI	-3024
▁cities	-3025
▁appre	-3026
▁MLAs	-3027
▁Technology	-3028
unic	-3029
▁pow	-3030
▁strate	-3031
▁offer	-3032
aper	-3033
▁wickets	-3034
▁guid	-3035
yal	-3036
▁bench	-3037
▁inte	-3038
▁aware	-3039
▁IC	-3040
▁Earlier	-3041
quir	-3042
▁FIR	-3043
▁wa	-3044
▁Cons	-3045
▁ministry	-3046
▁Of	-3047
▁named	-3048
omb	-3049
▁Japan	-3050
▁SP	-3051
▁hope	-3052
▁East	-3053
▁living	-3054
▁Ban	-3055
ories	-3056
▁little	-3057
joy	-3058
▁Kejriwal	-3059
arsh	-3060
▁Soc	-3061
▁leave	-3062
vere	-3063
▁instru	-3064
▁defe	-3065
▁doub	-3066
▁bad	-3067
▁warn	-3068
▁Corporation	-3069
clud	-3070
uru	-3071
▁involved	-3072
▁reject	-3073
▁politics	-3074
▁thank	-3075
▁legisl	-3076
▁charact	-3077
oved	-3078
range	-3079
▁ris	-3080
▁Don	-3081
▁pub	-3082
▁steps	-3083
▁huge	-3084
▁Prasad	-3085
▁Dal	-3086
▁popular	-3087
▁produced	-3088
▁experience	-3089
▁Chennai	-3090
▁orig	-3091
▁exec	-3092
▁smartphone	-3093
inese	-3094
hood	-3095
val	-3096
change	-3097
pendent	-3098
▁Research	-3099
▁mass	-3100
riday	-3101
iber	-3102
▁German	-3103
▁outside	-3104
▁ahead	-3105
atform	-3106
▁Deputy	-3107
▁especially	-3108
▁GST	-3109
▁IN	-3110
▁session	-3111
ilateral	-3112
▁UN	-3113
rin	-3114
It	-3115
▁measures	-3116
ams	-3117
▁Gl	-3118
▁Indians	-3119
aging	-3120
▁Chairman	-3121
▁eight	-3122
ita	-3123
▁opportunity	-3124
▁Ben	-3125
▁actress	-3126
▁responsibility	-3127
▁More	-3128
▁Section	-3129
▁either	-3130
▁wind	-3131
▁ded	-3132
fall	-3133
iers	-3134
mo	-3135
▁until	-3136
ksh	-3137
▁concerned	-3138
▁response	-3139
▁cut	-3140
enger	-3141
▁hearing	-3142
▁Afghan	-3143
ites	-3144
▁tweeted	-3145
▁foot	-3146
▁Europe	-3147
action	-3148
▁regarding	-3149
▁Dav	-3150
▁Sund	-3151
▁Pal	-3152
▁boy	-3153
olkata	-3154
oid	-3155
▁mobile	-3156
▁employees	-3157
▁Force	-3158
let	-3159
eous	-3160
▁Besides	-3161
ikh	-3162
II	-3163
▁require	-3164
▁vehicles	-3165
rance	-3166
▁appeal	-3167
▁leading	-3168
▁tw	-3169
▁Chinese	-3170
▁Off	-3171
▁providing	-3172
▁screen	-3173
▁administration	-3174
▁cal	-3175
▁rank	-3176
▁performance	-3177
lect	-3178
khand	-3179
.9	-3180
▁ill	-3181
▁2,	-3182
▁Commissioner	-3183
▁Road	-3184
▁significant	-3185
orters	-3186
▁jail	-3187
▁supply	-3188
based	-3189
▁enhan	-3190
▁ones	-3191
▁creat	-3192
▁er	-3193
▁completed	-3194
▁committed	-3195
icated	-3196
▁approved	-3197
▁morning	-3198
▁observ	-3199
CCI	-3200
▁Joh	-3201
▁aud	-3202
▁lodged	-3203
▁song	-3204
▁pain	-3205
▁gone	-3206
▁fel	-3207
▁ministers	-3208
▁considered	-3209
▁TV	-3210
▁Em	-3211
▁bodies	-3212
▁religious	-3213
co	-3214
▁rural	-3215
▁establish	-3216
estival	-3217
gn	-3218
▁blood	-3219
icro	-3220
dd	-3221
▁Associ	-3222
▁vol	-3223
▁prior	-3224
▁roles	-3225
▁indeed	-3226
▁Monday	-3227
▁Kolkata	-3228
▁reli	-3229
▁Nath	-3230
▁dece	-3231
new	-3232
▁Sim	-3233
▁Special	-3234
▁scient	-3235
▁Ste	-3236
▁express	-3237
aily	-3238
ohar	-3239
▁authorities	-3240
▁Friday	-3241
▁border	-3242
▁Railway	-3243
ze	-3244
ague	-3245
▁ang	-3246
▁Bach	-3247
▁trust	-3248
▁comb	-3249
cement	-3250
aching	-3251
hips	-3252
▁Amb	-3253
▁35	-3254
▁connect	-3255
▁Fil	-3256
iple	-3257
agram	-3258
80	-3259
▁Will	-3260
▁presented	-3261
▁consider	-3262
riage	-3263
oni	-3264
▁punish	-3265
orrow	-3266
▁Medical	-3267
▁pat	-3268
1,	-3269
cle	-3270
▁space	-3271
▁encoura	-3272
▁facilities	-3273
3,	-3274
▁Chandigarh	-3275
▁nom	-3276
utes	-3277
▁phys	-3278
▁complet	-3279
▁Cricket	-3280
AS	-3281
▁60	-3282
▁govern	-3283
▁Other	-3284
▁Pakistani	-3285
▁English	-3286
▁challen	-3287
imate	-3288
▁ess	-3289
8,	-3290
▁Most	-3291
iful	-3292
pite	-3293
ras	-3294
▁ut	-3295
rog	-3296
▁military	-3297
▁distrib	-3298
raj	-3299
▁enjoy	-3300
▁Met	-3301
stant	-3302
▁questions	-3303
rem	-3304
anda	-3305
▁sought	-3306
▁groups	-3307
IS	-3308
illed	-3309
▁squ	-3310
▁cash	-3311
▁movement	-3312
▁wanted	-3313
▁Mand	-3314
▁judge	-3315
▁regular	-3316
▁giving	-3317
ruption	-3318
▁Security	-3319
▁platform	-3320
dy	-3321
reedom	-3322
CT	-3323
▁Exp	-3324
▁attempt	-3325
ably	-3326
▁propos	-3327
▁defence	-3328
▁lower	-3329
▁religion	-3330
▁whose	-3331
▁recorded	-3332
▁32	-3333
▁Your	-3334
▁operation	-3335
▁alleg	-3336
ris	-3337
craft	-3338
▁Ur	-3339
vent	-3340
▁conference	-3341
▁sex	-3342
ming	-3343
▁exerc	-3344
▁looking	-3345
▁conditions	-3346
▁saw	-3347
road	-3348
▁electric	-3349
▁subs	-3350
"",	-3351
▁Instagram	-3352
▁cere	-3353
▁Rajnath	-3354
▁domestic	-3355
▁Here	-3356
▁additional	-3357
▁$	-3358
▁qual	-3359
▁Pet	-3360
body	-3361
▁ready	-3362
30	-3363
▁doctors	-3364
▁Asia	-3365
rief	-3366
▁prime	-3367
▁addition	-3368
irst	-3369
▁Ter	-3370
▁apply	-3371
9,	-3372
▁increasing	-3373
▁temper	-3374
▁wis	-3375
▁acqu	-3376
▁tit	-3377
▁earn	-3378
-2	-3379
▁transport	-3380
▁hy	-3381
▁--	-3382
▁By	-3383
mortem	-3384
▁compr	-3385
▁cover	-3386
▁anti	-3387
▁Gang	-3388
▁cross	-3389
▁complete	-3390
dict	-3391
cribed	-3392
▁vers	-3393
ighb	-3394
▁custom	-3395
load	-3396
▁legal	-3397
jun	-3398
▁clos	-3399
▁ran	-3400
▁revealed	-3401
▁half	-3402
▁therefore	-3403
▁billion	-3404
irmed	-3405
icide	-3406
book	-3407
▁compared	-3408
ira	-3409
ED	-3410
▁Jhar	-3411
▁Anil	-3412
ene	-3413
hel	-3414
▁located	-3415
▁Ver	-3416
▁bar	-3417
sc	-3418
▁Invest	-3419
▁anyone	-3420
▁worked	-3421
▁needed	-3422
opal	-3423
bh	-3424
adha	-3425
▁joined	-3426
▁Od	-3427
RD	-3428
ray	-3429
▁RAM	-3430
attis	-3431
cast	-3432
▁Three	-3433
▁sports	-3434
▁evidence	-3435
▁ask	-3436
▁IT	-3437
▁shar	-3438
nam	-3439
▁operations	-3440
▁cy	-3441
▁Adity	-3442
▁makes	-3443
▁opposition	-3444
▁Tha	-3445
hy	-3446
▁Tal	-3447
▁impact	-3448
miss	-3449
tery	-3450
bir	-3451
▁Follow	-3452
▁Republic	-3453
▁Rec	-3454
lied	-3455
quiry	-3456
▁expect	-3457
chay	-3458
▁round	-3459
de	-3460
oted	-3461
itude	-3462
iant	-3463
▁Foreign	-3464
▁moment	-3465
▁Wed	-3466
▁quite	-3467
▁Mot	-3468
▁Tri	-3469
▁agency	-3470
▁purpose	-3471
▁Krish	-3472
▁(2	-3473
▁bur	-3474
▁Those	-3475
▁itself	-3476
aught	-3477
▁Paul	-3478
▁potential	-3479
▁Muslims	-3480
▁Econom	-3481
▁culture	-3482
▁passengers	-3483
▁pen	-3484
iab	-3485
7,	-3486
▁separ	-3487
▁protect	-3488
▁king	-3489
▁proposed	-3490
▁deploy	-3491
▁HD	-3492
attle	-3493
▁talks	-3494
▁constituency	-3495
▁SC	-3496
iminal	-3497
▁Sin	-3498
▁prepared	-3499
▁Ltd	-3500
▁closed	-3501
ows	-3502
PF	-3503
▁wel	-3504
▁strength	-3505
light	-3506
sec	-3507
PC	-3508
▁minor	-3509
▁carried	-3510
▁century	-3511
▁watch	-3512
▁Jharkhand	-3513
▁justice	-3514
▁custody	-3515
▁provisions	-3516
▁wal	-3517
▁vehicle	-3518
ires	-3519
▁safe	-3520
▁histor	-3521
▁rupe	-3522
4,	-3523
▁talk	-3524
▁kept	-3525
▁implementation	-3526
▁Women	-3527
▁British	-3528
▁safety	-3529
▁phase	-3530
▁rise	-3531
inary	-3532
racy	-3533
▁innov	-3534
▁neighb	-3535
▁Gupt	-3536
▁Aksh	-3537
India	-3538
▁speed	-3539
▁Senior	-3540
▁Bachchan	-3541
▁worship	-3542
▁investigating	-3543
▁0.	-3544
▁IS	-3545
▁bats	-3546
urt	-3547
uesday	-3548
▁opportunities	-3549
▁respectively	-3550
▁Civil	-3551
▁status	-3552
▁Child	-3553
▁hol	-3554
attisgarh	-3555
▁Article	-3556
▁Author	-3557
▁undert	-3558
int	-3559
▁speak	-3560
▁Information	-3561
after	-3562
asons	-3563
▁modern	-3564
oting	-3565
achin	-3566
▁ton	-3567
▁Services	-3568
merce	-3569
▁Paw	-3570
5,	-3571
6,	-3572
undred	-3573
▁staff	-3574
▁below	-3575
▁changes	-3576
▁Nep	-3577
▁model	-3578
▁cultural	-3579
apur	-3580
▁organised	-3581
FC	-3582
uel	-3583
cipal	-3584
▁credit	-3585
▁prevent	-3586
▁Nag	-3587
▁lock	-3588
▁gets	-3589
▁leadership	-3590
inated	-3591
▁Dhoni	-3592
▁takes	-3593
▁Tuesday	-3594
▁pil	-3595
▁deceased	-3596
▁adop	-3597
▁Scheme	-3598
▁built	-3599
▁Over	-3600
▁terrorists	-3601
hai	-3602
usion	-3603
▁Apart	-3604
▁firm	-3605
▁College	-3606
▁Mess	-3607
▁proceed	-3608
▁rules	-3609
▁mil	-3610
ruit	-3611
▁198	-3612
back	-3613
rant	-3614
▁seeking	-3615
▁CE	-3616
enced	-3617
bar	-3618
▁spokesperson	-3619
▁houses	-3620
▁alliance	-3621
▁drug	-3622
ening	-3623
▁deaths	-3624
▁Mission	-3625
▁fulf	-3626
▁Kul	-3627
▁funds	-3628
▁Chop	-3629
▁picture	-3630
elines	-3631
▁late	-3632
know	-3633
▁underway	-3634
ursday	-3635
gment	-3636
▁signed	-3637
▁appreci	-3638
▁Christian	-3639
▁stake	-3640
oday	-3641
igg	-3642
▁manner	-3643
▁send	-3644
▁di	-3645
▁amend	-3646
▁employment	-3647
▁diesel	-3648
▁forg	-3649
▁notice	-3650
nesday	-3651
▁daily	-3652
▁wants	-3653
▁Kore	-3654
▁direction	-3655
▁presence	-3656
▁black	-3657
ampions	-3658
▁injuries	-3659
▁Sunday	-3660
▁Ge	-3661
▁fourth	-3662
▁Science	-3663
ora	-3664
▁suicide	-3665
▁estim	-3666
▁congrat	-3667
▁Di	-3668
elling	-3669
▁terrorism	-3670
▁freedom	-3671
▁Odisha	-3672
ique	-3673
kash	-3674
▁Election	-3675
▁Zeal	-3676
▁married	-3677
▁Let	-3678
▁viral	-3679
ott	-3680
▁formed	-3681
▁discussed	-3682
▁character	-3683
▁NE	-3684
▁Ins	-3685
▁established	-3686
▁Himachal	-3687
▁plant	-3688
▁journal	-3689
▁Power	-3690
▁ways	-3691
▁file	-3692
▁Association	-3693
▁repl	-3694
▁Thursday	-3695
▁Wednesday	-3696
▁demanded	-3697
▁Div	-3698
▁Following	-3699
9.	-3700
ades	-3701
▁Zealand	-3702
▁confirmed	-3703
▁laws	-3704
▁everyone	-3705
▁Water	-3706
ammed	-3707
▁Kam	-3708
▁exc	-3709
▁Students	-3710
pond	-3711
▁vs	-3712
▁Satur	-3713
▁anim	-3714
estern	-3715
▁disease	-3716
▁victory	-3717
▁respond	-3718
▁continued	-3719
▁profession	-3720
▁Trib	-3721
ixed	-3722
▁pros	-3723
hem	-3724
▁Chan	-3725
▁Akshay	-3726
▁appe	-3727
▁assistance	-3728
▁music	-3729
hawan	-3730
pping	-3731
▁relief	-3732
▁David	-3733
▁north	-3734
akhand	-3735
▁Service	-3736
▁Chhattisgarh	-3737
▁Organ	-3738
RC	-3739
▁arri	-3740
uter	-3741
ables	-3742
▁flood	-3743
▁70	-3744
▁specific	-3745
▁Sol	-3746
▁Chopra	-3747
▁schemes	-3748
▁traffic	-3749
▁Goa	-3750
▁commission	-3751
▁plans	-3752
▁votes	-3753
ask	-3754
▁average	-3755
▁answer	-3756
iy	-3757
▁197	-3758
▁Even	-3759
▁provision	-3760
ES	-3761
▁max	-3762
▁Sonia	-3763
alled	-3764
▁gas	-3765
▁Opp	-3766
▁Telangana	-3767
▁path	-3768
▁Shan	-3769
ternet	-3770
lymp	-3771
▁destro	-3772
▁assess	-3773
▁god	-3774
▁ste	-3775
▁caused	-3776
▁handed	-3777
▁pack	-3778
▁MS	-3779
▁Saturday	-3780
lear	-3781
▁stage	-3782
▁Tata	-3783
▁occur	-3784
▁Inf	-3785
▁everything	-3786
▁Since	-3787
▁shot	-3788
▁Lim	-3789
▁lif	-3790
▁Read	-3791
ault	-3792
ixel	-3793
▁American	-3794
▁ir	-3795
gram	-3796
▁expand	-3797
▁Uttarakhand	-3798
▁rates	-3799
mercial	-3800
▁seized	-3801
▁Later	-3802
▁site	-3803
▁Cr	-3804
tained	-3805
▁Olymp	-3806
▁Arvind	-3807
▁names	-3808
use	-3809
▁500	-3810
▁Arab	-3811
ester	-3812
▁pressure	-3813
▁Bhatt	-3814
ager	-3815
uv	-3816
▁Lanka	-3817
▁failed	-3818
▁demon	-3819
▁bi	-3820
▁sched	-3821
vention	-3822
▁marriage	-3823
▁evil	-3824
EL	-3825
▁allegedly	-3826
▁reform	-3827
ricke	-3828
This	-3829
atever	-3830
oo	-3831
pendence	-3832
▁3,	-3833
▁property	-3834
▁coal	-3835
▁ago	-3836
▁matches	-3837
uri	-3838
ovid	-3839
▁existing	-3840
▁Plan	-3841
▁Char	-3842
▁source	-3843
▁Tax	-3844
▁offered	-3845
▁influ	-3846
▁gives	-3847
▁referred	-3848
▁Naid	-3849
▁rally	-3850
umbers	-3851
▁Kal	-3852
As	-3853
▁agriculture	-3854
▁Fund	-3855
▁resc	-3856
▁Gh	-3857
▁importance	-3858
▁BCCI	-3859
everal	-3860
▁Tra	-3861
▁bilateral	-3862
▁arrange	-3863
▁moved	-3864
▁nations	-3865
▁Gupta	-3866
▁extended	-3867
▁Agriculture	-3868
ovind	-3869
ony	-3870
▁duty	-3871
▁mentioned	-3872
▁natural	-3873
▁promote	-3874
▁rule	-3875
▁latest	-3876
▁effective	-3877
▁aircraft	-3878
▁majority	-3879
▁participated	-3880
ector	-3881
NG	-3882
▁Rao	-3883
▁thou	-3884
itions	-3885
▁Per	-3886
▁heard	-3887
▁didnt	-3888
▁Net	-3889
▁Nagar	-3890
▁centre	-3891
pects	-3892
▁surely	-3893
▁Abd	-3894
▁changed	-3895
▁fig	-3896
▁link	-3897
▁Na	-3898
▁Ajay	-3899
▁Thak	-3900
▁inside	-3901
▁box	-3902
▁Afghanistan	-3903
▁Naidu	-3904
▁mand	-3905
▁pictures	-3906
▁tried	-3907
ental	-3908
▁provides	-3909
itial	-3910
pro	-3911
▁plea	-3912
▁almost	-3913
▁sides	-3914
RO	-3915
ressing	-3916
▁Russia	-3917
▁via	-3918
▁internal	-3919
▁denied	-3920
▁extrem	-3921
▁red	-3922
▁Several	-3923
▁Jay	-3924
▁pers	-3925
▁ceremony	-3926
▁alone	-3927
▁Book	-3928
▁purch	-3929
▁80	-3930
venue	-3931
▁villages	-3932
▁biggest	-3933
que	-3934
▁allegations	-3935
▁cop	-3936
osing	-3937
utions	-3938
▁First	-3939
▁petrol	-3940
istic	-3941
▁remained	-3942
▁turned	-3943
▁continu	-3944
rew	-3945
▁river	-3946
ondon	-3947
▁Nepal	-3948
▁bail	-3949
▁matters	-3950
ript	-3951
▁trains	-3952
▁Mukher	-3953
▁benefits	-3954
ME	-3955
▁bless	-3956
▁Bas	-3957
▁leav	-3958
▁CP	-3959
▁scored	-3960
▁programmes	-3961
▁forth	-3962
▁Face	-3963
▁roads	-3964
▁Gold	-3965
▁seek	-3966
▁student	-3967
▁Janata	-3968
▁scheduled	-3969
▁Bad	-3970
▁units	-3971
▁wid	-3972
▁Rukh	-3973
▁nearly	-3974
▁Management	-3975
,99	-3976
▁pand	-3977
▁Ashok	-3978
▁Speaking	-3979
chi	-3980
'.	-3981
▁punishment	-3982
HI	-3983
▁teachers	-3984
▁Welfare	-3985
▁reasons	-3986
▁cell	-3987
▁goods	-3988
▁shows	-3989
▁sym	-3990
▁tourn	-3991
▁rape	-3992
▁brothers	-3993
▁primary	-3994
▁accounts	-3995
▁fans	-3996
▁resources	-3997
▁crime	-3998
▁railway	-3999
phas	-4000
▁speech	-4001
2.	-4002
pri	-4003
▁Their	-4004
▁flow	-4005
▁users	-4006
▁category	-4007
▁hot	-4008
▁bill	-4009
▁unit	-4010
▁RBI	-4011
▁responsible	-4012
▁nature	-4013
▁published	-4014
▁south	-4015
▁budget	-4016
▁mark	-4017
▁try	-4018
though	-4019
icked	-4020
▁Officer	-4021
▁facing	-4022
▁sale	-4023
▁visited	-4024
ayan	-4025
anger	-4026
▁Sinha	-4027
▁counter	-4028
▁Prof	-4029
AD	-4030
ties	-4031
▁Today	-4032
▁drink	-4033
▁pra	-4034
▁critical	-4035
▁approach	-4036
▁challenges	-4037
▁girls	-4038
▁Donald	-4039
where	-4040
aches	-4041
▁normal	-4042
▁John	-4043
▁Inter	-4044
olution	-4045
▁easy	-4046
▁depart	-4047
▁democracy	-4048
▁|	-4049
▁From	-4050
▁digital	-4051
▁essential	-4052
▁Us	-4053
▁Tour	-4054
US	-4055
wat	-4056
▁vote	-4057
▁Op	-4058
gic	-4059
▁lin	-4060
▁appoint	-4061
rad	-4062
▁opening	-4063
▁Sector	-4064
▁suspend	-4065
ox	-4066
▁hundred	-4067
▁Sports	-4068
▁Sum	-4069
▁agreement	-4070
▁PTI	-4071
,""""	-4072
▁greater	-4073
oper	-4074
▁couple	-4075
iddle	-4076
▁Neh	-4077
ously	-4078
▁disbel	-4079
▁receive	-4080
▁industrial	-4081
▁bal	-4082
▁growing	-4083
▁comment	-4084
▁esc	-4085
▁Jait	-4086
ex	-4087
▁eyes	-4088
▁cricke	-4089
▁initiative	-4090
▁hum	-4091
▁soldiers	-4092
gap	-4093
▁risk	-4094
▁contain	-4095
unt	-4096
▁reply	-4097
▁Are	-4098
▁maximum	-4099
▁BS	-4100
▁challenge	-4101
IP	-4102
▁64	-4103
▁silver	-4104
▁Deepika	-4105
deep	-4106
▁enough	-4107
osh	-4108
▁GB	-4109
▁ICC	-4110
standing	-4111
▁regul	-4112
▁Kingdom	-4113
▁Mukherjee	-4114
▁Aam	-4115
ball	-4116
ratic	-4117
anced	-4118
▁deleg	-4119
▁lockdown	-4120
▁War	-4121
oud	-4122
mohan	-4123
▁196	-4124
ricultural	-4125
▁Covid	-4126
▁urged	-4127
eness	-4128
▁Dhar	-4129
▁fre	-4130
▁evening	-4131
▁London	-4132
▁favour	-4133
▁numbers	-4134
▁career	-4135
▁soul	-4136
▁AI	-4137
▁Control	-4138
▁opened	-4139
igence	-4140
▁Qu	-4141
▁Cur	-4142
▁army	-4143
ping	-4144
ini	-4145
▁network	-4146
▁pandemic	-4147
▁Witness	-4148
ili	-4149
▁besides	-4150
▁Food	-4151
astern	-4152
▁Asian	-4153
stitutional	-4154
▁spiritual	-4155
▁range	-4156
ranch	-4157
▁text	-4158
JD	-4159
▁elected	-4160
▁NCP	-4161
▁save	-4162
▁rejected	-4163
▁Class	-4164
▁fine	-4165
rees	-4166
veer	-4167
▁attention	-4168
▁ordered	-4169
je	-4170
▁equal	-4171
▁player	-4172
▁markets	-4173
▁Program	-4174
otal	-4175
▁Anand	-4176
▁levels	-4177
uls	-4178
▁lay	-4179
▁innings	-4180
rovers	-4181
▁broad	-4182
MS	-4183
▁science	-4184
▁corruption	-4185
wide	-4186
▁urban	-4187
▁posted	-4188
edd	-4189
▁destroy	-4190
rep	-4191
▁Comp	-4192
▁prob	-4193
▁mount	-4194
isf	-4195
▁collabor	-4196
erjee	-4197
▁Film	-4198
▁Facebook	-4199
▁note	-4200
▁Bharati	-4201
CA	-4202
▁attacks	-4203
▁beat	-4204
▁consult	-4205
▁Arjun	-4206
▁knows	-4207
▁CEO	-4208
▁Thakur	-4209
▁hop	-4210
▁Conference	-4211
▁Chandra	-4212
▁crores	-4213
▁Compan	-4214
▁Project	-4215
▁prepar	-4216
▁chairman	-4217
▁celebrated	-4218
▁facilit	-4219
iversary	-4220
▁sections	-4221
▁temperature	-4222
arc	-4223
▁Leg	-4224
▁Office	-4225
rupt	-4226
gency	-4227
▁Authority	-4228
▁felt	-4229
▁adj	-4230
▁fif	-4231
▁Bhav	-4232
▁vision	-4233
▁Srin	-4234
▁withdra	-4235
▁UK	-4236
unicipal	-4237
▁setting	-4238
▁2013	-4239
▁exercise	-4240
▁break	-4241
▁sin	-4242
▁actually	-4243
▁hear	-4244
alse	-4245
▁agencies	-4246
▁thus	-4247
▁emp	-4248
▁eld	-4249
emy	-4250
▁proposal	-4251
▁spoke	-4252
▁strike	-4253
▁36	-4254
▁tom	-4255
ented	-4256
▁Christians	-4257
▁Sid	-4258
oured	-4259
▁bound	-4260
▁systems	-4261
▁fresh	-4262
▁monitor	-4263
▁log	-4264
▁events	-4265
▁Enter	-4266
▁goes	-4267
uddin	-4268
▁sons	-4269
▁Vik	-4270
respond	-4271
▁trial	-4272
▁quarter	-4273
▁Limited	-4274
▁dream	-4275
▁Vid	-4276
▁Jaitley	-4277
▁pred	-4278
▁ticket	-4279
anath	-4280
vt	-4281
anth	-4282
▁remains	-4283
▁Say	-4284
▁%	-4285
▁inquiry	-4286
▁annual	-4287
▁deployed	-4288
▁Express	-4289
▁victims	-4290
asi	-4291
▁Pran	-4292
▁Prin	-4293
▁City	-4294
▁minimum	-4295
▁festival	-4296
▁receiving	-4297
▁wish	-4298
va	-4299
▁Fl	-4300
▁Such	-4301
ethod	-4302
▁criminal	-4303
ny	-4304
▁Ac	-4305
▁Lad	-4306
▁Where	-4307
▁controvers	-4308
▁unf	-4309
oe	-4310
udi	-4311
▁Post	-4312
▁Governments	-4313
▁accepted	-4314
ciples	-4315
iles	-4316
gapixel	-4317
pat	-4318
▁Kare	-4319
▁fled	-4320
▁emphas	-4321
▁2011	-4322
▁Car	-4323
▁stations	-4324
icit	-4325
▁Award	-4326
▁payment	-4327
iled	-4328
ounter	-4329
▁Bus	-4330
▁rear	-4331
agh	-4332
▁depos	-4333
Ph	-4334
▁Elect	-4335
▁cert	-4336
▁Banerjee	-4337
▁interview	-4338
▁4,	-4339
▁parliament	-4340
irs	-4341
▁severe	-4342
▁Economic	-4343
▁Amitabh	-4344
▁Out	-4345
▁judicial	-4346
▁mission	-4347
▁exchange	-4348
▁capt	-4349
▁draw	-4350
▁shooting	-4351
yer	-4352
▁coach	-4353
▁airport	-4354
▁returned	-4355
▁Region	-4356
ensive	-4357
▁Up	-4358
BJP	-4359
▁shown	-4360
▁neither	-4361
yan	-4362
▁approval	-4363
AL	-4364
aken	-4365
▁vice	-4366
▁Bhag	-4367
ema	-4368
▁meetings	-4369
▁Krishna	-4370
▁sectors	-4371
▁flag	-4372
▁serve	-4373
▁grand	-4374
▁believed	-4375
vant	-4376
▁Kat	-4377
▁mut	-4378
▁critic	-4379
▁cris	-4380
▁loan	-4381
▁calls	-4382
▁tournament	-4383
▁sensor	-4384
.,	-4385
▁hospitals	-4386
▁base	-4387
▁fully	-4388
inations	-4389
mendment	-4390
off	-4391
▁medic	-4392
▁authority	-4393
▁Thus	-4394
▁submitted	-4395
lip	-4396
▁48	-4397
▁il	-4398
▁cant	-4399
▁contribution	-4400
▁Amar	-4401
▁Ka	-4402
▁nine	-4403
▁fem	-4404
inch	-4405
▁agreed	-4406
▁protection	-4407
▁helped	-4408
RI	-4409
▁certainly	-4410
▁selected	-4411
▁Famil	-4412
500	-4413
▁orders	-4414
▁correspond	-4415
▁corpor	-4416
▁terrorist	-4417
hens	-4418
rative	-4419
▁colour	-4420
▁micro	-4421
▁Val	-4422
▁separate	-4423
ela	-4424
▁Prakash	-4425
▁territ	-4426
▁AAP	-4427
▁Rajput	-4428
▁Dem	-4429
▁Command	-4430
▁Hon	-4431
uclear	-4432
▁crisis	-4433
ju	-4434
▁discussion	-4435
▁33	-4436
▁liter	-4437
▁Yogi	-4438
eful	-4439
ashing	-4440
▁placed	-4441
▁bag	-4442
▁repe	-4443
▁Industry	-4444
▁feature	-4445
▁surv	-4446
▁facility	-4447
eshwar	-4448
vert	-4449
▁System	-4450
▁Mish	-4451
▁heavens	-4452
▁Patna	-4453
▁Sk	-4454
▁cru	-4455
ols	-4456
▁remember	-4457
▁concern	-4458
time	-4459
▁running	-4460
▁Additional	-4461
▁introduced	-4462
▁offers	-4463
▁initiatives	-4464
▁commercial	-4465
▁Imran	-4466
▁Gal	-4467
sequently	-4468
▁appeared	-4469
adhan	-4470
apt	-4471
▁photo	-4472
▁Thats	-4473
rel	-4474
""""	-4475
▁Manmohan	-4476
▁contact	-4477
▁shares	-4478
▁Produ	-4479
acted	-4480
▁Sunil	-4481
▁partnership	-4482
▁sett	-4483
▁90	-4484
▁Ant	-4485
▁Kart	-4486
ores	-4487
▁accompan	-4488
▁prec	-4489
▁produce	-4490
CB	-4491
▁Pune	-4492
vendra	-4493
▁carry	-4494
▁granted	-4495
▁Sand	-4496
ils	-4497
▁tro	-4498
▁Dig	-4499
10	-4500
utt	-4501
▁Mor	-4502
▁reduce	-4503
▁Fed	-4504
leum	-4505
▁completely	-4506
rene	-4507
▁else	-4508
▁debut	-4509
under	-4510
▁rich	-4511
ila	-4512
▁vacc	-4513
▁Luck	-4514
▁initial	-4515
eks	-4516
▁ge	-4517
▁Candid	-4518
▁effort	-4519
▁:	-4520
▁initiated	-4521
▁manufacturing	-4522
▁righteous	-4523
fully	-4524
▁BSP	-4525
▁headed	-4526
▁Swar	-4527
fted	-4528
▁degree	-4529
ocks	-4530
alore	-4531
▁posts	-4532
izing	-4533
▁generation	-4534
ON	-4535
▁sense	-4536
▁Port	-4537
▁Tom	-4538
▁suspended	-4539
▁Transport	-4540
▁illeg	-4541
▁plays	-4542
ushka	-4543
▁score	-4544
▁false	-4545
▁Kareena	-4546
▁satisf	-4547
▁Gen	-4548
▁45	-4549
▁estimated	-4550
▁extremely	-4551
▁despite	-4552
megapixel	-4553
▁claims	-4554
▁Ro	-4555
iter	-4556
ashi	-4557
oming	-4558
▁journey	-4559
▁Sidd	-4560
▁Mishra	-4561
▁Bengaluru	-4562
▁Ed	-4563
▁confidence	-4564
▁physical	-4565
▁arrived	-4566
▁fair	-4567
▁refused	-4568
hal	-4569
▁device	-4570
AC	-4571
equ	-4572
quar	-4573
▁Family	-4574
AF	-4575
isc	-4576
▁signs	-4577
▁continues	-4578
▁Gad	-4579
▁page	-4580
▁Social	-4581
▁Best	-4582
▁idea	-4583
een	-4584
holders	-4585
▁method	-4586
▁resolution	-4587
▁particularly	-4588
esterday	-4589
▁Four	-4590
hara	-4591
▁Among	-4592
-0	-4593
▁195	-4594
▁indic	-4595
▁Further	-4596
▁instead	-4597
▁Germany	-4598
yle	-4599
▁room	-4600
▁NI	-4601
ume	-4602
▁purs	-4603
▁Whats	-4604
▁proc	-4605
▁Rajiv	-4606
cker	-4607
▁documents	-4608
▁battery	-4609
▁Vish	-4610
roid	-4611
▁Kaur	-4612
▁thee	-4613
ologies	-4614
▁ongoing	-4615
▁typ	-4616
▁Karan	-4617
▁Opposition	-4618
▁ant	-4619
▁ski	-4620
▁France	-4621
roleum	-4622
▁virus	-4623
atma	-4624
ocation	-4625
▁contract	-4626
PS	-4627
▁Actor	-4628
▁quick	-4629
wise	-4630
40	-4631
tty	-4632
CR	-4633
▁options	-4634
▁appropri	-4635
rated	-4636
▁Kapil	-4637
▁suffered	-4638
▁Sachin	-4639
▁someone	-4640
▁202	-4641
▁sacri	-4642
charge	-4643
▁Administ	-4644
iture	-4645
▁avoid	-4646
▁determin	-4647
cient	-4648
▁League	-4649
▁Farmers	-4650
che	-4651
▁Similar	-4652
▁Anushka	-4653
pid	-4654
▁laid	-4655
fect	-4656
ula	-4657
hammad	-4658
▁decisions	-4659
▁experi	-4660
▁Budget	-4661
▁lack	-4662
▁hearts	-4663
ni	-4664
▁News	-4665
▁Mam	-4666
▁ruling	-4667
▁motor	-4668
▁Real	-4669
▁York	-4670
▁type	-4671
▁Adityanath	-4672
▁implemented	-4673
ift	-4674
roud	-4675
▁becomes	-4676
▁Open	-4677
ane	-4678
chol	-4679
▁fra	-4680
▁La	-4681
rect	-4682
▁5,	-4683
ardhan	-4684
▁integr	-4685
▁sle	-4686
pal	-4687
hank	-4688
▁served	-4689
▁75	-4690
omet	-4691
▁Sushant	-4692
za	-4693
▁External	-4694
▁whatever	-4695
▁Witnesses	-4696
▁winning	-4697
▁greet	-4698
▁boost	-4699
pati	-4700
lands	-4701
▁regional	-4702
face	-4703
▁Head	-4704
▁Mohan	-4705
▁affect	-4706
▁Bah	-4707
viation	-4708
▁option	-4709
▁sea	-4710
▁danger	-4711
bl	-4712
reprene	-4713
rim	-4714
▁welfare	-4715
▁Ahmedabad	-4716
▁green	-4717
▁developing	-4718
pay	-4719
star	-4720
▁gather	-4721
arily	-4722
▁technical	-4723
▁associated	-4724
▁Bharatiya	-4725
▁Ranveer	-4726
▁weap	-4727
itable	-4728
▁centres	-4729
▁buy	-4730
▁Candidates	-4731
▁Boss	-4732
▁Step	-4733
▁depend	-4734
▁Kovind	-4735
▁partner	-4736
▁Reddy	-4737
▁Meh	-4738
▁Champions	-4739
▁eat	-4740
▁touch	-4741
EC	-4742
▁forest	-4743
NI	-4744
▁JD	-4745
▁Indies	-4746
▁basic	-4747
inate	-4748
▁Indeed	-4749
▁dismiss	-4750
▁Ven	-4751
▁books	-4752
▁Therefore	-4753
hab	-4754
▁CB	-4755
ievers	-4756
▁secret	-4757
▁Naw	-4758
▁awarded	-4759
▁defin	-4760
▁Vis	-4761
law	-4762
ulate	-4763
▁sustain	-4764
▁voice	-4765
▁anniversary	-4766
ogle	-4767
ese	-4768
▁competition	-4769
▁finance	-4770
▁Second	-4771
▁proced	-4772
▁jobs	-4773
▁2010	-4774
ocked	-4775
▁Ti	-4776
▁Dhawan	-4777
▁Energy	-4778
▁Person	-4779
▁marks	-4780
rugg	-4781
5.	-4782
▁Another	-4783
▁household	-4784
kari	-4785
▁transfer	-4786
pex	-4787
▁wedd	-4788
▁coast	-4789
▁consist	-4790
▁stock	-4791
agers	-4792
oples	-4793
▁assured	-4794
▁Fire	-4795
▁truck	-4796
▁Nitish	-4797
▁reporters	-4798
ugh	-4799
ahar	-4800
▁opin	-4801
▁Pawar	-4802
▁weeks	-4803
▁noted	-4804
lers	-4805
▁creation	-4806
▁languages	-4807
▁soft	-4808
▁directly	-4809
pic	-4810
▁batsman	-4811
▁Code	-4812
▁circum	-4813
▁organized	-4814
▁reward	-4815
set	-4816
▁inaugurated	-4817
▁testing	-4818
▁Mas	-4819
▁beginning	-4820
▁behalf	-4821
▁addressed	-4822
▁tonnes	-4823
▁throughout	-4824
▁verdict	-4825
▁deliver	-4826
stances	-4827
▁apost	-4828
▁organis	-4829
▁remar	-4830
run	-4831
▁mid	-4832
omi	-4833
▁Mant	-4834
▁honour	-4835
▁Samaj	-4836
▁Hard	-4837
▁immediate	-4838
▁Vin	-4839
Ch	-4840
eries	-4841
overy	-4842
▁chaired	-4843
▁upd	-4844
▁born	-4845
▁weak	-4846
▁RSS	-4847
▁Commerce	-4848
▁Redmi	-4849
▁rainfall	-4850
▁seriously	-4851
akers	-4852
▁ce	-4853
▁gri	-4854
▁Mahatma	-4855
▁proud	-4856
elligence	-4857
usive	-4858
▁Pradhan	-4859
▁yesterday	-4860
▁practice	-4861
alys	-4862
▁guest	-4863
▁incl	-4864
▁sound	-4865
▁carrying	-4866
▁planning	-4867
aji	-4868
oi	-4869
▁die	-4870
▁values	-4871
▁rob	-4872
▁congreg	-4873
ression	-4874
arya	-4875
▁goal	-4876
▁conclud	-4877
▁dispute	-4878
▁factor	-4879
▁condem	-4880
▁situ	-4881
DR	-4882
▁Bhavan	-4883
▁Team	-4884
▁tor	-4885
▁healthy	-4886
▁Pranab	-4887
lying	-4888
▁Ref	-4889
▁acad	-4890
▁invited	-4891
▁beaut	-4892
▁Manohar	-4893
▁Baj	-4894
ida	-4895
▁strugg	-4896
aman	-4897
idamb	-4898
▁Qual	-4899
rang	-4900
▁autom	-4901
▁univers	-4902
▁extra	-4903
▁34	-4904
▁litre	-4905
▁Ganga	-4906
▁Rai	-4907
▁observed	-4908
▁CA	-4909
▁delay	-4910
▁slow	-4911
rench	-4912
▁bit	-4913
▁limited	-4914
▁learning	-4915
▁Ann	-4916
riving	-4917
▁courts	-4918
▁equip	-4919
iya	-4920
▁submit	-4921
▁150	-4922
▁mechan	-4923
▁keeping	-4924
▁Know	-4925
▁sitting	-4926
▁Google	-4927
▁Tourism	-4928
▁Jav	-4929
khar	-4930
iger	-4931
▁Last	-4932
▁encounter	-4933
▁Yes	-4934
▁priority	-4935
▁birthday	-4936
▁pm	-4937
▁Engine	-4938
▁rather	-4939
▁ji	-4940
▁dial	-4941
icted	-4942
▁rains	-4943
▁polic	-4944
▁Policy	-4945
▁Games	-4946
▁fee	-4947
▁stands	-4948
▁2021	-4949
▁America	-4950
ullah	-4951
▁limit	-4952
▁register	-4953
▁fat	-4954
▁incidents	-4955
ona	-4956
▁cho	-4957
ashed	-4958
actions	-4959
▁battle	-4960
▁bra	-4961
alty	-4962
sy	-4963
▁managed	-4964
▁understanding	-4965
▁multiple	-4966
▁speaking	-4967
▁Pay	-4968
▁holding	-4969
▁Global	-4970
adium	-4971
▁ties	-4972
▁article	-4973
▁fram	-4974
▁gain	-4975
chayat	-4976
▁collect	-4977
▁remaining	-4978
iling	-4979
▁wedding	-4980
▁appropriate	-4981
▁paper	-4982
▁guidelines	-4983
araman	-4984
▁stra	-4985
-20	-4986
▁track	-4987
▁shifted	-4988
▁CR	-4989
▁skipper	-4990
▁Reliance	-4991
hary	-4992
ero	-4993
▁kg	-4994
▁flight	-4995
▁Youth	-4996
):	-4997
▁customers	-4998
oned	-4999
▁constant	-5000
▁constitut	-5001
aps	-5002
astic	-5003
▁wishes	-5004
ojana	-5005
▁Korea	-5006
▁beha	-5007
▁surpr	-5008
▁Paduk	-5009
▁double	-5010
▁thy	-5011
iction	-5012
BC	-5013
▁imposed	-5014
▁Train	-5015
▁Joint	-5016
reet	-5017
▁supported	-5018
Ah	-5019
▁Tem	-5020
aced	-5021
adra	-5022
▁Mir	-5023
▁stone	-5024
▁>	-5025
▁commitment	-5026
▁dro	-5027
▁Business	-5028
▁bey	-5029
▁Sind	-5030
hew	-5031
▁Nob	-5032
▁194	-5033
▁beyond	-5034
▁Cal	-5035
hat	-5036
▁Bigg	-5037
plom	-5038
haps	-5039
▁accord	-5040
▁mig	-5041
cipl	-5042
▁ast	-5043
▁tested	-5044
rits	-5045
urb	-5046
win	-5047
▁Nehru	-5048
▁Lucknow	-5049
▁und	-5050
▁Lo	-5051
well	-5052
▁squad	-5053
EN	-5054
▁Alia	-5055
uction	-5056
ogue	-5057
ply	-5058
ensation	-5059
▁Tend	-5060
▁Gov	-5061
▁wide	-5062
nces	-5063
▁fam	-5064
▁arch	-5065
▁Note	-5066
▁trading	-5067
▁DEL	-5068
▁killing	-5069
▁Mag	-5070
▁Padukone	-5071
Ts	-5072
▁Nirm	-5073
▁insurance	-5074
▁awareness	-5075
▁Sure	-5076
ape	-5077
with	-5078
▁Android	-5079
▁stood	-5080
▁CCT	-5081
▁Bra	-5082
▁college	-5083
da	-5084
oring	-5085
▁forms	-5086
HO	-5087
▁300	-5088
▁loans	-5089
dule	-5090
▁prison	-5091
adhaar	-5092
ushan	-5093
▁actors	-5094
▁showed	-5095
▁+	-5096
▁doubt	-5097
▁entered	-5098
▁tomorrow	-5099
▁tim	-5100
wadi	-5101
▁Rana	-5102
▁thr	-5103
▁Bel	-5104
▁nuclear	-5105
▁ended	-5106
▁seem	-5107
ining	-5108
▁dedicated	-5109
▁notification	-5110
Is	-5111
▁Navy	-5112
▁views	-5113
apers	-5114
▁European	-5115
▁sharing	-5116
▁residence	-5117
▁Human	-5118
istics	-5119
▁advoc	-5120
▁meaning	-5121
▁foundation	-5122
▁(3	-5123
▁participation	-5124
60	-5125
▁independent	-5126
▁bond	-5127
▁Cro	-5128
oti	-5129
▁creating	-5130
▁beautiful	-5131
▁apex	-5132
▁residents	-5133
▁DELHI	-5134
van	-5135
idambaram	-5136
▁Prov	-5137
▁fighting	-5138
▁policies	-5139
▁Thacker	-5140
▁Nir	-5141
▁addressing	-5142
▁panel	-5143
▁Urban	-5144
11	-5145
▁cricketer	-5146
▁Stand	-5147
▁representatives	-5148
arth	-5149
▁faced	-5150
ronic	-5151
▁medal	-5152
▁Rem	-5153
▁games	-5154
▁Ob	-5155
▁heaven	-5156
vis	-5157
▁corresponding	-5158
▁Sad	-5159
NU	-5160
▁spent	-5161
▁blast	-5162
▁Srinagar	-5163
▁Rural	-5164
nav	-5165
lies	-5166
RB	-5167
▁relating	-5168
▁marg	-5169
rd	-5170
ancy	-5171
unal	-5172
▁amb	-5173
▁Ranbir	-5174
▁communication	-5175
▁fixed	-5176
▁Bangalore	-5177
ule	-5178
▁individuals	-5179
▁About	-5180
▁weather	-5181
ensions	-5182
▁x	-5183
▁CCTV	-5184
▁activity	-5185
▁liqu	-5186
PP	-5187
▁Sik	-5188
care	-5189
▁hurt	-5190
▁trou	-5191
itharaman	-5192
▁Has	-5193
▁Good	-5194
▁image	-5195
▁Tendul	-5196
uj	-5197
ima	-5198
▁document	-5199
▁Che	-5200
▁content	-5201
pura	-5202
▁sexual	-5203
▁Jew	-5204
▁protests	-5205
▁registration	-5206
▁NEW	-5207
ules	-5208
cks	-5209
▁reduced	-5210
▁suffering	-5211
▁2012	-5212
▁table	-5213
ervation	-5214
▁Lab	-5215
▁permission	-5216
▁worlds	-5217
▁block	-5218
▁waste	-5219
▁Citizens	-5220
riya	-5221
▁complex	-5222
▁postmortem	-5223
▁university	-5224
iff	-5225
▁unique	-5226
▁talking	-5227
▁Mohammad	-5228
▁demonst	-5229
▁variant	-5230
wd	-5231
▁reality	-5232
nic	-5233
▁mill	-5234
▁excell	-5235
alls	-5236
▁Suresh	-5237
▁nam	-5238
▁agg	-5239
▁Chidambaram	-5240
▁interests	-5241
▁none	-5242
▁brief	-5243
ota	-5244
▁fle	-5245
▁Sikh	-5246
IL	-5247
ET	-5248
▁convers	-5249
▁El	-5250
▁Only	-5251
▁affairs	-5252
▁prosper	-5253
▁Pandey	-5254
▁Rashtra	-5255
▁pollution	-5256
▁organisation	-5257
▁vent	-5258
quarters	-5259
fort	-5260
▁Mit	-5261
wari	-5262
nap	-5263
son	-5264
▁participate	-5265
▁Nitin	-5266
▁Jas	-5267
▁costs	-5268
▁Report	-5269
▁Secret	-5270
▁MPs	-5271
▁Thackeray	-5272
▁throw	-5273
▁Mamata	-5274
▁negative	-5275
aste	-5276
▁booked	-5277
▁looked	-5278
▁Eastern	-5279
▁strict	-5280
▁structure	-5281
▁cancell	-5282
▁rescue	-5283
PM	-5284
hern	-5285
▁Programme	-5286
▁argu	-5287
eed	-5288
▁coord	-5289
▁relevant	-5290
▁Gadkari	-5291
▁Aadhaar	-5292
And	-5293
CS	-5294
▁described	-5295
▁raise	-5296
▁treated	-5297
▁thinking	-5298
essions	-5299
4.	-5300
▁subsid	-5301
',	-5302
▁Ayod	-5303
penditure	-5304
▁Sitharaman	-5305
▁toll	-5306
ider	-5307
▁rupees	-5308
▁tourism	-5309
▁stopped	-5310
▁demands	-5311
▁requested	-5312
▁pleas	-5313
▁entry	-5314
▁Industries	-5315
▁guard	-5316
▁removed	-5317
▁simple	-5318
▁attacked	-5319
▁becoming	-5320
▁bul	-5321
▁guidance	-5322
▁knew	-5323
▁mach	-5324
imately	-5325
▁weight	-5326
enty	-5327
▁Sain	-5328
▁accompanied	-5329
▁believers	-5330
▁Environment	-5331
▁Ramesh	-5332
▁Legisl	-5333
▁virt	-5334
▁admit	-5335
▁illegal	-5336
▁electricity	-5337
▁gun	-5338
▁damage	-5339
▁priced	-5340
▁arrangements	-5341
▁mercy	-5342
▁doll	-5343
▁holds	-5344
arpur	-5345
wara	-5346
▁servants	-5347
▁manif	-5348
ilty	-5349
▁condol	-5350
▁female	-5351
▁title	-5352
▁Chou	-5353
▁Tur	-5354
▁Ayodhya	-5355
▁insp	-5356
▁profit	-5357
ole	-5358
▁overs	-5359
App	-5360
▁sell	-5361
▁educational	-5362
▁Lead	-5363
▁Tendulkar	-5364
▁overall	-5365
▁Yoga	-5366
ugu	-5367
▁Principal	-5368
iable	-5369
essor	-5370
▁Judge	-5371
ulations	-5372
▁traditional	-5373
▁middle	-5374
ults	-5375
ishing	-5376
oli	-5377
▁assets	-5378
▁Bomb	-5379
hana	-5380
▁Employ	-5381
known	-5382
▁delegation	-5383
▁OF	-5384
▁Moses	-5385
▁original	-5386
19	-5387
▁kil	-5388
▁Sharif	-5389
If	-5390
orthern	-5391
▁happiness	-5392
mier	-5393
▁Similarly	-5394
repreneurs	-5395
▁ign	-5396
▁abroad	-5397
▁French	-5398
▁respective	-5399
▁pending	-5400
▁revenue	-5401
▁disapp	-5402
wali	-5403
▁identify	-5404
ooth	-5405
▁exams	-5406
▁370	-5407
▁degrees	-5408
▁Rad	-5409
.)	-5410
▁highlight	-5411
▁standards	-5412
indra	-5413
▁mem	-5414
ivery	-5415
▁ancient	-5416
▁multi	-5417
▁NDA	-5418
▁colleges	-5419
▁brid	-5420
▁decide	-5421
▁drive	-5422
▁spend	-5423
oving	-5424
wor	-5425
urement	-5426
▁proceedings	-5427
▁export	-5428
yn	-5429
▁Yojana	-5430
▁Reserve	-5431
text	-5432
▁valid	-5433
▁Children	-5434
▁standard	-5435
kind	-5436
▁Rak	-5437
▁burn	-5438
▁guilty	-5439
▁opinion	-5440
▁Watch	-5441
▁Assist	-5442
▁Current	-5443
taining	-5444
amy	-5445
▁applications	-5446
12	-5447
comm	-5448
▁Joshi	-5449
▁achieved	-5450
oke	-5451
▁Govt	-5452
▁fuel	-5453
▁encourage	-5454
▁milk	-5455
▁countrys	-5456
▁clar	-5457
inals	-5458
erted	-5459
▁AT	-5460
▁monitoring	-5461
▁poet	-5462
6.	-5463
axy	-5464
▁CS	-5465
▁announcement	-5466
▁size	-5467
▁doesnt	-5468
▁difference	-5469
▁crowd	-5470
▁objective	-5471
▁powerful	-5472
▁Ang	-5473
▁Jal	-5474
hered	-5475
▁Av	-5476
▁lic	-5477
▁white	-5478
▁massive	-5479
▁collection	-5480
▁promise	-5481
▁brand	-5482
▁Islamic	-5483
ront	-5484
▁Ko	-5485
intend	-5486
▁happening	-5487
illing	-5488
▁confident	-5489
vious	-5490
avy	-5491
lict	-5492
▁scale	-5493
▁emb	-5494
▁Goyal	-5495
▁rad	-5496
▁Hindus	-5497
▁Telugu	-5498
▁suggested	-5499
▁joy	-5500
ube	-5501
▁sanction	-5502
▁circumstances	-5503
▁restrict	-5504
rival	-5505
▁Manoj	-5506
minent	-5507
▁missing	-5508
▁Supp	-5509
▁version	-5510
▁Advis	-5511
atra	-5512
▁sun	-5513
▁Mahe	-5514
▁advised	-5515
▁agricultural	-5516
ius	-5517
▁der	-5518
▁Verma	-5519
▁Mohammed	-5520
▁offering	-5521
▁defeat	-5522
▁Speaker	-5523
▁ED	-5524
▁Commun	-5525
▁Kings	-5526
cre	-5527
▁convey	-5528
▁sacrif	-5529
▁transp	-5530
▁kn	-5531
▁helps	-5532
▁recovery	-5533
▁powers	-5534
▁sn	-5535
▁survey	-5536
▁fellow	-5537
▁remarks	-5538
▁integ	-5539
▁Saif	-5540
rary	-5541
spe	-5542
▁comments	-5543
▁rapid	-5544
gon	-5545
keep	-5546
▁rising	-5547
▁Pul	-5548
▁diss	-5549
3.	-5550
▁climate	-5551
▁II	-5552
▁govt	-5553
▁desire	-5554
▁Hous	-5555
▁bringing	-5556
▁lies	-5557
▁Jon	-5558
▁128	-5559
▁DG	-5560
▁Tele	-5561
▁Five	-5562
▁Income	-5563
▁executive	-5564
▁Fa	-5565
▁engaged	-5566
▁computer	-5567
ecause	-5568
iveness	-5569
▁holy	-5570
▁Kamal	-5571
▁covered	-5572
▁discussions	-5573
▁Muhammad	-5574
itage	-5575
▁dign	-5576
▁Price	-5577
▁polling	-5578
▁Mantri	-5579
▁solution	-5580
▁mist	-5581
▁experts	-5582
▁injury	-5583
▁writing	-5584
hik	-5585
▁Have	-5586
▁Swaraj	-5587
▁Petroleum	-5588
▁investors	-5589
▁Found	-5590
▁promoting	-5591
▁fort	-5592
▁Steel	-5593
▁assign	-5594
▁studies	-5595
▁42	-5596
▁nearby	-5597
▁cards	-5598
▁Jio	-5599
▁util	-5600
▁sales	-5601
▁Capital	-5602
▁Sud	-5603
▁somet	-5604
▁Manipur	-5605
▁certific	-5606
There	-5607
▁items	-5608
▁cabinet	-5609
▁Aut	-5610
▁Brah	-5611
▁Aamir	-5612
itizen	-5613
▁connectivity	-5614
▁Devi	-5615
alm	-5616
▁wealth	-5617
▁equipment	-5618
mark	-5619
▁moving	-5620
▁declined	-5621
▁bab	-5622
▁manufacture	-5623
▁Pen	-5624
sp	-5625
▁44	-5626
▁plants	-5627
hir	-5628
▁Bu	-5629
▁Rat	-5630
▁distribution	-5631
aq	-5632
▁transl	-5633
8.	-5634
▁sisters	-5635
▁slog	-5636
▁SA	-5637
▁Financial	-5638
▁doctor	-5639
▁Raf	-5640
ception	-5641
phy	-5642
▁download	-5643
▁index	-5644
▁calling	-5645
gend	-5646
▁schol	-5647
RE	-5648
▁fit	-5649
ares	-5650
▁deeds	-5651
▁counsel	-5652
They	-5653
▁broke	-5654
▁homes	-5655
HE	-5656
ultan	-5657
▁Year	-5658
▁Yet	-5659
▁Shahid	-5660
urch	-5661
▁famous	-5662
▁oath	-5663
▁Memor	-5664
nagar	-5665
arti	-5666
▁lakhs	-5667
7.	-5668
▁Das	-5669
▁apart	-5670
▁Saudi	-5671
▁Russian	-5672
▁fifth	-5673
▁mere	-5674
SD	-5675
▁hath	-5676
▁Nations	-5677
▁concerns	-5678
▁longer	-5679
▁videos	-5680
▁task	-5681
bre	-5682
gar	-5683
▁IPC	-5684
▁prayer	-5685
▁congratulated	-5686
▁enable	-5687
▁manifest	-5688
Phone	-5689
lease	-5690
▁Well	-5691
▁sustained	-5692
▁Jaw	-5693
▁didn	-5694
▁Australian	-5695
hap	-5696
▁memor	-5697
▁strategy	-5698
▁quoted	-5699
▁reforms	-5700
hek	-5701
▁congregation	-5702
▁Count	-5703
▁Ir	-5704
▁Saf	-5705
gi	-5706
▁Make	-5707
▁balance	-5708
▁sam	-5709
tainment	-5710
hesh	-5711
▁cancer	-5712
▁organisations	-5713
efore	-5714
▁Chaud	-5715
▁feet	-5716
▁nar	-5717
▁Trade	-5718
▁user	-5719
▁starting	-5720
▁AM	-5721
▁balls	-5722
grad	-5723
▁patient	-5724
▁deputy	-5725
▁figh	-5726
▁detained	-5727
▁neighbour	-5728
▁Division	-5729
▁cult	-5730
-3	-5731
▁Mi	-5732
▁MoU	-5733
oute	-5734
▁advant	-5735
▁Company	-5736
overty	-5737
▁adding	-5738
▁Rashtrapati	-5739
▁Gul	-5740
▁promised	-5741
▁Nawaz	-5742
▁lines	-5743
▁Smt	-5744
▁Budd	-5745
▁occurred	-5746
▁industries	-5747
▁tests	-5748
▁Awards	-5749
ishan	-5750
▁origin	-5751
▁isol	-5752
▁seems	-5753
ken	-5754
▁cas	-5755
OS	-5756
▁BJPs	-5757
▁warm	-5758
mosp	-5759
abled	-5760
▁constituted	-5761
▁Prop	-5762
▁diplom	-5763
▁highly	-5764
ashington	-5765
bal	-5766
▁union	-5767
▁politic	-5768
▁Hel	-5769
▁symb	-5770
▁Akh	-5771
▁Media	-5772
enn	-5773
▁cold	-5774
ales	-5775
▁practices	-5776
uit	-5777
▁comprising	-5778
▁Sara	-5779
▁feed	-5780
▁elig	-5781
▁assault	-5782
▁write	-5783
▁delivery	-5784
▁Ve	-5785
▁harm	-5786
▁Bombay	-5787
▁strategic	-5788
▁aspects	-5789
▁destroyed	-5790
osite	-5791
▁resolve	-5792
▁Meet	-5793
arty	-5794
▁Ladakh	-5795
▁Dar	-5796
cap	-5797
▁Rom	-5798
▁attract	-5799
▁Kuldeep	-5800
▁awards	-5801
▁Ravi	-5802
esters	-5803
ourage	-5804
lines	-5805
ertil	-5806
▁scam	-5807
▁thousands	-5808
▁historic	-5809
▁bear	-5810
ureau	-5811
▁professional	-5812
▁Forest	-5813
▁Ajit	-5814
▁Member	-5815
raham	-5816
▁communities	-5817
member	-5818
▁occup	-5819
\""	-5820
ancing	-5821
▁waiting	-5822
anta	-5823
▁Indira	-5824
inger	-5825
▁compensation	-5826
▁Acad	-5827
earing	-5828
▁Poll	-5829
ounder	-5830
▁rout	-5831
▁rose	-5832
▁stakeholders	-5833
icals	-5834
▁River	-5835
▁actions	-5836
akshi	-5837
▁television	-5838
▁Mer	-5839
itendra	-5840
▁daughters	-5841
▁IIT	-5842
▁veget	-5843
▁advis	-5844
Rs	-5845
sung	-5846
▁Exam	-5847
▁sleep	-5848
▁firing	-5849
▁Democ	-5850
▁enhance	-5851
▁exact	-5852
▁operational	-5853
▁looks	-5854
shi	-5855
▁Gan	-5856
▁appointment	-5857
▁reportedly	-5858
▁Shankar	-5859
apore	-5860
thern	-5861
▁Galaxy	-5862
1.	-5863
▁scientists	-5864
▁mankind	-5865
▁solar	-5866
▁amid	-5867
▁_	-5868
▁identity	-5869
▁See	-5870
alt	-5871
▁welcome	-5872
▁dark	-5873
hishek	-5874
ength	-5875
▁dram	-5876
▁troops	-5877
uing	-5878
▁ult	-5879
ador	-5880
enant	-5881
▁minutes	-5882
▁technologies	-5883
▁mutual	-5884
istries	-5885
elled	-5886
▁benefici	-5887
section	-5888
▁planned	-5889
▁begun	-5890
▁militants	-5891
▁shut	-5892
▁id	-5893
▁Chouhan	-5894
▁recommended	-5895
▁usually	-5896
▁Dub	-5897
▁correct	-5898
▁advance	-5899
ground	-5900
▁chem	-5901
▁altern	-5902
▁behavi	-5903
▁overse	-5904
▁Sil	-5905
▁photos	-5906
▁Ba	-5907
▁debt	-5908
▁division	-5909
▁Nirmala	-5910
▁tradition	-5911
▁ec	-5912
▁loved	-5913
uting	-5914
▁connected	-5915
▁finally	-5916
▁departments	-5917
alysis	-5918
fficient	-5919
▁chance	-5920
▁Market	-5921
▁witnessed	-5922
▁clearly	-5923
▁Dhan	-5924
▁debate	-5925
chang	-5926
▁notes	-5927
▁scientific	-5928
grim	-5929
iders	-5930
▁operating	-5931
▁contesting	-5932
▁ideas	-5933
▁Amarinder	-5934
NA	-5935
▁glob	-5936
▁Territ	-5937
▁defeated	-5938
▁wonder	-5939
▁photograph	-5940
▁SBI	-5941
outhern	-5942
asw	-5943
▁af	-5944
▁Mat	-5945
▁improved	-5946
ivered	-5947
arant	-5948
▁trend	-5949
pass	-5950
▁Because	-5951
▁steel	-5952
▁defend	-5953
▁Mic	-5954
▁route	-5955
▁harass	-5956
▁Western	-5957
▁absol	-5958
▁records	-5959
▁concept	-5960
▁judgment	-5961
▁asking	-5962
ney	-5963
▁Abhishek	-5964
▁65	-5965
▁internet	-5966
▁fields	-5967
▁infection	-5968
aksh	-5969
uti	-5970
ocal	-5971
▁Washington	-5972
yl	-5973
▁Fad	-5974
eless	-5975
▁judges	-5976
Pak	-5977
htar	-5978
▁2009	-5979
izations	-5980
▁prem	-5981
▁Malik	-5982
▁atmosp	-5983
▁USD	-5984
▁Snap	-5985
▁quant	-5986
navis	-5987
▁mode	-5988
maker	-5989
▁Work	-5990
▁welcom	-5991
▁influence	-5992
▁Messenger	-5993
ster	-5994
▁Smith	-5995
nov	-5996
▁Singapore	-5997
▁flights	-5998
▁charged	-5999
▁facilitate	-6000
▁Ama	-6001
▁delivered	-6002
icate	-6003
▁Sard	-6004
▁du	-6005
▁skills	-6006
▁yourself	-6007
▁Din	-6008
▁stream	-6009
like	-6010
▁Temple	-6011
▁passing	-6012
▁compre	-6013
▁comfort	-6014
▁49	-6015
▁38	-6016
heast	-6017
▁8,	-6018
▁tree	-6019
▁suc	-6020
▁Courts	-6021
▁memory	-6022
▁discipl	-6023
ctoral	-6024
▁emergency	-6025
hensive	-6026
▁measure	-6027
▁transform	-6028
▁Jer	-6029
▁iPhone	-6030
▁audience	-6031
▁spokesman	-6032
▁adequ	-6033
▁voters	-6034
▁diseases	-6035
▁association	-6036
▁farm	-6037
imb	-6038
oto	-6039
ICI	-6040
lal	-6041
▁Life	-6042
▁Oper	-6043
owerment	-6044
▁improving	-6045
▁recommendations	-6046
▁Shak	-6047
hta	-6048
▁acting	-6049
▁tend	-6050
cious	-6051
▁collaboration	-6052
▁web	-6053
▁disbelie	-6054
unch	-6055
▁hom	-6056
▁nab	-6057
.'	-6058
▁processor	-6059
▁Sense	-6060
▁43	-6061
▁pit	-6062
obile	-6063
etic	-6064
▁RJD	-6065
OR	-6066
ockey	-6067
▁constituencies	-6068
▁performed	-6069
▁selection	-6070
▁Ap	-6071
▁statements	-6072
▁institution	-6073
▁Dil	-6074
intendent	-6075
den	-6076
▁diver	-6077
▁newsp	-6078
▁scene	-6079
▁afford	-6080
▁Turk	-6081
▁promotion	-6082
▁Warn	-6083
▁10,	-6084
▁Modis	-6085
▁Bureau	-6086
▁teach	-6087
▁serving	-6088
urre	-6089
▁Est	-6090
verse	-6091
▁const	-6092
▁expenditure	-6093
▁standing	-6094
▁resignation	-6095
▁hor	-6096
▁Foundation	-6097
▁context	-6098
▁skill	-6099
▁animals	-6100
▁Keep	-6101
▁ensuring	-6102
▁dual	-6103
▁namely	-6104
rav	-6105
▁Oil	-6106
▁lawyer	-6107
▁Fadnavis	-6108
▁possession	-6109
▁Ty	-6110
▁Summit	-6111
▁gram	-6112
▁Vardhan	-6113
usal	-6114
▁batting	-6115
fer	-6116
▁Sharad	-6117
▁White	-6118
▁reflect	-6119
ifty	-6120
▁transferred	-6121
IMS	-6122
cked	-6123
▁discl	-6124
▁leaving	-6125
▁window	-6126
▁retail	-6127
▁banking	-6128
▁damaged	-6129
▁Megh	-6130
▁55	-6131
▁happens	-6132
▁Gar	-6133
▁curren	-6134
▁Harsh	-6135
▁successfully	-6136
gent	-6137
▁Sen	-6138
▁Prom	-6139
▁Realme	-6140
▁questioned	-6141
▁busy	-6142
▁Industrial	-6143
harth	-6144
rants	-6145
▁purchase	-6146
ressive	-6147
▁Addressing	-6148
▁door	-6149
▁caught	-6150
St	-6151
board	-6152
▁innovation	-6153
▁Kir	-6154
▁Sensex	-6155
mal	-6156
▁elder	-6157
▁succeed	-6158
▁phones	-6159
umer	-6160
▁pie	-6161
▁hour	-6162
ilesh	-6163
▁Amendment	-6164
▁pa	-6165
▁Staff	-6166
▁Matt	-6167
▁decades	-6168
▁adopted	-6169
▁visiting	-6170
▁spoken	-6171
▁Prote	-6172
▁Municipal	-6173
IN	-6174
▁offices	-6175
▁weapons	-6176
gaon	-6177
▁exhib	-6178
▁detailed	-6179
▁Tej	-6180
▁Peter	-6181
-4	-6182
▁Jaipur	-6183
ww	-6184
▁Around	-6185
▁Ent	-6186
▁Prat	-6187
prises	-6188
▁returns	-6189
▁prominent	-6190
lick	-6191
▁ICICI	-6192
▁mas	-6193
right	-6194
▁remove	-6195
▁Maj	-6196
do	-6197
▁Gas	-6198
▁Hence	-6199
dden	-6200
▁constructed	-6201
rina	-6202
▁Varun	-6203
▁prevail	-6204
preet	-6205
▁showing	-6206
▁Parliamentary	-6207
▁lie	-6208
hans	-6209
▁citizen	-6210
▁JNU	-6211
▁strengthening	-6212
pector	-6213
▁wat	-6214
▁reb	-6215
▁Ms	-6216
▁#	-6217
▁compon	-6218
▁Bhopal	-6219
riti	-6220
▁Airport	-6221
▁sometimes	-6222
▁PS	-6223
▁Space	-6224
▁liber	-6225
▁youths	-6226
?"""	-6227
▁caste	-6228
When	-6229
▁Currently	-6230
▁Father	-6231
▁medium	-6232
arian	-6233
▁conven	-6234
▁400	-6235
ura	-6236
uris	-6237
70	-6238
▁drugs	-6239
All	-6240
cel	-6241
▁Sir	-6242
▁band	-6243
▁governance	-6244
DC	-6245
▁Cy	-6246
anasi	-6247
▁HC	-6248
▁gar	-6249
▁challenging	-6250
▁Park	-6251
DM	-6252
▁Sukh	-6253
▁crucial	-6254
▁6,	-6255
▁Station	-6256
▁Script	-6257
▁regions	-6258
▁skin	-6259
ruitment	-6260
▁Shetty	-6261
▁rupee	-6262
▁Mark	-6263
▁Tar	-6264
▁intend	-6265
▁Action	-6266
friend	-6267
▁choice	-6268
▁reference	-6269
▁Word	-6270
abilities	-6271
▁advice	-6272
▁fraud	-6273
▁willing	-6274
▁39	-6275
▁ST	-6276
▁Sang	-6277
▁excl	-6278
▁Mahendra	-6279
athan	-6280
iment	-6281
▁Canada	-6282
▁exports	-6283
▁Earth	-6284
▁Khar	-6285
▁academic	-6286
▁distance	-6287
▁drinking	-6288
level	-6289
EE	-6290
▁prove	-6291
▁opposed	-6292
▁Official	-6293
▁NH	-6294
eline	-6295
istans	-6296
▁length	-6297
ourses	-6298
▁Account	-6299
▁requirements	-6300
▁Olympic	-6301
▁Show	-6302
ashes	-6303
▁James	-6304
▁seed	-6305
▁Before	-6306
▁parliamentary	-6307
ework	-6308
▁Amaz	-6309
▁scen	-6310
oval	-6311
ba	-6312
▁mechanism	-6313
▁CRPF	-6314
▁wait	-6315
▁labour	-6316
▁eye	-6317
▁sad	-6318
▁shop	-6319
▁Samsung	-6320
▁HDFC	-6321
▁organization	-6322
▁Dutt	-6323
▁renew	-6324
▁designed	-6325
▁Rajesh	-6326
▁Vill	-6327
▁perman	-6328
▁Rajk	-6329
▁Katrina	-6330
▁load	-6331
rap	-6332
▁Jam	-6333
ava	-6334
teran	-6335
▁Members	-6336
▁meant	-6337
▁Prot	-6338
▁Yah	-6339
15	-6340
eum	-6341
▁rivers	-6342
▁dismissed	-6343
▁atmosphere	-6344
pet	-6345
ria	-6346
▁amongst	-6347
oes	-6348
▁east	-6349
▁supporting	-6350
▁demanding	-6351
OC	-6352
▁Theres	-6353
dev	-6354
irperson	-6355
▁principles	-6356
▁undergoing	-6357
▁<	-6358
▁kids	-6359
▁(4	-6360
imal	-6361
▁Dont	-6362
▁Exec	-6363
▁pilgrim	-6364
▁passenger	-6365
▁controversy	-6366
▁Tim	-6367
▁investigations	-6368
using	-6369
▁ability	-6370
▁secure	-6371
▁crops	-6372
▁Heavy	-6373
▁belief	-6374
▁gang	-6375
▁sort	-6376
▁Internet	-6377
▁powered	-6378
night	-6379
▁Arunachal	-6380
▁spin	-6381
▁strongly	-6382
▁frequ	-6383
▁Sant	-6384
▁peoples	-6385
roc	-6386
▁channel	-6387
▁Max	-6388
▁purposes	-6389
▁Mary	-6390
▁Ira	-6391
▁pension	-6392
forcement	-6393
▁conducting	-6394
▁Rawat	-6395
▁WhatsApp	-6396
▁deliber	-6397
25	-6398
▁Jagran	-6399
▁healthcare	-6400
▁Subh	-6401
▁crude	-6402
▁nut	-6403
inema	-6404
▁Though	-6405
▁shel	-6406
igen	-6407
▁Although	-6408
▁Swach	-6409
▁Br	-6410
ruits	-6411
▁novel	-6412
▁headquarters	-6413
▁aid	-6414
rer	-6415
sha	-6416
▁surround	-6417
hus	-6418
▁NRC	-6419
▁Stat	-6420
▁Play	-6421
▁cooper	-6422
ounded	-6423
▁mental	-6424
▁cancelled	-6425
cts	-6426
▁Ris	-6427
▁solid	-6428
DS	-6429
▁Diwali	-6430
▁perfect	-6431
▁relatives	-6432
▁trail	-6433
ifying	-6434
▁Desk	-6435
▁fruit	-6436
cha	-6437
▁Qur	-6438
▁conver	-6439
amental	-6440
▁investments	-6441
▁changing	-6442
▁walk	-6443
itect	-6444
▁appreciated	-6445
▁Agar	-6446
gypt	-6447
▁Abraham	-6448
▁Due	-6449
idden	-6450
▁myself	-6451
aduate	-6452
▁Jitendra	-6453
▁magn	-6454
▁teaching	-6455
▁2.	-6456
▁sport	-6457
▁grad	-6458
▁forced	-6459
▁Po	-6460
▁Samajwadi	-6461
▁Mahesh	-6462
endra	-6463
▁Set	-6464
▁straight	-6465
pa	-6466
▁easily	-6467
atures	-6468
▁stress	-6469
zil	-6470
▁Deepak	-6471
▁Sahib	-6472
▁Johar	-6473
▁clause	-6474
▁2008	-6475
gen	-6476
▁boys	-6477
▁approx	-6478
▁Varanasi	-6479
▁undertaken	-6480
▁Trust	-6481
-201	-6482
▁Bet	-6483
▁Nifty	-6484
▁contribute	-6485
▁consequ	-6486
eras	-6487
▁Broad	-6488
▁involve	-6489
BS	-6490
isher	-6491
▁Bharti	-6492
▁therein	-6493
▁Major	-6494
▁engineering	-6495
rison	-6496
▁Bhushan	-6497
▁poverty	-6498
erring	-6499
▁follows	-6500
▁1.	-6501
▁crop	-6502
▁Training	-6503
▁Tiwari	-6504
▁Band	-6505
▁faces	-6506
dragon	-6507
▁LO	-6508
cean	-6509
▁linked	-6510
▁Metro	-6511
Go	-6512
akar	-6513
itan	-6514
▁gat	-6515
▁surface	-6516
▁availability	-6517
▁Ham	-6518
▁GDP	-6519
▁arm	-6520
Ms	-6521
uz	-6522
wama	-6523
▁Tan	-6524
▁arms	-6525
pective	-6526
▁Royal	-6527
▁proof	-6528
▁Manish	-6529
▁Azad	-6530
▁types	-6531
▁Snapdragon	-6532
▁Mahindra	-6533
▁falls	-6534
▁conspir	-6535
▁Som	-6536
▁Gaut	-6537
assador	-6538
▁territory	-6539
▁Lakh	-6540
▁larger	-6541
▁7,	-6542
▁disput	-6543
▁possess	-6544
asa	-6545
isted	-6546
▁Recently	-6547
▁Investigation	-6548
▁Allahabad	-6549
▁IM	-6550
On	-6551
▁MSME	-6552
▁Egypt	-6553
▁Nan	-6554
kes	-6555
▁grief	-6556
▁script	-6557
▁alert	-6558
▁sudden	-6559
osop	-6560
▁ascer	-6561
long	-6562
▁feeling	-6563
ingu	-6564
▁dance	-6565
▁sustainable	-6566
porary	-6567
▁alongside	-6568
▁Kot	-6569
▁maintained	-6570
▁complaints	-6571
▁protesters	-6572
▁Sidhu	-6573
▁forget	-6574
▁Agree	-6575
mod	-6576
utta	-6577
▁Kaif	-6578
▁Kab	-6579
▁eligible	-6580
pter	-6581
soon	-6582
▁gathering	-6583
▁code	-6584
tenance	-6585
▁dialogue	-6586
▁THE	-6587
▁divided	-6588
▁principal	-6589
weh	-6590
▁11,	-6591
▁proved	-6592
▁filing	-6593
▁Devendra	-6594
▁Ren	-6595
▁Ki	-6596
▁phil	-6597
osen	-6598
▁Pulwama	-6599
oram	-6600
▁pace	-6601
▁collected	-6602
▁kid	-6603
▁listen	-6604
▁symbol	-6605
cont	-6606
▁cars	-6607
owed	-6608
▁jaw	-6609
▁Mur	-6610
lection	-6611
▁imag	-6612
fit	-6613
charged	-6614
▁reservo	-6615
▁sentence	-6616
▁mos	-6617
▁Olympics	-6618
gov	-6619
▁processing	-6620
mad	-6621
▁Sah	-6622
▁taught	-6623
▁causes	-6624
inent	-6625
▁friendly	-6626
▁lose	-6627
wing	-6628
▁satell	-6629
haz	-6630
▁aspir	-6631
▁sugar	-6632
▁Amazon	-6633
ief	-6634
ensus	-6635
▁lived	-6636
▁Any	-6637
▁prosec	-6638
▁welcomed	-6639
▁Rain	-6640
▁ship	-6641
Os	-6642
▁assessment	-6643
▁vari	-6644
▁samples	-6645
▁teacher	-6646
▁Organisation	-6647
▁administrative	-6648
eph	-6649
▁Emp	-6650
▁penalty	-6651
▁struggle	-6652
▁summit	-6653
▁prayers	-6654
▁input	-6655
orge	-6656
▁Ret	-6657
▁vital	-6658
▁gard	-6659
hot	-6660
▁participants	-6661
▁repeated	-6662
▁faithful	-6663
▁Ambani	-6664
▁install	-6665
▁iron	-6666
▁consideration	-6667
Pl	-6668
ruck	-6669
▁aims	-6670
▁procurement	-6671
term	-6672
▁eth	-6673
▁guide	-6674
▁songs	-6675
▁Aar	-6676
▁adopt	-6677
▁policemen	-6678
okes	-6679
▁Black	-6680
▁2000	-6681
▁numer	-6682
▁Xia	-6683
alaya	-6684
orders	-6685
▁whereas	-6686
▁Ji	-6687
▁Once	-6688
▁stories	-6689
▁awa	-6690
▁Sardar	-6691
▁Pakistans	-6692
▁error	-6693
ashtriya	-6694
▁marty	-6695
jection	-6696
▁ment	-6697
▁termin	-6698
ests	-6699
▁journalist	-6700
90	-6701
▁2020.	-6702
▁wins	-6703
▁substant	-6704
▁villagers	-6705
▁Each	-6706
▁bird	-6707
▁properties	-6708
▁46	-6709
▁Tripura	-6710
▁classes	-6711
▁spect	-6712
▁Shr	-6713
▁Jawahar	-6714
iscal	-6715
ibilities	-6716
▁Rav	-6717
▁Ranjan	-6718
▁installed	-6719
iciency	-6720
nels	-6721
▁Apple	-6722
onic	-6723
▁10,000	-6724
▁Indones	-6725
▁truly	-6726
▁starts	-6727
▁formation	-6728
eler	-6729
▁adequate	-6730
▁Dur	-6731
▁Common	-6732
▁Please	-6733
▁independence	-6734
▁gathered	-6735
▁47	-6736
istrate	-6737
match	-6738
ridor	-6739
▁wild	-6740
▁Willi	-6741
ij	-6742
▁Shivraj	-6743
▁extent	-6744
▁CBSE	-6745
▁cul	-6746
▁ruled	-6747
▁Guru	-6748
▁equity	-6749
▁Executive	-6750
uja	-6751
▁ep	-6752
▁begins	-6753
▁warning	-6754
abi	-6755
▁Noida	-6756
▁advantage	-6757
▁cra	-6758
],	-6759
▁Digital	-6760
▁ID	-6761
▁juris	-6762
bon	-6763
▁54	-6764
▁Gautam	-6765
▁banned	-6766
▁plus	-6767
▁cameras	-6768
▁expert	-6769
▁ourselves	-6770
▁specified	-6771
▁literature	-6772
▁princ	-6773
▁Society	-6774
▁Everyone	-6775
▁feels	-6776
▁unknown	-6777
▁Bro	-6778
▁Highways	-6779
▁fake	-6780
▁roll	-6781
▁courage	-6782
casting	-6783
▁pointed	-6784
▁List	-6785
▁Press	-6786
▁solutions	-6787
▁advanced	-6788
▁procedure	-6789
▁hur	-6790
▁Malays	-6791
was	-6792
rations	-6793
▁tribal	-6794
hane	-6795
▁Actress	-6796
▁Aad	-6797
▁Indo	-6798
▁slogans	-6799
▁acts	-6800
▁belongs	-6801
▁Valley	-6802
▁Federation	-6803
▁inspir	-6804
odh	-6805
▁apostle	-6806
tel	-6807
▁Att	-6808
▁mort	-6809
▁race	-6810
▁armed	-6811
lot	-6812
eor	-6813
▁campus	-6814
una	-6815
▁simply	-6816
▁Abdul	-6817
ansk	-6818
▁Yahweh	-6819
▁Independence	-6820
▁perhaps	-6821
ande	-6822
▁Pur	-6823
▁files	-6824
▁Brazil	-6825
▁51	-6826
▁clash	-6827
▁Sushma	-6828
▁concerning	-6829
▁unity	-6830
▁chosen	-6831
▁wisdom	-6832
▁obl	-6833
▁concl	-6834
harm	-6835
▁categories	-6836
▁Green	-6837
▁Abdullah	-6838
▁writer	-6839
▁unless	-6840
▁mainly	-6841
erciful	-6842
.""	-6843
aves	-6844
▁intens	-6845
▁CPI	-6846
▁analy	-6847
▁toward	-6848
othing	-6849
▁wont	-6850
▁Coronavirus	-6851
▁worst	-6852
▁elements	-6853
▁5-	-6854
▁Institut	-6855
itely	-6856
▁IAF	-6857
▁Priv	-6858
▁Iraq	-6859
▁prosperity	-6860
▁Stadium	-6861
▁millions	-6862
▁leaves	-6863
▁fed	-6864
▁brings	-6865
▁figure	-6866
payee	-6867
▁Sikk	-6868
▁remark	-6869
▁vaccine	-6870
▁handle	-6871
▁2:	-6872
▁tough	-6873
▁twice	-6874
▁Rafale	-6875
enses	-6876
▁Times	-6877
cheduled	-6878
▁opposite	-6879
▁portal	-6880
hajan	-6881
▁interesting	-6882
▁advocate	-6883
▁emerged	-6884
▁2017-1	-6885
▁appealed	-6886
▁celebrations	-6887
▁failure	-6888
▁Haz	-6889
▁retire	-6890
▁Rashtriya	-6891
65	-6892
▁wise	-6893
▁newly	-6894
▁assum	-6895
uff	-6896
▁instance	-6897
▁helping	-6898
had	-6899
urved	-6900
▁toss	-6901
▁stable	-6902
xic	-6903
▁male	-6904
▁Exchange	-6905
amin	-6906
otees	-6907
usted	-6908
▁193	-6909
isition	-6910
▁confirm	-6911
▁rum	-6912
▁dated	-6913
ritsar	-6914
▁Mukesh	-6915
lin	-6916
▁heat	-6917
▁Sandeep	-6918
▁Akhilesh	-6919
▁Ric	-6920
▁Vikas	-6921
75	-6922
▁refuge	-6923
▁3.	-6924
▁piv	-6925
▁theme	-6926
elsius	-6927
▁earned	-6928
▁schedule	-6929
▁Natural	-6930
▁generally	-6931
▁Rakesh	-6932
▁currency	-6933
ansion	-6934
▁Satan	-6935
▁Take	-6936
▁2019.	-6937
Pakistan	-6938
▁recover	-6939
▁Sea	-6940
▁Academy	-6941
▁1,000	-6942
▁Lalu	-6943
▁greetings	-6944
▁Citizenship	-6945
▁beneficiaries	-6946
▁heritage	-6947
▁bomb	-6948
▁Jain	-6949
▁hero	-6950
▁legend	-6951
▁trees	-6952
▁Engineering	-6953
PG	-6954
igil	-6955
▁Officers	-6956
▁Agra	-6957
▁Card	-6958
▁please	-6959
▁peaceful	-6960
▁sacrifice	-6961
▁style	-6962
▁9,	-6963
icip	-6964
▁Land	-6965
ua	-6966
▁Mun	-6967
▁Atal	-6968
▁council	-6969
▁3:	-6970
▁Friend	-6971
▁ven	-6972
▁outstanding	-6973
utin	-6974
▁Total	-6975
▁Gaur	-6976
▁Forces	-6977
▁stressed	-6978
▁situated	-6979
▁Sciences	-6980
▁west	-6981
▁pregn	-6982
▁copy	-6983
▁Directorate	-6984
▁emotion	-6985
▁closely	-6986
▁Arora	-6987
▁picked	-6988
▁Bhut	-6989
▁Excell	-6990
▁constitution	-6991
▁humans	-6992
▁software	-6993
▁movies	-6994
▁Premier	-6995
▁flu	-6996
▁LORD	-6997
▁followers	-6998
▁goals	-6999
ails	-7000
▁animal	-7001
▁distributed	-7002
▁seeing	-7003
▁relative	-7004
▁celebrate	-7005
▁greatest	-7006
▁sky	-7007
▁Surely	-7008
▁inspired	-7009
▁premises	-7010
ching	-7011
▁Gopal	-7012
▁species	-7013
▁lands	-7014
▁quickly	-7015
AB	-7016
▁centuries	-7017
▁showc	-7018
▁explos	-7019
▁TMC	-7020
▁intelligence	-7021
aland	-7022
▁Aviation	-7023
▁transactions	-7024
▁resigned	-7025
▁examples	-7026
▁Kann	-7027
▁Gree	-7028
captain	-7029
▁Vaj	-7030
▁Agency	-7031
▁41	-7032
anguly	-7033
▁although	-7034
▁\""	-7035
▁believes	-7036
▁winners	-7037
ipped	-7038
▁interact	-7039
▁entrepreneurs	-7040
Sh	-7041
▁quit	-7042
▁incor	-7043
uties	-7044
▁directions	-7045
employ	-7046
room	-7047
▁Miz	-7048
▁Chat	-7049
▁baby	-7050
▁52	-7051
iyush	-7052
▁western	-7053
▁appears	-7054
▁bridge	-7055
▁Tests	-7056
▁Aj	-7057
yas	-7058
RS	-7059
atio	-7060
▁15,	-7061
▁notified	-7062
▁Shuk	-7063
▁Kaus	-7064
▁universities	-7065
▁producer	-7066
▁Main	-7067
▁functioning	-7068
An	-7069
▁casual	-7070
▁prepare	-7071
▁branch	-7072
aja	-7073
▁doesn	-7074
▁praise	-7075
▁possibility	-7076
▁Pass	-7077
aving	-7078
▁fruits	-7079
▁Time	-7080
▁reading	-7081
▁fought	-7082
▁Gor	-7083
▁Chall	-7084
athy	-7085
▁applied	-7086
▁Festival	-7087
▁regularly	-7088
▁distin	-7089
▁edition	-7090
Cong	-7091
▁jurisdict	-7092
▁120	-7093
▁Ish	-7094
▁select	-7095
▁participating	-7096
▁pivotal	-7097
▁Jad	-7098
▁permanent	-7099
▁external	-7100
▁belonging	-7101
-17	-7102
▁warned	-7103
▁soil	-7104
▁Sonam	-7105
redit	-7106
▁Legislative	-7107
▁Captain	-7108
▁2019:	-7109
▁offence	-7110
▁1:	-7111
ivek	-7112
▁Piyush	-7113
west	-7114
▁motiv	-7115
rigation	-7116
▁privile	-7117
▁Chak	-7118
▁stead	-7119
▁facts	-7120
▁formal	-7121
urrection	-7122
▁elim	-7123
▁farmer	-7124
▁Celsius	-7125
▁scholars	-7126
MK	-7127
▁clin	-7128
▁snow	-7129
▁master	-7130
oom	-7131
▁devices	-7132
▁Rand	-7133
▁angels	-7134
phones	-7135
▁Ambed	-7136
ography	-7137
▁Kha	-7138
aling	-7139
▁consumers	-7140
▁younger	-7141
▁Chaudhary	-7142
▁agend	-7143
▁Assistant	-7144
Ex	-7145
▁Did	-7146
▁Ganguly	-7147
▁philosop	-7148
▁Micro	-7149
▁abscond	-7150
▁Rash	-7151
▁Whe	-7152
▁voting	-7153
▁Labour	-7154
▁bowling	-7155
▁eastern	-7156
▁replace	-7157
▁tank	-7158
▁factors	-7159
▁investigated	-7160
▁fest	-7161
▁Arabia	-7162
▁allot	-7163
▁motorcy	-7164
▁imprison	-7165
▁reservoirs	-7166
oked	-7167
▁Xiaomi	-7168
▁divide	-7169
▁comprehensive	-7170
▁Puri	-7171
▁verily	-7172
FI	-7173
▁Start	-7174
▁improvement	-7175
NL	-7176
▁fiscal	-7177
iced	-7178
▁norms	-7179
▁corporate	-7180
▁Advani	-7181
▁Agreement	-7182
▁locations	-7183
▁electronic	-7184
▁dollar	-7185
▁approached	-7186
▁determined	-7187
▁Six	-7188
▁Housing	-7189
▁griev	-7190
▁courses	-7191
▁consec	-7192
▁listed	-7193
▁Sikkim	-7194
itors	-7195
▁sanctioned	-7196
▁core	-7197
▁Obama	-7198
▁choose	-7199
▁dropped	-7200
▁interested	-7201
aren	-7202
▁mal	-7203
▁inflation	-7204
▁@	-7205
▁Tro	-7206
MT	-7207
▁dia	-7208
,999.	-7209
▁Motor	-7210
▁MT	-7211
▁NG	-7212
▁suffer	-7213
▁Grand	-7214
ertiliz	-7215
▁retired	-7216
jud	-7217
▁Ha	-7218
▁premi	-7219
▁prescribed	-7220
▁Cooperation	-7221
▁12,	-7222
▁conflict	-7223
▁Vivek	-7224
▁storm	-7225
▁Gard	-7226
▁heads	-7227
▁Indore	-7228
arm	-7229
▁honoured	-7230
▁pattern	-7231
▁establishment	-7232
oga	-7233
oda	-7234
iments	-7235
▁Mil	-7236
umble	-7237
▁Akhtar	-7238
▁requirement	-7239
▁sets	-7240
▁labor	-7241
▁Pas	-7242
CO	-7243
▁pure	-7244
▁Mc	-7245
▁draft	-7246
▁requires	-7247
▁architect	-7248
▁thats	-7249
▁Chris	-7250
▁Airtel	-7251
▁selfie	-7252
▁struct	-7253
▁papers	-7254
▁harmony	-7255
▁constitutional	-7256
▁contains	-7257
▁Non	-7258
▁Ek	-7259
hari	-7260
▁leads	-7261
▁completion	-7262
lets	-7263
hin	-7264
▁Despite	-7265
anskrit	-7266
oration	-7267
▁Udd	-7268
▁materials	-7269
▁toler	-7270
▁unbel	-7271
▁Chin	-7272
inance	-7273
▁probably	-7274
▁filled	-7275
▁figures	-7276
▁Mang	-7277
▁Shukla	-7278
▁advert	-7279
andum	-7280
nan	-7281
▁Meeting	-7282
OL	-7283
keeper	-7284
▁agenda	-7285
▁learned	-7286
▁driving	-7287
▁guided	-7288
▁fundamental	-7289
ilding	-7290
▁Maruti	-7291
▁(5	-7292
▁Narayan	-7293
▁organizations	-7294
▁democratic	-7295
64	-7296
▁jump	-7297
▁saved	-7298
▁Han	-7299
▁fighter	-7300
▁CAA	-7301
▁explained	-7302
▁Ros	-7303
▁convict	-7304
▁ODIs	-7305
▁theat	-7306
adekar	-7307
▁remand	-7308
▁(1)	-7309
eta	-7310
want	-7311
▁cat	-7312
▁aspect	-7313
▁PR	-7314
orter	-7315
ifications	-7316
▁labou	-7317
▁Japanese	-7318
▁Aditya	-7319
▁singer	-7320
▁Jerusal	-7321
struction	-7322
▁Rules	-7323
▁conspiracy	-7324
lex	-7325
alam	-7326
▁thoughts	-7327
--	-7328
lights	-7329
▁Innov	-7330
▁promises	-7331
eria	-7332
▁explain	-7333
▁expression	-7334
▁club	-7335
▁aimed	-7336
▁decline	-7337
▁citizenship	-7338
▁dates	-7339
oles	-7340
▁involving	-7341
But	-7342
▁channels	-7343
▁highway	-7344
%),	-7345
▁African	-7346
▁Badal	-7347
▁Right	-7348
▁location	-7349
▁Click	-7350
▁describ	-7351
▁interrog	-7352
eg	-7353
aces	-7354
▁regime	-7355
▁jun	-7356
eav	-7357
▁Process	-7358
▁Great	-7359
onom	-7360
umber	-7361
▁Joseph	-7362
cend	-7363
▁mishap	-7364
▁Administration	-7365
▁obey	-7366
▁plane	-7367
ham	-7368
▁Insurance	-7369
▁Huss	-7370
▁maintenance	-7371
▁travelling	-7372
ups	-7373
▁Shim	-7374
▁Amritsar	-7375
▁Agarwal	-7376
▁violation	-7377
▁trouble	-7378
▁owner	-7379
visional	-7380
rown	-7381
▁guarant	-7382
anti	-7383
▁Dinesh	-7384
▁reaching	-7385
kaiah	-7386
nu	-7387
▁hotel	-7388
▁effic	-7389
ashion	-7390
▁bron	-7391
▁bid	-7392
▁Lah	-7393
▁Superintendent	-7394
▁mouth	-7395
▁ease	-7396
▁alt	-7397
HA	-7398
▁Gog	-7399
▁cells	-7400
▁revel	-7401
▁56	-7402
▁hang	-7403
▁jew	-7404
ronics	-7405
▁Muz	-7406
▁Happ	-7407
▁Jun	-7408
▁football	-7409
▁accompl	-7410
▁Cust	-7411
▁concluded	-7412
▁Id	-7413
▁SMS	-7414
▁BR	-7415
iring	-7416
CI	-7417
▁Om	-7418
rives	-7419
TE	-7420
▁Electric	-7421
▁53	-7422
▁owners	-7423
▁province	-7424
▁bott	-7425
▁Coal	-7426
▁dangerous	-7427
▁Sindhu	-7428
ampur	-7429
▁Soon	-7430
▁percentage	-7431
aiah	-7432
xy	-7433
▁ANI	-7434
▁toil	-7435
yers	-7436
▁raising	-7437
▁ath	-7438
▁Uddhav	-7439
▁AP	-7440
▁Sit	-7441
▁Centres	-7442
▁cum	-7443
awati	-7444
rers	-7445
kha	-7446
▁thanked	-7447
▁functions	-7448
▁UPA	-7449
▁fan	-7450
▁manager	-7451
DRF	-7452
aria	-7453
▁format	-7454
▁resulted	-7455
▁wake	-7456
▁negoti	-7457
ander	-7458
▁historical	-7459
▁Jac	-7460
▁apolog	-7461
My	-7462
▁Da	-7463
▁selling	-7464
▁governor	-7465
lu	-7466
▁Abb	-7467
▁models	-7468
▁attitude	-7469
17	-7470
ibly	-7471
.30	-7472
▁witnesses	-7473
▁hat	-7474
▁tot	-7475
▁expansion	-7476
▁fathers	-7477
▁Ayush	-7478
▁Nobody	-7479
▁Ambedkar	-7480
▁trailer	-7481
▁Elections	-7482
%.	-7483
bo	-7484
▁Sr	-7485
▁reduction	-7486
▁discharged	-7487
▁floor	-7488
▁Mizoram	-7489
▁exped	-7490
▁Jerusalem	-7491
▁excellent	-7492
▁Marat	-7493
▁temples	-7494
▁tear	-7495
▁Petrol	-7496
▁Jadhav	-7497
ieties	-7498
edy	-7499
▁housing	-7500
▁marketing	-7501
▁alloc	-7502
▁mix	-7503
▁Kangana	-7504
▁hundreds	-7505
oves	-7506
▁Gir	-7507
▁Chow	-7508
▁upto	-7509
▁tourists	-7510
▁250	-7511
▁suit	-7512
▁friendship	-7513
cription	-7514
uhan	-7515
▁arbit	-7516
▁Verily	-7517
▁suggestions	-7518
anj	-7519
▁medals	-7520
▁Disaster	-7521
▁sufficient	-7522
▁losses	-7523
▁indu	-7524
▁Marsh	-7525
▁indigen	-7526
▁Secondary	-7527
▁unve	-7528
▁applicable	-7529
▁reiter	-7530
wala	-7531
▁Crore	-7532
▁Naval	-7533
▁Jawaharlal	-7534
▁Applic	-7535
▁cinema	-7536
▁Ser	-7537
▁threatened	-7538
▁72	-7539
adda	-7540
▁deny	-7541
▁Men	-7542
ariat	-7543
▁framework	-7544
▁Ev	-7545
AY	-7546
▁Bench	-7547
▁jointly	-7548
▁Resources	-7549
addha	-7550
▁furn	-7551
▁seeks	-7552
▁trained	-7553
▁stre	-7554
▁highlighted	-7555
▁represented	-7556
IG	-7557
▁EV	-7558
▁Ru	-7559
utely	-7560
Our	-7561
▁Star	-7562
▁widely	-7563
▁buses	-7564
▁lear	-7565
▁blessings	-7566
▁shops	-7567
98	-7568
-21	-7569
▁Mehta	-7570
▁charging	-7571
▁endeav	-7572
▁XI	-7573
▁85	-7574
▁10.	-7575
▁learnt	-7576
▁consumption	-7577
bi	-7578
AE	-7579
▁Swachh	-7580
▁founder	-7581
▁jurisdiction	-7582
▁Buddh	-7583
▁hyd	-7584
▁sight	-7585
▁Protection	-7586
▁numerous	-7587
rier	-7588
▁gains	-7589
▁Pres	-7590
▁finished	-7591
▁Camp	-7592
▁duties	-7593
▁cook	-7594
▁push	-7595
▁bowler	-7596
▁Teh	-7597
▁Smart	-7598
iar	-7599
odia	-7600
▁Banks	-7601
▁Regional	-7602
▁fill	-7603
▁Ashwin	-7604
▁Hood	-7605
cluding	-7606
▁PG	-7607
uses	-7608
▁IAS	-7609
ocking	-7610
▁Check	-7611
rine	-7612
▁Gram	-7613
▁instructions	-7614
eorological	-7615
▁Hussain	-7616
▁bagged	-7617
▁resolved	-7618
▁subsequently	-7619
▁store	-7620
sych	-7621
▁Meghalaya	-7622
▁prohib	-7623
▁4:	-7624
MR	-7625
▁counterpart	-7626
▁drop	-7627
▁Change	-7628
▁substantial	-7629
▁reviewed	-7630
▁Raja	-7631
▁condolences	-7632
▁Javadekar	-7633
inda	-7634
▁hair	-7635
▁effects	-7636
ola	-7637
▁Patil	-7638
▁discount	-7639
SI	-7640
▁bronze	-7641
▁Hand	-7642
35	-7643
▁cry	-7644
▁Vide	-7645
▁Infrastructure	-7646
▁missile	-7647
▁Sanskrit	-7648
▁rice	-7649
itime	-7650
▁expanded	-7651
▁NS	-7652
just	-7653
▁Geh	-7654
▁pride	-7655
▁entit	-7656
▁announce	-7657
▁sixth	-7658
▁wasnt	-7659
▁concent	-7660
▁messages	-7661
▁Aay	-7662
▁Polit	-7663
attar	-7664
▁Adam	-7665
▁Bag	-7666
▁buildings	-7667
▁causing	-7668
▁Swami	-7669
▁Kanpur	-7670
▁wheat	-7671
▁worshi	-7672
mas	-7673
ki	-7674
▁Private	-7675
▁felicit	-7676
▁recognised	-7677
▁medicines	-7678
▁mandatory	-7679
▁Prophet	-7680
▁mostly	-7681
▁decre	-7682
▁payments	-7683
▁isnt	-7684
▁AB	-7685
TA	-7686
▁Gre	-7687
issions	-7688
aughter	-7689
uters	-7690
gs	-7691
▁resist	-7692
▁magaz	-7693
▁Ahmad	-7694
▁ratio	-7695
▁Scheduled	-7696
▁Coast	-7697
▁putting	-7698
▁Nagpur	-7699
onda	-7700
ellow	-7701
▁outl	-7702
uration	-7703
▁burden	-7704
odi	-7705
▁revised	-7706
▁environmental	-7707
▁exceed	-7708
▁Moreover	-7709
▁compar	-7710
▁row	-7711
▁coin	-7712
▁consumer	-7713
▁consecutive	-7714
You	-7715
▁imper	-7716
▁talked	-7717
▁researc	-7718
▁wicked	-7719
▁alive	-7720
▁Survey	-7721
▁municipal	-7722
ading	-7723
▁revolution	-7724
▁impl	-7725
ctive	-7726
ribution	-7727
▁certificate	-7728
ND	-7729
▁herself	-7730
▁Nagaland	-7731
▁reservation	-7732
▁arg	-7733
-16	-7734
abu	-7735
▁Khanna	-7736
kg	-7737
aked	-7738
askar	-7739
▁Pil	-7740
▁managing	-7741
▁Cell	-7742
▁worksh	-7743
▁loving	-7744
uki	-7745
▁deeply	-7746
rum	-7747
ellect	-7748
▁sessions	-7749
▁panchayat	-7750
▁Sav	-7751
▁differences	-7752
▁discrim	-7753
pert	-7754
▁2018-19	-7755
raid	-7756
acific	-7757
▁2020,	-7758
▁conscious	-7759
apse	-7760
adise	-7761
▁Line	-7762
▁Indonesia	-7763
▁)	-7764
▁Democratic	-7765
▁Skill	-7766
▁acknow	-7767
▁stability	-7768
och	-7769
▁kingdom	-7770
▁vast	-7771
▁condemned	-7772
▁Hindust	-7773
▁58	-7774
▁Fort	-7775
▁Sign	-7776
▁unable	-7777
▁variety	-7778
▁thereafter	-7779
IV	-7780
ipt	-7781
▁Rights	-7782
▁Thereafter	-7783
▁Devgn	-7784
president	-7785
▁uncle	-7786
▁Pratap	-7787
▁restrictions	-7788
▁Mos	-7789
▁AIIMS	-7790
▁74	-7791
▁sep	-7792
200	-7793
quake	-7794
▁semi	-7795
▁imports	-7796
▁accordance	-7797
▁experienced	-7798
▁Va	-7799
ptoms	-7800
▁worldwide	-7801
wah	-7802
urities	-7803
▁Desh	-7804
▁yield	-7805
Man	-7806
▁Bhup	-7807
▁print	-7808
▁touc	-7809
▁accidents	-7810
gery	-7811
▁dealing	-7812
▁sevent	-7813
▁withdraw	-7814
▁coalition	-7815
▁sensitive	-7816
▁thereof	-7817
▁machine	-7818
▁Flip	-7819
▁analysis	-7820
▁targeted	-7821
▁fold	-7822
▁hect	-7823
▁chain	-7824
▁covering	-7825
Wh	-7826
▁devotees	-7827
appa	-7828
▁obtained	-7829
iban	-7830
▁exchang	-7831
▁Ministries	-7832
orted	-7833
▁Mayawati	-7834
▁?	-7835
▁integrity	-7836
▁otherwise	-7837
▁Gehlot	-7838
▁cow	-7839
ilitation	-7840
▁spotted	-7841
kart	-7842
▁remind	-7843
▁shift	-7844
▁womens	-7845
▁northern	-7846
tees	-7847
Congress	-7848
▁escape	-7849
▁Myan	-7850
▁drawn	-7851
▁comprises	-7852
▁allocation	-7853
▁Italy	-7854
▁lad	-7855
▁fulfilled	-7856
▁Minor	-7857
▁Investment	-7858
VP	-7859
▁Inc	-7860
▁disaster	-7861
▁interaction	-7862
▁Trin	-7863
▁termed	-7864
▁convention	-7865
▁Jack	-7866
▁considering	-7867
▁Justices	-7868
▁Plus	-7869
▁Steve	-7870
▁Scient	-7871
▁sovere	-7872
field	-7873
rators	-7874
▁sites	-7875
▁firms	-7876
▁allows	-7877
▁tells	-7878
▁NC	-7879
▁enemy	-7880
▁wall	-7881
45	-7882
▁Hooda	-7883
▁crossed	-7884
▁5.	-7885
▁2017,	-7886
▁pilot	-7887
▁useful	-7888
▁package	-7889
heet	-7890
▁anger	-7891
▁supports	-7892
cles	-7893
▁broken	-7894
IF	-7895
eer	-7896
▁1.5	-7897
▁platforms	-7898
▁Bob	-7899
▁Culture	-7900
▁Madh	-7901
▁approximately	-7902
▁Nand	-7903
▁contra	-7904
▁existence	-7905
▁principle	-7906
▁southern	-7907
▁63	-7908
esty	-7909
▁achievement	-7910
▁Guard	-7911
▁activists	-7912
▁ISRO	-7913
▁Like	-7914
▁TO	-7915
▁absence	-7916
▁absconding	-7917
gra	-7918
▁murd	-7919
▁Muzaff	-7920
?"	-7921
▁bowlers	-7922
▁exception	-7923
▁efficiency	-7924
▁14,	-7925
▁yourselves	-7926
▁Suz	-7927
▁uses	-7928
▁unfortun	-7929
salm	-7930
▁whoever	-7931
▁Pandya	-7932
▁supporters	-7933
Com	-7934
▁thereby	-7935
▁Ghaz	-7936
▁Dubai	-7937
▁Credit	-7938
▁Hig	-7939
▁Vajpayee	-7940
▁reducing	-7941
▁recruitment	-7942
▁Trophy	-7943
▁Prabh	-7944
▁USA	-7945
▁Along	-7946
▁uns	-7947
▁presently	-7948
▁sick	-7949
pol	-7950
▁afraid	-7951
▁Consumer	-7952
hard	-7953
▁capable	-7954
▁definitely	-7955
▁contributed	-7956
▁thanks	-7957
ilas	-7958
▁Padma	-7959
▁forever	-7960
▁Flipkart	-7961
▁Matthew	-7962
▁prize	-7963
inating	-7964
▁settled	-7965
▁mining	-7966
▁integrated	-7967
▁calc	-7968
▁actual	-7969
▁falling	-7970
For	-7971
▁auction	-7972
▁Planning	-7973
▁Hardik	-7974
▁suspected	-7975
▁4.	-7976
▁promot	-7977
▁postp	-7978
▁Love	-7979
hvi	-7980
▁plot	-7981
met	-7982
▁floods	-7983
ishad	-7984
icks	-7985
▁cultiv	-7986
asc	-7987
▁vegetables	-7988
▁Armed	-7989
▁Tomar	-7990
▁Bum	-7991
place	-7992
▁emerging	-7993
▁Prem	-7994
ortheast	-7995
▁conservation	-7996
▁drama	-7997
▁talent	-7998
▁Malaysia	-7999
▁Ravind	-8000
igious	-8001
▁demise	-8002
▁innovative	-8003
▁Unt	-8004
▁forb	-8005
▁lying	-8006
▁alternative	-8007
▁borrow	-8008
▁Subhash	-8009
olid	-8010
▁brain	-8011
▁Ber	-8012
▁beneficial	-8013
▁nav	-8014
▁Pant	-8015
▁diet	-8016
ulam	-8017
dess	-8018
isan	-8019
▁intention	-8020
▁Lat	-8021
▁extension	-8022
▁Abhi	-8023
▁paying	-8024
▁wherein	-8025
▁admission	-8026
herry	-8027
▁segment	-8028
▁relation	-8029
▁73	-8030
▁focused	-8031
▁harassment	-8032
▁Local	-8033
▁losing	-8034
▁Interest	-8035
▁implementing	-8036
othes	-8037
▁Anur	-8038
▁plastic	-8039
▁positions	-8040
▁Jade	-8041
▁2018,	-8042
▁electoral	-8043
▁effectively	-8044
ux	-8045
▁reserved	-8046
▁enhanced	-8047
▁commence	-8048
word	-8049
▁Chem	-8050
▁venture	-8051
▁delight	-8052
▁tickets	-8053
gam	-8054
auty	-8055
▁grat	-8056
▁asserted	-8057
▁NIA	-8058
break	-8059
▁Laksh	-8060
▁Qualcomm	-8061
▁constantly	-8062
Mo	-8063
18	-8064
Un	-8065
▁Um	-8066
▁Was	-8067
▁competitive	-8068
▁Gogoi	-8069
aksha	-8070
▁MC	-8071
NS	-8072
▁Top	-8073
▁separat	-8074
assion	-8075
▁Pa	-8076
uma	-8077
▁amaz	-8078
iciary	-8079
▁Bhutan	-8080
▁Friends	-8081
▁Dan	-8082
▁Teac	-8083
▁hike	-8084
▁Mother	-8085
▁ic	-8086
▁illust	-8087
▁questioning	-8088
▁divor	-8089
NC	-8090
▁cad	-8091
▁moral	-8092
▁communal	-8093
hit	-8094
▁depth	-8095
▁2007	-8096
▁nomination	-8097
ayam	-8098
cher	-8099
lected	-8100
▁Through	-8101
▁gained	-8102
▁medicine	-8103
▁tribute	-8104
▁letters	-8105
▁margin	-8106
▁conversation	-8107
▁initially	-8108
▁Ans	-8109
▁Myanmar	-8110
▁mountain	-8111
ulty	-8112
▁Honble	-8113
▁Based	-8114
Plus	-8115
▁achievements	-8116
▁dry	-8117
▁auto	-8118
▁titled	-8119
▁grew	-8120
▁pron	-8121
▁motion	-8122
arnath	-8123
▁125	-8124
Us	-8125
arency	-8126
picious	-8127
▁batsmen	-8128
▁rare	-8129
atar	-8130
▁Yuv	-8131
▁partys	-8132
▁KL	-8133
▁Mart	-8134
▁enthus	-8135
▁stayed	-8136
ateful	-8137
▁Nadda	-8138
▁Jews	-8139
▁fired	-8140
▁Leader	-8141
▁Er	-8142
▁favor	-8143
▁contem	-8144
▁67	-8145
aration	-8146
95	-8147
▁5:	-8148
▁Chandr	-8149
ips	-8150
▁bed	-8151
▁funding	-8152
xis	-8153
▁blind	-8154
▁fielded	-8155
▁Det	-8156
▁Khattar	-8157
▁struck	-8158
▁Conf	-8159
▁Univers	-8160
bur	-8161
poll	-8162
▁Bur	-8163
▁fix	-8164
▁dim	-8165
▁Bumrah	-8166
▁wearing	-8167
▁Je	-8168
ailed	-8169
weets	-8170
▁Pawan	-8171
▁rememb	-8172
ifies	-8173
▁Sheikh	-8174
identified	-8175
▁preparations	-8176
erved	-8177
▁liquid	-8178
▁Ravindra	-8179
▁Mobile	-8180
▁triple	-8181
▁tenure	-8182
▁torment	-8183
▁conferred	-8184
UV	-8185
NB	-8186
osure	-8187
lihood	-8188
▁Warner	-8189
ications	-8190
▁Resource	-8191
▁searching	-8192
▁meets	-8193
▁68	-8194
ocol	-8195
antic	-8196
▁replied	-8197
from	-8198
osis	-8199
▁Panch	-8200
▁Mis	-8201
▁veteran	-8202
▁Stock	-8203
▁Which	-8204
▁borders	-8205
Amendment	-8206
▁gift	-8207
▁maintaining	-8208
▁era	-8209
▁Islamabad	-8210
▁returning	-8211
▁visits	-8212
▁Ayushman	-8213
▁pac	-8214
▁hits	-8215
▁businesses	-8216
▁Look	-8217
▁Nick	-8218
liness	-8219
▁imprisonment	-8220
▁66	-8221
▁opens	-8222
▁5,000	-8223
ANS	-8224
▁Dec	-8225
▁Jadeja	-8226
yam	-8227
opic	-8228
▁setup	-8229
▁Selection	-8230
▁challenged	-8231
▁Text	-8232
▁starred	-8233
hani	-8234
▁tack	-8235
TC	-8236
oking	-8237
▁grown	-8238
izes	-8239
asan	-8240
rian	-8241
cro	-8242
wani	-8243
▁efficient	-8244
hotra	-8245
elt	-8246
▁monthly	-8247
▁tourist	-8248
▁shape	-8249
▁Jin	-8250
▁Tw	-8251
▁moon	-8252
noon	-8253
▁stronger	-8254
uka	-8255
▁cord	-8256
▁legislation	-8257
▁prophe	-8258
▁sharp	-8259
▁protesting	-8260
rates	-8261
isement	-8262
oba	-8263
▁Championship	-8264
cers	-8265
▁kinds	-8266
▁processes	-8267
▁Sources	-8268
▁newspaper	-8269
▁57	-8270
▁nod	-8271
▁Sushil	-8272
▁secured	-8273
▁labourers	-8274
▁nominated	-8275
emies	-8276
▁institute	-8277
▁sem	-8278
].	-8279
▁Gurd	-8280
▁Paris	-8281
▁Tiger	-8282
▁totally	-8283
CM	-8284
▁Quran	-8285
New	-8286
▁Bagh	-8287
100	-8288
▁2019,	-8289
▁secondary	-8290
ii	-8291
▁footage	-8292
▁Index	-8293
licop	-8294
▁Tribunal	-8295
raf	-8296
▁Baba	-8297
▁excess	-8298
▁tension	-8299
▁blue	-8300
▁Managing	-8301
▁craft	-8302
▁continuing	-8303
▁overt	-8304
▁households	-8305
agues	-8306
aution	-8307
▁fly	-8308
▁Never	-8309
▁Naik	-8310
▁Panchay	-8311
▁eventually	-8312
▁significantly	-8313
ampion	-8314
coh	-8315
▁amendment	-8316
14	-8317
▁Hot	-8318
▁jewell	-8319
▁consultation	-8320
▁Vol	-8321
erate	-8322
''	-8323
▁Ib	-8324
rition	-8325
▁champions	-8326
ym	-8327
▁Irani	-8328
▁helicop	-8329
▁increases	-8330
▁upper	-8331
▁examinations	-8332
▁loy	-8333
▁rom	-8334
▁owned	-8335
2)	-8336
inar	-8337
▁subjects	-8338
▁Care	-8339
▁Anant	-8340
life	-8341
▁Small	-8342
▁Yash	-8343
▁Punjabi	-8344
▁Hist	-8345
▁Maur	-8346
▁Regist	-8347
▁Woman	-8348
▁stones	-8349
▁equipped	-8350
UR	-8351
▁watching	-8352
▁disciples	-8353
▁OnePlus	-8354
ario	-8355
▁grounds	-8356
▁Ved	-8357
▁Forum	-8358
▁disrupt	-8359
▁experiences	-8360
tra	-8361
▁sins	-8362
▁difficulties	-8363
....	-8364
▁Nam	-8365
▁Vinod	-8366
▁Nation	-8367
▁Math	-8368
▁methods	-8369
cohol	-8370
▁keeps	-8371
▁Border	-8372
▁Malhotra	-8373
▁Nay	-8374
▁CH	-8375
▁dwell	-8376
uded	-8377
▁anywhere	-8378
▁coverage	-8379
▁overseas	-8380
▁visible	-8381
▁Deb	-8382
▁instrument	-8383
▁destination	-8384
▁aug	-8385
orious	-8386
▁pleasure	-8387
▁transmission	-8388
inner	-8389
iform	-8390
otton	-8391
▁2020:	-8392
▁Professor	-8393
▁Employment	-8394
core	-8395
▁Dom	-8396
▁producing	-8397
eft	-8398
▁resource	-8399
▁recognized	-8400
▁journalists	-8401
chell	-8402
▁ends	-8403
▁Mount	-8404
▁limits	-8405
▁LED	-8406
▁sole	-8407
▁monsoon	-8408
▁Fac	-8409
▁obvious	-8410
▁symptoms	-8411
▁immense	-8412
▁affordable	-8413
▁stret	-8414
hael	-8415
▁Prab	-8416
▁keen	-8417
▁merely	-8418
▁convicted	-8419
▁2014,	-8420
▁conce	-8421
▁prompt	-8422
▁2017-18	-8423
▁crew	-8424
▁50,000	-8425
▁62	-8426
▁Akbar	-8427
▁argument	-8428
▁Clim	-8429
▁Ranaut	-8430
▁sanitation	-8431
omen	-8432
▁bowl	-8433
gments	-8434
▁turns	-8435
▁deposit	-8436
▁disbelieve	-8437
▁absolutely	-8438
bu	-8439
▁attached	-8440
▁integral	-8441
▁associate	-8442
hand	-8443
▁mir	-8444
speed	-8445
fl	-8446
▁Jai	-8447
▁Jonas	-8448
▁phases	-8449
▁previously	-8450
ICS	-8451
haraoh	-8452
▁globally	-8453
▁Jy	-8454
▁hyp	-8455
▁exem	-8456
▁Taliban	-8457
ulating	-8458
▁Penal	-8459
▁square	-8460
ighty	-8461
Th	-8462
▁sed	-8463
▁towns	-8464
▁Hol	-8465
▁Mul	-8466
▁Mitchell	-8467
▁combat	-8468
▁inher	-8469
▁Suzuki	-8470
▁sending	-8471
uster	-8472
▁feelings	-8473
stood	-8474
▁networ	-8475
▁evol	-8476
▁Memorial	-8477
▁Heb	-8478
▁smaller	-8479
▁telecom	-8480
▁Bay	-8481
▁Bhat	-8482
artments	-8483
▁spreading	-8484
▁honor	-8485
▁replaced	-8486
▁acted	-8487
force	-8488
▁Shraddha	-8489
▁premium	-8490
▁fish	-8491
▁nobody	-8492
▁glad	-8493
▁violent	-8494
▁culp	-8495
▁aside	-8496
▁retirement	-8497
heb	-8498
▁Tir	-8499
▁humanity	-8500
▁Panchayat	-8501
ulative	-8502
▁coaches	-8503
▁Vikram	-8504
PA	-8505
▁links	-8506
▁engage	-8507
▁BSF	-8508
▁emotional	-8509
more	-8510
▁taxes	-8511
▁Shami	-8512
rick	-8513
▁isolated	-8514
▁background	-8515
▁Veh	-8516
endar	-8517
▁color	-8518
lis	-8519
▁pick	-8520
okh	-8521
idelines	-8522
▁Aayog	-8523
▁Back	-8524
▁sequ	-8525
cellor	-8526
▁Vadra	-8527
▁rang	-8528
▁2,000	-8529
▁factory	-8530
unk	-8531
▁spending	-8532
alu	-8533
▁tributes	-8534
etary	-8535
▁forgive	-8536
▁attempts	-8537
▁encouraged	-8538
▁unidentified	-8539
▁smartphones	-8540
▁surve	-8541
mine	-8542
iability	-8543
▁Williams	-8544
▁behaviour	-8545
ugg	-8546
▁Corona	-8547
otic	-8548
▁joining	-8549
▁farming	-8550
▁impart	-8551
▁appearing	-8552
▁generations	-8553
▁Again	-8554
▁commod	-8555
▁crash	-8556
▁poster	-8557
jeet	-8558
▁Does	-8559
▁Journ	-8560
▁spl	-8561
▁sheet	-8562
▁Rani	-8563
▁satellite	-8564
▁sac	-8565
▁hill	-8566
▁variants	-8567
SR	-8568
▁13,	-8569
▁Lank	-8570
▁bigger	-8571
▁coastal	-8572
▁Corporate	-8573
▁ble	-8574
▁intellect	-8575
▁rid	-8576
▁asks	-8577
▁Nor	-8578
▁smooth	-8579
jot	-8580
▁wave	-8581
▁pair	-8582
▁captured	-8583
fare	-8584
▁attending	-8585
▁Higher	-8586
oso	-8587
▁RRB	-8588
▁Britain	-8589
▁Meteorological	-8590
▁Merciful	-8591
▁Anurag	-8592
▁apparent	-8593
ENT	-8594
▁featured	-8595
orough	-8596
▁Lahore	-8597
ferences	-8598
ynam	-8599
▁Use	-8600
▁cool	-8601
▁pill	-8602
▁pul	-8603
▁judgement	-8604
mAh	-8605
▁Inspector	-8606
▁diagn	-8607
▁Alex	-8608
randed	-8609
▁receipt	-8610
▁Subsequently	-8611
▁tea	-8612
▁Mill	-8613
▁Youn	-8614
oa	-8615
▁Sl	-8616
icky	-8617
)."	-8618
▁Mult	-8619
antly	-8620
dh	-8621
▁fashion	-8622
▁wonderful	-8623
▁Relations	-8624
▁vess	-8625
▁plain	-8626
ishw	-8627
▁remote	-8628
▁approves	-8629
▁treas	-8630
▁fulfill	-8631
ibrary	-8632
iland	-8633
▁Hall	-8634
giving	-8635
▁portion	-8636
▁permitted	-8637
DF	-8638
▁vul	-8639
▁Girl	-8640
▁performing	-8641
▁69	-8642
▁metal	-8643
▁pal	-8644
▁prest	-8645
▁entitled	-8646
▁sixes	-8647
▁Turkey	-8648
itya	-8649
class	-8650
▁closer	-8651
▁engagement	-8652
▁habit	-8653
▁images	-8654
alities	-8655
akha	-8656
▁Blue	-8657
TION	-8658
▁statue	-8659
▁latter	-8660
emed	-8661
liminary	-8662
▁Wind	-8663
▁59	-8664
▁zone	-8665
▁accur	-8666
pher	-8667
▁ships	-8668
▁neighbours	-8669
▁valu	-8670
▁winner	-8671
▁proposals	-8672
▁Viv	-8673
alling	-8674
▁beauty	-8675
16	-8676
makers	-8677
▁Peace	-8678
mun	-8679
▁permit	-8680
▁Aaron	-8681
▁output	-8682
▁passes	-8683
▁servant	-8684
house	-8685
ystem	-8686
apuram	-8687
▁Aadmi	-8688
▁mineral	-8689
,999	-8690
▁Roshan	-8691
▁grateful	-8692
13	-8693
fti	-8694
▁Motors	-8695
▁pilgrims	-8696
free	-8697
▁fab	-8698
▁bike	-8699
ovenant	-8700
▁Mall	-8701
▁upgrad	-8702
▁investigate	-8703
▁Annual	-8704
▁Hell	-8705
▁involvement	-8706
Do	-8707
▁FY	-8708
irect	-8709
▁worse	-8710
▁height	-8711
%)	-8712
▁wished	-8713
No	-8714
▁Vas	-8715
▁makers	-8716
▁acquisition	-8717
▁Parri	-8718
▁Kannada	-8719
▁pip	-8720
▁Kath	-8721
▁Madras	-8722
▁recon	-8723
lor	-8724
ruction	-8725
▁Kim	-8726
▁camps	-8727
▁Phil	-8728
▁Climate	-8729
▁hence	-8730
▁responded	-8731
EA	-8732
di	-8733
fan	-8734
▁mountains	-8735
▁Michael	-8736
▁hub	-8737
owing	-8738
▁Rev	-8739
asting	-8740
iri	-8741
▁hosted	-8742
▁1000	-8743
▁tally	-8744
▁displayed	-8745
▁institutional	-8746
organ	-8747
▁Talking	-8748
▁astray	-8749
▁entering	-8750
▁inclusive	-8751
▁wives	-8752
▁generate	-8753
▁attrib	-8754
▁Poon	-8755
apped	-8756
▁Charge	-8757
▁patri	-8758
▁gods	-8759
▁allowing	-8760
▁2019-20	-8761
▁liquor	-8762
▁knowing	-8763
▁achieving	-8764
▁PV	-8765
▁cycl	-8766
▁angry	-8767
▁Pud	-8768
▁Dam	-8769
utation	-8770
▁suspect	-8771
1)	-8772
▁IR	-8773
▁Bengali	-8774
▁answered	-8775
oph	-8776
▁Secretariat	-8777
anand	-8778
▁wear	-8779
▁articles	-8780
▁Que	-8781
▁suitable	-8782
▁researchers	-8783
▁transparency	-8784
▁Mald	-8785
▁YouT	-8786
▁mixed	-8787
vir	-8788
▁99	-8789
chand	-8790
▁Pict	-8791
▁Thir	-8792
▁waters	-8793
▁Gr	-8794
▁minds	-8795
▁infected	-8796
LD	-8797
▁simpl	-8798
UTs	-8799
▁MW	-8800
▁worker	-8801
▁31,	-8802
▁Lax	-8803
▁decade	-8804
▁locals	-8805
▁pled	-8806
itaries	-8807
▁conveyed	-8808
▁Ocean	-8809
etisation	-8810
▁recognition	-8811
▁Job	-8812
▁lawyers	-8813
unications	-8814
ridge	-8815
▁Miss	-8816
▁pion	-8817
▁aband	-8818
▁amended	-8819
▁Ghosh	-8820
▁glory	-8821
▁finger	-8822
▁combined	-8823
22	-8824
inking	-8825
▁attra	-8826
adur	-8827
▁glass	-8828
▁Examination	-8829
▁characters	-8830
▁interim	-8831
▁RE	-8832
▁mAh	-8833
▁earthquake	-8834
▁rival	-8835
▁radio	-8836
egr	-8837
born	-8838
rence	-8839
▁marked	-8840
▁generated	-8841
▁Cle	-8842
related	-8843
aswamy	-8844
▁Nic	-8845
vation	-8846
▁duo	-8847
▁athlet	-8848
USH	-8849
▁Viet	-8850
▁zero	-8851
mentation	-8852
▁pronoun	-8853
▁Mel	-8854
ilipp	-8855
▁folk	-8856
▁AY	-8857
▁cloud	-8858
▁hun	-8859
▁worried	-8860
owered	-8861
▁preaching	-8862
▁elders	-8863
She	-8864
▁Left	-8865
▁accommod	-8866
▁16,	-8867
rif	-8868
▁burning	-8869
▁controlled	-8870
▁regulations	-8871
▁IG	-8872
▁defined	-8873
▁railways	-8874
▁Agricultural	-8875
MB	-8876
▁transportation	-8877
▁gate	-8878
▁volume	-8879
▁painful	-8880
▁coordination	-8881
▁Happy	-8882
▁bright	-8883
▁prophet	-8884
▁contained	-8885
soever	-8886
enth	-8887
▁Sonakshi	-8888
▁Safety	-8889
ato	-8890
▁000	-8891
▁Death	-8892
rie	-8893
akumar	-8894
▁consists	-8895
ureshi	-8896
▁excited	-8897
▁distingu	-8898
wahati	-8899
▁Bhawan	-8900
▁irrigation	-8901
▁Spain	-8902
▁Marathi	-8903
▁bought	-8904
atically	-8905
roff	-8906
▁equival	-8907
▁contributions	-8908
▁Thar	-8909
▁controversial	-8910
atab	-8911
▁afternoon	-8912
▁Expl	-8913
▁incorpor	-8914
▁YouTube	-8915
encing	-8916
▁visa	-8917
▁Mufti	-8918
▁sav	-8919
▁crimes	-8920
▁significance	-8921
▁manage	-8922
.25	-8923
77	-8924
▁wing	-8925
▁Number	-8926
What	-8927
aying	-8928
venues	-8929
▁raped	-8930
▁consequences	-8931
aceut	-8932
▁Ambassador	-8933
▁Kong	-8934
achinery	-8935
▁fitness	-8936
▁traders	-8937
▁swit	-8938
ishankar	-8939
▁AD	-8940
▁neighbouring	-8941
▁expenses	-8942
▁Big	-8943
▁Free	-8944
harmaceut	-8945
▁Ive	-8946
▁poly	-8947
▁Sunny	-8948
▁acid	-8949
▁Cert	-8950
▁Shroff	-8951
▁discipline	-8952
▁salary	-8953
▁worry	-8954
▁employee	-8955
▁blessed	-8956
cket	-8957
▁cattle	-8958
▁Companies	-8959
▁understood	-8960
▁Malay	-8961
lad	-8962
rith	-8963
▁600	-8964
▁Benef	-8965
▁Ast	-8966
▁innoc	-8967
▁enemies	-8968
▁enjoyed	-8969
▁Philipp	-8970
▁30.	-8971
▁Parrikar	-8972
andal	-8973
▁Resp	-8974
▁microSD	-8975
▁Revenue	-8976
▁rescued	-8977
▁launches	-8978
▁editor	-8979
▁continuous	-8980
▁Hong	-8981
▁trip	-8982
▁Results	-8983
ndering	-8984
▁rapidly	-8985
▁assigned	-8986
▁2018.	-8987
▁appearance	-8988
▁valley	-8989
▁epis	-8990
▁metro	-8991
▁surre	-8992
▁solve	-8993
ishwarya	-8994
▁inspiration	-8995
▁Raut	-8996
▁deals	-8997
▁2016,	-8998
alle	-8999
days	-9000
▁forgiveness	-9001
iabet	-9002
▁destruction	-9003
cture	-9004
▁psych	-9005
▁primarily	-9006
▁ascertained	-9007
▁birds	-9008
▁Shikhar	-9009
▁evac	-9010
▁anybody	-9011
▁qualified	-9012
▁ambit	-9013
▁Shiva	-9014
▁Anup	-9015
▁Rishi	-9016
▁Venkaiah	-9017
▁Technical	-9018
▁flat	-9019
▁Support	-9020
▁trials	-9021
▁reiterated	-9022
▁Ext	-9023
▁Khans	-9024
▁Paswan	-9025
▁hall	-9026
▁Syria	-9027
▁Mexic	-9028
▁alcohol	-9029
▁dignitaries	-9030
▁Intelligence	-9031
▁relax	-9032
habilitation	-9033
-10	-9034
▁12.	-9035
▁secular	-9036
▁personally	-9037
▁disbelievers	-9038
agra	-9039
▁Harb	-9040
▁BRICS	-9041
▁Integr	-9042
osal	-9043
▁older	-9044
▁unbelievers	-9045
▁Working	-9046
▁preparing	-9047
▁Tru	-9048
▁Session	-9049
▁touched	-9050
▁criticism	-9051
▁Kashmiri	-9052
▁78	-9053
▁stocks	-9054
iman	-9055
▁exactly	-9056
mukh	-9057
▁Phase	-9058
rorism	-9059
▁arrangement	-9060
▁fees	-9061
▁unjust	-9062
▁Rober	-9063
▁incent	-9064
ganj	-9065
▁answers	-9066
▁eg	-9067
▁powder	-9068
india	-9069
▁targets	-9070
▁Aishwarya	-9071
▁objectives	-9072
▁commissioner	-9073
mendra	-9074
zes	-9075
▁outcome	-9076
▁{	-9077
agon	-9078
▁covenant	-9079
▁acres	-9080
▁customer	-9081
▁AK	-9082
▁van	-9083
▁Gow	-9084
▁Kish	-9085
▁Hindustan	-9086
▁Innovation	-9087
▁shock	-9088
▁Bihari	-9089
▁center	-9090
2020	-9091
rator	-9092
▁couldnt	-9093
▁Rajendra	-9094
▁professor	-9095
▁Aur	-9096
▁catch	-9097
▁opener	-9098
cript	-9099
ulses	-9100
▁Were	-9101
odhpur	-9102
▁vacant	-9103
▁conclusion	-9104
inter	-9105
▁Mandi	-9106
NT	-9107
wicket	-9108
▁NITI	-9109
▁united	-9110
▁acquired	-9111
▁Guwahati	-9112
▁Mally	-9113
▁abuse	-9114
▁breath	-9115
▁removal	-9116
▁email	-9117
sters	-9118
▁Name	-9119
▁cli	-9120
▁continuously	-9121
weep	-9122
▁element	-9123
▁studied	-9124
▁Bul	-9125
▁Personnel	-9126
▁Kris	-9127
▁Order	-9128
▁Eff	-9129
▁dreams	-9130
How	-9131
▁representing	-9132
▁95	-9133
▁streets	-9134
omic	-9135
alpur	-9136
▁Gamb	-9137
▁Pank	-9138
▁lens	-9139
▁Shimla	-9140
▁Enterprises	-9141
▁6.	-9142
▁properly	-9143
▁Production	-9144
▁Yam	-9145
▁cleared	-9146
▁praised	-9147
▁AYUSH	-9148
▁Partners	-9149
▁Standard	-9150
▁tremend	-9151
▁shortage	-9152
haw	-9153
▁declare	-9154
stream	-9155
itt	-9156
▁arrival	-9157
▁minority	-9158
▁Rath	-9159
gies	-9160
▁festiv	-9161
▁ideal	-9162
▁Kes	-9163
ultaneous	-9164
lete	-9165
yap	-9166
oral	-9167
▁hockey	-9168
▁Johns	-9169
▁sear	-9170
▁careful	-9171
▁explo	-9172
inks	-9173
▁SSP	-9174
▁studying	-9175
▁gear	-9176
acting	-9177
ourable	-9178
▁Consult	-9179
▁Sidharth	-9180
▁Hold	-9181
▁Raman	-9182
▁Bre	-9183
claim	-9184
▁repent	-9185
▁Azhar	-9186
unte	-9187
ointing	-9188
ossible	-9189
adh	-9190
▁71	-9191
ucherry	-9192
▁livelihood	-9193
▁Broadcasting	-9194
▁gap	-9195
▁subsidy	-9196
acc	-9197
24	-9198
itary	-9199
▁Greek	-9200
▁allocated	-9201
ranches	-9202
resents	-9203
▁pretty	-9204
▁stages	-9205
▁shortly	-9206
▁programs	-9207
▁agitation	-9208
itra	-9209
▁legislative	-9210
▁Light	-9211
▁Emer	-9212
▁exit	-9213
teen	-9214
▁offences	-9215
▁Thailand	-9216
▁portf	-9217
▁paise	-9218
SM	-9219
▁street	-9220
▁Calc	-9221
▁Khur	-9222
▁pump	-9223
▁DC	-9224
▁UAE	-9225
▁nurs	-9226
▁Front	-9227
▁finding	-9228
▁...	-9229
85	-9230
illance	-9231
PR	-9232
udhi	-9233
▁Mehbo	-9234
▁unemploy	-9235
▁Azam	-9236
athi	-9237
berg	-9238
▁childhood	-9239
▁inaugurate	-9240
▁eating	-9241
-15	-9242
▁Mala	-9243
▁divine	-9244
▁metres	-9245
aved	-9246
▁Case	-9247
▁bapt	-9248
▁rein	-9249
▁legislators	-9250
▁dust	-9251
▁operate	-9252
water	-9253
▁comprom	-9254
reme	-9255
▁deterior	-9256
▁franch	-9257
▁turning	-9258
▁deposits	-9259
▁Hem	-9260
▁wrest	-9261
rahim	-9262
▁shelter	-9263
▁dil	-9264
▁seeds	-9265
▁carbon	-9266
▁Prevention	-9267
anes	-9268
▁membership	-9269
riev	-9270
▁protected	-9271
▁Joe	-9272
▁preparation	-9273
▁Chauhan	-9274
amation	-9275
▁pleased	-9276
▁diplomatic	-9277
zy	-9278
▁composed	-9279
▁Equ	-9280
▁Whether	-9281
▁Territories	-9282
▁minus	-9283
▁Qureshi	-9284
▁institutes	-9285
▁gross	-9286
▁artist	-9287
▁indigenous	-9288
achi	-9289
▁lowest	-9290
▁enhancing	-9291
▁Had	-9292
▁hopes	-9293
▁tong	-9294
▁wood	-9295
-5	-9296
olen	-9297
▁Sangh	-9298
▁voted	-9299
▁tur	-9300
▁Dharmendra	-9301
▁Silver	-9302
iny	-9303
▁NT	-9304
▁Xi	-9305
▁mine	-9306
▁developments	-9307
▁Gorakh	-9308
▁slight	-9309
▁Represent	-9310
▁Path	-9311
▁Korean	-9312
▁harvest	-9313
▁strengthened	-9314
▁Magistrate	-9315
asts	-9316
▁Dani	-9317
FP	-9318
▁Move	-9319
minton	-9320
▁6:	-9321
▁reveal	-9322
ertilizers	-9323
▁Puducherry	-9324
▁Jodhpur	-9325
▁Ansari	-9326
▁purchased	-9327
zen	-9328
▁scope	-9329
▁distan	-9330
▁machines	-9331
▁190	-9332
▁appreciation	-9333
▁Saj	-9334
▁faster	-9335
▁jawans	-9336
▁examined	-9337
▁motorcycle	-9338
▁2017.	-9339
▁taste	-9340
▁Nirav	-9341
▁pist	-9342
▁resulting	-9343
lit	-9344
▁BSE	-9345
▁overcome	-9346
.12	-9347
▁Naz	-9348
anation	-9349
▁reaction	-9350
▁Ray	-9351
▁satisfaction	-9352
▁scenario	-9353
▁represents	-9354
▁Sis	-9355
▁Down	-9356
▁commanded	-9357
▁mortem	-9358
▁judiciary	-9359
▁IPS	-9360
▁yoga	-9361
portion	-9362
▁vulner	-9363
So	-9364
▁riots	-9365
▁directors	-9366
guard	-9367
▁reasonable	-9368
▁situations	-9369
▁corner	-9370
▁congratulate	-9371
▁colleagues	-9372
▁Ri	-9373
▁exhibition	-9374
▁Soura	-9375
▁pages	-9376
▁intended	-9377
olic	-9378
puri	-9379
▁17,	-9380
uke	-9381
▁string	-9382
▁biopic	-9383
▁anx	-9384
▁SIT	-9385
igade	-9386
▁Data	-9387
▁activist	-9388
▁Secretaries	-9389
BA	-9390
▁Aud	-9391
nect	-9392
ependent	-9393
▁survived	-9394
▁Officials	-9395
▁18,	-9396
▁Tag	-9397
▁outbreak	-9398
rithik	-9399
▁addresses	-9400
aped	-9401
▁champion	-9402
▁Bose	-9403
▁Ragh	-9404
▁marry	-9405
umn	-9406
▁lev	-9407
▁uniform	-9408
iala	-9409
▁ensured	-9410
▁acquit	-9411
▁Pric	-9412
▁Till	-9413
▁George	-9414
OP	-9415
pes	-9416
▁Rup	-9417
▁refers	-9418
▁Beh	-9419
▁Rashid	-9420
▁illness	-9421
▁mistake	-9422
▁chast	-9423
undering	-9424
▁Basket	-9425
▁stranded	-9426
▁ok	-9427
▁Museum	-9428
▁invite	-9429
▁strikes	-9430
▁fabric	-9431
arer	-9432
▁Near	-9433
▁Trinam	-9434
▁Journal	-9435
ls	-9436
power	-9437
▁vigil	-9438
▁Ked	-9439
▁summer	-9440
▁enrol	-9441
▁update	-9442
▁reaches	-9443
km	-9444
fe	-9445
▁clothes	-9446
▁surprised	-9447
▁Organization	-9448
▁amazing	-9449
23	-9450
▁examine	-9451
▁aw	-9452
▁encouraging	-9453
▁airports	-9454
▁Convention	-9455
ishe	-9456
▁Gill	-9457
iabetes	-9458
▁sacred	-9459
▁batt	-9460
▁grace	-9461
▁quarant	-9462
▁fulfil	-9463
▁compassion	-9464
uram	-9465
▁equivalent	-9466
▁traditions	-9467
tha	-9468
▁Auto	-9469
▁Himal	-9470
▁cart	-9471
▁Roman	-9472
ilitary	-9473
▁IANS	-9474
▁park	-9475
▁Ayurved	-9476
▁sentenced	-9477
arliest	-9478
atics	-9479
▁cricketers	-9480
▁emphasized	-9481
pathi	-9482
rank	-9483
▁parame	-9484
▁Islands	-9485
▁threats	-9486
.11	-9487
▁eve	-9488
▁bullet	-9489
▁Pharaoh	-9490
▁visitors	-9491
▁practical	-9492
▁Manj	-9493
osystem	-9494
sequent	-9495
▁luck	-9496
▁tool	-9497
LC	-9498
ford	-9499
▁pertaining	-9500
itha	-9501
▁Janhvi	-9502
▁larg	-9503
▁sanct	-9504
▁capabilities	-9505
▁SS	-9506
RDO	-9507
box	-9508
▁bbl	-9509
▁personality	-9510
lar	-9511
▁Hebrew	-9512
▁backed	-9513
operative	-9514
yo	-9515
▁Squ	-9516
uous	-9517
▁colon	-9518
▁relationships	-9519
nis	-9520
▁earliest	-9521
▁Fran	-9522
▁Ach	-9523
▁unfortunate	-9524
▁chapter	-9525
▁Creat	-9526
▁Jagan	-9527
▁Raksha	-9528
▁Hrithik	-9529
aming	-9530
▁Kabir	-9531
▁Video	-9532
fast	-9533
▁upload	-9534
▁acceler	-9535
inity	-9536
▁maid	-9537
▁Prabhu	-9538
▁empowerment	-9539
isi	-9540
▁Smriti	-9541
▁Jaishankar	-9542
▁Fate	-9543
atories	-9544
▁components	-9545
▁Rupe	-9546
▁indul	-9547
Pro	-9548
.50	-9549
iation	-9550
GA	-9551
▁Than	-9552
▁regret	-9553
▁whenever	-9554
▁Mayor	-9555
▁rej	-9556
▁winter	-9557
▁tight	-9558
▁inhab	-9559
▁likes	-9560
nty	-9561
▁expectations	-9562
▁UT	-9563
▁rub	-9564
feren	-9565
▁representative	-9566
ica	-9567
▁occasions	-9568
▁chose	-9569
▁magazine	-9570
dis	-9571
▁masks	-9572
▁civilian	-9573
▁easier	-9574
▁delayed	-9575
▁diverse	-9576
acing	-9577
▁Northern	-9578
▁Medic	-9579
▁Shakti	-9580
UT	-9581
▁professionals	-9582
wag	-9583
▁Pers	-9584
ifically	-9585
▁Thom	-9586
▁chemical	-9587
print	-9588
DT	-9589
▁righteousness	-9590
▁burnt	-9591
▁256	-9592
▁Hereafter	-9593
akrish	-9594
▁Alliance	-9595
▁mm	-9596
▁supplies	-9597
▁Jail	-9598
▁fastest	-9599
▁Trinamool	-9600
93	-9601
▁Abbas	-9602
▁timely	-9603
anga	-9604
▁Maldives	-9605
▁seventh	-9606
▁supposed	-9607
▁Network	-9608
utch	-9609
▁sincere	-9610
▁Brother	-9611
▁greatly	-9612
▁tools	-9613
▁Taking	-9614
▁aer	-9615
▁Tribal	-9616
▁mosque	-9617
▁rankings	-9618
EF	-9619
▁alias	-9620
▁Pension	-9621
▁Entertainment	-9622
addy	-9623
▁Saw	-9624
▁'%	-9625
▁claiming	-9626
jj	-9627
▁combination	-9628
assy	-9629
▁Bid	-9630
▁Self	-9631
▁Solar	-9632
▁hosts	-9633
▁colours	-9634
China	-9635
udhiana	-9636
▁suspects	-9637
zer	-9638
▁driven	-9639
▁commemor	-9640
▁contested	-9641
63	-9642
▁autonom	-9643
▁Manufact	-9644
provisional	-9645
▁holid	-9646
▁77	-9647
▁twenty	-9648
▁indicated	-9649
▁branches	-9650
▁7.	-9651
▁laundering	-9652
▁chairperson	-9653
▁22,	-9654
▁Center	-9655
▁universal	-9656
▁rock	-9657
▁Mallya	-9658
▁transparent	-9659
▁Chahal	-9660
▁screening	-9661
▁Electronics	-9662
▁SE	-9663
▁flesh	-9664
▁rumours	-9665
▁stun	-9666
▁trigg	-9667
▁routes	-9668
▁arrive	-9669
Al	-9670
▁Wi	-9671
▁click	-9672
▁island	-9673
▁diversity	-9674
▁Ibrahim	-9675
▁Mehbooba	-9676
▁machinery	-9677
▁PAN	-9678
▁stab	-9679
▁emphasis	-9680
▁Promotion	-9681
▁LPG	-9682
wealth	-9683
▁ju	-9684
▁raw	-9685
▁flash	-9686
ndered	-9687
▁intent	-9688
▁largely	-9689
▁execution	-9690
97	-9691
inton	-9692
▁File	-9693
▁kilomet	-9694
▁releases	-9695
▁uncon	-9696
▁honest	-9697
▁forecast	-9698
▁withdrawal	-9699
▁presentation	-9700
▁Live	-9701
point	-9702
▁Nanak	-9703
▁Navjot	-9704
▁Photo	-9705
▁panic	-9706
▁Review	-9707
▁stolen	-9708
▁Jaish	-9709
▁celebrities	-9710
▁14.	-9711
▁precious	-9712
oist	-9713
▁Syed	-9714
▁Institutions	-9715
ignty	-9716
▁immig	-9717
▁desires	-9718
▁satisfied	-9719
67	-9720
▁Shipping	-9721
▁equality	-9722
▁peak	-9723
▁Bajaj	-9724
▁Ken	-9725
▁volunt	-9726
▁Acts	-9727
▁observe	-9728
▁disputes	-9729
alli	-9730
vijay	-9731
▁(201	-9732
▁Kaly	-9733
▁criticised	-9734
rible	-9735
▁booth	-9736
▁Tripathi	-9737
▁Lot	-9738
▁Money	-9739
▁Pop	-9740
▁19,	-9741
ques	-9742
▁Direct	-9743
▁Middle	-9744
▁mothers	-9745
▁transaction	-9746
▁speaks	-9747
▁summon	-9748
▁philosophy	-9749
▁specifications	-9750
28	-9751
▁Ga	-9752
▁2006	-9753
▁Surat	-9754
CE	-9755
writ	-9756
▁pull	-9757
▁sees	-9758
▁Richard	-9759
▁Dalit	-9760
▁entirely	-9761
▁rent	-9762
▁30,	-9763
▁Cam	-9764
▁verses	-9765
▁silent	-9766
▁Swed	-9767
▁nomine	-9768
▁quantity	-9769
asp	-9770
oining	-9771
▁genu	-9772
ician	-9773
▁exists	-9774
acle	-9775
▁assemb	-9776
jid	-9777
▁2-	-9778
▁moves	-9779
▁Bhagat	-9780
▁Series	-9781
▁Bahadur	-9782
▁asset	-9783
▁politicians	-9784
xygen	-9785
awn	-9786
arshan	-9787
▁Vietnam	-9788
orne	-9789
▁Presidents	-9790
▁dynam	-9791
▁evident	-9792
▁Rab	-9793
▁designated	-9794
▁Den	-9795
▁fallen	-9796
▁susp	-9797
▁Psalm	-9798
▁equally	-9799
ferencing	-9800
bing	-9801
▁exempt	-9802
▁religions	-9803
Modi	-9804
▁Gorakhpur	-9805
▁PDP	-9806
▁predict	-9807
nag	-9808
▁anticip	-9809
▁filmmaker	-9810
estyle	-9811
aran	-9812
alted	-9813
▁20,	-9814
▁cogn	-9815
▁blame	-9816
▁drivers	-9817
▁hide	-9818
Fi	-9819
▁Could	-9820
▁Rama	-9821
▁bread	-9822
▁Calcutta	-9823
▁productivity	-9824
▁connections	-9825
▁8.	-9826
▁amendments	-9827
▁Os	-9828
▁Application	-9829
▁intervention	-9830
▁presidential	-9831
▁transformation	-9832
produ	-9833
▁Kapur	-9834
preced	-9835
▁hidden	-9836
▁hell	-9837
▁Choud	-9838
▁Ranchi	-9839
▁stadium	-9840
▁Model	-9841
-12	-9842
▁shell	-9843
▁temporary	-9844
▁130	-9845
ether	-9846
▁semin	-9847
▁hate	-9848
conomic	-9849
▁pregnant	-9850
▁settlement	-9851
ocon	-9852
qual	-9853
▁Cham	-9854
▁Brahm	-9855
▁Strate	-9856
▁persec	-9857
precedented	-9858
▁transg	-9859
▁FDI	-9860
▁blamed	-9861
▁chart	-9862
▁settle	-9863
▁workshop	-9864
▁jewellery	-9865
▁containing	-9866
▁Rag	-9867
iabad	-9868
▁phen	-9869
ificial	-9870
▁Country	-9871
▁explore	-9872
utory	-9873
avati	-9874
▁KK	-9875
▁Urdu	-9876
▁thorough	-9877
▁renewable	-9878
mail	-9879
▁dignity	-9880
state	-9881
anagar	-9882
▁Saina	-9883
▁minorities	-9884
tax	-9885
▁Ord	-9886
▁blocks	-9887
▁invitation	-9888
▁pool	-9889
▁Royals	-9890
▁extensive	-9891
▁tremendous	-9892
▁preliminary	-9893
▁ending	-9894
▁IB	-9895
▁arrang	-9896
Moh	-9897
▁2005	-9898
▁assistant	-9899
▁chargesheet	-9900
atri	-9901
UP	-9902
▁surprise	-9903
▁Integrated	-9904
hr	-9905
▁gender	-9906
▁intellectual	-9907
inc	-9908
▁144	-9909
▁2015.	-9910
▁wounded	-9911
zz	-9912
68	-9913
▁1999	-9914
▁flee	-9915
▁11.	-9916
▁Blu	-9917
Indian	-9918
iverse	-9919
▁Khal	-9920
actor	-9921
▁clashes	-9922
▁Nothing	-9923
▁propag	-9924
illa	-9925
crore	-9926
▁mighty	-9927
▁Ju	-9928
▁Jha	-9929
▁Kartik	-9930
wer	-9931
MI	-9932
wad	-9933
▁empt	-9934
▁salt	-9935
▁maritime	-9936
▁Clean	-9937
▁2016-17	-9938
irty	-9939
▁heed	-9940
▁rounds	-9941
▁descend	-9942
finals	-9943
▁migrant	-9944
▁Deshmukh	-9945
▁corridor	-9946
prit	-9947
▁Taj	-9948
▁obtain	-9949
▁Enforcement	-9950
▁Anti	-9951
▁empower	-9952
jah	-9953
▁Vivo	-9954
▁cotton	-9955
pret	-9956
▁faculty	-9957
▁Ku	-9958
▁consent	-9959
▁01	-9960
ishermen	-9961
oja	-9962
▁Nov	-9963
▁distress	-9964
▁procedures	-9965
edi	-9966
▁EU	-9967
▁Truth	-9968
▁urge	-9969
▁Young	-9970
▁default	-9971
▁800	-9972
urned	-9973
▁abund	-9974
ections	-9975
▁NDRF	-9976
▁theory	-9977
▁Instead	-9978
▁performances	-9979
▁inaugural	-9980
ancies	-9981
▁weapon	-9982
▁2016.	-9983
▁Gro	-9984
anship	-9985
▁everybody	-9986
▁Sourav	-9987
▁Peoples	-9988
▁blocked	-9989
▁unveiled	-9990
▁nationals	-9991
iesel	-9992
▁chop	-9993
▁disturb	-9994
▁intim	-9995
▁Empowerment	-9996
ker	-9997
▁Memorandum	-9998
▁Mac	-9999
▁shout	-10000
▁estate	-10001
▁dear	-10002
▁advers	-10003
iences	-10004
▁celebration	-10005
▁Seh	-10006
▁affili	-10007
▁culprits	-10008
Del	-10009
▁EC	-10010
hent	-10011
▁RTI	-10012
ounds	-10013
Independent	-10014
▁map	-10015
▁Thank	-10016
▁gratitude	-10017
▁hrs	-10018
▁Rajan	-10019
▁slammed	-10020
▁superstar	-10021
▁dispers	-10022
sil	-10023
▁Writ	-10024
▁envis	-10025
▁savings	-10026
▁federal	-10027
▁Cast	-10028
▁entertainment	-10029
▁2018:	-10030
▁viz	-10031
▁Comple	-10032
▁Jasprit	-10033
▁tie	-10034
▁preced	-10035
▁momentum	-10036
▁Crime	-10037
▁Political	-10038
▁agreements	-10039
▁bonds	-10040
▁Phys	-10041
▁cycle	-10042
▁ranked	-10043
44	-10044
aded	-10045
amond	-10046
▁ecosystem	-10047
▁Result	-10048
▁cleanliness	-10049
essed	-10050
▁INDI	-10051
▁introduction	-10052
▁EPF	-10053
▁Club	-10054
▁Shashi	-10055
▁probing	-10056
enture	-10057
▁oblig	-10058
▁kit	-10059
▁insult	-10060
▁Angel	-10061
▁inputs	-10062
▁Malayalam	-10063
▁Compet	-10064
▁Gandhis	-10065
▁Bans	-10066
▁Online	-10067
▁beaten	-10068
▁covers	-10069
▁walking	-10070
▁Others	-10071
▁UTs	-10072
▁rol	-10073
has	-10074
▁Get	-10075
winder	-10076
▁divers	-10077
▁consolid	-10078
▁petitions	-10079
▁Palest	-10080
▁undertake	-10081
▁Owa	-10082
owned	-10083
▁flagship	-10084
▁difficulty	-10085
▁discrimination	-10086
▁elabor	-10087
▁handling	-10088
mat	-10089
▁circuit	-10090
▁Employees	-10091
▁component	-10092
▁24,	-10093
▁telling	-10094
itis	-10095
▁grass	-10096
SA	-10097
▁acknowled	-10098
▁Commonwealth	-10099
inik	-10100
▁HRD	-10101
▁Gay	-10102
▁pref	-10103
▁chances	-10104
rich	-10105
▁DMK	-10106
▁Jason	-10107
▁Vinay	-10108
utenant	-10109
▁MG	-10110
▁virtual	-10111
▁IF	-10112
ords	-10113
▁piece	-10114
▁succumb	-10115
▁Master	-10116
▁immun	-10117
▁firmly	-10118
De	-10119
▁ren	-10120
▁Pandit	-10121
▁presided	-10122
▁registering	-10123
▁2015,	-10124
▁Satish	-10125
▁Long	-10126
▁Teachers	-10127
eev	-10128
▁tweets	-10129
▁depends	-10130
▁Sride	-10131
unar	-10132
▁flo	-10133
▁ranks	-10134
▁venue	-10135
▁officially	-10136
▁demonetisation	-10137
▁Farid	-10138
▁Traffic	-10139
▁vend	-10140
▁tender	-10141
▁arguments	-10142
▁privilege	-10143
▁sentiments	-10144
gence	-10145
▁bills	-10146
ESID	-10147
▁Griev	-10148
limited	-10149
▁territories	-10150
▁pieces	-10151
▁publication	-10152
▁audio	-10153
▁gif	-10154
▁unprecedented	-10155
▁church	-10156
▁retali	-10157
▁2.5	-10158
missions	-10159
▁airline	-10160
▁Ganesh	-10161
▁manual	-10162
▁complic	-10163
▁devotion	-10164
▁recalled	-10165
▁Kartarpur	-10166
▁repeatedly	-10167
▁Asked	-10168
▁embar	-10169
▁Rio	-10170
ixels	-10171
▁84	-10172
▁buying	-10173
▁predicted	-10174
▁Langu	-10175
▁allies	-10176
Ar	-10177
ested	-10178
▁convin	-10179
▁revelations	-10180
27	-10181
▁Nad	-10182
▁ash	-10183
itate	-10184
▁Vict	-10185
▁Scriptures	-10186
▁Durga	-10187
▁kills	-10188
▁utter	-10189
ught	-10190
pread	-10191
▁Sultan	-10192
▁password	-10193
upt	-10194
▁eager	-10195
▁prosecution	-10196
▁wr	-10197
▁resum	-10198
▁undertaking	-10199
▁deficit	-10200
▁MD	-10201
▁refer	-10202
GC	-10203
held	-10204
▁ric	-10205
▁volunte	-10206
umin	-10207
▁25,	-10208
▁Ank	-10209
▁Alok	-10210
▁Digvijay	-10211
▁Circ	-10212
▁dedication	-10213
▁supre	-10214
rome	-10215
▁regulatory	-10216
WC	-10217
▁Deol	-10218
▁disob	-10219
▁Resurrection	-10220
37	-10221
oys	-10222
▁Hans	-10223
▁pursue	-10224
▁priest	-10225
▁scan	-10226
abling	-10227
▁Admir	-10228
olio	-10229
▁boundaries	-10230
▁Full	-10231
atern	-10232
▁Drug	-10233
PL	-10234
▁LRB	-10235
▁backward	-10236
gil	-10237
umi	-10238
▁root	-10239
▁zones	-10240
▁Omar	-10241
▁abrog	-10242
▁Kaushal	-10243
▁impossible	-10244
▁simultaneous	-10245
▁Babu	-10246
▁estimates	-10247
To	-10248
▁Fe	-10249
▁Ludhiana	-10250
▁Hen	-10251
▁forum	-10252
▁Commander	-10253
ingly	-10254
▁Hill	-10255
▁raids	-10256
▁sovereignty	-10257
300	-10258
▁ordinary	-10259
▁economies	-10260
▁2014.	-10261
how	-10262
beat	-10263
ogether	-10264
▁contrast	-10265
ujan	-10266
▁Nat	-10267
▁Faroo	-10268
▁Dab	-10269
▁sli	-10270
▁split	-10271
ugram	-10272
▁DSP	-10273
▁Rang	-10274
▁Beg	-10275
harma	-10276
▁retain	-10277
duct	-10278
isal	-10279
utor	-10280
▁suddenly	-10281
cill	-10282
▁PMO	-10283
▁Axis	-10284
▁introduce	-10285
▁Honda	-10286
including	-10287
▁9.	-10288
iques	-10289
▁Level	-10290
▁analyst	-10291
▁eminent	-10292
▁innocent	-10293
▁doubles	-10294
mates	-10295
▁native	-10296
▁condemn	-10297
jeev	-10298
▁garden	-10299
org	-10300
▁residential	-10301
▁crim	-10302
▁arrests	-10303
▁Mulayam	-10304
▁corrupt	-10305
storm	-10306
▁Street	-10307
▁guests	-10308
▁wage	-10309
▁shrine	-10310
NCR	-10311
▁theft	-10312
airy	-10313
alal	-10314
▁Shast	-10315
▁cured	-10316
▁misle	-10317
▁sheep	-10318
▁collective	-10319
/-	-10320
awa	-10321
▁symp	-10322
▁bio	-10323
▁lamp	-10324
▁clarified	-10325
▁15.	-10326
▁nep	-10327
▁hards	-10328
▁Ary	-10329
▁Thou	-10330
▁mandate	-10331
Hind	-10332
▁Prince	-10333
/2	-10334
▁Drav	-10335
▁Govind	-10336
irt	-10337
hend	-10338
▁Yuvraj	-10339
▁staying	-10340
▁Church	-10341
▁Goddess	-10342
▁vit	-10343
doers	-10344
osoever	-10345
▁cup	-10346
tings	-10347
▁Unit	-10348
▁compuls	-10349
▁murdered	-10350
▁PRESID	-10351
▁Bhuv	-10352
▁collision	-10353
▁rall	-10354
▁flying	-10355
▁enquiry	-10356
▁6-	-10357
rows	-10358
▁Iranian	-10359
eti	-10360
▁upset	-10361
▁futures	-10362
Allah	-10363
▁subsequent	-10364
▁Avoid	-10365
lasting	-10366
▁Randeep	-10367
▁76	-10368
▁domain	-10369
▁commend	-10370
▁Territory	-10371
▁Schedule	-10372
▁Stokes	-10373
▁Various	-10374
father	-10375
▁urgent	-10376
▁soldier	-10377
▁Owaisi	-10378
▁calm	-10379
▁operated	-10380
idav	-10381
▁Mexico	-10382
▁surveillance	-10383
iro	-10384
ichand	-10385
▁compliance	-10386
▁Renew	-10387
▁tensions	-10388
omon	-10389
ananda	-10390
▁Mirza	-10391
▁valuable	-10392
▁BSNL	-10393
▁escal	-10394
rating	-10395
erving	-10396
▁Robert	-10397
▁darkness	-10398
▁ally	-10399
▁dress	-10400
▁Paradise	-10401
oub	-10402
bhar	-10403
▁conting	-10404
▁Challengers	-10405
odaf	-10406
▁hes	-10407
ayaan	-10408
▁organic	-10409
▁cargo	-10410
▁forgot	-10411
▁Saty	-10412
▁Saeed	-10413
▁frame	-10414
▁Pankaj	-10415
▁Ghaziabad	-10416
▁determine	-10417
▁remembered	-10418
ffee	-10419
▁Roht	-10420
▁Yed	-10421
▁Birth	-10422
▁counting	-10423
SCO	-10424
▁ward	-10425
achment	-10426
▁celebrating	-10427
▁Cum	-10428
oning	-10429
▁Noah	-10430
▁sweet	-10431
▁entrance	-10432
▁saving	-10433
▁yes	-10434
▁Excellency	-10435
▁capability	-10436
88	-10437
▁Fern	-10438
iva	-10439
▁rebel	-10440
▁launching	-10441
▁appreciate	-10442
▁militant	-10443
▁creative	-10444
▁apostles	-10445
OU	-10446
▁Dera	-10447
▁Radha	-10448
▁dealt	-10449
▁20,000	-10450
▁tariff	-10451
▁outfit	-10452
▁divorce	-10453
▁patience	-10454
▁meat	-10455
▁Patiala	-10456
▁construct	-10457
juven	-10458
▁Thousand	-10459
▁calendar	-10460
ustice	-10461
▁socio	-10462
▁signing	-10463
idespread	-10464
▁qualities	-10465
▁realise	-10466
▁allotted	-10467
▁aspirations	-10468
▁Vire	-10469
▁gradually	-10470
▁Dip	-10471
▁DGP	-10472
▁MSP	-10473
▁troub	-10474
andi	-10475
Delhi	-10476
▁2004	-10477
▁refund	-10478
Americ	-10479
lo	-10480
▁Kane	-10481
fi	-10482
ometimes	-10483
Pe	-10484
▁PRESIDENT	-10485
▁carefully	-10486
▁franchise	-10487
▁mac	-10488
▁recip	-10489
▁81	-10490
▁DNA	-10491
▁Judges	-10492
▁Pacific	-10493
▁subscrib	-10494
▁petitioner	-10495
▁league	-10496
▁Championships	-10497
▁royal	-10498
▁robust	-10499
▁End	-10500
▁discovered	-10501
▁SUV	-10502
▁sand	-10503
▁Sisodia	-10504
▁INS	-10505
▁incur	-10506
▁convicts	-10507
▁13.	-10508
▁Lie	-10509
▁passion	-10510
▁starrer	-10511
400	-10512
▁idol	-10513
▁8-	-10514
active	-10515
▁seemed	-10516
▁partial	-10517
▁prestigious	-10518
certain	-10519
▁grave	-10520
▁Kisan	-10521
▁Manager	-10522
▁poetry	-10523
▁athletes	-10524
GS	-10525
▁radi	-10526
▁Andaman	-10527
▁Doctors	-10528
▁Building	-10529
▁teen	-10530
▁Chairperson	-10531
odes	-10532
▁breaking	-10533
▁cumulative	-10534
.75	-10535
▁Chet	-10536
ricted	-10537
▁Thomas	-10538
▁adjoining	-10539
▁objection	-10540
▁involves	-10541
▁financing	-10542
!"""	-10543
urappa	-10544
▁Sagar	-10545
economic	-10546
▁History	-10547
▁wherever	-10548
▁Disc	-10549
▁Gambhir	-10550
▁Jo	-10551
aze	-10552
adhy	-10553
▁Vodaf	-10554
prise	-10555
▁Masjid	-10556
▁Martin	-10557
etooth	-10558
▁Gra	-10559
▁stamp	-10560
▁realize	-10561
▁everywhere	-10562
.05	-10563
.2017	-10564
▁shocked	-10565
▁Pray	-10566
▁narrow	-10567
▁Gurugram	-10568
▁Box	-10569
▁affair	-10570
▁inclusion	-10571
.10	-10572
rounder	-10573
▁strive	-10574
▁architecture	-10575
▁Proced	-10576
▁Tharoor	-10577
▁arrives	-10578
ania	-10579
aza	-10580
▁Chinas	-10581
▁Daniel	-10582
▁collaps	-10583
▁suspension	-10584
will	-10585
▁theres	-10586
▁spectrum	-10587
▁enforcement	-10588
LE	-10589
waj	-10590
▁Bip	-10591
▁Cop	-10592
94	-10593
▁Hasan	-10594
▁Umesh	-10595
▁Bat	-10596
▁ramp	-10597
▁4,000	-10598
▁Goods	-10599
▁Eli	-10600
▁graph	-10601
GST	-10602
▁Advisor	-10603
▁Johnson	-10604
wami	-10605
ocket	-10606
being	-10607
▁Radio	-10608
whe	-10609
▁28,	-10610
▁apps	-10611
▁artists	-10612
▁actively	-10613
▁Saur	-10614
▁extreme	-10615
▁Military	-10616
▁vulnerable	-10617
▁hatred	-10618
▁Bhupinder	-10619
upp	-10620
iously	-10621
▁portray	-10622
▁affidav	-10623
▁indirect	-10624
?""	-10625
▁Deh	-10626
▁dog	-10627
▁Siddharth	-10628
▁Understanding	-10629
SEAN	-10630
▁Bhans	-10631
33	-10632
26	-10633
▁badly	-10634
▁hasnt	-10635
▁Departments	-10636
▁recommendation	-10637
▁forthcoming	-10638
rime	-10639
▁Kalyan	-10640
▁Maharaj	-10641
▁complained	-10642
▁Key	-10643
Raj	-10644
▁26,	-10645
▁explosion	-10646
▁61	-10647
igor	-10648
▁marginal	-10649
▁museum	-10650
▁enterprises	-10651
▁Telecom	-10652
▁Mid	-10653
East	-10654
▁Kher	-10655
▁surgery	-10656
▁expensive	-10657
igned	-10658
▁employed	-10659
▁Kail	-10660
▁span	-10661
▁favourite	-10662
▁instructed	-10663
▁greeted	-10664
▁festivals	-10665
▁announces	-10666
▁avo	-10667
▁Moto	-10668
▁tied	-10669
▁perpet	-10670
▁publish	-10671
iary	-10672
▁submission	-10673
▁surrounding	-10674
▁lesson	-10675
ustain	-10676
▁Bis	-10677
any	-10678
▁recording	-10679
▁bin	-10680
▁clim	-10681
rivals	-10682
▁hoped	-10683
▁Mandir	-10684
▁deemed	-10685
▁Whatever	-10686
▁nationwide	-10687
haran	-10688
▁administered	-10689
inding	-10690
▁TDP	-10691
▁sworn	-10692
▁ranking	-10693
▁Ambala	-10694
▁Chandrayaan	-10695
▁kindness	-10696
▁Haf	-10697
▁Area	-10698
▁3,000	-10699
▁Short	-10700
▁entities	-10701
▁(2)	-10702
▁Seng	-10703
▁breaks	-10704
▁havent	-10705
▁enabled	-10706
astava	-10707
estion	-10708
▁Bluetooth	-10709
ayana	-10710
acharya	-10711
▁tackle	-10712
▁ultra	-10713
▁Arch	-10714
▁traged	-10715
▁certificates	-10716
▁ly	-10717
mins	-10718
▁inse	-10719
▁bowled	-10720
▁Register	-10721
cession	-10722
Ds	-10723
▁lifted	-10724
▁weakness	-10725
//	-10726
▁miles	-10727
General	-10728
▁Parishad	-10729
▁identification	-10730
stan	-10731
icing	-10732
▁politician	-10733
▁Kumaraswamy	-10734
▁Universities	-10735
si	-10736
▁Ta	-10737
▁Educational	-10738
ighth	-10739
▁Farooq	-10740
▁produces	-10741
▁cyber	-10742
▁Van	-10743
▁scared	-10744
▁unlimited	-10745
▁23,	-10746
▁brill	-10747
▁bottom	-10748
IB	-10749
▁fool	-10750
ingh	-10751
▁elderly	-10752
▁worshipped	-10753
▁Schools	-10754
▁Ghulam	-10755
▁Judicial	-10756
▁Next	-10757
▁Kumari	-10758
▁AIR	-10759
▁Ire	-10760
▁sor	-10761
▁Dilip	-10762
▁aviation	-10763
▁severely	-10764
▁notices	-10765
▁restaur	-10766
▁beds	-10767
▁frequently	-10768
▁WHO	-10769
▁tas	-10770
estone	-10771
▁Seven	-10772
ache	-10773
Say	-10774
rific	-10775
▁resort	-10776
▁disposal	-10777
▁Hockey	-10778
▁27,	-10779
▁NSE	-10780
▁behold	-10781
▁determination	-10782
▁Rish	-10783
▁converted	-10784
▁Neer	-10785
▁Swit	-10786
▁cops	-10787
▁finish	-10788
IA	-10789
▁laugh	-10790
▁2020-21	-10791
▁needy	-10792
▁Javed	-10793
▁anointed	-10794
▁specifically	-10795
▁ports	-10796
bum	-10797
hea	-10798
▁Nok	-10799
▁rat	-10800
bound	-10801
▁pulses	-10802
▁vo	-10803
▁Mans	-10804
▁21,	-10805
▁Kad	-10806
▁Pilot	-10807
▁promoted	-10808
▁Saini	-10809
▁(6	-10810
▁casualties	-10811
▁83	-10812
▁adds	-10813
issa	-10814
▁pic	-10815
▁Vodafone	-10816
▁Leela	-10817
chnology	-10818
OT	-10819
▁holders	-10820
▁interpret	-10821
▁remarkable	-10822
▁withdrawn	-10823
alla	-10824
▁Rajeev	-10825
▁authent	-10826
▁Sections	-10827
rage	-10828
▁disqual	-10829
▁episode	-10830
▁Disha	-10831
▁Imple	-10832
▁Rupee	-10833
▁automatic	-10834
▁guarantee	-10835
iforn	-10836
▁Nabi	-10837
▁infections	-10838
▁speedy	-10839
▁brave	-10840
GAR	-10841
lif	-10842
▁Kaj	-10843
▁Lets	-10844
▁batch	-10845
▁Village	-10846
RL	-10847
ikar	-10848
▁ammun	-10849
▁rough	-10850
▁toilets	-10851
▁ideology	-10852
litre	-10853
▁finds	-10854
▁Projects	-10855
▁Old	-10856
▁Connect	-10857
JI	-10858
akk	-10859
whel	-10860
▁kings	-10861
struct	-10862
▁Putin	-10863
ios	-10864
riyal	-10865
▁sanctions	-10866
▁Jama	-10867
▁Upon	-10868
▁Wise	-10869
agan	-10870
▁Treat	-10871
▁referring	-10872
stance	-10873
▁wages	-10874
▁silence	-10875
▁moderate	-10876
▁prevailing	-10877
▁protecting	-10878
▁Ground	-10879
▁que	-10880
▁Grover	-10881
▁postponed	-10882
God	-10883
hiv	-10884
▁105	-10885
neshwar	-10886
▁fib	-10887
grade	-10888
▁portfolio	-10889
acco	-10890
ordinary	-10891
▁Trad	-10892
cience	-10893
atabase	-10894
radun	-10895
▁Town	-10896
▁Customs	-10897
othe	-10898
▁Sib	-10899
://	-10900
▁Gav	-10901
▁Raina	-10902
esha	-10903
▁sends	-10904
▁mathem	-10905
CTC	-10906
ipe	-10907
▁Haj	-10908
▁fault	-10909
▁gardens	-10910
▁perspective	-10911
▁Advoc	-10912
▁Celeb	-10913
▁dollars	-10914
,'	-10915
▁Alm	-10916
▁walked	-10917
▁considerable	-10918
:%	-10919
▁aus	-10920
▁brut	-10921
▁contempt	-10922
▁summ	-10923
▁observation	-10924
▁Administrative	-10925
var	-10926
▁16.	-10927
▁brigade	-10928
▁Prices	-10929
DG	-10930
▁Import	-10931
▁Chandrab	-10932
▁10:	-10933
▁Malaika	-10934
▁technological	-10935
▁Community	-10936
▁disclosed	-10937
▁AS	-10938
elve	-10939
▁speaker	-10940
▁competitions	-10941
RA	-10942
▁outs	-10943
▁Amrit	-10944
▁96	-10945
▁91	-10946
▁dow	-10947
aryan	-10948
▁Queen	-10949
▁Ireland	-10950
▁structures	-10951
persons	-10952
▁tort	-10953
▁Californ	-10954
▁annually	-10955
occ	-10956
▁oldest	-10957
▁companys	-10958
NCP	-10959
dar	-10960
ishes	-10961
▁mail	-10962
▁negl	-10963
▁Nearly	-10964
▁widespread	-10965
▁Tai	-10966
▁neck	-10967
itionally	-10968
ML	-10969
▁Match	-10970
▁Should	-10971
▁definition	-10972
▁tag	-10973
▁Gowda	-10974
▁Distribution	-10975
▁kidna	-10976
▁Tagore	-10977
▁surf	-10978
▁criminals	-10979
▁excellence	-10980
▁parking	-10981
ino	-10982
▁profits	-10983
▁Relief	-10984
▁700	-10985
▁MoS	-10986
▁empty	-10987
▁boundary	-10988
▁SHO	-10989
▁Web	-10990
inikanth	-10991
igent	-10992
▁Bhai	-10993
ros	-10994
ortic	-10995
▁originally	-10996
▁manufacturers	-10997
onso	-10998
▁Sher	-10999
▁revol	-11000
▁Sridevi	-11001
▁Pvt	-11002
▁fray	-11003
▁kilometres	-11004
▁manufactured	-11005
▁Being	-11006
▁Hollywood	-11007
▁risks	-11008
▁diabetes	-11009
▁Desai	-11010
▁tracks	-11011
▁declaration	-11012
▁AC	-11013
▁wash	-11014
▁optim	-11015
▁Partnership	-11016
▁III	-11017
▁Lear	-11018
▁None	-11019
▁imagine	-11020
▁proportion	-11021
rics	-11022
▁souls	-11023
▁founded	-11024
▁warrant	-11025
▁Canad	-11026
▁12:	-11027
▁29,	-11028
▁Highway	-11029
▁Tok	-11030
ventions	-11031
ARC	-11032
▁connecting	-11033
▁parameters	-11034
NE	-11035
▁Kishan	-11036
ewise	-11037
▁rational	-11038
▁hopeful	-11039
anna	-11040
▁Nokia	-11041
▁Ball	-11042
ago	-11043
▁Log	-11044
▁Vad	-11045
ulatory	-11046
▁stores	-11047
▁JEE	-11048
▁tall	-11049
▁comedy	-11050
▁genuine	-11051
▁cyl	-11052
▁Reform	-11053
▁techniques	-11054
▁caut	-11055
▁grains	-11056
▁supreme	-11057
▁reporting	-11058
bour	-11059
▁Israeli	-11060
.01	-11061
▁Bib	-11062
▁tennis	-11063
▁interven	-11064
▁Holy	-11065
▁Kush	-11066
▁loves	-11067
▁magic	-11068
▁ambitious	-11069
▁Bo	-11070
▁Hari	-11071
▁alleging	-11072
anim	-11073
▁conviction	-11074
▁Pooja	-11075
arers	-11076
▁Goel	-11077
▁mit	-11078
▁Design	-11079
▁establishing	-11080
gical	-11081
▁PO	-11082
87	-11083
RP	-11084
▁MSMEs	-11085
▁prisoners	-11086
▁Moon	-11087
▁Export	-11088
▁roof	-11089
▁networks	-11090
▁constitute	-11091
96	-11092
:-	-11093
riers	-11094
▁inspe	-11095
▁exposed	-11096
▁acquitted	-11097
oult	-11098
▁Bath	-11099
▁writes	-11100
▁starring	-11101
▁recognize	-11102
.15	-11103
ibet	-11104
▁Bik	-11105
ipat	-11106
▁Admiral	-11107
▁protein	-11108
ulous	-11109
▁Rahman	-11110
▁telephone	-11111
ratri	-11112
▁enabling	-11113
▁restored	-11114
▁Marg	-11115
▁reveals	-11116
▁temperatures	-11117
▁Shastri	-11118
▁Without	-11119
▁intense	-11120
▁Beij	-11121
▁CSIR	-11122
▁Solomon	-11123
▁uncertain	-11124
ulla	-11125
arest	-11126
final	-11127
▁safeguard	-11128
▁inner	-11129
▁argued	-11130
▁Jewish	-11131
Mus	-11132
▁Dehradun	-11133
▁regarded	-11134
▁detention	-11135
month	-11136
▁Farhan	-11137
▁Bhagwat	-11138
▁Rajinikanth	-11139
▁confirmation	-11140
lock	-11141
▁Rest	-11142
onym	-11143
▁Hes	-11144
▁Emergency	-11145
▁oxygen	-11146
▁globe	-11147
▁pulled	-11148
▁JP	-11149
▁Legal	-11150
▁breed	-11151
▁slave	-11152
▁Gardens	-11153
pled	-11154
obar	-11155
▁97	-11156
▁Would	-11157
BT	-11158
▁110	-11159
▁torque	-11160
▁doors	-11161
▁prizes	-11162
▁amounts	-11163
900	-11164
chen	-11165
▁Pokh	-11166
▁kmph	-11167
▁restore	-11168
▁California	-11169
inde	-11170
▁meal	-11171
▁grain	-11172
▁quiet	-11173
eling	-11174
▁arising	-11175
▁engines	-11176
▁prevention	-11177
▁87	-11178
▁depending	-11179
Ad	-11180
bery	-11181
▁Lar	-11182
crete	-11183
▁Marshal	-11184
▁integration	-11185
riors	-11186
usting	-11187
▁interrogation	-11188
auc	-11189
▁knock	-11190
▁operators	-11191
▁heavily	-11192
▁Date	-11193
▁DRDO	-11194
▁acceptable	-11195
▁Rob	-11196
▁desired	-11197
▁constable	-11198
▁GS	-11199
▁SSC	-11200
itarian	-11201
▁rehabilitation	-11202
▁Gujar	-11203
▁Nave	-11204
▁Jacob	-11205
▁incon	-11206
▁resistance	-11207
▁Mann	-11208
▁Madan	-11209
pers	-11210
▁highways	-11211
%,	-11212
▁impressive	-11213
▁Tah	-11214
▁Wal	-11215
arkar	-11216
▁Certific	-11217
▁statutory	-11218
bul	-11219
▁usage	-11220
▁tragedy	-11221
▁discharge	-11222
▁Ital	-11223
▁Kailash	-11224
rutin	-11225
▁Music	-11226
▁Bhuvneshwar	-11227
adeep	-11228
orney	-11229
▁websites	-11230
▁180	-11231
▁Securities	-11232
making	-11233
▁oppon	-11234
▁wills	-11235
▁Ever	-11236
▁winds	-11237
▁tongue	-11238
▁accordingly	-11239
800	-11240
▁www	-11241
arents	-11242
▁indicate	-11243
▁86	-11244
▁Kas	-11245
▁Cultural	-11246
▁Abhiyan	-11247
▁overwhel	-11248
▁hik	-11249
▁ceas	-11250
▁Films	-11251
▁Sanjeev	-11252
arted	-11253
▁exchanges	-11254
▁oct	-11255
olence	-11256
▁Ratna	-11257
▁thrown	-11258
▁isolation	-11259
▁Jat	-11260
gium	-11261
lessly	-11262
▁stating	-11263
isive	-11264
▁grants	-11265
▁Greater	-11266
▁rallies	-11267
kula	-11268
▁surge	-11269
▁Harbhajan	-11270
▁scoring	-11271
orthy	-11272
▁Federal	-11273
▁comfortable	-11274
▁Puj	-11275
▁tun	-11276
▁Mass	-11277
▁Siddiqu	-11278
▁contend	-11279
▁Wing	-11280
▁Patnaik	-11281
▁Cre	-11282
▁Kaz	-11283
▁Nobel	-11284
▁clinical	-11285
▁Chandrababu	-11286
▁Nal	-11287
patnam	-11288
▁Dravid	-11289
▁inherit	-11290
▁Corridor	-11291
▁edge	-11292
▁deadly	-11293
▁premier	-11294
▁vacancies	-11295
▁Maul	-11296
▁Sikhs	-11297
▁punished	-11298
▁establishments	-11299
▁Still	-11300
▁grams	-11301
▁maiden	-11302
▁Capt	-11303
▁79	-11304
▁11:	-11305
▁Nis	-11306
▁OBC	-11307
▁Initi	-11308
▁quad	-11309
▁complim	-11310
▁obed	-11311
▁ammunition	-11312
▁Proper	-11313
▁licence	-11314
▁Sometimes	-11315
▁Tor	-11316
▁maybe	-11317
▁2.0	-11318
▁tap	-11319
▁2022	-11320
▁Messengers	-11321
83	-11322
far	-11323
▁Jet	-11324
▁Tay	-11325
▁Sank	-11326
▁Select	-11327
▁13:	-11328
ewala	-11329
▁yellow	-11330
▁Ath	-11331
▁quarantine	-11332
▁rans	-11333
andhar	-11334
▁findings	-11335
▁Scindia	-11336
▁Independent	-11337
▁restricted	-11338
BP	-11339
orty	-11340
▁Womens	-11341
▁provin	-11342
few	-11343
▁Ul	-11344
idhi	-11345
▁mega	-11346
▁Remember	-11347
▁validity	-11348
Me	-11349
▁mol	-11350
▁str	-11351
▁item	-11352
▁lift	-11353
usively	-11354
arb	-11355
▁Zone	-11356
ropol	-11357
▁Isaiah	-11358
▁exh	-11359
▁tab	-11360
▁Shil	-11361
▁Fateh	-11362
▁Chakrab	-11363
▁photographs	-11364
.45	-11365
▁Block	-11366
▁Diesel	-11367
▁supplied	-11368
▁brilliant	-11369
▁retained	-11370
▁SH	-11371
▁rot	-11372
▁Entrepreneurs	-11373
log	-11374
▁Indus	-11375
▁reviews	-11376
▁attendance	-11377
▁350	-11378
aspur	-11379
▁Cath	-11380
▁commonly	-11381
▁producers	-11382
600	-11383
▁Mund	-11384
▁slated	-11385
After	-11386
▁bes	-11387
▁94	-11388
▁Medium	-11389
▁lights	-11390
▁contrary	-11391
▁Everything	-11392
▁agit	-11393
▁proclaim	-11394
▁tune	-11395
▁advisory	-11396
▁clearance	-11397
agg	-11398
▁appr	-11399
▁Spirit	-11400
▁nabbed	-11401
▁ASEAN	-11402
▁domin	-11403
Mu	-11404
isheries	-11405
▁relatively	-11406
▁Dad	-11407
urally	-11408
▁exclusive	-11409
▁Golden	-11410
▁Singhs	-11411
MM	-11412
▁jet	-11413
▁Harish	-11414
▁convert	-11415
▁heavenly	-11416
inth	-11417
▁specially	-11418
▁landsl	-11419
▁injustice	-11420
▁chastisement	-11421
▁agent	-11422
▁joins	-11423
▁Thousands	-11424
▁Launch	-11425
▁hectares	-11426
BSP	-11427
▁MI	-11428
▁Kon	-11429
▁theatre	-11430
▁Branch	-11431
▁solved	-11432
▁fishermen	-11433
▁82	-11434
aser	-11435
▁Bin	-11436
▁minute	-11437
▁jets	-11438
▁profile	-11439
ih	-11440
▁Resident	-11441
▁absolute	-11442
▁newspapers	-11443
jiju	-11444
▁Gauri	-11445
▁Gurgaon	-11446
▁updates	-11447
efire	-11448
▁onion	-11449
▁Subram	-11450
▁Criminal	-11451
▁pacer	-11452
▁negotiations	-11453
oomi	-11454
▁10-	-11455
anian	-11456
▁blessing	-11457
apping	-11458
▁Iss	-11459
▁Asad	-11460
▁Aurang	-11461
▁3.5	-11462
▁Aware	-11463
▁updated	-11464
▁executed	-11465
▁consensus	-11466
▁invested	-11467
▁distancing	-11468
▁Communications	-11469
▁Knight	-11470
▁qualify	-11471
▁distinguished	-11472
▁Construction	-11473
orable	-11474
▁earnings	-11475
▁Naq	-11476
▁grab	-11477
▁spouse	-11478
▁civilians	-11479
▁%1	-11480
West	-11481
▁Grievances	-11482
▁auspicious	-11483
rig	-11484
▁junior	-11485
▁ministerial	-11486
-14	-11487
▁walls	-11488
▁drought	-11489
▁arranged	-11490
reci	-11491
▁Kargil	-11492
▁taxpay	-11493
▁dividend	-11494
ky	-11495
rar	-11496
▁surviv	-11497
▁objects	-11498
▁instruments	-11499
Pre	-11500
▁Kiran	-11501
▁demol	-11502
▁bearing	-11503
▁nominee	-11504
▁contacted	-11505
iven	-11506
▁Tre	-11507
▁beings	-11508
▁suggests	-11509
etime	-11510
▁Ill	-11511
▁ori	-11512
▁Sania	-11513
▁lend	-11514
commerce	-11515
rolog	-11516
▁cutting	-11517
akhapatnam	-11518
84	-11519
▁semif	-11520
▁Rishabh	-11521
▁rooms	-11522
▁Marketing	-11523
▁Jab	-11524
▁spar	-11525
▁legislature	-11526
▁Sep	-11527
which	-11528
▁2002	-11529
DE	-11530
▁Vilas	-11531
▁allegation	-11532
Mumbai	-11533
▁Portug	-11534
▁communications	-11535
▁Nax	-11536
▁Gandhiji	-11537
▁belonged	-11538
▁dependent	-11539
▁Exc	-11540
▁golden	-11541
▁Siddiqui	-11542
▁1,0	-11543
▁Asif	-11544
▁shoulder	-11545
▁Bare	-11546
▁poison	-11547
▁believing	-11548
Acc	-11549
hee	-11550
▁17.	-11551
▁htt	-11552
▁Foot	-11553
▁normally	-11554
▁superior	-11555
-11	-11556
▁sealed	-11557
▁restrain	-11558
look	-11559
▁Chapter	-11560
▁Advisory	-11561
▁adoption	-11562
umes	-11563
▁Ped	-11564
▁Sanj	-11565
▁visual	-11566
▁KV	-11567
isans	-11568
▁Rawal	-11569
▁Rather	-11570
▁Procedure	-11571
uated	-11572
▁disin	-11573
▁Lankan	-11574
uzvendra	-11575
FT	-11576
.09	-11577
▁macro	-11578
▁accorded	-11579
▁opposing	-11580
iest	-11581
iram	-11582
▁fare	-11583
menting	-11584
▁Beijing	-11585
▁Raju	-11586
▁lots	-11587
▁Prize	-11588
▁Williamson	-11589
▁Ud	-11590
comes	-11591
▁flour	-11592
▁Nathan	-11593
▁prayed	-11594
▁rating	-11595
cur	-11596
nah	-11597
▁Buddhist	-11598
▁Lieutenant	-11599
▁fet	-11600
▁fours	-11601
▁trace	-11602
▁Minority	-11603
▁Kochi	-11604
▁irres	-11605
uance	-11606
▁turb	-11607
▁cooperative	-11608
eve	-11609
rmal	-11610
▁Search	-11611
▁qualification	-11612
enary	-11613
▁Grow	-11614
irmanship	-11615
▁Week	-11616
▁entity	-11617
▁Eight	-11618
risers	-11619
▁landing	-11620
▁Prag	-11621
▁Nether	-11622
iasm	-11623
▁labs	-11624
▁Studies	-11625
outs	-11626
no	-11627
▁Rate	-11628
nowned	-11629
AG	-11630
bhadra	-11631
▁Chowk	-11632
itual	-11633
▁Surj	-11634
panish	-11635
▁locked	-11636
▁commenced	-11637
President	-11638
▁(7	-11639
▁Ayurveda	-11640
▁targeting	-11641
▁Kashyap	-11642
wi	-11643
oman	-11644
▁Sustain	-11645
▁Referring	-11646
▁drawing	-11647
▁Constitu	-11648
▁passport	-11649
▁Israelites	-11650
oria	-11651
▁Crude	-11652
▁helpl	-11653
▁Americans	-11654
onsored	-11655
▁Nicobar	-11656
HS	-11657
▁sadd	-11658
▁Rohtak	-11659
▁escaped	-11660
▁indicates	-11661
▁creates	-11662
▁succumbed	-11663
▁Isha	-11664
attered	-11665
▁interacted	-11666
.07	-11667
▁commodities	-11668
▁Gate	-11669
▁Sale	-11670
▁mens	-11671
▁consisting	-11672
At	-11673
▁Panchkula	-11674
55	-11675
▁pilots	-11676
▁attackers	-11677
verbs	-11678
▁Birl	-11679
▁wars	-11680
▁segments	-11681
▁youngsters	-11682
ille	-11683
▁loyal	-11684
▁Processing	-11685
▁comparison	-11686
NER	-11687
▁bom	-11688
▁supremo	-11689
juvenation	-11690
▁Yuzvendra	-11691
▁expertise	-11692
▁elev	-11693
▁assass	-11694
▁mistakes	-11695
▁delegates	-11696
▁enthusiasm	-11697
!"	-11698
▁loot	-11699
▁terrible	-11700
urd	-11701
▁Prior	-11702
▁planet	-11703
▁passage	-11704
▁summoned	-11705
▁Sunrisers	-11706
▁Rank	-11707
.03	-11708
apa	-11709
asters	-11710
▁fever	-11711
▁testim	-11712
▁assessee	-11713
mm	-11714
ette	-11715
▁Eid	-11716
▁risen	-11717
▁Leaders	-11718
pm	-11719
igin	-11720
▁Mahajan	-11721
ilal	-11722
ints	-11723
othy	-11724
▁bold	-11725
▁Houses	-11726
RBI	-11727
▁Ky	-11728
▁monu	-11729
▁98	-11730
regular	-11731
▁concrete	-11732
▁inauguration	-11733
▁affidavit	-11734
ylon	-11735
▁thankful	-11736
WD	-11737
▁Santosh	-11738
▁imported	-11739
ethi	-11740
▁Vishnu	-11741
▁Clear	-11742
▁crack	-11743
▁legs	-11744
▁Bhansali	-11745
▁Movement	-11746
▁cited	-11747
▁highlights	-11748
▁messengers	-11749
ropri	-11750
ographical	-11751
▁teachings	-11752
acles	-11753
▁Rijiju	-11754
▁disputed	-11755
▁Madhav	-11756
iaz	-11757
▁lessons	-11758
▁`	-11759
▁multip	-11760
▁env	-11761
▁isn	-11762
▁shed	-11763
▁Chaut	-11764
▁Persons	-11765
▁Netherlands	-11766
▁Communication	-11767
eron	-11768
▁affection	-11769
▁ceasefire	-11770
▁violations	-11771
▁zeal	-11772
ographic	-11773
UI	-11774
avi	-11775
▁Cant	-11776
▁Come	-11777
▁tonne	-11778
▁Medal	-11779
▁dw	-11780
▁bidd	-11781
▁accurate	-11782
▁Surjewala	-11783
▁expanding	-11784
ivic	-11785
▁Shre	-11786
perture	-11787
▁adverse	-11788
▁Response	-11789
▁refugees	-11790
▁SAW	-11791
▁perce	-11792
▁react	-11793
▁server	-11794
key	-11795
TH	-11796
▁191	-11797
▁laying	-11798
▁gall	-11799
hetic	-11800
▁mobil	-11801
▁ignor	-11802
▁thick	-11803
▁Mohali	-11804
▁hotels	-11805
▁liberal	-11806
div	-11807
urns	-11808
▁Rahim	-11809
▁posed	-11810
▁staged	-11811
▁Ron	-11812
▁Gil	-11813
▁Butt	-11814
▁Tech	-11815
▁2013.	-11816
▁Naqvi	-11817
▁quota	-11818
▁Ishant	-11819
▁hanging	-11820
▁respected	-11821
.08	-11822
▁PNB	-11823
▁Hit	-11824
▁Twenty	-11825
▁Bor	-11826
▁1990	-11827
▁Prith	-11828
▁cater	-11829
▁closing	-11830
▁Birla	-11831
▁gradu	-11832
agi	-11833
ulates	-11834
▁Commercial	-11835
▁prefer	-11836
▁ministries	-11837
MA	-11838
▁lake	-11839
▁ambul	-11840
▁chest	-11841
▁customs	-11842
▁20.	-11843
mood	-11844
▁Sadar	-11845
▁Vicky	-11846
▁flowers	-11847
▁Jalandhar	-11848
▁ing	-11849
rapy	-11850
▁neut	-11851
▁stir	-11852
▁Jog	-11853
▁Pot	-11854
▁Same	-11855
▁album	-11856
▁audit	-11857
▁routine	-11858
▁realised	-11859
-19.	-11860
▁Delhis	-11861
▁scrutin	-11862
▁respects	-11863
▁criteria	-11864
▁Leh	-11865
▁Third	-11866
▁annum	-11867
▁endeavour	-11868
▁Italian	-11869
▁tid	-11870
▁jack	-11871
State	-11872
National	-11873
▁heading	-11874
▁priests	-11875
▁emerge	-11876
▁Renewable	-11877
▁Philippines	-11878
▁PP	-11879
liant	-11880
▁drag	-11881
▁voter	-11882
▁Having	-11883
▁Shivaji	-11884
▁renowned	-11885
▁Choudhary	-11886
▁Raipur	-11887
▁Cost	-11888
▁paddy	-11889
▁Medicine	-11890
▁Emb	-11891
cul	-11892
ayas	-11893
itored	-11894
▁Judah	-11895
▁Consider	-11896
▁consistent	-11897
made	-11898
▁Akali	-11899
▁behavior	-11900
chers	-11901
▁Body	-11902
▁Rule	-11903
▁AND	-11904
▁bact	-11905
▁Prash	-11906
▁Ye	-11907
ouch	-11908
▁Kol	-11909
theless	-11910
▁ritual	-11911
▁airlines	-11912
His	-11913
iren	-11914
▁Lake	-11915
▁Jinping	-11916
▁defamation	-11917
osys	-11918
▁Obs	-11919
outheast	-11920
▁corporation	-11921
▁Bhand	-11922
▁bount	-11923
ads	-11924
OLED	-11925
▁weigh	-11926
▁Karachi	-11927
▁balanced	-11928
▁extending	-11929
▁representation	-11930
▁recall	-11931
osers	-11932
▁nephew	-11933
▁rulers	-11934
▁Pradeep	-11935
fortun	-11936
▁Exper	-11937
▁valued	-11938
▁Cer	-11939
▁Dix	-11940
inthi	-11941
hinagar	-11942
▁memorial	-11943
▁SAD	-11944
En	-11945
.04	-11946
▁Ly	-11947
With	-11948
▁Kant	-11949
nao	-11950
▁Srik	-11951
ribe	-11952
▁mad	-11953
▁Vidya	-11954
▁Uk	-11955
▁singing	-11956
May	-11957
iece	-11958
▁pixels	-11959
▁inhabit	-11960
orship	-11961
▁citing	-11962
▁truthful	-11963
▁bot	-11964
asion	-11965
▁hypoc	-11966
Re	-11967
olf	-11968
▁nice	-11969
▁stuck	-11970
▁Aligarh	-11971
▁reflected	-11972
▁chat	-11973
▁appeals	-11974
▁Corinthi	-11975
▁giant	-11976
▁breach	-11977
▁Systems	-11978
▁disappointed	-11979
ett	-11980
▁Mike	-11981
▁influenced	-11982
▁Amethi	-11983
▁Finally	-11984
▁functional	-11985
ING	-11986
▁7:	-11987
▁Sham	-11988
▁unbeat	-11989
▁persist	-11990
▁Creator	-11991
aba	-11992
rape	-11993
▁ring	-11994
▁distinct	-11995
▁Nik	-11996
▁vib	-11997
▁Shop	-11998
▁2009,	-11999
▁Vidhan	-12000
▁preparedness	-12001
▁acquire	-12002
▁payable	-12003
▁humili	-12004
▁lauded	-12005
▁DD	-12006
▁Hu	-12007
▁Garden	-12008
▁oppose	-12009
▁caution	-12010
▁aperture	-12011
▁chips	-12012
national	-12013
eches	-12014
▁NA	-12015
▁explains	-12016
▁Finch	-12017
▁Chakraborty	-12018
bhai	-12019
soft	-12020
▁Liber	-12021
▁Sriniv	-12022
▁Thiruv	-12023
▁Forgiving	-12024
iche	-12025
▁whosoever	-12026
▁Karun	-12027
▁recomp	-12028
▁phenomen	-12029
▁triggered	-12030
inite	-12031
▁Mahab	-12032
▁admon	-12033
▁depression	-12034
▁separately	-12035
▁88	-12036
▁Kak	-12037
ogram	-12038
▁Jim	-12039
▁Cycl	-12040
▁Sehwag	-12041
▁pistol	-12042
▁Chancellor	-12043
▁emphasised	-12044
▁Spec	-12045
▁Proverbs	-12046
▁Rave	-12047
▁Ayushmann	-12048
▁committees	-12049
▁unanim	-12050
▁noticed	-12051
▁reserves	-12052
bers	-12053
▁forming	-12054
▁vary	-12055
▁contracts	-12056
▁committing	-12057
aments	-12058
▁graduate	-12059
▁Aw	-12060
amar	-12061
▁Arm	-12062
chant	-12063
▁bath	-12064
▁Perhaps	-12065
▁martyrs	-12066
▁remanded	-12067
▁universe	-12068
▁unemployment	-12069
▁Bish	-12070
▁slightly	-12071
.06	-12072
.40	-12073
▁pitch	-12074
▁conferencing	-12075
rive	-12076
▁Infosys	-12077
▁selfies	-12078
▁viewed	-12079
▁movements	-12080
▁arts	-12081
▁Arabic	-12082
3)	-12083
▁midst	-12084
▁owing	-12085
▁colourful	-12086
aning	-12087
8)	-12088
▁Biote	-12089
▁AMOLED	-12090
▁partition	-12091
▁increasingly	-12092
▁Implementation	-12093
▁Turn	-12094
▁Orissa	-12095
▁forests	-12096
▁Southern	-12097
▁cleaning	-12098
▁abandoned	-12099
▁voluntary	-12100
▁attractive	-12101
elect	-12102
▁chill	-12103
▁agents	-12104
▁centers	-12105
▁Statistics	-12106
▁ambassador	-12107
▁Masood	-12108
▁aggressive	-12109
▁helicopter	-12110
▁associations	-12111
▁simultaneously	-12112
▁92	-12113
▁hunger	-12114
▁Revel	-12115
▁beating	-12116
▁singles	-12117
▁stepped	-12118
▁lifestyle	-12119
orial	-12120
nsic	-12121
▁blow	-12122
▁critics	-12123
▁Language	-12124
▁Jord	-12125
▁Pain	-12126
▁Gandhinagar	-12127
▁NCR	-12128
▁developmental	-12129
Spe	-12130
top	-12131
▁Incre	-12132
TP	-12133
▁frust	-12134
hor	-12135
▁Irr	-12136
▁ice	-12137
▁INDIA	-12138
HP	-12139
▁Unnao	-12140
inn	-12141
uda	-12142
weight	-12143
▁BE	-12144
▁adapt	-12145
▁chair	-12146
TS	-12147
NRE	-12148
▁Sem	-12149
▁arise	-12150
▁preferred	-12151
Bs	-12152
▁Labor	-12153
▁commerce	-12154
▁Pokhriyal	-12155
▁reck	-12156
▁terminal	-12157
iraj	-12158
▁boat	-12159
graduate	-12160
▁Against	-12161
what	-12162
47	-12163
▁Gulf	-12164
▁Plant	-12165
▁survive	-12166
▁typically	-12167
▁MU	-12168
▁fingerprint	-12169
xual	-12170
atha	-12171
meet	-12172
▁homage	-12173
▁vessels	-12174
▁petroleum	-12175
can	-12176
▁entr	-12177
▁Island	-12178
Muhammad	-12179
▁forbidden	-12180
ogen	-12181
4)	-12182
onal	-12183
▁50-	-12184
allel	-12185
▁Autom	-12186
▁hailed	-12187
▁personalities	-12188
fting	-12189
▁Raje	-12190
▁ethnic	-12191
▁preserve	-12192
▁button	-12193
▁contemporary	-12194
▁witnessing	-12195
▁Bhub	-12196
▁Ident	-12197
▁library	-12198
achel	-12199
▁pays	-12200
▁Sibal	-12201
▁snowfall	-12202
One	-12203
ppa	-12204
▁Jayanti	-12205
Why	-12206
▁BCM	-12207
▁Hamid	-12208
umph	-12209
▁Sriv	-12210
▁2008,	-12211
▁Knowing	-12212
▁sacrifices	-12213
▁mild	-12214
icious	-12215
▁Dalits	-12216
▁18.	-12217
▁PGI	-12218
▁Iyer	-12219
▁detected	-12220
▁duration	-12221
▁Bansal	-12222
▁AL	-12223
mand	-12224
▁wasn	-12225
▁extraordinary	-12226
▁rises	-12227
▁Canadian	-12228
▁exclusively	-12229
▁93	-12230
▁Type	-12231
▁collapse	-12232
▁Rhea	-12233
nut	-12234
ppers	-12235
▁strictly	-12236
▁supplement	-12237
emia	-12238
urban	-12239
▁2013,	-12240
▁Shahe	-12241
▁Details	-12242
▁database	-12243
▁manufacturer	-12244
▁impose	-12245
uli	-12246
▁Institutes	-12247
▁Abh	-12248
▁Ess	-12249
▁Fat	-12250
▁magistrate	-12251
pring	-12252
▁Umar	-12253
▁writers	-12254
▁bestowed	-12255
▁Loc	-12256
▁fifty	-12257
▁Li	-12258
▁tons	-12259
▁islands	-12260
▁reverse	-12261
▁192	-12262
▁embra	-12263
▁showcase	-12264
▁manifesto	-12265
CD	-12266
▁19.	-12267
erves	-12268
▁Koch	-12269
ordinate	-12270
▁Tell	-12271
▁fears	-12272
▁Chautala	-12273
\'	-12274
▁Cond	-12275
▁Maulana	-12276
▁migrants	-12277
kan	-12278
▁Hass	-12279
▁Rahane	-12280
▁breast	-12281
zing	-12282
rogen	-12283
▁Niger	-12284
▁humble	-12285
▁skilled	-12286
▁revenues	-12287
▁Hyd	-12288
▁puts	-12289
zerland	-12290
▁Babylon	-12291
▁attempted	-12292
omin	-12293
▁legacy	-12294
▁cautious	-12295
▁sacrific	-12296
▁exciting	-12297
▁fighters	-12298
▁Corinthians	-12299
▁Anupam	-12300
▁Argent	-12301
akrishnan	-12302
▁reception	-12303
':	-12304
▁succeeded	-12305
Co	-12306
▁rif	-12307
▁fost	-12308
▁lady	-12309
jections	-12310
IPL	-12311
▁Buddha	-12312
araj	-12313
rass	-12314
isite	-12315
▁Mines	-12316
▁slain	-12317
▁stretch	-12318
▁nominations	-12319
▁True	-12320
▁everyday	-12321
▁Directors	-12322
▁plun	-12323
▁column	-12324
86	-12325
zo	-12326
▁irregular	-12327
▁ma	-12328
▁Sus	-12329
astra	-12330
▁Hundred	-12331
▁unbeaten	-12332
▁impressed	-12333
▁myth	-12334
▁Dixit	-12335
▁hug	-12336
▁commander	-12337
▁Pom	-12338
▁educated	-12339
▁apologise	-12340
show	-12341
▁flex	-12342
▁Corps	-12343
ishment	-12344
▁Zak	-12345
▁liability	-12346
step	-12347
▁incom	-12348
▁slowly	-12349
▁NO	-12350
▁Tokyo	-12351
▁inconven	-12352
▁160	-12353
▁Maha	-12354
▁Perform	-12355
▁estimate	-12356
▁desp	-12357
▁Highlights	-12358
▁fant	-12359
▁absor	-12360
▁buyers	-12361
▁awaited	-12362
angle	-12363
alalitha	-12364
▁swearing	-12365
▁lecture	-12366
▁grievances	-12367
edia	-12368
▁Fer	-12369
▁IMD	-12370
▁adult	-12371
▁angel	-12372
▁copies	-12373
▁romantic	-12374
▁speeches	-12375
▁messenger	-12376
ccess	-12377
ummar	-12378
▁Flag	-12379
▁Garg	-12380
▁Hyund	-12381
▁Tribes	-12382
▁weaker	-12383
onds	-12384
▁Gaj	-12385
▁Yatra	-12386
▁Faridabad	-12387
▁Airways	-12388
▁couples	-12389
▁whatsoever	-12390
ieves	-12391
▁lending	-12392
▁physically	-12393
▁prost	-12394
▁compete	-12395
▁basically	-12396
▁Amid	-12397
▁scal	-12398
▁Yamuna	-12399
ichandran	-12400
▁Iq	-12401
▁topic	-12402
▁repair	-12403
▁weekend	-12404
▁listening	-12405
▁ISIS	-12406
▁opted	-12407
▁evolution	-12408
▁Es	-12409
▁Naveen	-12410
NGC	-12411
▁USB	-12412
holding	-12413
▁Irrfan	-12414
▁Voting	-12415
utosh	-12416
asaheb	-12417
▁freight	-12418
▁associates	-12419
▁Camb	-12420
▁Timothy	-12421
▁formally	-12422
hid	-12423
▁merit	-12424
▁Ashish	-12425
▁angle	-12426
▁aggreg	-12427
▁bypoll	-12428
Am	-12429
▁*	-12430
▁kin	-12431
▁sake	-12432
▁undergo	-12433
▁Neeraj	-12434
▁Riders	-12435
▁interior	-12436
▁hab	-12437
▁devast	-12438
▁Muzaffarpur	-12439
▁everlasting	-12440
▁lest	-12441
▁cooperate	-12442
rapped	-12443
▁broadcast	-12444
▁deployment	-12445
▁protestors	-12446
▁strategies	-12447
mind	-12448
▁framed	-12449
▁Hardeep	-12450
▁convinced	-12451
▁Revelation	-12452
odhi	-12453
antry	-12454
▁Jagd	-12455
▁calam	-12456
▁meters	-12457
▁Prashant	-12458
▁fog	-12459
▁meanwhile	-12460
TO	-12461
▁Misra	-12462
▁masses	-12463
▁Airlines	-12464
These	-12465
▁epic	-12466
▁serves	-12467
▁Pink	-12468
▁familiar	-12469
▁conversion	-12470
▁priorities	-12471
▁translation	-12472
▁89	-12473
▁stim	-12474
▁Bipin	-12475
▁Rathore	-12476
rana	-12477
,000.	-12478
▁Jind	-12479
▁Gurdaspur	-12480
▁reputation	-12481
▁possibly	-12482
CAA	-12483
▁martyred	-12484
▁projected	-12485
aga	-12486
▁Visit	-12487
▁dissem	-12488
▁accepting	-12489
▁Hyundai	-12490
▁OP	-12491
oshi	-12492
plus	-12493
▁engineers	-12494
▁carries	-12495
▁completing	-12496
▁translated	-12497
▁FA	-12498
asty	-12499
▁categor	-12500
▁suggestion	-12501
▁NGOs	-12502
▁NTPC	-12503
otics	-12504
▁Pathan	-12505
▁Shinde	-12506
▁interventions	-12507
ae	-12508
utva	-12509
▁nan	-12510
screen	-12511
▁Shekhar	-12512
▁Help	-12513
aluation	-12514
▁smugg	-12515
▁Jamia	-12516
▁Workers	-12517
▁nearest	-12518
CH	-12519
lier	-12520
▁resume	-12521
▁enjoying	-12522
▁Ahead	-12523
compass	-12524
unction	-12525
▁cement	-12526
▁fatalities	-12527
▁alar	-12528
▁layer	-12529
▁Jayant	-12530
▁bags	-12531
▁pledge	-12532
▁exposure	-12533
KS	-12534
ricks	-12535
▁Kang	-12536
▁Bobde	-12537
covery	-12538
ortion	-12539
▁Registration	-12540
▁PMs	-12541
▁Mahal	-12542
▁Banking	-12543
▁queries	-12544
chest	-12545
▁diff	-12546
▁inspire	-12547
ellate	-12548
▁instant	-12549
▁innovations	-12550
owal	-12551
▁kms	-12552
otions	-12553
arity	-12554
▁repay	-12555
stable	-12556
▁Anderson	-12557
▁engineer	-12558
▁possibilities	-12559
▁Ep	-12560
▁SR	-12561
osit	-12562
▁SDM	-12563
▁Jahan	-12564
▁Textiles	-12565
▁Ravichandran	-12566
front	-12567
hera	-12568
UL	-12569
ansh	-12570
▁Pie	-12571
▁foods	-12572
hibition	-12573
▁substance	-12574
post	-12575
▁ears	-12576
▁pronounced	-12577
▁attain	-12578
▁Kishore	-12579
that	-12580
▁twin	-12581
▁arrog	-12582
▁Electricity	-12583
harraf	-12584
hua	-12585
abha	-12586
▁2012,	-12587
mn	-12588
▁sung	-12589
▁Henry	-12590
▁monitored	-12591
▁115	-12592
▁2012.	-12593
▁Vishal	-12594
▁2015-16	-12595
▁Bahujan	-12596
▁businessman	-12597
▁Give	-12598
aditya	-12599
▁Kiara	-12600
brid	-12601
ffron	-12602
▁signal	-12603
jal	-12604
▁Hanuman	-12605
▁Gun	-12606
▁resurrection	-12607
▁Tibet	-12608
▁closure	-12609
▁artisans	-12610
▁occupied	-12611
▁Jayalalitha	-12612
▁quarters	-12613
afar	-12614
▁sty	-12615
▁receives	-12616
▁abide	-12617
▁Contin	-12618
▁disag	-12619
▁reign	-12620
▁unions	-12621
▁exemption	-12622
▁releasing	-12623
▁Governance	-12624
▁Sony	-12625
▁Efforts	-12626
▁testimony	-12627
▁Win	-12628
▁legislator	-12629
▁wai	-12630
▁Reports	-12631
Prime	-12632
▁wine	-12633
▁hardly	-12634
rats	-12635
▁Ten	-12636
▁ignored	-12637
III	-12638
▁Mittal	-12639
▁Clinton	-12640
ds	-12641
▁Unto	-12642
▁motivated	-12643
▁popularity	-12644
▁mainstream	-12645
▁Additionally	-12646
OM	-12647
isa	-12648
▁Syd	-12649
chief	-12650
polit	-12651
▁Atomic	-12652
▁horse	-12653
▁barrel	-12654
▁distinction	-12655
▁PC	-12656
▁Vit	-12657
▁Tand	-12658
▁liked	-12659
▁accessible	-12660
▁TB	-12661
▁Luke	-12662
▁abol	-12663
uds	-12664
▁flows	-12665
▁acknowledged	-12666
▁"(	-12667
▁privacy	-12668
▁northeast	-12669
▁curb	-12670
▁IRCTC	-12671
▁ocean	-12672
▁disperse	-12673
▁focusing	-12674
▁Switzerland	-12675
▁Pon	-12676
.2016	-12677
▁Patani	-12678
▁affects	-12679
▁apparently	-12680
gl	-12681
▁Cook	-12682
▁scientist	-12683
▁Gop	-12684
▁Iqbal	-12685
▁alter	-12686
▁Sengar	-12687
▁Rajkummar	-12688
felt	-12689
hankot	-12690
▁evalu	-12691
▁Modern	-12692
▁decor	-12693
▁literary	-12694
▁Christmas	-12695
▁SIM	-12696
▁Strategic	-12697
▁subsidiary	-12698
▁commissioned	-12699
ilee	-12700
▁ransom	-12701
▁Initial	-12702
▁levelled	-12703
▁Table	-12704
▁Download	-12705
▁Accordingly	-12706
▁Certain	-12707
▁apology	-12708
▁critically	-12709
VA	-12710
ials	-12711
▁Meer	-12712
▁flowing	-12713
▁Presently	-12714
▁consciousness	-12715
▁assumed	-12716
▁monetary	-12717
▁featuring	-12718
.10.	-12719
ouri	-12720
▁Pujara	-12721
▁invent	-12722
▁regards	-12723
▁drew	-12724
▁dues	-12725
▁scores	-12726
▁hire	-12727
▁Junior	-12728
▁Et	-12729
▁Gos	-12730
▁enorm	-12731
▁Bhumi	-12732
▁Morgan	-12733
▁adjust	-12734
According	-12735
▁Root	-12736
External	-12737
▁Catholic	-12738
▁debit	-12739
▁expecting	-12740
▁Sindh	-12741
redible	-12742
▁Acharya	-12743
▁helpful	-12744
▁Eve	-12745
▁2001	-12746
▁competent	-12747
▁Assistance	-12748
▁Sch	-12749
▁Sai	-12750
antra	-12751
▁thinks	-12752
rea	-12753
▁Bri	-12754
▁Abu	-12755
▁smoke	-12756
▁collapsed	-12757
orticulture	-12758
ste	-12759
▁Gujarati	-12760
▁conclude	-12761
▁wors	-12762
▁volunteers	-12763
▁coffee	-12764
agraph	-12765
▁councill	-12766
vo	-12767
uber	-12768
▁auth	-12769
▁penal	-12770
▁6.5	-12771
▁Error	-12772
▁minim	-12773
▁composition	-12774
thy	-12775
▁pushed	-12776
▁Vehicles	-12777
▁feedback	-12778
▁Panchayats	-12779
kumar	-12780
reens	-12781
▁Virender	-12782
▁briefed	-12783
▁Sessions	-12784
▁legendary	-12785
▁milestone	-12786
▁Ide	-12787
▁stick	-12788
▁Sydney	-12789
▁enters	-12790
▁experiment	-12791
ropolitan	-12792
▁violated	-12793
▁pharmaceut	-12794
tr	-12795
▁Madhuri	-12796
▁complainant	-12797
▁108	-12798
▁Laun	-12799
▁dict	-12800
▁Bajwa	-12801
▁Colomb	-12802
▁assure	-12803
▁finals	-12804
▁tractor	-12805
▁Doval	-12806
▁Hotel	-12807
▁adjud	-12808
▁dozen	-12809
election	-12810
ugopal	-12811
▁Kriti	-12812
▁Lalit	-12813
▁Governors	-12814
PT	-12815
▁prejud	-12816
▁radical	-12817
Photo	-12818
people	-12819
▁hills	-12820
▁chiefs	-12821
▁Cummins	-12822
▁providers	-12823
aternity	-12824
▁enacted	-12825
▁moments	-12826
▁Capitals	-12827
▁pursuing	-12828
▁Himalayan	-12829
gal	-12830
shad	-12831
▁104	-12832
▁Lock	-12833
ferent	-12834
▁publicly	-12835
ASA	-12836
oty	-12837
▁Holi	-12838
▁delighted	-12839
▁deposited	-12840
▁octa	-12841
▁minerals	-12842
▁Pollution	-12843
▁subscribers	-12844
.02	-12845
▁Way	-12846
▁Very	-12847
▁printed	-12848
▁describe	-12849
▁Musharraf	-12850
▁societies	-12851
uba	-12852
▁aged	-12853
Hz	-12854
cow	-12855
▁Dra	-12856
▁tasks	-12857
ologist	-12858
▁treasure	-12859
▁forwarded	-12860
▁scholar	-12861
▁offend	-12862
▁fer	-12863
▁wheel	-12864
▁Collector	-12865
▁pregnancy	-12866
rived	-12867
▁Decl	-12868
▁swing	-12869
▁travelled	-12870
▁Regulatory	-12871
▁bull	-12872
ureauc	-12873
ann	-12874
▁gorge	-12875
▁nutrition	-12876
▁girlfriend	-12877
▁openly	-12878
▁heights	-12879
▁neutral	-12880
▁baptized	-12881
▁Television	-12882
ANDI	-12883
▁Comb	-12884
▁remake	-12885
▁Arabian	-12886
issue	-12887
▁idols	-12888
▁Shilpa	-12889
▁module	-12890
▁Heritage	-12891
▁Northeast	-12892
▁verification	-12893
▁Hope	-12894
usters	-12895
▁Heres	-12896
▁Amrita	-12897
▁issuing	-12898
▁generating	-12899
umal	-12900
▁hast	-12901
uels	-12902
▁tempt	-12903
▁Directed	-12904
▁Chemicals	-12905
▁50%	-12906
▁cooking	-12907
▁16-	-12908
allist	-12909
▁obviously	-12910
tage	-12911
quest	-12912
▁Venk	-12913
▁surprising	-12914
▁Mach	-12915
▁Liter	-12916
▁occurs	-12917
▁2003	-12918
▁Quality	-12919
▁ranging	-12920
▁gro	-12921
▁Tihar	-12922
▁Minimum	-12923
▁cashback	-12924
▁deadline	-12925
asim	-12926
▁drow	-12927
▁Guest	-12928
▁Husband	-12929
▁technique	-12930
▁Gayle	-12931
▁swift	-12932
▁eighth	-12933
▁baseless	-12934
▁laboratory	-12935
cest	-12936
▁Shw	-12937
▁100%	-12938
▁dele	-12939
▁cadre	-12940
▁autonomous	-12941
IMIM	-12942
▁tact	-12943
▁Pompe	-12944
▁Address	-12945
▁separated	-12946
▁Upadhy	-12947
▁Adviser	-12948
▁poems	-12949
▁Ujj	-12950
▁gifts	-12951
▁exclud	-12952
asha	-12953
ients	-12954
▁Excise	-12955
▁reserve	-12956
▁Products	-12957
▁formula	-12958
▁shocking	-12959
▁Kedarnath	-12960
▁dub	-12961
▁thieves	-12962
▁Computer	-12963
▁Task	-12964
▁reop	-12965
▁Sanitation	-12966
▁Vo	-12967
Then	-12968
▁cous	-12969
▁sample	-12970
lik	-12971
iser	-12972
▁cab	-12973
▁bones	-12974
▁devoted	-12975
▁Panchayati	-12976
▁contributing	-12977
amba	-12978
Chief	-12979
author	-12980
American	-12981
▁derived	-12982
▁dynamic	-12983
▁talented	-12984
▁turnover	-12985
▁compromise	-12986
▁accum	-12987
artered	-12988
▁subjected	-12989
cis	-12990
▁syn	-12991
▁config	-12992
▁sidelines	-12993
▁MA	-12994
▁tob	-12995
▁Hafiz	-12996
▁Rajkot	-12997
▁Dutta	-12998
▁pel	-12999
▁holiday	-13000
▁tidings	-13001
▁finalised	-13002
▁Srivastava	-13003
.35	-13004
▁sq	-13005
ensity	-13006
▁circular	-13007
▁threatening	-13008
▁Tik	-13009
▁Jyot	-13010
▁2011,	-13011
▁Dubey	-13012
▁Rit	-13013
lawful	-13014
▁investing	-13015
▁celebrates	-13016
aun	-13017
iga	-13018
▁Krishan	-13019
▁artificial	-13020
▁leak	-13021
▁infilt	-13022
▁trillion	-13023
▁Polling	-13024
UN	-13025
▁ventil	-13026
▁requests	-13027
▁Anj	-13028
▁Wild	-13029
▁couns	-13030
▁bik	-13031
▁abdu	-13032
▁Jordan	-13033
▁Rajkumar	-13034
▁initiate	-13035
▁''	-13036
▁Bij	-13037
▁Lik	-13038
▁Cross	-13039
▁Bha	-13040
▁Personal	-13041
▁searches	-13042
▁confusion	-13043
Cap	-13044
▁Inaug	-13045
▁Barack	-13046
▁Hash	-13047
▁spinner	-13048
▁ultimately	-13049
-7	-13050
bage	-13051
owers	-13052
▁maker	-13053
▁felicitations	-13054
CSO	-13055
▁merger	-13056
▁Navratri	-13057
▁incurred	-13058
kal	-13059
judge	-13060
▁pocket	-13061
▁discussing	-13062
urse	-13063
▁FIRs	-13064
▁realized	-13065
▁Communist	-13066
▁countrymen	-13067
veen	-13068
isting	-13069
▁Final	-13070
▁CJI	-13071
tical	-13072
idences	-13073
▁ascertain	-13074
▁lux	-13075
▁Frank	-13076
▁Param	-13077
▁civic	-13078
▁fails	-13079
fection	-13080
cum	-13081
ailable	-13082
▁accusing	-13083
ori	-13084
▁stal	-13085
▁accountability	-13086
Fs	-13087
Ram	-13088
▁Bol	-13089
imala	-13090
▁applying	-13091
▁Venugopal	-13092
avan	-13093
September	-13094
▁forgotten	-13095
seen	-13096
oviet	-13097
▁boyc	-13098
▁kilome	-13099
▁instruction	-13100
▁neighbourhood	-13101
▁amen	-13102
▁investor	-13103
▁procured	-13104
▁usual	-13105
▁apprised	-13106
▁Microsoft	-13107
eding	-13108
▁tragic	-13109
▁weekly	-13110
▁diamond	-13111
▁affecting	-13112
▁Mith	-13113
also	-13114
▁Paper	-13115
▁140	-13116
ewari	-13117
▁Hour	-13118
ye	-13119
AIL	-13120
eni	-13121
▁missed	-13122
▁tobacco	-13123
▁pione	-13124
▁cheaper	-13125
▁Bai	-13126
▁Mrs	-13127
▁beliefs	-13128
▁assurance	-13129
▁landed	-13130
▁trends	-13131
▁cheating	-13132
▁Standards	-13133
Min	-13134
map	-13135
▁ruler	-13136
▁Sweden	-13137
▁Monitor	-13138
▁description	-13139
▁Kotak	-13140
▁(200	-13141
▁fate	-13142
▁Certificate	-13143
col	-13144
▁Niz	-13145
▁2022.	-13146
▁honey	-13147
erer	-13148
▁Nair	-13149
▁Deve	-13150
▁View	-13151
▁hygi	-13152
▁Hinduism	-13153
▁surrounded	-13154
▁Sustainable	-13155
HU	-13156
▁gest	-13157
▁adults	-13158
▁dinner	-13159
▁ATM	-13160
▁Fre	-13161
▁wre	-13162
athon	-13163
▁Animal	-13164
▁posting	-13165
▁seconds	-13166
▁rendered	-13167
▁Operation	-13168
▁ore	-13169
▁Spanish	-13170
▁emotions	-13171
▁Bedi	-13172
▁Rampur	-13173
anthapuram	-13174
▁Complex	-13175
▁somewhere	-13176
▁destinations	-13177
▁Hindutva	-13178
▁2021.	-13179
▁Travel	-13180
▁feared	-13181
▁strange	-13182
▁demonstration	-13183
▁Mural	-13184
▁Shweta	-13185
▁Parents	-13186
▁crossing	-13187
▁badminton	-13188
▁campaigning	-13189
▁inhabitants	-13190
laim	-13191
▁Vij	-13192
entle	-13193
▁Legislature	-13194
▁Lit	-13195
▁UPSC	-13196
▁saffron	-13197
-6	-13198
rik	-13199
▁YSR	-13200
rolled	-13201
▁Abhin	-13202
▁ancest	-13203
▁assail	-13204
▁tribes	-13205
▁CD	-13206
▁1980	-13207
▁rush	-13208
▁boards	-13209
▁Buttler	-13210
▁virtually	-13211
▁Harid	-13212
istical	-13213
▁attacking	-13214
▁NEET	-13215
▁Vall	-13216
▁spell	-13217
aneswar	-13218
▁Kumble	-13219
▁Campaign	-13220
▁revision	-13221
▁eliminate	-13222
▁Operations	-13223
ture	-13224
▁coupled	-13225
▁Active	-13226
▁Protest	-13227
▁lighting	-13228
▁Authorities	-13229
▁stip	-13230
listed	-13231
▁gates	-13232
▁threw	-13233
▁Rejuvenation	-13234
ayed	-13235
▁eleph	-13236
▁Keshav	-13237
▁electrical	-13238
ulum	-13239
▁Palestin	-13240
▁youngest	-13241
▁Pathankot	-13242
▁Persian	-13243
▁Sax	-13244
▁Sky	-13245
▁Factor	-13246
▁handled	-13247
▁MB	-13248
heer	-13249
udes	-13250
▁wire	-13251
▁license	-13252
▁TR	-13253
ding	-13254
uity	-13255
▁185	-13256
▁cuts	-13257
▁tran	-13258
PO	-13259
ivest	-13260
▁cave	-13261
cessary	-13262
▁doubts	-13263
▁guides	-13264
CBI	-13265
▁Thiruvan	-13266
iel	-13267
wart	-13268
tower	-13269
▁Arts	-13270
▁Hero	-13271
▁blasts	-13272
▁creatures	-13273
angg	-13274
▁seam	-13275
▁stringent	-13276
▁Committees	-13277
▁swim	-13278
▁contingent	-13279
43	-13280
▁21.	-13281
▁orbit	-13282
▁Excellence	-13283
▁prohibited	-13284
▁Akash	-13285
▁commencement	-13286
▁vaccination	-13287
ervice	-13288
▁proceeding	-13289
▁Cooperative	-13290
hika	-13291
▁garn	-13292
▁Activ	-13293
▁regulation	-13294
▁EPFO	-13295
▁Squad	-13296
▁couldn	-13297
▁Scientific	-13298
▁00	-13299
yang	-13300
▁14:	-13301
▁Dim	-13302
▁5000	-13303
▁stro	-13304
▁Custom	-13305
▁Visakhapatnam	-13306
anya	-13307
▁ham	-13308
▁Categ	-13309
▁Colin	-13310
▁pillars	-13311
▁felicitated	-13312
-19,	-13313
▁1.2	-13314
▁Shab	-13315
atched	-13316
▁publications	-13317
ulf	-13318
▁9:	-13319
▁ber	-13320
▁satellites	-13321
pora	-13322
▁Vaish	-13323
▁lashed	-13324
▁Taylor	-13325
▁booking	-13326
▁enterprise	-13327
▁uploaded	-13328
▁Hir	-13329
▁ump	-13330
▁legit	-13331
▁thirty	-13332
▁Kor	-13333
▁sorrow	-13334
▁Congrat	-13335
iox	-13336
▁husbands	-13337
▁empowered	-13338
eda	-13339
quer	-13340
itius	-13341
▁Subs	-13342
▁detect	-13343
PI	-13344
GARH	-13345
▁mask	-13346
▁Thane	-13347
▁Tejash	-13348
▁ration	-13349
▁Dik	-13350
▁sporting	-13351
▁ON	-13352
adia	-13353
▁Advocate	-13354
▁protocol	-13355
▁violating	-13356
▁Asaduddin	-13357
▁steady	-13358
▁rejects	-13359
FS	-13360
▁Kend	-13361
▁bureauc	-13362
▁confessed	-13363
▁Fertilizers	-13364
udra	-13365
▁literal	-13366
▁expressing	-13367
▁Wel	-13368
▁Pensions	-13369
▁presents	-13370
▁disbelieved	-13371
▁dating	-13372
▁disclose	-13373
▁expelled	-13374
▁benefited	-13375
▁incorporated	-13376
▁GPS	-13377
▁recognise	-13378
▁Nawazuddin	-13379
AAP	-13380
▁jawan	-13381
▁handic	-13382
▁Mathura	-13383
▁Virbhadra	-13384
▁authorised	-13385
▁Store	-13386
odder	-13387
▁Kochhar	-13388
▁anxiety	-13389
otism	-13390
▁Sach	-13391
▁ownership	-13392
▁Pompeo	-13393
▁RCB	-13394
▁Cases	-13395
▁folder	-13396
▁parallel	-13397
ridi	-13398
▁Los	-13399
▁ONGC	-13400
▁Ramp	-13401
▁haven	-13402
▁cancel	-13403
▁onwards	-13404
June	-13405
▁UGC	-13406
otive	-13407
▁sexually	-13408
Muslim	-13409
▁commits	-13410
▁Advanced	-13411
▁delivering	-13412
▁Vs	-13413
▁Kav	-13414
party	-13415
▁exempl	-13416
ais	-13417
▁Impro	-13418
▁roots	-13419
▁Neither	-13420
▁cyclone	-13421
▁checking	-13422
kin	-13423
▁sweep	-13424
▁comeback	-13425
essing	-13426
▁reliable	-13427
▁FI	-13428
▁instances	-13429
cking	-13430
lined	-13431
▁Swamy	-13432
government	-13433
91	-13434
ointment	-13435
▁laboratories	-13436
▁RS	-13437
pendra	-13438
▁sensit	-13439
▁Turkish	-13440
imp	-13441
▁Appro	-13442
▁trophy	-13443
▁interpretation	-13444
▁Marc	-13445
▁Nehwal	-13446
-13	-13447
BCCI	-13448
▁$1	-13449
drop	-13450
▁tears	-13451
oser	-13452
▁heartfelt	-13453
happ	-13454
▁Oppo	-13455
5)	-13456
▁outcomes	-13457
▁mole	-13458
▁transition	-13459
rell	-13460
▁Siv	-13461
▁iOS	-13462
oop	-13463
esis	-13464
reach	-13465
▁harmful	-13466
▁Dise	-13467
▁Nirbh	-13468
▁Soviet	-13469
▁memorandum	-13470
mate	-13471
▁Romans	-13472
▁JK	-13473
▁Parv	-13474
▁Baloch	-13475
▁parade	-13476
▁err	-13477
▁2011.	-13478
▁allied	-13479
onia	-13480
▁capac	-13481
▁ceremon	-13482
▁stunning	-13483
▁HIV	-13484
▁Vlad	-13485
▁Hassan	-13486
▁Veteran	-13487
▁Commissioners	-13488
▁obst	-13489
▁indef	-13490
▁displ	-13491
▁disrupted	-13492
▁onto	-13493
▁condoled	-13494
▁Knowledge	-13495
▁upro	-13496
▁Things	-13497
▁failing	-13498
▁Pictures	-13499
osa	-13500
udh	-13501
▁Upd	-13502
▁todays	-13503
""""."""	-13504
agn	-13505
asy	-13506
ooter	-13507
▁bridges	-13508
▁deduction	-13509
www	-13510
▁Yeddy	-13511
▁screens	-13512
▁Isa	-13513
▁shad	-13514
▁Works	-13515
▁Naresh	-13516
▁Whoever	-13517
▁reflects	-13518
▁entrusted	-13519
▁DM	-13520
arnagar	-13521
▁decent	-13522
▁denies	-13523
▁publishing	-13524
▁demonstrated	-13525
▁Eat	-13526
▁Wood	-13527
▁Mohit	-13528
▁Mayank	-13529
▁beef	-13530
riages	-13531
▁Tejashwi	-13532
700	-13533
des	-13534
▁rolled	-13535
▁Engineer	-13536
▁Marriage	-13537
▁comprised	-13538
▁conventional	-13539
▁wond	-13540
▁Faith	-13541
oaib	-13542
ported	-13543
▁salaries	-13544
▁commented	-13545
rocities	-13546
▁Puja	-13547
▁menace	-13548
▁elsewhere	-13549
▁transgress	-13550
Ab	-13551
▁Tab	-13552
▁mel	-13553
▁bitter	-13554
▁Competition	-13555
isance	-13556
▁decree	-13557
▁enthusi	-13558
▁seminar	-13559
▁statistics	-13560
▁fo	-13561
▁hardship	-13562
▁elaborate	-13563
That	-13564
▁NCC	-13565
▁Oft	-13566
▁outlook	-13567
9)	-13568
harat	-13569
▁march	-13570
mediate	-13571
▁Bhubaneswar	-13572
▁Pram	-13573
▁tense	-13574
▁slowdown	-13575
▁inspection	-13576
▁nat	-13577
▁plenty	-13578
aimur	-13579
▁Fair	-13580
▁bare	-13581
▁raping	-13582
▁riding	-13583
▁amounting	-13584
▁regulator	-13585
isma	-13586
intal	-13587
▁containment	-13588
AV	-13589
Dep	-13590
▁canal	-13591
▁carrier	-13592
▁outrage	-13593
▁ride	-13594
▁Kharge	-13595
▁somebody	-13596
▁falsehood	-13597
▁abrogation	-13598
▁breat	-13599
▁Afridi	-13600
▁Growth	-13601
▁Terror	-13602
▁contacts	-13603
▁assignment	-13604
Rah	-13605
▁hind	-13606
▁Scripture	-13607
▁progressive	-13608
FA	-13609
ien	-13610
▁EVMs	-13611
ourned	-13612
▁jumped	-13613
▁crown	-13614
▁erupt	-13615
▁2011-12	-13616
▁Janm	-13617
ineeti	-13618
▁triumph	-13619
▁politically	-13620
po	-13621
uts	-13622
▁drain	-13623
itch	-13624
child	-13625
▁Honor	-13626
▁Morcha	-13627
▁buried	-13628
▁crafts	-13629
▁iconic	-13630
▁safely	-13631
minister	-13632
▁Watchtower	-13633
▁odd	-13634
▁Analysis	-13635
ouses	-13636
▁Hars	-13637
▁Picture	-13638
oya	-13639
▁wrath	-13640
▁Schemes	-13641
▁Sut	-13642
▁Khand	-13643
▁Angeles	-13644
▁Yus	-13645
igare	-13646
▁desert	-13647
▁lawful	-13648
▁checked	-13649
ushi	-13650
▁Run	-13651
▁Must	-13652
▁outer	-13653
▁decrease	-13654
▁supervision	-13655
▁15,000	-13656
▁sword	-13657
ANDIGARH	-13658
▁surgical	-13659
shit	-13660
▁Gavaskar	-13661
▁helicopters	-13662
cr	-13663
▁Imp	-13664
atter	-13665
▁unus	-13666
enance	-13667
ige	-13668
▁preval	-13669
▁prevented	-13670
▁taxpayers	-13671
66	-13672
▁Analy	-13673
▁utmost	-13674
ADMK	-13675
▁vain	-13676
▁Francis	-13677
lings	-13678
▁kick	-13679
▁Aaryan	-13680
▁applies	-13681
GP	-13682
ffici	-13683
▁Multi	-13684
▁Meerut	-13685
▁earning	-13686
▁hosting	-13687
illy	-13688
▁12-	-13689
▁Haasan	-13690
▁Sundar	-13691
▁toilet	-13692
▁Rajinder	-13693
▁Guidelines	-13694
▁obligation	-13695
▁Headquarters	-13696
uct	-13697
▁24.	-13698
▁2010,	-13699
▁scenes	-13700
zar	-13701
▁Ut	-13702
March	-13703
amboo	-13704
ubble	-13705
▁glor	-13706
▁Lib	-13707
▁offs	-13708
▁Mauritius	-13709
Tr	-13710
▁McC	-13711
haiya	-13712
▁Says	-13713
▁kidney	-13714
▁longest	-13715
▁governing	-13716
▁Recruitment	-13717
▁buff	-13718
▁twelve	-13719
▁protested	-13720
▁cheap	-13721
▁Sawant	-13722
aint	-13723
▁fasc	-13724
▁landmark	-13725
MW	-13726
ded	-13727
▁Shang	-13728
▁Shoaib	-13729
▁cordoned	-13730
▁exercises	-13731
▁Chok	-13732
▁crashed	-13733
▁discover	-13734
▁Push	-13735
▁Doing	-13736
▁mines	-13737
▁intimid	-13738
amilitary	-13739
▁hospitalised	-13740
▁automatically	-13741
ston	-13742
▁ISI	-13743
utors	-13744
▁query	-13745
▁Kajol	-13746
▁Chavan	-13747
▁acceptance	-13748
▁exceptional	-13749
▁grade	-13750
▁Chandrach	-13751
eri	-13752
hah	-13753
▁cheque	-13754
▁secretaries	-13755
▁Point	-13756
▁swear	-13757
▁Termin	-13758
▁helmed	-13759
icular	-13760
▁Glenn	-13761
viously	-13762
▁Baroda	-13763
▁granting	-13764
ARD	-13765
▁Chaw	-13766
▁noise	-13767
▁awaiting	-13768
rous	-13769
▁Manu	-13770
▁Kalam	-13771
▁Lakshmi	-13772
▁=	-13773
▁PU	-13774
▁blog	-13775
ablish	-13776
▁Suhana	-13777
▁circle	-13778
▁confront	-13779
▁Parineeti	-13780
▁AR	-13781
▁wider	-13782
▁gearbox	-13783
▁periods	-13784
▁Andrew	-13785
Speaking	-13786
▁Shreyas	-13787
92	-13788
Nm	-13789
▁Tam	-13790
▁Laxman	-13791
▁patrol	-13792
gree	-13793
▁Accounts	-13794
▁Republican	-13795
▁FC	-13796
akti	-13797
▁Bhan	-13798
arding	-13799
ensely	-13800
▁Flood	-13801
▁plate	-13802
▁rocket	-13803
bbl	-13804
anki	-13805
▁explanation	-13806
urbed	-13807
▁wards	-13808
▁cultures	-13809
▁misleading	-13810
▁chemicals	-13811
▁collections	-13812
▁Sukhbir	-13813
▁compulsory	-13814
▁probed	-13815
▁wronged	-13816
▁replacement	-13817
bhp	-13818
aramaiah	-13819
igilance	-13820
▁credited	-13821
▁organism	-13822
yc	-13823
▁Ear	-13824
▁Naj	-13825
▁fame	-13826
▁Bridge	-13827
▁curfew	-13828
▁recompense	-13829
HD	-13830
▁INX	-13831
affected	-13832
▁Dial	-13833
▁Moscow	-13834
▁organizing	-13835
▁pilgrimage	-13836
▁107	-13837
▁Khurrana	-13838
oors	-13839
umbent	-13840
▁charity	-13841
▁sequence	-13842
IDS	-13843
Jan	-13844
SEs	-13845
▁voc	-13846
▁nodal	-13847
▁Gab	-13848
igate	-13849
raine	-13850
▁removing	-13851
rist	-13852
▁25.	-13853
▁Freedom	-13854
▁organising	-13855
▁bon	-13856
▁sham	-13857
fitting	-13858
▁Fans	-13859
▁incentives	-13860
ums	-13861
▁Drinking	-13862
cor	-13863
▁deliberations	-13864
▁(10	-13865
nekar	-13866
vency	-13867
▁Daily	-13868
▁missiles	-13869
bek	-13870
▁Put	-13871
▁suspic	-13872
▁eternal	-13873
▁musical	-13874
▁thunder	-13875
▁shopping	-13876
▁CHANDIGARH	-13877
who	-13878
ange	-13879
▁Bhim	-13880
▁Chir	-13881
▁stern	-13882
▁formats	-13883
▁mindset	-13884
▁Yeddyurappa	-13885
tm	-13886
omach	-13887
▁slams	-13888
▁deserve	-13889
▁Haridwar	-13890
▁Revolution	-13891
arcane	-13892
▁6,000	-13893
▁Jyoti	-13894
▁curric	-13895
▁comprise	-13896
▁apprehend	-13897
▁evaluation	-13898
ologists	-13899
▁glorious	-13900
▁myst	-13901
(1)	-13902
▁IV	-13903
▁bere	-13904
idency	-13905
▁Portal	-13906
▁pioneer	-13907
lipse	-13908
contin	-13909
▁waiver	-13910
afe	-13911
▁Ox	-13912
▁lung	-13913
▁accus	-13914
▁spite	-13915
ipality	-13916
▁trapped	-13917
▁consultations	-13918
cons	-13919
▁Poor	-13920
▁wholes	-13921
▁lasting	-13922
▁relates	-13923
▁approaches	-13924
rafts	-13925
▁Dhaka	-13926
▁taluka	-13927
▁compound	-13928
▁theatres	-13929
Tal	-13930
rait	-13931
▁Kaul	-13932
▁census	-13933
▁funeral	-13934
▁concentration	-13935
usse	-13936
▁irre	-13937
▁Inder	-13938
▁Latin	-13939
▁conscience	-13940
▁TRS	-13941
▁backs	-13942
▁corona	-13943
▁paired	-13944
▁chipset	-13945
▁Argentina	-13946
otes	-13947
yard	-13948
▁molec	-13949
▁stored	-13950
ographer	-13951
▁tolerance	-13952
▁Aurangabad	-13953
▁Chandrachud	-13954
▁tow	-13955
▁rect	-13956
ensing	-13957
ponding	-13958
▁Testing	-13959
▁Hundreds	-13960
▁Jayalalithaa	-13961
PCL	-13962
vals	-13963
▁13-	-13964
▁Jaya	-13965
▁Tandon	-13966
▁hoping	-13967
▁Present	-13968
▁restoration	-13969
▁FIF	-13970
However	-13971
citation	-13972
▁painting	-13973
▁foreigners	-13974
▁CSK	-13975
isers	-13976
▁hung	-13977
▁cruel	-13978
▁basket	-13979
▁Reforms	-13980
overs	-13981
▁Electoral	-13982
▁logistics	-13983
▁mortality	-13984
▁ABVP	-13985
queline	-13986
▁doubling	-13987
▁tribunal	-13988
▁sorry	-13989
▁Sudhir	-13990
▁astron	-13991
▁conflic	-13992
ensed	-13993
▁Ashw	-13994
▁Maurya	-13995
▁kilogram	-13996
iba	-13997
rey	-13998
▁ped	-13999
alia	-14000
▁Access	-14001
▁capture	-14002
▁inconvenience	-14003
▁Muker	-14004
▁shells	-14005
▁virtue	-14006
▁inspector	-14007
rus	-14008
▁Ratan	-14009
▁naval	-14010
▁quintal	-14011
▁vacation	-14012
▁amenities	-14013
▁8:	-14014
▁Gaz	-14015
▁Jak	-14016
▁Kom	-14017
acher	-14018
▁kits	-14019
▁throne	-14020
▁vaccines	-14021
▁designs	-14022
32	-14023
herent	-14024
▁reminded	-14025
▁negligence	-14026
▁arbitration	-14027
▁compare	-14028
▁Kun	-14029
▁Stan	-14030
▁cluster	-14031
▁extends	-14032
▁Connectivity	-14033
▁consistently	-14034
bank	-14035
▁sar	-14036
oward	-14037
▁Vers	-14038
▁loud	-14039
▁losers	-14040
▁printing	-14041
▁treating	-14042
▁preventive	-14043
6)	-14044
▁08	-14045
▁Rupani	-14046
▁Bair	-14047
irbhar	-14048
▁holistic	-14049
▁affiliated	-14050
iso	-14051
▁Fut	-14052
▁Saxena	-14053
friendly	-14054
▁Ministerial	-14055
▁essentially	-14056
▁Presidential	-14057
▁para	-14058
▁Qatar	-14059
▁Roads	-14060
vernight	-14061
icity	-14062
▁fortun	-14063
▁Bathinda	-14064
▁campaigns	-14065
▁Oman	-14066
ressal	-14067
likely	-14068
▁Provided	-14069
ao	-14070
gor	-14071
▁31.	-14072
▁liberty	-14073
▁Nevertheless	-14074
▁erad	-14075
▁deity	-14076
▁linking	-14077
▁Attorney	-14078
▁presenting	-14079
20,	-14080
rama	-14081
▁Boy	-14082
▁Rub	-14083
▁Shyam	-14084
▁prophets	-14085
▁Neha	-14086
▁Leone	-14087
▁William	-14088
▁pleasant	-14089
▁solidarity	-14090
IDAI	-14091
atta	-14092
▁Karthik	-14093
arsi	-14094
▁cultivation	-14095
▁6.3	-14096
▁Cities	-14097
▁banner	-14098
▁Standing	-14099
▁Sabar	-14100
▁Unity	-14101
▁Embassy	-14102
▁hitting	-14103
▁watched	-14104
▁applicant	-14105
su	-14106
ibe	-14107
▁classical	-14108
Act	-14109
December	-14110
▁Ashutosh	-14111
▁briefing	-14112
▁encompass	-14113
▁prosperous	-14114
▁facilitating	-14115
ulpt	-14116
▁spo	-14117
▁Wire	-14118
▁palm	-14119
▁coaching	-14120
orse	-14121
▁Josh	-14122
?'	-14123
▁Yusuf	-14124
▁dairy	-14125
▁castes	-14126
▁allowance	-14127
▁Electronic	-14128
▁450	-14129
People	-14130
▁combine	-14131
unicipality	-14132
icon	-14133
▁freely	-14134
▁orp	-14135
▁Mugh	-14136
▁Zafar	-14137
▁wings	-14138
ivestock	-14139
▁Veer	-14140
▁productive	-14141
▁responding	-14142
▁Dif	-14143
▁Adil	-14144
▁Mani	-14145
walior	-14146
▁hiked	-14147
▁habits	-14148
▁matern	-14149
▁repeat	-14150
▁accommodation	-14151
▁Ross	-14152
▁exha	-14153
▁resil	-14154
▁interface	-14155
▁prospects	-14156
▁Coun	-14157
▁Mong	-14158
▁enormous	-14159
▁presidents	-14160
ugs	-14161
angal	-14162
▁Users	-14163
▁Berlin	-14164
▁Taimur	-14165
▁Maxwell	-14166
▁surrender	-14167
▁trem	-14168
▁Sanju	-14169
▁Keeping	-14170
▁Tit	-14171
eevan	-14172
▁haz	-14173
▁Prim	-14174
▁Khadi	-14175
▁Corruption	-14176
acts	-14177
▁Gaurav	-14178
Oct	-14179
rec	-14180
▁eggs	-14181
▁Starc	-14182
▁Pednekar	-14183
▁breathing	-14184
▁LoC	-14185
▁Netaji	-14186
inh	-14187
▁unne	-14188
▁Girls	-14189
▁borne	-14190
▁colleague	-14191
▁1.3	-14192
hansi	-14193
▁Filmfare	-14194
▁defeating	-14195
,...	-14196
fits	-14197
▁Soha	-14198
▁TCS	-14199
▁spots	-14200
olvency	-14201
▁raises	-14202
▁filling	-14203
▁differently	-14204
▁(3)	-14205
aware	-14206
▁Siddaramaiah	-14207
▁Category	-14208
▁describes	-14209
hag	-14210
bind	-14211
oric	-14212
wada	-14213
▁dish	-14214
▁thro	-14215
▁prepaid	-14216
▁mutually	-14217
▁economically	-14218
▁observations	-14219
non	-14220
▁23.	-14221
▁Rif	-14222
▁pink	-14223
▁teleph	-14224
▁reminder	-14225
holder	-14226
▁mentally	-14227
▁bulk	-14228
▁Kiren	-14229
▁dealers	-14230
▁insisted	-14231
▁fulfilling	-14232
▁Vivekananda	-14233
EM	-14234
iac	-14235
quire	-14236
▁assume	-14237
▁shalt	-14238
itative	-14239
▁fodder	-14240
▁Wa	-14241
▁Strict	-14242
▁Brothers	-14243
▁Field	-14244
▁Nature	-14245
▁Prepar	-14246
▁extrad	-14247
▁fibre	-14248
building	-14249
▁Windows	-14250
▁enables	-14251
▁22.	-14252
agarh	-14253
▁Bills	-14254
▁palace	-14255
▁sew	-14256
▁Menon	-14257
▁Chaudh	-14258
▁Vehicle	-14259
▁emissions	-14260
reek	-14261
▁Thr	-14262
▁Bhoj	-14263
▁Call	-14264
▁bribe	-14265
November	-14266
▁Savarkar	-14267
▁Subramanian	-14268
▁1950	-14269
garwal	-14270
▁25,000	-14271
▁hostel	-14272
▁Football	-14273
▁locality	-14274
opsy	-14275
▁188	-14276
▁Ton	-14277
▁abst	-14278
▁persu	-14279
▁Belgium	-14280
▁anonym	-14281
aras	-14282
▁spring	-14283
▁decides	-14284
▁Jacqueline	-14285
-8	-14286
▁trop	-14287
▁casualty	-14288
▁poem	-14289
▁betray	-14290
▁revival	-14291
▁Domestic	-14292
▁Transfer	-14293
▁installation	-14294
Shiv	-14295
▁lyn	-14296
▁spr	-14297
▁Jere	-14298
▁mans	-14299
▁Balak	-14300
▁AIADMK	-14301
▁refuse	-14302
▁thrust	-14303
▁aver	-14304
▁operates	-14305
door	-14306
▁Sonu	-14307
▁cows	-14308
abaddi	-14309
▁Jackie	-14310
▁spiritually	-14311
▁Representatives	-14312
inkya	-14313
▁yours	-14314
▁salute	-14315
▁securities	-14316
▁Phot	-14317
▁SAARC	-14318
▁deleted	-14319
▁gearing	-14320
▁Kanhaiya	-14321
▁Ranjit	-14322
▁persecution	-14323
▁Ce	-14324
▁RK	-14325
▁Ara	-14326
▁adm	-14327
▁bars	-14328
▁30,000	-14329
▁deprived	-14330
▁examining	-14331
▁Indi	-14332
▁Lash	-14333
▁Osc	-14334
▁mood	-14335
▁neighbor	-14336
File	-14337
▁2007,	-14338
▁vitamin	-14339
▁computed	-14340
CL	-14341
Sec	-14342
bad	-14343
▁pipeline	-14344
▁multilateral	-14345
▁900	-14346
▁SCO	-14347
▁corre	-14348
▁Mandal	-14349
▁Prabhas	-14350
▁rejoice	-14351
third	-14352
▁tail	-14353
▁stuff	-14354
▁05	-14355
umps	-14356
▁Vig	-14357
▁Ekta	-14358
▁Pack	-14359
▁Villiers	-14360
▁lob	-14361
▁Resc	-14362
▁2010.	-14363
▁adul	-14364
▁guys	-14365
▁hydro	-14366
▁attributed	-14367
rane	-14368
▁Need	-14369
▁Large	-14370
▁obligations	-14371
▁shareholders	-14372
▁Waq	-14373
▁Parkash	-14374
▁Protests	-14375
▁interfere	-14376
▁Hal	-14377
▁Biden	-14378
▁doers	-14379
▁Sabarimala	-14380
▁5.5	-14381
Asked	-14382
icitor	-14383
▁tribe	-14384
▁nurt	-14385
▁evacuated	-14386
▁Atul	-14387
▁Taran	-14388
▁Vigilance	-14389
▁capacities	-14390
oconut	-14391
ranath	-14392
▁Range	-14393
▁antib	-14394
▁trucks	-14395
▁accomplish	-14396
comp	-14397
ierce	-14398
▁leaf	-14399
ighter	-14400
▁Ajinkya	-14401
▁Student	-14402
▁profound	-14403
▁meaningful	-14404
opp	-14405
▁PPP	-14406
▁climb	-14407
▁Gwalior	-14408
▁panchay	-14409
▁departed	-14410
▁KKR	-14411
stone	-14412
▁Exerc	-14413
▁Bodies	-14414
▁informal	-14415
▁departure	-14416
▁1.4	-14417
▁Ghat	-14418
▁attracted	-14419
▁perception	-14420
▁Ker	-14421
▁Heat	-14422
licted	-14423
▁Nanda	-14424
▁Taiwan	-14425
▁Vijayan	-14426
▁females	-14427
▁saddened	-14428
▁Districts	-14429
▁prophecy	-14430
34	-14431
▁Jhansi	-14432
▁Within	-14433
▁accounting	-14434
▁30-	-14435
▁Castes	-14436
▁titles	-14437
▁avoided	-14438
▁(1%	-14439
▁Lee	-14440
▁Kumb	-14441
▁depict	-14442
▁reduces	-14443
▁upgrade	-14444
▁ordinance	-14445
oler	-14446
▁Sandhu	-14447
▁HP	-14448
▁Corp	-14449
▁Ramdev	-14450
▁NASA	-14451
▁lord	-14452
▁reads	-14453
▁clothing	-14454
▁Technologies	-14455
ISF	-14456
▁Soft	-14457
repreneur	-14458
▁decreased	-14459
▁corporations	-14460
unals	-14461
▁Nine	-14462
▁Spokes	-14463
▁measured	-14464
▁advertise	-14465
▁circulation	-14466
▁Ni	-14467
▁Hom	-14468
irpur	-14469
rekar	-14470
▁revive	-14471
imir	-14472
▁caption	-14473
▁Monitoring	-14474
▁companions	-14475
BSE	-14476
▁FOR	-14477
▁synt	-14478
▁frequent	-14479
▁topics	-14480
etu	-14481
▁Save	-14482
aining	-14483
▁Poonam	-14484
▁Scientists	-14485
▁expandable	-14486
▁spons	-14487
▁miscon	-14488
Pacific	-14489
largest	-14490
▁donated	-14491
▁variable	-14492
forced	-14493
▁Property	-14494
bsp	-14495
rior	-14496
▁org	-14497
▁PSUs	-14498
▁desir	-14499
▁liable	-14500
▁Dikshit	-14501
Le	-14502
arna	-14503
vement	-14504
▁Million	-14505
▁Il	-14506
▁Weather	-14507
▁Muzaffarnagar	-14508
▁cried	-14509
▁Records	-14510
▁salvation	-14511
Pad	-14512
▁1961	-14513
▁Mata	-14514
▁treaty	-14515
▁posters	-14516
▁quantum	-14517
▁Tus	-14518
▁shame	-14519
Ma	-14520
▁Karti	-14521
ertilizer	-14522
▁confined	-14523
▁benchmark	-14524
▁detection	-14525
▁superintendent	-14526
▁cos	-14527
▁Hemant	-14528
▁contrad	-14529
▁Aggarwal	-14530
kel	-14531
▁Khel	-14532
▁Sheh	-14533
▁2014-15	-14534
▁Shanghai	-14535
Shri	-14536
▁170	-14537
▁ideals	-14538
▁expects	-14539
▁Payments	-14540
jar	-14541
ainted	-14542
▁Karisma	-14543
▁hygiene	-14544
▁overnight	-14545
▁lyrics	-14546
▁vibrant	-14547
▁assaulted	-14548
▁mechanisms	-14549
▁exploration	-14550
.65	-14551
▁Radh	-14552
▁Chawla	-14553
▁hypocrit	-14554
▁incumbent	-14555
▁applicants	-14556
Gs	-14557
gin	-14558
▁Ananya	-14559
▁Estate	-14560
▁missions	-14561
▁Anniversary	-14562
VC	-14563
▁ITC	-14564
iller	-14565
▁Anna	-14566
Captain	-14567
▁desper	-14568
▁Chatter	-14569
)-	-14570
▁Ford	-14571
▁lunar	-14572
▁ft	-14573
▁Emir	-14574
▁spir	-14575
▁blank	-14576
division	-14577
▁embarrass	-14578
▁precaution	-14579
def	-14580
.2015	-14581
▁Ship	-14582
▁02	-14583
▁onions	-14584
▁icon	-14585
▁motive	-14586
aki	-14587
▁124	-14588
net	-14589
▁Ras	-14590
▁sib	-14591
rained	-14592
▁favourable	-14593
▁Lady	-14594
▁noble	-14595
assi	-14596
▁Nich	-14597
▁diverted	-14598
avat	-14599
ovic	-14600
▁Coord	-14601
▁vessel	-14602
▁varieties	-14603
rix	-14604
▁merged	-14605
▁inaugurates	-14606
pad	-14607
mother	-14608
▁Nizam	-14609
icating	-14610
▁accomplished	-14611
▁Answ	-14612
▁Digvijaya	-14613
▁substantially	-14614
hiya	-14615
▁fishing	-14616
▁classified	-14617
▁Narm	-14618
▁ought	-14619
▁Cancer	-14620
▁AN	-14621
▁unex	-14622
▁worthy	-14623
▁06	-14624
onel	-14625
While	-14626
▁bears	-14627
▁ridic	-14628
▁bounty	-14629
▁merciful	-14630
▁Kur	-14631
▁vel	-14632
▁owns	-14633
▁alarming	-14634
▁befitting	-14635
▁illegally	-14636
.60	-14637
iana	-14638
▁Neel	-14639
▁summons	-14640
▁sedition	-14641
awe	-14642
▁Story	-14643
▁lesser	-14644
▁teh	-14645
▁Paras	-14646
▁revelation	-14647
▁Hab	-14648
Harsh	-14649
fight	-14650
hetra	-14651
▁tables	-14652
▁dancing	-14653
▁immunity	-14654
▁intensity	-14655
azar	-14656
▁Nirbhaya	-14657
▁litigation	-14658
clave	-14659
▁Scot	-14660
bourne	-14661
retion	-14662
▁refin	-14663
▁Making	-14664
▁lifetime	-14665
▁maturity	-14666
▁envisaged	-14667
▁PRO	-14668
▁inducted	-14669
orest	-14670
▁Scott	-14671
ikarjun	-14672
▁exporters	-14673
▁CG	-14674
hang	-14675
▁Charan	-14676
irsa	-14677
▁boun	-14678
▁Wasim	-14679
▁fairly	-14680
-30	-14681
inem	-14682
ubilee	-14683
▁unfair	-14684
▁recoveries	-14685
▁Eden	-14686
vinder	-14687
▁enact	-14688
▁Groups	-14689
▁defect	-14690
▁nationalism	-14691
Who	-14692
▁Cad	-14693
engue	-14694
▁Library	-14695
▁computers	-14696
▁dominated	-14697
▁sir	-14698
▁epid	-14699
▁Trumps	-14700
▁copper	-14701
EP	-14702
car	-14703
▁bore	-14704
▁influential	-14705
sore	-14706
▁Jul	-14707
▁Nas	-14708
▁Dwar	-14709
▁abode	-14710
▁fluid	-14711
▁analys	-14712
▁funded	-14713
▁ignore	-14714
▁Narmada	-14715
▁disabled	-14716
▁deliberate	-14717
▁meals	-14718
Cor	-14719
rao	-14720
▁Pract	-14721
▁tempor	-14722
▁Masters	-14723
▁streams	-14724
▁Physical	-14725
▁structural	-14726
▁Padm	-14727
lation	-14728
▁cancellation	-14729
▁Uz	-14730
▁Grant	-14731
▁Senate	-14732
▁slaves	-14733
▁surpass	-14734
abwe	-14735
.2014	-14736
▁Shane	-14737
▁tries	-14738
October	-14739
▁varied	-14740
cam	-14741
▁Ask	-14742
▁nose	-14743
▁Terrorism	-14744
▁policeman	-14745
▁03	-14746
etus	-14747
phal	-14748
▁FIFA	-14749
▁Rece	-14750
▁Kunal	-14751
▁unlikely	-14752
▁Manufacturing	-14753
quiring	-14754
▁Pragya	-14755
▁Mallikarjun	-14756
Cha	-14757
▁512	-14758
▁upgradation	-14759
asth	-14760
iances	-14761
▁thoroughly	-14762
bus	-14763
▁10%	-14764
Rahul	-14765
odara	-14766
▁irrespective	-14767
stri	-14768
▁Rock	-14769
▁chopped	-14770
▁controlling	-14771
▁VP	-14772
▁dyn	-14773
▁hav	-14774
▁Study	-14775
▁partnerships	-14776
▁09	-14777
▁humb	-14778
▁shots	-14779
▁sab	-14780
acked	-14781
▁Fram	-14782
▁obser	-14783
▁preach	-14784
▁prolong	-14785
atre	-14786
▁clouds	-14787
▁crying	-14788
▁Amarnath	-14789
▁urges	-14790
autions	-14791
▁Palace	-14792
▁directorial	-14793
IMD	-14794
▁Pauls	-14795
NH	-14796
▁Norm	-14797
▁pose	-14798
▁Jyotir	-14799
▁paramilitary	-14800
▁Empire	-14801
▁Thanks	-14802
▁Vallabh	-14803
▁FM	-14804
ocity	-14805
▁intr	-14806
▁Bhard	-14807
▁parks	-14808
▁resumed	-14809
▁somewhat	-14810
▁versions	-14811
▁thermal	-14812
but	-14813
eath	-14814
▁Season	-14815
▁sculpt	-14816
▁recharge	-14817
▁spinners	-14818
▁187	-14819
▁endure	-14820
▁Message	-14821
▁Nishank	-14822
▁manpower	-14823
▁prevailed	-14824
▁Initiative	-14825
▁shr	-14826
▁Pramod	-14827
Mohammed	-14828
gradation	-14829
▁championship	-14830
▁Ok	-14831
▁Sel	-14832
▁oun	-14833
▁Saul	-14834
▁misuse	-14835
▁topped	-14836
▁intensified	-14837
▁Stu	-14838
accept	-14839
▁Schol	-14840
▁Choksi	-14841
▁miscre	-14842
▁similarly	-14843
▁assailants	-14844
▁1996	-14845
urshid	-14846
uctions	-14847
▁autopsy	-14848
/201	-14849
▁(19	-14850
▁Uma	-14851
gone	-14852
▁175	-14853
▁Rap	-14854
atoes	-14855
▁loses	-14856
▁Vladimir	-14857
asin	-14858
irms	-14859
▁Kev	-14860
▁mock	-14861
▁defending	-14862
▁kilometers	-14863
erk	-14864
▁ox	-14865
olved	-14866
▁Lashkar	-14867
haring	-14868
▁voices	-14869
▁GP	-14870
Islam	-14871
▁veter	-14872
▁overwhelming	-14873
LV	-14874
Mar	-14875
ithm	-14876
peror	-14877
▁Ober	-14878
▁shooter	-14879
▁stomach	-14880
▁3-	-14881
uits	-14882
▁Laws	-14883
▁vandal	-14884
▁Gurdwara	-14885
▁beside	-14886
▁flagged	-14887
▁DS	-14888
burg	-14889
oren	-14890
▁landsc	-14891
▁switch	-14892
▁genetic	-14893
▁refresh	-14894
▁clusters	-14895
Te	-14896
SBI	-14897
kara	-14898
▁Gita	-14899
▁inch	-14900
icians	-14901
▁hospitality	-14902
sa	-14903
▁alike	-14904
heastern	-14905
▁refuses	-14906
▁steadfast	-14907
Add	-14908
urg	-14909
▁112	-14910
ignment	-14911
▁identifying	-14912
▁Dia	-14913
▁Musa	-14914
▁angu	-14915
▁pour	-14916
▁Bhardwaj	-14917
▁VV	-14918
▁NGO	-14919
▁Seva	-14920
▁Vidyal	-14921
▁pricing	-14922
▁Dw	-14923
astar	-14924
itudes	-14925
▁Ajmer	-14926
list	-14927
ograp	-14928
onder	-14929
urvedi	-14930
▁eagerly	-14931
▁juice	-14932
▁Goswami	-14933
▁rightly	-14934
▁smoking	-14935
▁proposes	-14936
▁ambulance	-14937
▁struggling	-14938
▁dip	-14939
▁Vigyan	-14940
▁rendering	-14941
▁IIM	-14942
▁eco	-14943
▁Aziz	-14944
▁excise	-14945
▁suspicion	-14946
▁mills	-14947
▁levied	-14948
▁ASI	-14949
▁appointments	-14950
▁interference	-14951
roll	-14952
▁employer	-14953
erts	-14954
▁Dos	-14955
▁Karnal	-14956
▁IST	-14957
▁cub	-14958
▁Zimb	-14959
▁doct	-14960
through	-14961
▁circulated	-14962
▁Age	-14963
irts	-14964
▁Units	-14965
▁Diljit	-14966
▁ceiling	-14967
46	-14968
ova	-14969
▁Toy	-14970
▁slot	-14971
adeshi	-14972
erting	-14973
marked	-14974
▁stray	-14975
▁Crores	-14976
[...]
